layers 7
layer 0 Dense
20 20
[ -0.14064358878559305 -0.4182031259490635 -0.37874483306866763 -0.015918000928409694 -0.04624417613555786 0.012834668788147856 0.5281754766614177 -0.4782176996130607 -0.03930305945681714 -0.48397478938233657 -0.6570466499506271 0.33021559799854716 -0.07969645081847902 -0.2622591109271326 0.8492070094936981 0.5787183069737117 -0.4568710199147892 -0.4102335533531252 -0.6871512136618009 0.055737302051376114 ]
[ -0.3656651354256479 -0.0948179785705062 -0.1414592758764882 -0.3179911688520149 -0.38295949007470914 -0.12101262902950916 -0.2675148179715689 -0.2690022421375674 -0.09069601137091808 0.35890224373926083 -0.1307641931033484 0.21989299144010382 -0.21278398871711285 0.13054603498342107 0.030569218843476267 0.34914428089355926 -0.07845090692206799 0.3278321610991594 0.36491181324992905 0.048540344594028145 ]
[ -0.1153628757733679 -0.0478081064599706 0.3789968656379449 -0.041887797101870364 -0.28918822330008365 -0.2604784325169634 0.15430974120199392 -0.064750273561318 -0.2120027455047564 0.0751208965980091 0.16623443813423092 0.2365478294866239 0.2555092775765451 0.01802641775515452 0.1558298565814577 0.16169237656309415 -0.32906407535328336 0.3297732932829985 -0.17195959080502649 -0.23794245763652394 ]
[ 0.2509885710292785 -0.4894462289727353 -0.34641957865800094 -0.24604398768967095 -0.21885732441649844 -0.09613290657295957 0.18456072721005765 -0.5531605402141032 0.19305774153938154 -0.07767607533963766 0.029345766292958916 0.35858030537694574 0.2629166616759189 0.010364564467720877 0.27134613131486524 -0.29914978173134643 0.050732368042645734 0.10226095364084709 -0.4261331140099823 -0.33874465503831935 ]
[ -0.49225063225062404 -0.44732861001483687 -0.4711103679483884 0.20360683311717379 0.9950450209482103 0.1896877481727121 0.5049539511950486 -0.26191694581753205 -0.5743102458401588 -0.1287506376591395 -0.09239265485959802 0.4503435921595372 -0.0440332951200728 -0.14476817027318534 0.27949002537131196 0.9728710402650714 -0.7745668966843751 0.6541612177111399 -0.9938521604659498 -0.8206922131916631 ]
[ -0.18110938819853784 -0.3190556650613466 -0.0656635583879797 0.15708871646639913 0.17135333812739584 0.16610142934476158 0.3607576387607647 0.2770571812434018 0.002134671317780925 0.2442475714160751 0.37640214750993195 0.3065139466113827 0.202924698457938 0.16940573606303774 0.1266501409741996 -0.21864754540687406 0.08363100171343804 0.28382624310588095 0.1678946600291429 -0.1409513124410078 ]
[ -0.23064831372806632 0.215240476809673 -0.08985847126252065 -0.3634667001681469 -0.11072337201816013 0.36020316851690776 0.14903962761789658 0.1390771432730212 0.25952194403114465 0.2930337994838164 0.37647712515827225 -0.3002714509933527 -0.1008364967438586 -0.35639095901042506 -0.20493245407505642 0.20752142089335107 -0.304273555610058 0.200823525795207 -0.008879727707981714 0.28745779977284885 ]
[ -0.1592398790602511 0.05409197571398974 -0.07409137152138058 0.37560388299292624 -0.0475606879621306 0.3469340882033525 -0.5601143342020343 0.7617627261125663 0.026005904996708223 -0.13677238944615439 0.5812682747206653 0.5049631471531427 -0.5003062753710025 0.17454105975383089 -0.05898559128814925 -0.15185513652383 0.20407771487021764 -0.3685001060315476 0.7464188313713731 0.9686852070518709 ]
[ -0.4679914835870947 -0.24281470418002019 0.32843700906398665 0.5860288002266001 0.7056442226265797 0.03380823267005049 0.8472800144178467 0.4272294250464644 -0.3336069790799754 0.8062838453811193 0.31908118732577556 0.5454083820736069 0.18103840608609326 -0.18142668454463776 0.23225788628188987 0.43553214980035443 -0.6967511473931843 0.10979007279074363 0.4295745743047237 0.814999607732491 ]
[ 0.5346650093420285 0.4236819435843503 0.43709334412417655 0.5312777242431181 0.38837400255595017 -0.43319783569977593 -0.7719926608535361 -0.13347350178974102 0.38786662740020544 -0.7114972420527329 -0.02135734377868196 -0.9601365300095195 -0.1430854055724234 0.13235204348549204 -0.1716686450654873 0.6312580146706187 -0.03905786765116925 -0.09460933426327481 -0.22263372853347685 -0.19208499853991934 ]
[ -0.44043970249851044 0.37113768987457835 0.17598428196244437 -1.1853440792248875 -1.1156887347109397 -0.3333450230732098 -0.22652432638038877 0.07938843909627319 -0.5335904368544686 0.12606043509612383 0.3615708631971062 -0.1126318029008565 -0.18124566648020243 0.12396070495367345 -0.0795127673183986 0.6435850689417276 -0.5594869839945639 -0.49489940915742126 -0.5013211479515662 -0.013483876634915548 ]
[ -0.045687765910252684 -0.22014690583654006 0.012280154129710017 -0.15575254461388077 -0.6739942731581952 -1.9011912487481433 -0.1681515170173873 1.5710658339119281 -0.4934840739907508 -0.8816955073384559 0.7590495728721022 -0.2467663530853487 0.5797908237619108 -0.3978693525806015 0.9257121492457113 -0.350044482018499 0.5081285113659432 0.6813709317688615 0.29052626703057355 -0.13815294265072933 ]
[ -0.6567424833981982 0.18738020621594229 0.6514328903129516 0.7401568952289748 0.7820126515862154 -0.11932670835720176 0.21579166171411904 -0.1254791590471919 0.05708155323043953 0.6329221352196274 -1.0699042938471908 -0.04931990486937537 0.2606377759435412 -0.28382926606588144 -0.4797630128597978 0.8134475965068771 -1.0442822652010662 -0.39719599526352223 0.06324581783631743 0.28532833090908827 ]
[ -0.5422311868332857 -1.0435243708572255 0.9440006109657033 0.3241757981365729 -0.9740370047337877 -0.5807284902355466 0.24645454407625936 -0.07629726922887843 0.10085846288052167 0.05405897831422148 0.034548344016487285 0.7182779276932383 0.2224942992889907 0.5030746426307592 0.403078928379375 0.19680205831908384 0.8672522166412631 -0.38266638684966525 -0.32933199502568755 -0.8037103728635109 ]
[ 0.7795595083565958 -0.49447231420267096 0.2777797641937938 0.16893189890431262 -0.10216986608185422 0.5362279880275104 0.8078755032556988 0.3205117074246319 -0.46128132719807496 -0.16709537606420502 0.25084915130976365 0.44183521043124996 0.7736342066284643 0.3240031686801724 0.09451087870005526 0.26161470887039684 -0.4991990197858541 0.5084902260227745 0.7527152545729411 -0.4401678034560337 ]
[ 0.6436286683096668 0.31902519665227513 -0.694706145621472 0.4507412496856007 0.4384281648701686 0.02175741848125029 0.7951684487592248 1.037386768817167 -0.0968811741108468 0.001272205891583321 -1.4288082507538282 -1.150465563567127 1.2128839740069355 -0.9025102316944692 0.3725610983674057 0.10983129558844022 -0.5527914273974711 -1.570065433265399 -1.0683575535007257 -0.2966762185018396 ]
[ -0.14342031447537296 -0.9531830048665322 -0.8011776475815329 -0.09581769319350064 0.4149220871717398 0.6687878145706784 0.1182439845423654 -0.31535832298088967 -0.08338948394002328 -0.33823954415442065 0.6964578042366077 0.7831107660452454 -0.6013764466968952 0.06305241947833758 1.17618241485535 -0.30621954843050536 -0.30918843377125055 1.1772222193328763 -0.7307716216776792 -1.2906244118968693 ]
[ -0.6552184034890295 -0.11543062153490836 -1.2576889477798463 -0.9378013931921595 0.974519405830705 1.7242091580532817 0.5482952643508332 -0.11960862221649815 -0.5844793717062388 1.761958347326946 0.09923022129415998 0.9989575098787641 0.7503375355819036 -0.6193757536075604 0.3575363191306596 -0.6793640328584655 -0.4029529842504201 0.829943672244213 0.7355757891260476 0.8609548136141347 ]
[ -1.4094111439413786 0.48715228565898683 -0.7348443612957882 1.394647259055545 1.9759485831295815 -0.11209586677458701 -0.6976784100053812 0.15413742663362442 0.896901331857869 -0.11056656310467466 0.09566151556330045 -1.336905620156143 -1.2909031965013702 -0.5622861038181304 0.6672767102005489 -0.5637756316878109 1.226990145089869 -0.7143790159279373 -0.029720899049993064 0.37240036347358096 ]
[ -0.017369965395300006 -0.5381035987241144 0.9336396482894074 0.07119100184736128 -0.2542538188096121 1.1480542662708342 -0.3178041572798451 -0.7427121246402114 0.8297248722086626 0.3153822197767562 0.2600268674467544 1.1086519930230114 -0.9482158533250747 0.1976310036212125 -0.33519119060798674 0.4481466348985591 0.4705278398292315 -0.49116346590269155 0.865894920208097 1.0846620386934733 ]
[ 0.14493338720367516 0.029155443006884517 -0.026574673992808027 -0.14568593606323657 -0.043757702402428496 -0.14102577865264973 0.06050829711230837 -0.3390439587457479 -0.0436780451249332 -0.21210868943647992 -0.2558614835198164 -0.15783117833385954 0.3645176161876632 0.09553084759097233 -0.13674424974134042 -0.2400321001222806 0.006976477633426242 -0.05022023413757599 -0.14511110997566584 -0.1673775296103915 ]
layer 1 Activation
tanh
layer 2 Dense
20 40
[ 0.1453235853431635 0.10810459091910532 0.28293396104545804 -0.39445406228092006 0.2943720619411674 -0.06590613303185641 0.114203035097334 -0.4716987215439176 -0.5346488395708332 -0.08135046717518706 0.3169107127521602 1.1841256758357772 0.19637886076228622 0.22677079005052492 -0.21306492613949762 -0.31699106604489874 0.02918543162965273 -0.167485739235413 0.24661136616814652 0.5456426514937515 0.36430608413230764 0.403489623172066 -0.4365924562931268 0.3809835533113942 0.34507391446066177 -0.2788871200892368 -0.05694724782362061 0.04527772661565848 0.3755093091679624 -0.34346355888795094 -0.901452799099486 0.197191955263987 -0.050107340884266674 -0.1988281786784083 0.28111431079010046 0.19575127516279847 0.21630377845427587 -0.5165818215940755 0.774520891797393 0.11533106934912862 ]
[ -0.12299181924166822 0.2209823513809465 0.27945184257197475 -0.0923415637615299 0.19373136883513864 -0.1994673583194253 0.8241056668139018 -0.6824907665513732 -0.01601293222912243 0.2759459288239133 -0.2468873347428426 -0.18499695553413165 -0.04613137310379349 0.15552535091146136 -0.8008634276768125 0.2975509769489945 -0.12347981654729119 0.1908399057942649 -0.2949217022339793 -0.35320828986494235 0.04124674054094088 -0.2213014831791991 0.2803452586456833 0.4022418287669581 -0.19986788348273385 0.03104067169796209 0.05575670272354695 -0.20782053249591095 -0.3072635926265463 0.10700050853335656 -0.14305450630446134 0.05040262979401144 0.011092298411781406 -0.39698310741018006 0.7745883386810245 -0.43545225945551125 0.22483028913002118 -0.9721339596707468 0.12697348220249022 -0.3980707179796835 ]
[ 0.8311216062213796 -1.1389360602057654 -0.3042802719969237 -0.10393738753770712 -0.3389339178921972 0.1865556361162281 -0.5367965609363228 0.33798781885004026 0.12410508017596114 -0.36325333834317597 0.11002889251411979 -0.13368342804973363 -0.13024206127276683 -0.011407183234794189 -0.2075832539270467 -0.02286088000545556 0.05007046590664564 0.2604654167987081 0.2858393328234286 0.7755936229423167 -0.24775925871182192 -0.27147631476043665 0.2620592844139488 0.2425592333297749 -0.6017172222101961 0.19084485935870668 0.6453077957383576 0.6501736828774599 0.3230856360403729 0.11343033119783502 0.9549888189875811 -0.4227733069562233 -0.03136718835483314 -0.07048473882573623 -0.32339899190854543 -0.33851423452799756 -0.2823769130258995 -0.5642395601039077 0.6292155966744859 0.8849265798059909 ]
[ -0.06356690066949705 -0.08486167064938628 0.099761201566607 -0.19545425108728953 0.560392690041663 0.2970211766384193 -0.06929950856953779 0.28162451843209757 0.39863212134730386 -0.36672544482272584 -0.026190101333953976 -0.2076071248927574 -0.18768854967452653 -0.41073385487142666 0.13467684789967452 0.21030090876278631 -0.1486686714947265 0.26004343297414184 0.025872902146346088 -0.07354605902357758 -0.4805745488177532 -0.30804430594244 -0.13820344836465745 -0.2629905694661476 -0.5478694011526175 -0.20052223502916527 0.5660009057438321 0.6881629710082374 0.6360106048817175 -0.019965383111156615 0.5532436756549445 -0.07134030500637233 -0.09059453204693142 0.05564891125923555 -0.5252474676352841 -0.22716648067353165 -0.05159519812045225 -0.49017975742817865 -0.22147765669311126 0.661521506658469 ]
[ -0.3664092026639719 0.5365331535743143 -0.14582667250254192 0.2999559077490277 0.18014331293726038 -0.023909620658368786 -0.1902058240541137 0.40441480123995666 0.15431220297137063 -0.11206604848339126 -0.18469807434194221 -0.20991995606743394 0.14308781322946487 0.7197894975616498 0.4241641992282168 -0.32983611418097164 -0.14098990176502035 -0.2751884124460813 0.49560383311130507 -0.475814307488295 -0.6850721692232946 0.3068001541049944 0.5106642402078942 0.2859667026713871 -0.12970831466131758 0.6160040001237262 0.33472063589825835 0.9239909994222645 -0.7625933205272027 0.08457756919984699 0.3985365365883255 0.5192201877136949 -0.20114786563768314 0.2265712453156752 -0.7475914674560189 0.13809274878464978 -0.0036616800847464456 0.15236686016920176 -0.6749523765049884 0.06989454177630001 ]
[ 0.24337587848037687 0.6899216129980128 -0.057665642116913524 -0.4566649519202771 0.3622488410304904 0.06617543621010076 -0.10354180906031232 0.3354188951093911 -0.5825701272426449 0.014336667345780776 -0.12478924512010743 -0.18505562524893618 -0.2974396267034865 0.5224454891597345 0.6493266259203291 -0.12349940648943944 -0.09704175964180536 0.31444077119710123 0.139565086013155 0.27191857451722107 0.16722097243478334 -0.6722259054728994 -0.5431025888993856 -0.9010287058344675 -0.2875142243499977 -0.6952443545120124 -0.24933242500906533 0.013944325681865566 0.7622490212387502 -0.4715741433221274 -0.13187662095396122 0.057824911874489356 -0.2992194823213129 0.23872614684713997 0.0842717338761995 -0.21352677438423975 0.2285707814678976 0.3639431865803933 -0.6265828980844631 -0.0914728548062527 ]
[ 0.2962662426826569 -0.1808043810453703 0.3565183493874638 0.24926526380969796 -0.41702040235825705 -0.0916007389839722 -0.29277120350226954 0.6611272096368609 0.04199391612937069 0.6650849047068755 -0.03809965122683445 -0.08323617304507204 0.26487472423995273 -0.4644186222189052 1.113242599302821 -0.7375926306832418 0.07473564956434925 -0.20282048478435233 -0.3389896662069052 0.16612712711014485 -0.44424644532245033 0.03301828464277494 -0.5870431871483633 0.39540283137450344 0.0005808086893217162 0.249942363236034 -0.1566077680944796 0.03502244058071406 0.20019245127984586 0.2988490915315861 -0.7760905544119917 0.3053017102683221 0.19403517300617756 0.24696992195053835 -0.5294230616523379 0.10757798063547044 -0.05727787833024145 0.7370057885897459 0.16845529053392347 -0.23959634914675046 ]
[ 0.47920860318273356 0.6069058488646164 0.1752151147729261 -0.4186754063061961 0.9538426064894816 -0.2524095530088696 0.33836197178616745 -0.5968156376740468 -1.0539341687663697 -0.36916725325771754 -0.39505895600781415 -0.44127222786039155 0.16545396945910193 -0.7418350358959733 -1.2190941912230906 -0.6127866120678553 -0.18040764794296044 -0.5798960741153932 -0.4138863818050341 0.6033228616079938 0.596172465513802 -0.8018174291504685 -0.6100208478701956 -0.3496504177576171 -0.7046965636072816 -0.7243783204068832 -1.4573715741596447 -0.6299221809682967 -0.04260841435156448 -0.13585482618253858 -0.875677372827958 -0.45116863504236276 0.12254672131889988 0.3559894237074576 0.328538715710581 -0.7107499774035412 0.4350612900351241 0.8977286350053382 0.4227857825046974 0.120692680889891 ]
[ -0.7884215608823917 -0.04057032613888453 -0.17586935751587274 0.07953453594188269 0.3662661215587134 -0.20163754268674747 0.15717773651240882 -0.0655326382025907 0.13309871204711002 -0.05817484727494418 -0.07478714673943006 0.1983995439515313 0.13027766193421164 -0.2081348544849562 -0.05183117928489139 0.13339585044827887 0.031572983746579554 -0.37677555345271546 -0.05634154115665593 0.4121482871194614 -0.32928809607136456 -0.1047847941914015 0.22390560463452977 -0.39369150293791144 0.3658004834852206 -0.00039379613827864794 0.3892709778421878 0.6833028044301289 0.13464424977031145 0.029904788474039216 0.49164018406037213 -0.6320986253201926 0.09206009908618265 0.03846883147961011 0.09078520694690471 0.32794320003412725 -0.08835716758477744 -0.22363075718625772 -0.4984070821950883 0.009461426804829238 ]
[ -0.3075200082978818 -0.06476589544136588 0.1349313887551263 0.2993679068232649 -0.4047877984804037 0.1891238986506083 -0.42952257278331873 0.3599381769758373 0.0073036378572692824 0.37160335439309194 -0.19406941161130897 -0.3988472683947309 -0.5841977427929819 -0.1522226541254448 0.38018191043658295 -0.13583144278481485 0.3589652046062835 0.38516635540144367 -0.31634652306719435 -0.13996830623146994 -1.0045696869163911 -0.005161965544216012 -0.026645534113541543 -0.22069504220474415 -0.5728082388761165 0.5462737240258683 0.6861001136329418 -0.2614829630590475 -0.1845964948226415 -0.45213599285187317 0.11385627917055982 0.2378593440022074 -0.24280680898519166 -0.20908998280620497 -0.09440360674363205 -0.7763538288673546 -0.28775002825514556 0.08701169421690043 -0.3185455405129329 0.018534448148829322 ]
[ 0.003411302580885645 0.32708141675672037 -0.2918275847100439 -1.1306912701736491 0.44305060488808906 0.034332460286616816 -0.18675921117447142 -0.46157309327348456 -0.2311722677550903 0.5805748685005805 0.141821147464584 -0.5229318590044566 0.04300838302444735 -0.3899750021266465 -0.279444762960674 0.7439226217865705 0.025618209586084555 -0.5298242254279171 1.4658591269350125 1.290584972095323 0.7011440832356703 -0.6433504913447853 -0.682128905042411 -0.24086851344730573 -0.5884153275978742 -0.5850459973400749 -0.9558910180360851 -1.4244136350184156 -0.4088736114193378 0.1524514919979451 -0.5037339901659688 -0.29204366042166424 -0.40232542436499424 -0.27853893518966427 0.3292577906349676 -0.038798570966012975 0.033213344747770754 -0.1307042323495368 0.30423267621285216 -0.08863294544128224 ]
[ -0.3680748625024923 -0.10909295123941853 0.08733852473246995 0.2039859261765648 0.16849015636446688 0.08141265571948378 -0.8822817964124755 0.685344654337697 -0.03989917169610001 0.20097258509996088 -0.16128808510534376 0.18167005170416742 -0.541749872251216 0.012706968942758759 1.3766821700409246 -0.3272746412673076 0.02136167755333786 0.22551214253097973 -0.22236482048063044 0.05935459277376329 -0.4452862902708493 0.0907953966396469 -0.5387991366932696 -0.5807181388186048 -0.17276710567301173 0.39340717458385754 -0.015682032698232342 -0.6803206754381048 0.2162059905073812 -0.26280537116152863 -0.5948916128543678 0.3373203431268781 0.2553333362512082 0.19281388832390609 -0.6033306806498923 0.21058309304353745 -0.04519518863016493 0.6029078281937811 -0.24065418347099066 -0.17462009226858385 ]
[ -0.3034763345859021 0.17511501581177394 -0.2649660358378544 0.971538299557057 -0.18842888817446782 0.09604414474068626 -0.783120134134624 1.0537675399007875 0.19132789576663936 0.7436535261428755 -0.4914747059430062 0.028424914450513043 -0.9889394920913335 0.1304775580996257 0.4547824348501929 -0.4447699254103114 0.217078047082684 0.43368661123504704 -0.0873957492668546 -0.633029132310069 -0.3178972591216267 0.48909507484796455 0.028240051074924315 0.6289921946059479 0.5008790006608065 0.8000379095461219 0.39966010084746284 -0.13104651671126039 0.2934305877311645 -0.4680507328942023 -1.4188201275798582 0.9668415444127987 -0.38918583636170556 0.068855147709003 -0.510160016030731 -0.12350612885941967 -0.1961517013471134 -0.27308625680689946 0.4367361786575587 -0.25223511162960727 ]
[ 0.17224429224328872 -0.4681632442492429 -0.17368590722036706 -0.15288978551319196 -0.1076442991494139 -0.4448533829529294 0.13554483002204404 0.08056245972554424 0.06950192802000983 -0.0654278162626345 0.11110266265725662 -0.06061388479292856 0.21409421568846607 0.10094046301419109 -0.15273442649692984 0.06060330210365508 0.24663657128872277 0.020632439276608745 -0.3674627523322539 0.43822064789334625 -0.1328882184080671 -0.036404232045613806 -0.2057642060433021 -0.35681689309037445 0.012612314952933227 0.11664872960939207 0.003572887048222316 0.08904683361460791 -0.1423224744992285 0.14644967713350418 -0.0012094770790081262 -0.40426988736949193 -0.01321071408428697 -0.062021888007488896 0.06599058201549747 0.07275693488766524 0.09489016664457973 -0.1671266161795533 0.7291364495061919 0.056245299960284226 ]
[ -0.38375887650031876 0.5163776220930694 0.18625790516798746 0.12687974554218157 0.5188552756740936 -0.05485454957598729 0.2200478940782966 0.07362228839872247 -0.2082831963034299 0.2622344187107328 0.051840723169800304 0.22004573098082125 0.10476918047904538 -0.8999071689369574 0.1969838100942793 -0.054418080099555635 -0.12657001011211075 -0.08883407725424326 0.5530657722527854 0.11759641542472682 0.4968457871946425 -0.048008626224582115 -0.48558790146782627 0.2094603201188404 0.39836087261046443 0.1412787241898261 -0.009972676051853967 -0.47792512890496314 -0.02416684836940376 0.011218759252826392 -0.7084571692702932 -0.11362667323940472 -0.21369251537129116 0.21607366358531022 0.18542692879224348 0.18168732080275501 -0.2415150183772073 0.6020382701836813 -0.14663927908630933 0.24933075070810898 ]
[ 0.5402344548763782 -0.4694569527398196 0.07459552576713546 0.5039936011253848 -0.6485545401849372 0.07379946491395337 -0.8024951811785221 0.7463551067729496 0.3439278881854678 -0.22165139812733692 0.06282500250797217 -0.2004907134427113 -0.706234909667284 0.8825567281490803 0.33694673869237624 0.6975593157831814 0.2702945513795597 0.654869580696829 -0.14918504613011327 -0.1901078657741691 0.8379055282671266 -0.08373021783135781 -0.24459978462264736 0.39831706721821497 -0.18555884686723984 -0.09325077966188663 0.047617416828107134 0.22660926858996913 0.013850897374127643 0.04607919908205428 0.18370553690080377 0.2495781644806006 0.2984219399733857 -1.1748205664930627 -0.2774974579633812 -0.8606685990481912 -0.23965683639866844 -0.6966631173304787 0.1311350855549738 0.06750169482457115 ]
[ 0.04688818142115231 -0.7970508751299556 -0.14631488863347425 -0.5531435168800475 0.760568733323892 0.134476901507968 0.5225170929645659 -0.07411173019278104 0.20008498695296703 -0.2118944028879958 -0.048199931636743805 0.19754622152360132 0.3214615925195715 -0.7307647874608556 0.03897690570665898 0.20803727111434753 -0.2517514067690106 -0.2422210399781217 -0.14941178420381293 0.5887646334940084 -0.20675920675258802 0.16261058056324348 0.2646081279929498 0.16274399325230166 0.11445310287848047 -0.6722752743003344 0.06070523899669524 0.18833268261979985 0.1348167455237773 0.048621609473089744 0.6134829987757728 -0.8490700893440675 0.05384913780643971 0.27093751747047096 0.26695074523057466 0.02236728608182239 0.17365491818193138 0.41718827682102827 0.43026519073708613 0.17368913203174005 ]
[ 0.08652699515781054 0.6808717746076826 -0.4921985447050504 -0.3267963188127363 0.014843913569646849 -0.128185959544655 -0.03490954659855574 0.4999096587296009 -0.22525669217301972 0.8290312089979738 0.23088727763689648 -0.17684234889218975 -0.27452108859386337 0.22355386700887564 0.29788737586085445 0.1366264868925411 0.2001241477743333 -0.07383916095969102 0.19612614663072786 -0.0218459637786937 0.19248681200327938 -0.1715617314510751 -0.5632467477043592 0.28018175892567415 0.2738107917113985 0.09741764578732816 -0.5547589472381482 0.07929730053457291 0.03575604611873303 -0.06220608323126102 -0.6835093359966018 -0.17316298342902528 0.18356665336197936 -0.5379000127404854 -0.6844849451260736 -0.5484582166108948 -0.003470923982132618 1.393687472256703 0.16653764412940816 -0.09873574277189688 ]
[ 0.23014431895297646 -0.8148176273574398 -0.04735312863258994 -0.5892713060916471 0.04906246599662007 0.14385124083411435 -0.5687785076952504 0.2745434103722202 -0.03367127424334645 0.10092883858290072 0.12256849310268568 -0.07365149703432501 -0.22707966434849403 0.06538450714465359 0.29041771536815986 0.19446365678179273 -0.003449742307229057 0.4795327492198157 0.30772124459348915 0.07459420158623856 -0.12177097555358814 -0.26052333673257455 -0.19511491703099296 0.2692947439078953 0.03139817243140702 -0.4798431168021645 0.6296837619751319 0.35423441036783576 0.06085323223732163 -0.20781866080139605 0.4620948924886257 0.17987252792511238 0.05265150056405392 -0.6384243934408795 -0.11042335735853978 -0.22510822862267055 0.0832752723047419 0.12320130443557416 -0.36284409175194204 0.23348753453603002 ]
[ 0.5499686754207758 -0.9196651722005208 -0.40878784659352535 -0.14598932422158964 -0.5417509421161645 -0.22227860244219022 -0.6524565413689493 0.2660322833987392 0.4373906747735392 -0.14006824149621502 0.1941171636273392 0.654785230012523 -0.007752192432691965 -0.17192985023409915 0.2968864472075209 0.39589745447208935 0.2102193458650765 -0.27802713856818456 0.5174936172604403 -0.4522309505765982 -0.2584520028385359 0.3200424905077578 0.7541146965153788 -0.39095050841116513 -0.2785005131734176 0.5404829394789515 0.4849363883079386 0.24618549997192665 -0.5453927352983551 0.24167960134031935 0.6831284647043981 0.058138090906872886 -0.2057833859130644 -0.3141523331022753 -0.2654384667290454 0.2620960162888274 -0.16518975667856414 -0.4280310264849858 -0.2310249429499973 0.34235932428299914 ]
[ -0.2190806485658475 -0.05649232439029952 0.060694709252038834 0.3666132543143079 -0.2165708465452977 0.057053374530689364 -0.160543656952952 0.09944794302115945 0.2869586342478497 0.04801350245204495 0.0547849665794424 0.5787085392375061 0.02254679653168799 0.20001990246771192 0.302699137536041 -0.05743669355856318 0.07019165229687023 0.09277688565014766 0.019771002964710974 -0.3164679941802944 -0.18516758550668172 0.7467258437454602 0.3026056687145203 0.45437414162432427 0.570050142735704 0.29283273304142654 0.6047873772229561 0.2063443312468965 -0.17088200429244896 -0.07288167783199606 -0.04561764533458888 0.17581032161740698 0.07416639327041635 -0.052370313267691745 0.06403116695098648 0.5288505034504238 -0.2548944173516218 -0.40534517736938985 0.22242800738203056 -0.1345987538092581 ]
layer 3 Activation
tanh
layer 4 Dense
40 20
[ 0.11296953543078896 0.386578246278191 -0.10645304516487165 -0.04216743308525411 -0.3273086181814292 0.13695284851869538 -0.35924539056179833 -0.18880138716201608 -0.15228428206615352 0.2202206259296878 0.16119650594835322 -0.4176717702299763 0.551745823537231 0.26221543282225274 0.21899550529744563 0.16387277980361514 -0.37845550834113906 -0.032359097691518596 0.0919182735168611 0.4747574485324042 ]
[ 0.35373139247879626 -0.07097650202803017 -0.4367290920341369 -0.09767493151819355 0.47660642644684104 -0.21393902087366662 0.04651724383148026 0.2164625773395782 1.3417760299555421 -0.2636141779490493 0.12627254785138103 -0.040303232193880434 -0.60109511646621 0.25795466231447534 -0.18622919277763594 -0.09438576281305562 -0.009547072576524875 0.644468729241212 -0.09669462108756637 -0.43827075358733286 ]
[ -0.5231831941202939 0.08972677939172967 -0.07861520543904929 0.14552489446865682 0.02438013112083163 -0.09057727227677814 0.8261751645844695 0.630205247940058 0.5565920837887379 0.039815884984367333 -0.8204818205853726 0.07984509277358771 -0.3638862211424571 -0.07626051407615878 0.09059371436710331 0.11097693424116416 0.2661082603961351 0.09885747052611481 0.03190161481563941 -0.16226068593379409 ]
[ -0.20749327181399105 -0.2226286175091508 0.3899106443056458 0.4604315375556814 0.3266949703992125 0.5027613420758964 0.3819292213396605 -0.15045840259996388 0.28547979598218376 0.011575535329152216 -0.06401554552976671 0.19266818408381242 -0.06554229759172878 -0.053669564276957064 -0.3672966339017478 -0.27157362565211157 0.3372099196155729 -0.2501163230020315 -0.8843980844474343 0.41917232334237586 ]
[ 0.04789009208898324 -0.5007305063348648 -0.6295664600592807 0.23762406052427235 0.21710886803665985 0.15422513717207953 -0.19251828422005032 -0.2934165344266898 -0.056270785224234864 -0.3580806861835575 0.20576685204220366 0.15257949582784439 -0.2761774619123658 0.22402917570447614 0.25766165877945174 0.29649388876035565 0.52947981550139 0.5239147141391931 0.49546285014127245 -0.3001234721541851 ]
[ -0.05373575054530555 0.11141150063035773 -0.014088022948040358 0.10627963976610871 -0.005281264873289693 0.040470895323146044 -0.09586643598681889 -0.48726980072357157 0.08758638244268631 -5.2906656295695006e-05 0.27402664651519615 -0.0034456874626302763 0.2844656428266051 -0.016392031589601633 0.024774850016841928 0.029239232453803422 0.3934185449057974 0.03590821426946704 0.11055905859968067 0.24194348332187302 ]
[ 0.20538851796968702 0.3711868303820811 -0.35230161672312665 -0.16498437307452654 -0.815783524461868 -0.44198707028903994 -0.43426184725683675 0.10009802119802781 -0.2818150913084812 -0.5042178665150329 -0.009161018327798929 -0.009477305411118592 -0.6859328255179094 0.00974343659000131 0.16470222891192574 0.4412896931786693 -0.09005998431554925 0.5005932104450126 0.1505724985878946 0.17431429587378902 ]
[ -0.10462996988065473 -0.686277730037304 0.19052499902913747 0.644534786297853 0.2438273250198809 0.5749912163435746 0.23965849809267734 0.11372090547805595 0.16717569179994812 0.26164502742001383 0.3771071013130997 -0.39993613700734715 0.3237780231871281 -0.3435216425457811 -0.17817078168530845 -0.37708208440505814 -0.327226940102389 0.07269615430176432 -0.368639044855047 0.011468748108951567 ]
[ 0.24154807278576615 -0.04881949358251112 0.1366354503972104 0.10595291106216466 -0.10319048751560438 0.09679629459085594 -0.005584557042758197 -0.08962150130099643 -0.2557999615248002 -0.18950984374832636 0.32347433102254264 0.33346908396819674 0.2969584620785572 -0.30756594355491373 -0.24572395091660557 -0.112095832025368 0.3040843544189558 -0.39337605290055827 -0.23323694964789857 0.20021090100715658 ]
[ 0.010896192913649603 -0.05757866633838883 0.03677549981592816 0.44171599204077533 0.3464764236512651 0.2923020874712812 0.1258124973038225 0.45798554078490966 0.024995771546113668 0.11903459147947629 0.18558962566743042 -0.010448245519289037 0.1394444387961818 -0.1579427345293001 -0.12973113044313037 -0.2724650419756184 -0.22912514264145317 0.04379696910145678 -0.32296202643153005 -0.21113520701841104 ]
[ -0.1605684898687983 0.0741988817988462 0.10070253185448197 -0.007364228054181469 -0.039938217849583436 0.08875632471132161 -0.5438207783085904 0.29797752009766565 -0.07851966478885258 0.05525466110549352 0.21164673698736353 0.09742108977165273 -0.0288477756079882 -0.20236885917231304 0.08971639575335022 0.17389419661156288 -0.47103799698438953 0.2161159304258661 0.13458919945506412 -0.11305392121209419 ]
[ -0.6231934635156497 0.09944736742322124 0.5562061698401038 -0.2890776611293632 0.3717290495454538 -0.42701437564742845 -0.15638796433826976 0.33899439126059117 0.3068872495815711 -0.08832133853273966 0.226566654497085 0.6080062221392315 -0.14273350031810508 -0.028382723449704765 0.18997876833952063 0.3888206155922335 -0.22274153427885662 -0.24879303683820958 -0.10560153500623687 -0.22370987552094462 ]
[ 0.0491533768615752 -0.0026689354133654364 0.17213353495312145 -0.07696304112454956 -0.26806359292976173 -0.1480926817477897 -0.006217409238521118 0.23129917130734437 -0.3924328150532556 -0.16564225228369212 0.03522942696712868 0.20142738195886076 -0.13053622828585776 0.17610616742368562 0.13567172691290674 0.29329980022519125 0.12162505230473364 -0.04215403365667899 -0.13979201743933742 0.10300065055489156 ]
[ -0.3838051566590442 0.17324600165450918 0.23488182076387545 -0.00042669822787062004 0.16094410607079676 -0.021876736813526965 0.3575047758694834 0.14122144023753236 0.6413756540908002 0.4260062229670083 -0.005798797725425323 -0.19965919350035272 0.0024187634388104584 -0.7202151050522314 -0.14578690007193554 -0.2677686527931935 -0.12350129766399634 -0.1833838672928418 0.02156230125980732 -0.022029523574015407 ]
[ -0.21588562278865323 -0.6664203363490925 -0.024565448121252196 0.3782035746660435 0.2880878544643297 0.526755699955331 0.10418375468556011 0.22764971479182064 0.1118936029519755 0.13660077876847376 -0.008108331001524605 0.4784568752381547 -0.17350567939355502 -0.10854250228390137 -0.3445531476699702 -0.5165288412582095 -0.05220696163299672 0.03430012195474106 -0.012718810423107269 -0.7764328898836517 ]
[ 0.12180052081644777 0.2603716149332373 0.03450046823974838 -0.24824674814510134 -0.11743838337617919 -0.3805226421719233 -0.3286009515567928 -0.3540786563067621 0.09747438001513353 0.21016446905850317 -0.13316498684964226 0.12588852741950515 0.5122729028645534 0.130596667001204 0.1815417579778804 0.15194338378855887 -0.14708902404591503 0.003335679535983939 0.584669703003405 0.46342239058934226 ]
[ -0.08288195535867862 0.03305953749336702 0.1699695723718002 -0.054254950536293284 0.11099121040224243 0.006588637065018547 -0.09791366730378845 -0.0696520707256903 0.1606152682377376 0.061362024708045845 -0.08991436703084854 0.02615580452485374 0.05653331934938349 -0.07670396115223321 -0.03273026643571104 -0.021653366719045802 -0.1481182862397685 0.1711432158902098 0.1386879240376269 0.22365176459026817 ]
[ 0.03043017731947775 0.14899091964956016 -0.15252319882601956 0.11310529231749779 0.02587027024969059 -0.1122207051703467 0.2801090422382985 -0.1487865783682098 0.5998949863631764 0.2870708157848504 0.23736308185578373 -0.04408789077924617 0.19808547953769712 -0.4416204739063593 -0.20557151200293913 -0.11974460422436527 -0.053204107188062476 0.09021408384226447 -0.5121893648008267 0.05299350095510747 ]
[ -0.3895683599279624 0.08248589965445191 0.02017145233293809 -0.1489784540579614 -0.2302524233477988 -0.11693856812309658 -0.08356695798091061 -0.03032390191277209 -0.35674646849951397 0.0024113148801991075 0.2911055361568294 -0.10703360809299062 1.0828926803744694 0.3723101298818416 -0.14047846546552417 -0.0726884105178254 -0.10504106138431306 0.0889705667644727 1.1199528761905986 -0.3197228293213907 ]
[ 0.31886964792660016 0.22635753601351727 -0.6345270168169812 -0.045339957635873084 -0.0855668484012747 -0.2885269801299368 -0.1861686033561827 -0.3239111571678325 -0.3289291449799662 -0.06846781940972133 0.16743909864675585 0.05739492208218664 0.17238601567490855 0.18198173650245958 0.10039410771525013 -0.10146206672561275 -0.40276140829542345 0.6817994187094966 0.745600010156728 0.044832388355356155 ]
[ 0.5246995468959964 -0.07895488568962104 -0.3281798214052005 -0.04033409468774807 -0.10639790919707039 -0.1848629462006864 -0.5304438241864695 0.4739166796607252 1.1171351782839714 0.12878659941910606 -0.3875703412582165 0.0664307976516701 -0.15084748567591028 0.48233544185836036 0.0656636668922183 0.44226680928743417 -0.4694547384232578 -0.22154596948870398 0.6394999045323132 -0.01615922232911636 ]
[ -0.5962035435474704 -0.2303216939235047 0.6522720674949586 0.09164848096948372 0.24639625490186176 0.20170936410503956 0.05299856911173556 -0.31780899593949086 -0.03454112449488948 0.06912929395954874 0.02430455998284527 0.7143203249206418 -0.010380679185396832 -0.1683927605658747 -0.03373372267593468 0.23819072370575442 0.12180713316488241 -0.6312377168454232 -0.7271856255103395 0.2542308060853793 ]
[ -0.3305651306894912 0.10298144299725676 0.7855874564335315 -0.21353745908691849 -0.29061424143756914 -0.07476911085499531 0.05916803582667529 0.05664338234800552 -0.4429638211664274 0.13412157696729987 -0.17687083742820453 0.1429028872594161 0.5170395387413087 -0.3981653222700594 0.06718876304677811 -0.048737592860344604 0.41489693951867956 -0.7359499654277848 -0.22488656781133448 0.16810882042505337 ]
[ -0.5989674129116447 0.025302612202971992 0.4197969323461883 0.008659283313055257 0.010102633558907536 -0.24947918804385252 0.39219568821560613 -0.08318986535702275 0.20925931344257973 -0.07454215792487008 0.08283138156905333 0.2606736314080128 -0.12686724342874653 -0.32204724210526897 0.24250548617809906 -0.09516055973213267 -0.15794302192767548 -0.5414882951207074 -0.1387811934647774 -0.16503246645043781 ]
[ -0.34468599342067924 -0.2327661129547537 0.5348017641770638 -0.335301279135477 0.23092589243234654 -0.4784810300839954 0.2629418454360902 -0.1333082439033792 0.38686137913693597 -0.1564829075517654 0.015341658236895645 0.6083288130259529 -0.322695694854866 -0.6220065598485349 0.03861367646350087 -0.046106537893015886 -0.2806933667224691 -0.6261000815718624 -0.3007868883130584 0.17839028955184577 ]
[ -0.09994116051946085 -0.28496327392479776 0.7235135260969499 0.11223914200674534 0.19198787951388777 0.29246961739432437 0.41082478284514334 0.2315088410889184 -0.35873199854326504 -0.08789720701310637 0.1397385718730015 0.30164889590538624 0.27919972776605373 0.2587453981684054 -0.3200520263003865 -0.3277161082600462 0.10559152923699042 -0.6208438900504506 -0.44225672252564496 -0.3697167126631071 ]
[ -0.7313374286723928 0.45020193375807305 0.6988550447703831 0.37983743284864324 -0.41439355814715373 0.3671349205295266 -0.03709578639042407 0.07049018193591941 -0.5284629203506306 0.003581556861622393 -0.05648767213455457 0.5571597252263274 0.4166000429902073 -0.4863414748861276 -0.18122118265312678 -0.43382909185541974 0.13344180905809389 -0.6219890038857936 -0.4704432820878231 0.44871845976167074 ]
[ -0.48332990341808324 0.23758608327467756 0.3778819458216955 0.07732538621766459 -0.47241623460801724 0.2039684038148677 0.15777871004683053 -0.3974642864865544 -0.43815646629134875 0.1433670677362247 0.21279067999381338 0.18881177270041888 -0.018608635059596285 -0.8458986971973554 -0.1343776648478034 0.06158434356035586 0.6968706835074666 -0.5170228064750366 -0.48846147769609016 0.01374654810751488 ]
[ -0.18965256506072045 -0.13108010784023555 -0.32455419161768045 -0.10031724553343052 0.01872669214648996 0.16995009756321974 0.05508602957089786 -0.1442912693571744 0.2570925391361604 -0.04624688824003563 0.5383755052459489 -0.06207788501534371 -0.21974887417445482 -0.3663620009068658 0.03068291692192506 0.13419381381961704 0.025497032743496642 0.20998890874722156 -0.36365462732708137 -0.17971198893256032 ]
[ 0.3768995977759999 0.04768859865525226 0.12244889999654027 0.19301085206926677 -0.12833677928884793 -0.041324328194106336 -0.4085507868086999 0.30887262638640756 0.09080167595407475 0.041431783255597404 -0.20647548765018225 0.11310130128224338 0.033910446520862045 0.01593571014982956 0.06018625841205926 0.18558721442563464 0.0014884310972483714 -0.11452420807362958 -0.0635169580414451 0.27213469116127914 ]
[ -0.30466005586080375 0.5757097322710525 0.2352526047310286 -0.21746663921765003 -0.7284982247755338 -0.04063006720327259 -0.3856305555077168 -0.10572112539610053 -0.8610467231165679 -0.7561392219900208 0.14027967167881128 -0.01655240814382799 0.363512544633673 -0.43887573191631996 0.29301749920483683 0.809902557845881 0.4258855632977125 0.06600081056481982 0.19446932149128715 0.09287558590147202 ]
[ -0.4089326322097075 -0.13021588023346792 0.3384222579198995 0.2953567814191639 0.23194397618031656 -0.19688507512327402 0.6025641555214822 0.6639313713306462 0.6538334782468704 0.2690897719703208 -0.05494085257423649 -0.055489286113440804 0.15788241376229575 -0.21030125655184198 -0.41731206150825784 -0.39370259164072274 -0.0361665124950771 -0.1721344829871958 -0.4832433945463804 -0.45903088616675947 ]
[ 0.10832329726501198 0.11346621203474502 -0.0854585096475517 -0.29598788000655285 0.12163955678838642 0.029331714137416105 0.09005142154987986 0.22165353920382685 0.32691652822810313 0.0371237472845194 -0.21759460261741193 -0.035694060734490544 -0.4151034412641747 -0.20640946580046524 0.09236076645991592 0.14262556002787033 -0.11303568860564697 -0.038758193650302517 -0.2683831081664031 0.29183216884271773 ]
[ 0.17790205227291223 -0.22620225284132958 0.0957703311019557 0.17616649214247238 0.008062512084726123 0.4592828852615315 0.07907899840009906 -0.14224076228977162 -0.19135125951210952 -0.29000844505567547 -0.14940397851866052 0.18880101659158832 -0.7182507379076467 0.08567358498677244 -0.1588297829397052 -0.07097416403877407 -0.0766672069925119 0.06015317652003992 -0.4030086844486858 0.03849404727450175 ]
[ 0.018052074343699688 0.41368275004224675 -0.07427899024283009 -0.07868187230890714 0.1402952430916031 -0.4111101332784132 -0.24290545401260982 0.18576071243814887 -0.24694453435107871 -0.05152746697543405 0.01232194077442145 0.03270690355406001 -0.41882472071601207 0.10235941645291036 -0.16052979507087906 0.5017404764132259 0.19464901901442083 0.27817489728657957 -0.029985763169548752 -0.17788877291690552 ]
[ -0.39178418819248895 -0.332030330955169 0.4686641081094747 -0.08820369377399372 -0.1551132926800812 0.002919254824931685 0.20347686575864293 0.09408463251275662 -0.11231123801627305 -0.43430692644715696 0.20168646345596125 0.5124319086178455 -0.2281233502162757 0.06524482434529384 -0.21792530259250284 0.3026489146049294 -0.07735361631480292 -0.47973028300293696 -0.20511233547371466 -0.31659066881299436 ]
[ 0.12567669535703516 -0.10009580467988477 -0.0665271145361907 -0.33571418997895974 0.020504036260704354 -0.05065987995425553 0.13272185822988092 0.04058208580009801 0.2863110507827331 -0.07789039018122189 0.12110879010357684 -0.23193441560641562 -0.11135638268062624 0.001443700992204322 0.40250922201431155 0.03292151270353385 0.12719099619306334 0.03249548771141666 0.09803200824888388 -0.12725856506942815 ]
[ 0.9375808106533204 -0.3451490277409937 -0.7601695290777675 0.16453111139179372 0.05734533722897878 0.2632989801504849 -0.15370605257718928 0.4616672552455108 -0.26884037343602946 -0.2791937702519117 0.003802786094002974 0.4268335307317291 -0.3776259827536784 0.5619448128746576 0.17044046827283257 0.4731062309002076 -0.5146550058785456 0.2764936806584701 0.34568215128556706 -0.37316459431556903 ]
[ 0.04631379822093194 -0.3496634750447478 0.3556929976970746 0.12807551117057972 0.5097703653408852 -0.318633849263428 -0.20627742624677872 -0.2769137512305693 0.6859853292718825 -0.15157976337271858 0.19604684916360562 0.4180271459824479 -0.29339704934074123 0.37792584765864756 0.19453414551930423 -0.04689878544497516 -0.5098778185763968 -0.34901070724659744 -0.07281514455540133 0.20051627578784356 ]
[ -0.35762895469760336 0.18090657658054674 -0.10094054431684715 0.17245234549586955 -0.11238526425282519 -0.09911540315148436 -0.30879975889905675 -0.3526526624289543 -0.7435255234478821 -0.11028855691423964 0.38859259416270425 -0.062452076985758186 0.3296622622887516 0.08485252320939016 -0.05139759249335954 0.1575101496697771 0.3930299793238056 0.1916133618231856 0.4802205443116605 0.2006071994394964 ]
[ -0.365846256250192 -0.11117558250490284 0.4290002404225261 0.007366431670095174 0.19995348646155525 -0.10046027788681174 0.07172882266512091 0.12948984435978525 0.16414413564425936 -0.14012535293641573 0.046388305667836936 0.23660205917609825 0.12392538366336017 -0.13127855738777672 -0.13096201654234524 0.15574877655625152 -0.15133115733938732 -0.39741524828612873 -0.3540460510885523 -0.036090250131461804 ]
layer 5 Activation
tanh
layer 6 Dense
20 1
[ 0.17321044999709712 ]
[ -0.2045961517825213 ]
[ -0.664038403960176 ]
[ -0.022646649209157647 ]
[ 0.25346098669309436 ]
[ -0.1871562482208709 ]
[ -0.027021691215351796 ]
[ 0.010990768273609057 ]
[ 0.1111079621445311 ]
[ -0.25399570932372795 ]
[ -0.003970109313596249 ]
[ 0.7738524636597294 ]
[ 0.027707962602831683 ]
[ 0.2094628937052701 ]
[ 0.020316668227703456 ]
[ 0.20742064827200027 ]
[ -0.06204094411951344 ]
[ 0.3785423234033394 ]
[ 0.06942093023485163 ]
[ -0.02859329027188019 ]
[ 0.600659894754308 ]
