layers 7
layer 0 Dense
20 20
[ -0.5912018543088786 0.2988824598478161 -0.15923554208731697 -0.024378499616347294 0.24934798400190697 0.437028439687761 0.38116830404605473 -0.5171466704902214 0.15074365116280408 0.05917579052890488 -0.24843245841518422 -0.14453020779452125 -0.2556495453790772 0.04057401366520343 0.5925993911852203 0.08456024064293265 -0.15932877327452752 0.14072311488470612 -0.5010710252336864 0.27167847691476155 ]
[ 0.36496369268579265 0.3258823474642577 -0.12309800360797388 0.09266622303175326 -0.2804876628289965 -0.2150663569481248 -0.3043160383753609 0.13112712385715908 -0.33859585423740335 0.17567668656126734 -0.2021531795598077 -0.1839563560380115 0.19660517771888736 0.21022705132489372 -0.2732360603761318 0.25626838571789023 -0.17664098194443845 0.13006022035277087 -0.3512719693914901 -0.24775749136451627 ]
[ 0.32430653176536905 0.21832433564008547 -0.047215475433591614 0.2167211095238502 0.1447426873500963 0.18536176640169164 -0.26094537232251697 -0.2040852404093855 0.2383329969879151 0.13330603513083591 -0.1137625360601972 -0.19513658125762062 -0.21997147089891778 0.11716045231067489 0.13654776687311346 0.1595774587914435 -0.05529213301880796 0.3732025159546223 0.09814471766940963 0.21123410753682365 ]
[ 0.270514857541183 0.2530215351762137 0.1097591744352102 -0.2027676287371989 0.22552302638590116 0.4236660788741982 0.32028753425226675 0.07077487512118352 -0.16094316981143422 0.43310755180907595 0.03855749963314202 -0.20834951922486386 -0.23440312023877619 0.4784769920803595 0.4342379969553725 -0.3802284633258451 -0.1501670543564992 0.2740885073274251 0.03301022727599238 -0.39873709063229207 ]
[ -0.2295293521206568 -0.08337988420978325 0.12235771398497121 0.14738966255184388 -0.054424216939886735 0.6050195343493997 -0.006189449828168813 -0.4421362756794884 0.030513756296024316 -0.30564094782470586 -0.14661434970313106 0.08129691800536416 -0.42820663979263934 -0.07297014500840505 0.2299837745469497 0.5620429250958875 -0.26581858912453304 -0.16939329601258038 0.013888107982127813 0.19856651204796608 ]
[ -0.14515089670515025 -0.1887318169167424 -0.3247535354747656 0.34808418934963187 0.24971869643026473 0.3215488786664518 0.12425609639968671 -0.3266656316788436 0.1669915119603496 -0.3046306736891333 0.17016850542713963 0.19113394909233714 -0.2760191759319101 0.068682009499747 0.32261536110938654 -0.13245308992905044 0.2224705629461144 -0.024550604929415097 -0.1461895419999195 0.2869318060686892 ]
[ 0.3224119602154729 -0.2578403770724866 0.047166493082286154 0.14696220720826986 0.16658787611184186 0.1372071313950541 -0.2723604433420873 0.33336565286208447 0.1084185714595515 0.15198423130453362 0.13622022842102147 0.09488895179785288 -0.06607660214335105 0.15995538499847278 0.33875962286673467 0.18985647920545737 -0.34603823965254915 0.3626990523119433 -0.2239686353190872 -0.29077936651909747 ]
[ 0.22221588283563207 -0.5588924977006611 0.31102123593145514 -0.02933401481959688 -0.31225069724290616 0.12833378521979338 -0.6813952498542231 -0.5268112759413159 -0.13509233860869965 -0.4349014035496194 -0.301822598092288 0.07261244689451996 0.6011470825184058 0.3967912128139648 -0.7210974616491426 -0.45673739248891226 -0.0835273154813415 -0.25942877345820065 0.3851973478610375 0.014422121119757903 ]
[ -0.39462028314920455 0.19824938329367642 -0.3906321905985679 -0.1095742373175991 0.4788126009904568 0.7283496990187702 -0.3181735526370287 -0.32678626577460324 -0.5513983309782812 -0.3877554805977609 0.06284288414661011 0.36825090474443206 0.10535121536046888 -0.5540760302504679 0.053135622780567826 -0.050114387237554646 -0.23783485864318116 0.430559348430927 -0.504070072487233 0.299019178988067 ]
[ 0.8065730618765163 0.1622450226676891 0.4250146321387528 -0.019369604389841567 -0.07206380627758807 0.35112622441072067 0.056639671387585466 0.5744585569452086 0.7902290172892272 -0.06785573344053901 -0.1899091697192538 0.2358914654371078 -0.19164517182188212 0.2032740483298502 0.0007171967536349949 -0.03165509992734027 -0.05552330474801389 0.37902640852305824 0.15711013638977073 -0.42786231525047225 ]
[ 0.06836333955418158 -0.10390039030743849 -0.012837022124930214 0.33016806203697735 -0.020032097103702247 -0.47919056034008095 0.253734993984264 0.24476529535959177 -0.2989417901692404 0.30862912118011954 -0.46659239229917204 0.47454927724530394 -0.21926365194454675 0.21000692556523462 0.09472439580412888 0.01592395320370331 -0.4027698800578948 0.042398614137724576 0.01482536232181916 -0.04820640965204877 ]
[ -0.07010997808002409 0.05461804712735195 0.5996530710912541 -1.1675820263763956 -0.6934351021502533 0.011050450057783332 -0.16544873943834926 0.005260491953977237 -0.49569477463601386 -0.912331599854442 -0.06530832874183322 0.43115318724096796 0.2351231133275402 -0.25650017712865336 -0.2819870825371803 0.9531134201482077 0.04190866003513008 0.1559097641182547 -0.515396798124202 -0.4029381141611976 ]
[ -1.1116369955370942 -0.33421785162116485 0.6149329263650296 0.10841496339398486 -0.3476203223722455 0.5787431779477334 -0.01638416680476744 -0.2745586824654524 1.0036055023666899 -0.03996499982374524 0.023138494264264776 0.28712237342851515 -0.36400760826361755 0.9752331058537983 -0.17288030816065292 -0.5616909080568033 -0.15943052878496225 -0.07300953556523232 0.524816485399296 0.4767088934616253 ]
[ -0.012451169536286917 -0.8293019375765126 -1.0896739219081784 -0.19918304524969652 0.8984712712630282 -1.311281958472697 0.09157564154443865 -0.5958659582266908 0.30433327774324215 1.0993076132368134 -1.393618523035982 -0.8569935959840654 -0.2048160290098748 0.3772053780725581 0.19576942418343918 0.01470699998216647 -0.12542594436692084 -1.1851947501442497 -0.11685543540056391 0.5048381975895803 ]
[ -1.072435061157974 1.1104922517800997 1.030377498164115 -0.9060331900769506 0.8392429273668734 0.25666737273775947 0.2348685769744364 1.0275576174148768 0.9001463029769902 -0.7512545398493785 1.1187358266286782 -1.6742071667284624 -0.10221934466909405 -0.996726326548766 0.18269321340063086 -0.3942291812712436 0.04323141573683794 -0.05748233938627998 -0.36305096201939446 -0.8076270856792424 ]
[ 0.9476720909013348 0.027453631491212948 1.171441480136246 -0.4781914308740492 -0.9122577847473895 -1.0167815314165525 -0.5424465824127814 0.4961506520634333 -0.24212209870117132 -0.8005691302672641 0.4024668751712834 -0.8151750772165008 0.6365511701403669 1.8625000404099652 -0.5492492115630278 0.8982829376565183 0.2281709649063936 -1.2496961192805558 -0.016011596149238506 -0.44594745651766404 ]
[ -1.1721242191851633 0.3850279507746187 -0.27731465687174256 0.4078132609415359 -0.027517019545488866 0.3768381257994291 -0.13714861994723074 0.20972869044818865 0.4350738210046014 -0.09161841238539516 -0.044489552442585095 0.0857378707662395 0.18513712629406923 0.08546417440782587 0.15636326216615332 1.0829920564030897 -0.38761663400022867 -0.525981597605653 -0.4855050132619122 -0.1288821271400354 ]
[ -0.6632032907910513 0.48631235686476165 0.2328105962945546 -0.2152465025657471 -0.42362796981941336 1.0527968855630894 -0.0025920921658469966 0.2864661306408503 -1.0232715452040968 -0.6801228498509098 0.6641971875761907 0.4272199929142153 -0.2860569942054043 -0.1263611679584939 -0.2810362544228038 -0.3452173489845604 0.0980968633987286 0.5014263904292556 0.4857743305627159 -0.48584346636106085 ]
[ 0.18571100508763977 -0.3792705196596065 -0.3897461779435563 0.7338964144021928 -0.44926641122097677 -0.19019649602982192 0.26676529647449737 -0.5324030429829336 -0.02572745027963063 0.2006470924469126 -0.442568397572486 0.7286159530592224 0.10071706039538574 -0.01734189692930245 0.19345122587505945 0.5798086239175435 0.5862007662475214 -0.057574312275006964 0.5411018900240727 0.764427697028453 ]
[ -0.3508922930505876 -0.013749256516973205 -0.8595591877078221 0.3236092543594748 0.8846004248522262 0.44659111431983456 0.07095729637097394 -0.4178906603512952 0.5613380445987952 0.12748945592422753 -0.39482835157679835 0.6586715253970035 -0.5163626697682419 -0.5693584580309663 0.15685722092275473 -1.0395013547778111 0.020176691439609932 0.9083293681215229 -0.09152618848908034 -0.08455929541205735 ]
[ 0.3605731913923604 0.2734311471241252 -0.040558180004729244 -0.01779231853187652 0.17642082284770524 -0.0823309034237776 0.45674429948808276 0.23908456325257427 0.013910389933924535 0.24474061263742475 0.01679871367241971 -0.1169353933387298 -0.19502526934035808 0.014453901883221439 0.313103305815424 0.09310763926327002 0.01163118932363147 -0.02474316052794848 -0.07313633585338679 -0.14286151947066209 ]
layer 1 Activation
tanh
layer 2 Dense
20 40
[ -0.05154610071055222 -0.6976531933293015 0.3346465695903592 -0.4517887731884139 0.01991164551602861 0.4165395814941536 -0.006252910016320931 0.5106784304806428 -0.523017049662394 -0.2331069481533682 -0.30101922140333576 -0.328424045123902 0.9081250856538331 0.0665297394335907 -0.41723397987752986 -0.10063545620829858 -0.08298069044474983 0.6635325753587978 0.35531938963349685 -0.3703093322463247 0.33590739362238453 -0.15843022519476763 -0.5410217654649485 0.927020465376136 0.3913596347441125 0.1848874817359563 0.5333428487123859 0.5959312948641317 0.10429383517283625 -0.07205686187717832 0.007824272441993513 -0.20097554299501114 0.43432944526719874 0.023667096515070617 0.5586346667784039 -0.23912499466876855 -0.016317886108234085 -0.47038985459456306 -0.6658695956553409 0.28291673228062036 ]
[ 0.16807326686647892 0.21695342427995026 0.26585218439930336 -0.13930921448145664 -0.1151774477254137 -0.3538604649012211 0.4508378365484446 -0.44069646438339166 -0.03450995942539706 0.4731358782942969 0.3367834114583542 -1.103976672554053 0.005990572734368286 0.15036216817165043 0.23445352598578928 0.4339712483735681 0.2328195801845322 -0.4091636241668949 0.23049039466055057 0.44655413032092933 -0.25924315352556415 0.11724113496138806 0.10824799684768656 -0.33809675607037937 0.24036292498137574 -0.1912576867557848 -0.2245743084560341 -0.28996222069918864 -0.14675886181097114 -0.4071699158393063 0.42477901659444084 0.03456663239970732 -0.42130894628958127 -0.9427831204381687 -0.38146681731187443 -0.06205617074767322 -0.4970035562150681 0.18211416213241852 0.18356549471567274 0.12788038379258485 ]
[ 0.2968220189223555 0.29155723002477546 -0.2740726709656145 -0.15940502743690468 -0.03608052895859682 0.3438823541078025 -0.21172189998949265 -0.22842489297357407 -0.34502611199165467 0.3713955470051374 -0.03388902432261238 -0.6344323148171911 -0.20348229306641274 -0.22847506907706536 0.01427692453235268 0.11554149101746825 0.2850069195967513 0.1264975560281505 0.11282883220491924 -0.28084284135406223 0.6153974969864785 -0.3057166337386336 -0.5605432220327997 -0.4687245396801005 -0.3327889828459175 0.22322364299262723 0.39104155607342506 -0.6577619047484681 0.5616154377834547 0.18926782764719047 0.16429305859890014 0.2566230864461483 -0.3282715979249766 -0.5011132805513442 0.05864717936777847 -0.1867872859216136 0.023497558588318496 0.42666731437914857 0.5443823295969079 -0.12094719315516629 ]
[ -0.39049398143091907 0.0576372578049358 0.31525969591265407 -0.679661427955076 0.28549110927335253 0.19522085383005133 0.3733988173686151 -0.3149404706286506 -0.06146251874923334 -0.054601625874271635 0.17399866632589087 0.0663757882346176 0.27278284827874544 0.23558047233543059 -0.02592453071295731 0.030291193928324054 0.34886830822949205 0.1839679182630645 0.4967019890757324 -0.007124217384385833 -0.21505158824438925 0.040178718346833744 -0.0176202873715018 0.30103302738133325 -0.058071406380360235 -0.0934963902022281 -0.04986611418383741 0.16115303193075556 -0.07388529108050622 -0.023192986601811714 -0.3400719958283268 0.0812092086818354 0.1733540733015451 1.062276889929443 0.4432610679884714 -0.16153003741241087 0.23312362265827657 -0.2837146285589053 -0.3841096351237974 -0.20706283014389615 ]
[ 0.14472116353999515 0.3569171612393265 0.040193264077796144 0.5011830708157902 0.3922083729911047 -0.6797243742931831 0.37736789435592144 0.04396721697857405 0.37530687279646147 -0.2878134819033931 0.3009220107393097 -0.11200529504809924 0.11747393577670823 0.3180448816991382 -0.29449637174929355 0.013738888673924742 0.3610539234852969 -0.04595537555850363 -0.5119622530049797 0.2925972236509316 -0.666898159160702 0.2877475501862407 0.4828908921158448 0.1843098873608138 -0.5763446933122373 -0.4899824047934101 -0.4984278336405843 -0.04579138263976182 -0.5587105477315305 -0.35413769608567663 -0.001079970876975403 -0.15469735335672732 0.6422687557462254 0.1478323881216116 -0.18721911334982877 0.09595189444057814 -0.13198351628244087 -0.2357975941183123 -0.4644603116856348 0.5119222239176309 ]
[ -0.05843509771901857 0.920660230920042 0.22327118870854384 -0.11530584521365603 0.05596054456302059 -0.03284225070685991 -0.42576666454607076 -0.7429810134585629 -0.25774430179929525 0.3794300209253407 0.15475596361982727 -0.38303187767233154 -0.05520673128607409 0.09452148699167076 0.35678188884770373 -0.25501009009782954 0.4292424432913824 0.2147094290779334 0.5615487662459604 0.44666103700795945 0.3989962909028243 0.05813402011397859 -0.11381629926728397 -0.9875082380084238 -0.1547199597162683 0.3557750797123995 -0.21534116600204348 -0.903154352461628 0.17307079903678138 0.14672672498646813 0.455435511523857 0.38981778309734405 -0.396069987277811 -0.30348884021870715 -0.7005090841979789 -0.11801860895267186 0.3694488869731697 0.9162089639679956 -0.1053071605622814 -0.30850719787657993 ]
[ -0.23949271431263755 -0.02835410982130719 0.3291360986119339 -0.0915054812341747 0.16055110489966715 -0.15993258053436746 0.35150901954765484 0.2194503495345443 0.10400618734686265 -0.06636433618106936 0.5341334329724031 -0.1941405096655876 -0.17307827163442402 0.008538518312991333 0.16245467718586923 -0.024738390580521366 0.1980715317309323 -0.29716095089749706 0.06836035332731513 0.19399869386664048 -0.331668986290876 0.35203879849202613 0.36997862219559047 0.32544533800872766 -0.2911488930633192 -0.3844011089816568 -0.5257757782882898 0.3201457300860297 -0.4496146122335547 -0.698763887846367 0.45132066915253327 -0.1479633375513022 -0.07293324033949909 -0.16986369783450286 -0.09013813125303205 0.15159099984617927 -0.629854956228017 -0.2741186339251488 -0.15174967060613165 0.059931014687808266 ]
[ 0.3936174599427074 0.5576151422671408 -0.43492430714998115 0.45183024960741486 -0.5107992929608903 -0.20339494908505823 -0.6342273640456588 -0.47926758560758015 0.07265894899301939 0.7397992457377108 0.08368732280788113 -0.44916208554691717 0.24436077759907465 -0.29868820367224097 0.6516201867228423 0.2123224347702821 0.32975946933028155 -0.08572915387524466 0.6783226479644041 0.4570414616721857 0.5039103581748577 -0.274300299970822 -0.4422422957045533 -0.6597636630593412 0.032059502031269935 -0.02856979597306067 -0.35154113261019 -0.6692636018183112 0.45798742603585335 0.3401587302169636 0.2857953797885026 0.24845083608529014 -0.3652908605307113 -0.6462065975804152 -0.6430209395916963 0.10723051830795206 0.09841383909262079 0.6210826856545013 0.013187342782546206 -0.26239702817676075 ]
[ -0.022213311748991316 0.267855160294898 -0.42853340078461327 0.9599192303793402 0.15555487284105304 -0.27416261759595184 0.23873533150692108 0.032223953814825505 0.3472613504111855 0.3411424468321912 -0.17030668933339102 -0.43093686093576444 -0.4878069206046666 0.10638735997120471 -0.24945818409669543 0.3322935632819557 -0.15555649342524516 0.09361472208566964 -0.24801415479790465 0.6913904169270625 -0.2293624084891525 0.5484450294600335 0.5480194979844698 0.223486525216972 -0.21621419573307243 -0.6354171434345696 -0.5397530298945931 -0.4699252215907798 -0.23264981645504745 -0.5806204657581705 0.1979929425973362 -0.4270890168762193 0.09026171820101847 0.014348112044025987 -0.2795054981499696 0.15685519906909348 0.28287071015933535 0.4831865670826237 -0.2322703329901823 0.3785737061233389 ]
[ -0.09873508561767133 0.2744326708195676 0.19154878969653452 -0.13531818878443466 0.17717439232950996 0.3594115504013047 0.029837418292385055 0.40506304442886254 0.1543270912703207 -0.2263790593777646 0.2066260798872284 -0.13492606480328914 -0.3230276485486769 -0.03951029626776007 -0.17680302464102501 -0.13982631794239095 -0.37607066511837034 0.09392668665403418 0.09656401095455855 -0.05525800095056647 -0.6799223893502421 0.35722020879899063 0.4147901629447574 0.5471981072767542 0.05352498451099008 -0.3368630017060544 -0.19333135812935928 0.27815185371192563 -0.04636191679024927 -0.0727807463596284 0.026172843493845244 -0.2889921503252283 -0.29687462154468497 -0.009425439803013863 0.3461536946061936 0.24339625760830297 -0.34458276531244486 -0.1534648094309981 -0.011826562959810829 0.0842516044540914 ]
[ -0.0738802488410208 -0.07758156608686277 -0.0077679907007178525 0.09038310951454603 -0.01723670966460422 0.06924336422900261 -0.21802675234714794 -0.2244237598987305 -0.47757957975542953 0.5177032546643056 -0.2345710757240952 -0.8130965709559017 0.43755506194661314 -0.2661942277553329 0.5126110814777936 -0.07679204901128191 0.47867310345183217 -0.11236765613205645 0.3260831068655877 -0.05738970383962396 0.4295358669015956 -0.21766758047595172 -0.2843873778143971 -0.5738615731167731 0.31071121643498645 -0.051535049164228006 -0.2081234631183873 -0.5351896501879355 0.34289246866155226 0.5132977076370951 0.25787819596359796 0.21361876599180335 0.09926851645074569 -0.14524711970518056 -0.47062436477543 -0.011032298299594533 -0.25282959352084633 0.2648244197086002 -0.36293381199570957 -0.24023485775746456 ]
[ -0.023559998759620285 0.07266270394859231 0.9159436682992302 -0.42781817141373774 0.1154936218401918 0.23410349960177798 -0.34790234013619187 -1.100345452927871 0.4719087472664304 -0.866923104082212 0.4417119341542169 0.9315843733267754 -0.5719513973441253 0.18858913770053115 -0.47085244007976396 0.020143825466173777 0.6756711210222756 0.8751114926955472 0.5198898517276134 -0.15105324099027703 -0.43798006848008586 0.03888661596745342 0.5625104020060877 -0.3712580870744944 -0.17515861219925177 -0.1555810538544052 -0.7201827142882414 -0.5174774948111149 -0.5471039726403383 -0.2396421797509507 -0.4364808024532946 0.5676403623788665 -0.1292648928090867 1.2988635431448519 -0.5745487797018738 -0.12429956104285199 0.21410714732160072 0.19393766476242538 -0.11838871982135094 -0.12403934871559805 ]
[ -0.09627622282215542 -0.11499928018410051 0.2856214322074401 0.038994712238199954 -0.3937060847413661 0.4939656817349415 -0.2597632648091423 0.11330741628692331 -0.04698533694300785 -0.20080297924484702 -0.5755247907713319 0.3414802902540623 0.213297579155804 -0.4760543095922467 -0.07308497188194353 0.24760226808473543 -0.2583219382633376 0.5187164190653407 -0.14882607553945634 -0.2104924448136388 0.5247906180181486 -0.19370159516445348 -0.4539680904628649 0.09268689808520757 0.4887250545651343 -0.17357838882980564 0.6775289615809332 0.35558989230904253 0.2146647121163562 0.27015730975974317 -0.023636905137845457 0.4845607484755172 0.433186787335573 0.04829995740583025 0.0017021713137361774 -0.16993387263639512 0.5463757125341792 -0.16298821397512142 -0.22585327781158576 -0.037039560308745154 ]
[ 0.024505089302141635 -0.5939211145296882 -0.4603618350068514 -1.004666923642841 -0.37891978491115513 0.6861720011262082 -0.25081297342765657 0.2832527637954944 -0.5337318327400656 0.15450763990294916 -0.11706360171943694 -0.022762763743664153 0.033604524829833254 0.08411868632942507 0.1842352417274047 -0.20922034693580105 -0.3688293981358898 0.529312839882508 0.1490531896668538 -0.6033643287908789 0.11119322704307369 -0.6079455526083953 -0.3784224097973987 0.47186413879765404 -0.19108451933793577 0.18139422141483066 0.6634483895264506 0.06239694957137292 0.46110092906611594 0.4005935218373983 -0.14582049025716992 0.37828996660883674 0.49914197915089853 0.2904928457563946 0.8783602664551491 -0.4315205312989012 -0.18059735753623746 -0.2620495175304767 -0.23524687406245864 -0.049560472779180756 ]
[ 0.359889014741347 0.03592910768540484 0.3622678237015185 -0.14860839485558927 0.47131306674222073 0.009253455732253387 0.6035015485629083 -0.06350516121462133 0.7473698649992825 -0.022720350912233313 0.2390621435416394 -0.21968722998270818 0.12584648743456955 0.39607855418178445 0.14053694608743958 0.1437819996095199 -0.31601938474727553 -0.3163364945275444 0.3497977897024311 0.23473091309649352 -0.3556301114258661 0.5782389257004544 0.34192918182645843 0.21212232137383727 0.18385491355560601 -0.5952955892775912 -0.645435162767506 0.44862498339444223 -0.3132376649202225 -0.19416618370345956 0.3061891534918355 -0.6194680534523969 -0.3642136501668776 0.06241461098574642 0.3152991037577407 0.32288553180049323 -0.6765417665991773 -0.4578663848952415 0.28070684412259583 -0.005162348309669686 ]
[ 0.07883798926418105 -0.1386862213138009 -0.46910457227731706 -0.3773504145009711 -0.4889014174867704 0.575792674004577 0.17498435573953983 -0.09050674712142151 -0.10769132954601157 0.2330247825912207 -0.02583557293384082 -0.17281085181453246 0.3277694969701987 -0.30098689543299234 -0.3021936072153991 0.2859558229078732 -0.10676365548051914 -0.12342473061627833 0.4364762921076821 -0.2937379945751985 0.3271598692626509 -0.1687541117820657 -0.30092036476573253 0.033626230358514364 0.4444161659525845 -0.09886221806601525 0.5763939918654791 0.3661369093278332 0.151524405046645 -0.14470301470564095 0.3504931838557628 0.6428206341913028 -0.924076157261213 0.12219811436592763 0.47507737870933003 0.07136006872457794 -0.32558989385140336 -0.333042163677642 0.4358592187294295 0.09992938863830747 ]
[ 0.022755099712327274 0.1766346521271909 0.2885302659984667 -0.049401466749952466 -0.08342330246459599 0.09906497916703608 -0.055117478864723034 -0.48256712215827846 -0.08211733486730133 -0.25233124574658145 0.006631559767522824 -0.5380987006900261 0.6123365187574594 0.16247356644649855 -0.14738210418409442 0.15039648086741167 -0.19154739589161793 0.39272021574001975 0.19129522700693663 0.24426366329763974 0.46018715441038904 -0.1711608097386931 0.2540669962923356 -0.29543752836714277 0.5476103030799098 -0.19395642398509227 0.267210513115723 0.3645820347546371 -0.12913444585343592 -0.14348244908813362 0.05327811211230042 -0.2594454641638485 0.6938626052967332 0.08404034525173573 0.030104869189238173 -0.0688966878352301 -0.40676054508704074 0.3052731266674175 -0.715184865009839 0.11482295634426766 ]
[ -0.17505135488227927 0.31295023442407954 0.5339376632081219 -0.23640840825600812 0.11434673818794071 -0.13885925562672555 0.1703361608980375 -0.6730168907326652 0.09819147463484916 -0.2704126291394768 0.14265547721862412 0.015269363371165093 -0.13503985310499064 -0.10829370752576611 -0.16025341925621958 0.16744929678554799 0.496982602966133 0.04112366863690064 -0.04135066561578837 0.18059356290095097 -0.156135114867688 0.25535036196274147 0.34601643921051484 -0.27439672122700387 0.07393760803805689 -0.08215317106418045 -0.5821535245086934 -0.6449261801546027 -0.0986201375955976 -0.4795110073543304 -0.18928434265355112 -0.14294321465967902 -0.34604409137323305 0.000998963616528022 -0.4787945427446477 0.12049688092195775 -0.5039411151551352 0.057670175512515534 -0.11499254798825695 -0.2452125809557133 ]
[ -0.17251842189153715 -0.24220175644418807 0.47723959818122763 -0.2704932064340105 -0.13004147275267403 0.4848662286336609 0.11144030999999548 -0.19994950976120265 -0.30440301434224587 -0.21100341024466857 -0.30689086188511305 0.16887827451256085 0.6450539976896036 -0.2350080121249422 -0.15376308131801303 -0.15043750562426333 0.1528692868895165 0.23631137785722692 0.45502136276081223 -0.06124843151633434 0.19686024412268452 -0.4651473380300821 -0.39309058697020555 0.045005821305266536 0.2629982305246232 0.23879402098126465 -0.2947020135299355 0.03714095170584905 0.19516535286709366 0.33188501577882146 -0.4261078451275153 -0.022398605539393362 0.16889101349326435 0.6134787261108144 0.24327050124101438 0.057347486831872393 -0.24912978743870368 0.06810711327918663 -0.6772494980007268 -0.4942029271926258 ]
[ -0.15365575792233255 0.04413964171923532 -0.016880659899026172 0.1137117477364069 0.4016324445632156 0.6005803220081862 -0.14378099961115998 0.31583161570218 0.651536107548077 -0.7451193544924666 0.09171363599593027 0.29332051977245166 0.12495555183841203 0.08147777895249708 -0.09297297064418475 0.34326429118514096 0.08112663149161564 0.13124880344110032 -0.11087347078370671 0.09786803299187675 -0.6482896959167661 0.08254790849286353 0.5642277884621587 -0.06259586640543705 0.23209387066344764 0.04884660701685511 -0.06401379436437601 0.3624539148306073 -0.15545095517636526 -0.49488550982677876 -0.1855047227646223 0.19305027517408896 -0.036087806886007615 0.5939454095175576 0.3894734847815471 0.31502449497436935 0.09187784785785225 0.2965446653470676 0.27259643972456454 -0.3040560951118288 ]
[ -0.0315628349850684 0.08301933150608576 0.09385681897307604 0.024855509231567912 0.187529312878355 -0.1596331479548257 0.13441438061672942 -0.19407476263325685 0.3624141950491065 -0.09268969923762906 0.3513255028268029 -0.20544182138909678 -0.1861720108967703 0.13101070481434693 0.03992663177970748 -0.02085759170003313 0.1101528596903161 -0.18240430711529715 0.05466426772226321 0.1769988209054269 -0.3680764996271714 0.37746764557817125 0.3929011321947414 0.07593032624580112 -0.03085134716856754 -0.296823132273086 -0.6129656407654808 0.012173193575157634 -0.23311564993398373 -0.3999185570576157 0.3322473338095023 -0.21580876901235374 0.019755055954738775 -0.1474720489021296 -0.06966338365473279 0.05247650238319851 -0.6858311858384656 -0.0967501007011499 -0.06255580511288268 0.1101978238828255 ]
layer 3 Activation
tanh
layer 4 Dense
40 20
[ 0.16932733384055357 -0.15546492354576416 -0.498981890860856 -0.035874253071916815 -0.3542501525311579 -0.0159610563675813 -0.09751420968557169 -0.069309590924434 0.05116008339829846 -0.1886060916288336 0.18415571129049016 0.38180709374951466 0.19933954150718527 -0.20352215193080386 0.07340815521643257 -0.3271952807316542 0.21319103622365287 0.06957029599480907 -0.15067037812472744 -0.07609701076340487 ]
[ -0.23697051948692416 0.02043362534591383 -0.2396280171504648 -0.17501445123346132 -0.21623906058213968 -0.5290092233936289 -0.12982509511077847 -0.06394099919083704 0.2649107089636221 -0.019035546764601532 -0.1607602547151172 -0.12010961990022428 0.21867763607549642 -0.1878897700729539 0.27419242101282076 -0.0044860611643558574 -0.2956948962401766 0.1583996695407586 0.11006188318097547 0.10691450148874593 ]
[ 0.5824641992121466 -0.06496173931264736 0.30293247519876076 0.6772446097963936 -0.22765008871993175 0.042585071049610256 0.2006042811907322 0.2558470261538727 -0.13783432751697433 0.052997592788096855 -0.056523024599738375 -0.2202659793918993 0.06973188055718062 0.04797853511931139 -0.017223259803158204 0.02893801148911411 0.0027625282543036578 0.24506756236082766 -0.1279194494935584 -0.18496931476489456 ]
[ 0.12834978611186054 -0.10080676690928121 0.06933197716477162 -0.2859998759682749 -0.48894870791848694 0.027512082811235915 0.26367337886745534 0.29520967966917044 0.3585529152136223 0.1801491743622263 -0.04083874191229671 -0.04752766443323585 -0.16180442800445166 0.08173668336838359 -0.26078243293991277 0.1506323187424463 0.3292922273348016 0.19358539625268015 -0.17800279600755292 0.5673886625007092 ]
[ 0.3781988094576704 0.12260868803083179 0.11232224425642859 0.06399278114793873 0.18334306685550322 0.19019867773640395 0.28337212637699 0.4169595771280482 -0.023157282012673756 0.15789442831019118 -0.06601780444177908 -0.12564579058068467 0.06638681089686346 -0.05634331667059016 -0.3091017321919019 -0.08827890379762375 -0.023195777352171928 -0.12589849392774216 -0.4874586564452579 0.3886423838443304 ]
[ -0.1502795166773865 0.18743095870187926 -0.10787253999466181 0.27161597451631797 0.20440605654212113 0.11240010532158529 -0.09303997896177357 -0.1765053318032274 -0.18168491229379846 -0.0851531808751431 0.10171164496724089 0.2991465984913856 -0.2547633003525734 -0.06148119858884842 0.46847914253744827 0.30931885908190093 -0.4608618245992859 0.058677088813203944 0.1389490506346199 -0.2089778712211184 ]
[ 0.3526494707395709 0.052104811020146455 0.01925248877793701 0.047460538388604895 0.1705659724220008 0.09579247125002105 -0.28401323116971133 0.3274681375965128 -0.22483676312881432 -0.29587699072801393 0.10853223779543912 -0.17411735990114244 -0.14811720279103857 -0.22057513263302325 -0.05272127044133195 -0.11026641664318863 0.3093777503743619 0.05819310156687121 -0.3459476226020405 0.3536851393467706 ]
[ -0.16164199732497675 0.07432497023627237 -0.593156349053841 0.23913846897629423 0.3517244562043996 -0.10892441163758329 -0.28948145837423256 0.10322751779899951 0.01074577205043598 0.20178589592205584 0.19299723767037058 0.25778348549632035 -0.06881191895308574 -0.11687684638135712 -0.2972856650006557 0.18323648643687154 0.1921594066283616 -0.42674272462759494 -0.2548509801168249 0.2930945347362796 ]
[ 0.22956557992678422 -0.22290376776821266 -0.7743871153699262 0.2966131119730092 -0.1110890844725964 0.06693363770749186 0.396703090045113 0.6706048250222332 -0.071687809565956 0.20599924147654905 -0.08924173673631086 -0.037956985729095706 -0.18686204784581653 0.20053427319881575 0.303818600726684 0.00498657202978639 -0.008776026196458231 0.3668849286958036 -0.32739128293990694 0.17872211907230243 ]
[ -0.3090633161527201 0.07211403587025138 -0.18176012401624017 -0.20244585646913432 -0.4698332766648391 0.0036101315149902275 -0.07772536671544658 -0.446765072807106 0.07281507848999923 0.015421694372277833 0.1495007276052278 0.26232117342524425 0.26037472434411074 -0.6023419327639483 0.26403060466602163 0.2069683559506483 0.1008743277122806 0.169107187265939 -0.33536468120414675 0.08277099081035806 ]
[ 0.19921903158862875 0.1919963605921039 0.023694981980993082 0.22549979278777288 -0.18752423104430874 0.20439558540273617 0.141044773186076 0.1356104858850045 -0.24297322723909826 -0.19033136589739746 0.3527860284630247 -0.2669089867076678 -0.09416098661420962 -0.11968940746632227 0.3432492408224535 -0.13848030556316857 -0.11646927265601036 -0.025753137679708635 -0.18088070058584776 -0.033426754808477475 ]
[ 0.10103997346716531 -0.2569208195714262 -0.22697353401637652 0.047204614929994795 0.32197212304881573 0.4481681888418155 0.3687875974310963 0.3477223876055085 0.35713461288070414 0.20509598842702664 0.05077524700646425 0.1535535479978085 -0.2250913234446954 0.5445016030356796 -0.3300956807520128 0.13535088690645225 0.06522379775453258 -0.5353532795776723 0.06052776426801028 0.030306342590059678 ]
[ -0.03217529729998384 0.022276302203712885 0.2839119915426973 -0.047706198217737104 0.041232212382421335 0.041451978912232214 -0.21730431813662074 -0.2053260090856853 -0.11077916568130673 -0.008526429705137721 0.20754606068225961 0.3638771236275814 0.17338340082341913 -0.008201935136550716 0.004170852836071587 -0.43548571120138324 -0.12717578608230362 -0.48052948556849173 -0.17309268477787487 -0.20494127457543096 ]
[ 0.2868194410657245 -0.0764758005532773 -0.4253149320274597 0.11716654965534244 0.2060239848012537 0.04948983555564802 -0.15703436357122835 0.12965662482947576 -0.32929973071225127 0.06135276977112643 0.23807532645084303 -0.0436445928563982 -0.3809217231987284 -0.014173367726709593 -0.17887289972793682 -0.1805530614253361 0.022068437266383897 0.1940116357859175 -0.1296992419801026 0.1841230596228851 ]
[ -0.05064201437804997 0.0739784955957734 -0.4478761736906069 -0.5077695287109056 -0.1351938560573532 -0.16372266497654867 -0.060251253863610583 -0.2929206091836414 0.22553451684613224 -0.0281536785375205 0.29474164116249374 -0.22695031036251043 -0.22116023996213494 -0.46408108432457384 0.2960559996016194 -0.3629223116342863 0.0038675976765030614 0.3702100055266546 -0.028054231023148076 0.23106556019469865 ]
[ -0.12082080253318528 0.13082456655788763 -0.3850527616119234 -0.30266150828486466 -0.13487533405297145 -0.05300703339903213 -0.03424432237881975 0.5247106178998144 0.1658243876302354 -0.21451525356311585 0.11636356256588966 0.10464121928993486 0.1931739665752676 -0.0329100014573173 0.11993951629530189 -0.31831598935037086 -0.13339167415752387 0.11588102892521013 -0.01401807724542665 0.021109707491260142 ]
[ 0.5333521092017245 -0.07575012706948875 0.3712966183509905 0.24152098848277065 -0.5048983658031475 0.10042726010544119 0.23099042132132544 -0.1359099147957309 0.2847292221051688 -0.5896766567776413 -0.018611330698972958 -0.18163327102716345 -0.5164927999290703 0.05441194926490975 0.3214021748818545 -0.11544155889746688 -0.08732351811652642 0.23588968681167538 -0.07764975752545175 -0.0893158146338894 ]
[ -0.06890756979020059 -0.15348480450246843 0.6844830343914248 0.07253831217126573 -0.13008798152704923 0.06824444445428786 0.25169290165731384 0.21878455066669927 0.14243276210803357 0.08990338470922392 -0.3106361250756769 0.05668577959581485 0.3656156750959418 0.4513865525235097 -0.2432398517160687 0.2722071149592456 0.4061477668541632 -0.19566500641398954 0.2705767188390634 -0.4077828967294958 ]
[ -0.06784140909807283 0.23234602533733129 0.24884635222690446 -0.33248565642588895 0.16815292689417388 -0.31701289423704954 -0.3356063807741934 -0.22745084445868186 -0.10382066311372563 -0.37929480634671037 -0.03488514723863216 -0.2847560941732864 0.022254404414052183 -0.3879322881806042 0.3496989390867493 -0.3106475870480807 -0.32620865507611047 -0.13176087164345138 -0.030471151148895263 -0.38421152455488217 ]
[ -0.22269950285305745 0.022790942744356266 -0.30544724104093074 -0.22852818501978495 -0.07361115435189002 -0.29799565990891347 0.13240337934761254 0.22527916683980112 0.1955696310230041 -0.36623936961250103 0.25859574535548563 -0.28068839282797425 0.02520517256737207 -0.25969938567187983 -0.07482500328580244 -0.17594264337181179 -0.11863536270152007 0.33490376181024784 -0.18223093769406062 0.2030488346827196 ]
[ -0.23523444630431967 0.014549877677497925 0.06957232101070245 -0.6732385257452156 0.22087372898856905 -0.002016113377453547 -0.35212375884505737 -0.40791299256459845 0.2999896037223747 -0.3099551296099136 -0.13624828532574682 0.43301420881155933 -0.0371394220692821 -0.261204559735035 0.25647722789340727 -0.25933223194119887 -0.5680091116199649 -0.320610226307255 0.4011954336147961 -0.13809065997060202 ]
[ 0.1221851026746349 -0.3569525195492236 -0.11554447554512551 0.24766886196451468 -0.22297562307774366 -0.2310667672937473 0.20921598277555148 0.6153457341402345 -0.24104569940993598 -0.04508837580856099 0.3354708491391095 -0.31470275463372366 -0.5529523569258525 0.0031835223086658614 -0.12360175260838902 -0.5323316522144058 0.3986778477197847 0.11476521733771342 -0.5498036983140955 0.8031168392814674 ]
[ 0.28767567348146816 0.07023040827225674 -0.5436761333561618 0.2765024423550251 0.28068444641657847 0.044471124672190714 0.1539084417927507 0.4696960342607476 -0.016512856376482535 -0.09432606831789235 -0.01753214956596885 -0.39423797321473314 -0.309052653851533 0.24044388151408402 -0.08783104509248936 0.05651534007931169 0.3499395318785995 0.06783643982619487 -0.46943028503728856 0.28426037808098803 ]
[ 0.23929206440698428 -0.09372264795182766 -0.24967826909170762 0.0739679941627564 0.46063894583704246 -0.0638878058591817 -0.32534502841251783 0.32896791386047 -0.2682244970362572 -0.21132755642842246 -0.006508129613599166 -0.02111293111953056 -0.20238823681785703 0.25071488504317496 -0.34945762347753045 -0.13456579369038435 -0.29585370643267217 -0.22501443124767045 -0.23573951129063686 -0.28955170083457027 ]
[ -0.23540854311783999 -0.17186133076259724 0.46580221991285986 0.032756155758100626 0.13440766241676227 0.02028141065725671 -0.05425977064809395 0.10081792242244031 -0.1320730666331919 0.047712207340445324 -0.26289213535725403 0.20084580273740277 -0.036184759384409404 -0.06778394939067721 0.5073510890557247 -0.1808580170451969 0.04958542206676402 -0.09146640951843073 -0.10866135627884302 -0.26199246518761904 ]
[ 0.06938581567334226 0.40654271700702915 0.44623670779159885 -0.16170975949264071 0.306547505821214 0.33119989859029686 0.38619915939085464 -0.32527523935094044 0.06000677828747591 0.1619272344665447 -0.03260784416264181 0.43053185045486314 0.34973308067117553 0.13878286306563678 -0.07650086801560232 0.13964860483708716 -0.04668598522866212 0.2911291639497786 0.1786306531609408 0.14407515913436075 ]
[ -0.9030890091785735 0.1698950795877902 -0.5231723157417449 -0.2800604439491695 0.2979662935587557 0.14148821135424014 -0.33582036668527326 -0.931140152720444 -0.610387451590671 0.5149831664359342 0.10982813341799258 1.3138258052501566 0.13831573888625115 -0.3022808783878064 0.3787430777210482 0.08639955468613787 0.02857726660236201 -0.25188066100600853 -0.3580868028095072 -0.37316497017455863 ]
[ -0.1155027307255723 -0.03543957763501305 -0.18678593173763164 0.22350431104939264 0.46707684936764743 0.2513057367569243 -0.19169492254783466 0.3067273774821096 -0.4702203606136747 0.04583127538688888 0.1120449453559557 -0.04005402828942085 -0.05921266151182795 0.46922055629252407 -0.17108705076218297 0.13906639718995126 -0.061158222283071384 -0.2545879109340146 -0.4801376908376783 0.10197301877905578 ]
[ -0.07280842326509979 0.11800087462219658 0.1438870073862414 -0.40957260378786264 -0.2509786046688076 -0.004811146209095974 0.062409680789640536 -0.27255463478661174 0.06740051388154254 0.003524930557465492 0.30651091252198903 0.2631710298230087 0.1257898002340078 -0.20482026895802966 -0.028566182393957803 0.046589550930947396 -0.11763775293339537 -0.29572182848200074 0.4551786365119891 -0.29701565518250483 ]
[ -0.027364198458247713 0.34528809710558156 -0.09690910640006639 -0.2299175211986269 -0.00014993994597377065 0.0994428047835865 -0.1702792873610794 -0.7005737771237206 0.2777364966885598 0.23177027865296362 -0.1684677861263988 0.17913298567528455 -0.08526152108906707 0.029982402184766842 0.1208143036228486 0.07181041032939003 0.02682469966535736 -0.14333017351837482 0.30623807833273614 -0.23120112360050474 ]
[ 0.034369342593469535 0.2093309513697023 -0.15533752370991857 0.03674698313626077 -0.03193358478596234 -0.5030694639740976 -0.10865366582390949 0.28991261628368387 -0.3103916621330029 0.06034335603099133 -0.06817605639512984 -0.10544868515891254 -0.031175134377220085 -0.14806801992258067 0.3836966331597669 -0.3207477611927332 0.12808740085971274 0.5335618699637156 -0.0028012714922367268 -0.06572578158568697 ]
[ 0.06638751375957747 -0.2590777369236547 0.09383642310348171 0.028250689568582076 -0.30415844432240663 0.39981200532303046 0.18454941012466616 -0.1496299122876299 -0.04980460794381837 0.4593546275742886 0.12436245540356829 0.07195108576486742 0.22680068436463782 -0.15604611707080465 0.09996440245616367 0.20153949176030714 -0.2711468951179767 -0.15128027746527992 0.19395966372484058 -0.42233303055241783 ]
[ 0.14972922453214468 -0.3497116187117038 -0.08448366495443989 -0.2291218057660591 -0.06322135611956385 -0.0010274831624922072 0.5938320178499755 -0.05890558056505111 0.4015889433297363 0.04470921663347275 -0.18566317679812558 -0.24170357975633625 0.051235640709763226 0.01657441641647932 -0.3938408003030354 -0.17354717427634386 -0.1875774193900345 0.21173729071446912 0.21488514540953163 0.24516942762206062 ]
[ 0.23716373616743433 0.12820487820433965 0.3856416659675536 0.42358419346743514 0.3360306166994322 0.47154021684966774 0.2842002838896566 -0.26480919488348864 -0.15628235658243167 0.4323042337607151 0.07103817992054157 -0.11829742333212186 -0.05526964542256582 0.32522654306332244 0.2105549941476182 -0.11532324144368014 0.30989584280614924 -0.46171706927948014 0.3687835326144526 -0.2533173423857051 ]
[ 0.02222813679184702 -0.16986403441310444 -0.6182595184918317 0.4204993713168584 0.3251653259399789 0.2476108775597858 -0.1558098353739442 -0.10589837356766635 -0.14737206893072208 0.23998082946904095 -0.1111397305292548 0.3429998809773778 0.2790013066759958 0.5606919969869182 -0.4112133395591995 -0.2898419086652953 -0.4443982814916874 -0.48577420983313074 -0.4138283044774095 -0.35378044562132327 ]
[ -0.07945019086557223 -0.10951065179176216 -0.44013840094255935 0.024761644754989983 0.01661418032107907 0.15855789963048594 0.054364002147659914 0.2585575931984897 0.03825624361010498 0.19834755388517364 0.44308538882002874 -0.1558342435334236 -0.23538394881059732 -0.26269893695826596 -0.15921035680399706 -0.14249718167619077 -0.2960290566260713 0.006183431060194216 -0.08024237774352118 0.3504484496725156 ]
[ -0.5386727249982952 0.20379288988100833 0.28847679737 0.1334381490056719 0.08303532322667183 0.4775911630954169 0.35430421130300493 0.16890523053492326 0.3661872263531543 0.3983347336064728 -0.03032352243463883 0.6447216824956062 -0.04644622651729977 0.10223729083221944 -0.4742535165339208 -0.019556833666641838 0.40616584399473116 -0.3548248074788732 0.42310359600911035 -0.09326639972543141 ]
[ -0.04191576842644157 0.4246764428341984 -0.21680781575596764 -0.7486265669491272 -0.3688248826916511 -0.21660210883063388 -0.08348036924459426 -0.23265822354786242 0.4928409171238388 -0.017336411551484143 0.13873290468176655 0.034854948532180983 0.3340363133305299 -0.2973551854918626 0.17053466858101174 0.2801160428071068 -0.2648110780698399 0.04241390862709852 0.20005062011035735 -0.19838205931266648 ]
[ -0.12906821412564465 -0.3755755241283479 -0.33308204163233107 -0.25415965555473 -0.057393953176721836 -0.16710924755718304 -0.244478223945465 0.15305894760037725 -0.08671886273813587 0.17870672497399473 -0.1371579813296345 0.3667656255097973 -0.10721032870664936 -0.2686751099726778 0.4278099214638165 0.17540114464796558 0.06392423373300507 -0.18991848239882972 -0.19217321263268466 -0.21458737562369504 ]
[ -0.22631916805683336 -0.16063450004270483 -0.2971934286169541 0.26865371660129206 -0.07645052551855064 -0.10218885088433444 -0.34347805301116763 0.027500796163057183 -0.041872748862048 -0.14239400778324698 0.13966458071736343 -0.16420038863624328 0.1946569164662754 -0.09260601292832328 0.12572608598401086 -0.3814200211752773 0.12179414592021737 -0.29122972181542245 -0.20080344871422673 0.1861270963592244 ]
[ 0.20577644974907383 0.04253335520194795 -0.030074435178606647 0.023045497300473127 0.0814194689065985 -0.14109281888469777 0.0010671352327764616 0.051447400406931076 -0.11332471026890502 -0.35795335157092045 0.105931955956862 -0.4887178587368011 -0.07108967436657887 -0.0930119391706605 0.1658924974291536 -0.20900917722522067 -0.03145690956492455 0.11351072732385734 -0.07130799768103255 0.046397001755260806 ]
layer 5 Activation
tanh
layer 6 Dense
20 1
[ -0.31595718809452145 ]
[ 0.001729071363617591 ]
[ -0.10408443972706312 ]
[ -0.18558881195593027 ]
[ 0.43735694356806404 ]
[ -0.32610542968995293 ]
[ 0.010164592297446201 ]
[ -0.28654318186657 ]
[ -0.2652540260873233 ]
[ -0.02404943343803856 ]
[ 0.055756359021904206 ]
[ 0.35079895470293865 ]
[ 0.01870146380728487 ]
[ -0.3595128844547591 ]
[ 0.15996427817470318 ]
[ -0.026054007993657258 ]
[ -0.04110985352297353 ]
[ -0.3021252813196933 ]
[ -0.4020138276979011 ]
[ -0.1101262428509181 ]
[ 0.36427904022200464 ]
