layers 7
layer 0 Dense
20 20
[ 0.04672712546249701 -0.15658444152548243 -0.5290303324282803 0.004053197840930424 -0.07825363188332317 -0.004774983601469959 -0.6993086807876588 -0.2388060527827872 -0.29629799838097476 0.327838063643422 -0.6437763805462579 -0.5747743830715315 0.3276764947958156 0.6472917278473406 -0.20018874355228697 -0.12388415202601909 -0.012796389152333144 -0.131280670002436 -0.5676245422390181 0.3846987165822258 ]
[ -0.05455516983870738 0.23062607735583238 0.05216657147953384 -0.33558500429516896 -0.27084882345422473 0.18580466141924964 0.21097621216495768 0.15692868550854727 0.006383320432442428 -0.30115336018094563 -0.11022483877650452 -0.13776891415934 -0.1812037535798683 0.34917543453896144 -0.2048223146797073 0.36462151276187543 -0.2905980075757701 0.18146926608045644 0.12358826975445425 0.2049364064266056 ]
[ -0.10857985281358667 0.3595307813204953 0.2122669157590151 0.04959581038483384 -0.2626030624808939 0.279459273481011 0.09892665649262963 0.05159410335084709 -0.13977005318900518 -0.34564145866570706 -0.12889382751266953 0.373367222596698 -0.06823877362413508 0.1918309976462683 -0.3479870451565008 -0.17576301567801866 -0.3559667658304012 0.3790491914850641 -0.08689171451602193 0.2725507334639141 ]
[ -0.28143680476390304 -0.10490731165130537 -0.3544126225906925 -0.07804869743790024 -0.12019776256312252 -0.3506181030918846 -0.18952318204426888 -0.32286900065315155 -0.21594137800514118 -0.03282717245346556 -0.05244900302227038 -0.21199504174809097 -0.33389396469770427 0.11763548773299543 0.3274646085619884 0.07632048876322971 -0.3871223905554436 0.53551973638024 -0.5281697375703448 0.18326196449695703 ]
[ -0.2313221821477282 0.4025417297240718 -0.14734804082586678 -0.24483082717208288 -0.3586505667335486 0.05463997195218101 -0.18406907816876028 0.4177258865729784 0.0010348934799946073 -0.31955961767459073 0.11121564848346269 -0.43447953387476257 0.37950010589418354 0.6561234633111807 0.1658844013627931 -0.5218363667376134 -0.3929882629953176 -0.4249621703321026 0.14699390094531786 0.2081095812126655 ]
[ -0.0075234707009622925 -0.14384892506660837 -0.18708924943194127 -0.3029460350783666 -0.10964870274449691 -0.007312826303374854 -0.37286406817560763 -0.20122007332006836 -0.07331107443624993 0.21576835577119666 -0.14544065003623752 0.34712669360870907 -0.02240168074778945 -0.30603321558674024 -0.353685187721514 0.3143242504194405 0.32152120496454045 0.38312774331380395 -0.30473261007188207 -0.030243242559348554 ]
[ -0.16430173834192424 -0.2657538945136113 -0.00033031105690813485 -0.08793141293434306 -0.1651204106290368 0.13874273618857963 -0.1306125351699595 -0.3024756217791225 0.15468829238922027 0.0868625796795393 0.13993577051107325 0.19596218407616228 -0.2394087550293255 -0.006914052937498537 -0.09843194680038966 0.2327386338710352 0.2502749396478133 -0.23656186005915086 0.34409772502728 0.0030152470540976486 ]
[ 0.18791185042872882 0.11997824893054462 0.08176258003642779 -0.050627522211678294 0.17988832650312642 0.2388596768574671 0.36701264337240996 0.16234067822098014 -0.46395735083508544 -0.12273344625190984 0.6137661229292305 0.46188502292044187 -0.240130591994054 -0.2380833972311199 0.011265937223191335 0.727861460307507 0.057211546955298356 -0.1614752623935048 0.19729111210680697 -0.28418316254549747 ]
[ -0.18742792506846928 0.2956504792824804 -0.11237636106577366 0.6127116878405463 0.03984520716095998 0.6081810621547169 0.19165352136953873 0.12052443821047917 -0.43835077867462013 -0.26362246551771507 -0.337542050723378 -0.4200276051861124 0.11686538766450165 -0.27805750196682444 -0.1807455324694401 -0.12567387810301792 -0.27309272681600383 0.3082534583687788 -0.567234469729123 0.06848063493422525 ]
[ 0.9381439813059919 -0.8740878342243963 1.3058905800231018 -0.0315431216164841 -0.2844915962135622 0.20131916989448548 -0.38908080360037445 0.16397992978576165 0.9220866200590249 0.3977545069142784 0.14448067555759647 0.004695650908970698 -0.6378671647402774 -0.0921862493976613 -0.12243413721101663 -0.6060096660001439 -0.40801802355372635 0.24108037538169785 0.39132313831606963 0.14591644998129538 ]
[ -0.43968598719406665 -0.5170701960869787 0.0737335110128964 0.4891726179082282 0.6032988686571645 1.0182513026131277 1.0402038429063256 -0.022711106199301157 -0.7000422540602549 0.9139930493234613 -0.23785161159716373 -0.1831217047886116 0.5139471989650106 -0.08721754179701985 -0.6955920296594609 0.5311595649834223 0.15192946759150328 -0.08044510242243864 0.40767889375209876 1.1198310477386142 ]
[ 0.6289341098475302 -0.3570314505997865 -0.5649933036601468 -0.5433758574332713 1.498679238498108 -0.20463341196191404 -0.9163913534929101 0.07383074687714807 0.04016175411683093 0.1381732520884225 -0.3589822603049939 0.34364333237295447 -0.5766153256311198 -0.22903498007786532 -0.2280417607220432 0.1291049804707302 -0.02387430461585553 -0.6839124384011265 -1.4986747454725546 -0.08451015574564497 ]
[ -0.627281334542121 -0.3147163068549666 -0.6036099498920338 -0.8685501861674183 -0.32085468043568993 -1.3161705626453488 0.51979474980801 0.8667022930147238 0.23254141324404942 0.726050316486801 0.7052390159299803 1.434384013914416 -0.7445099434931006 1.034297633884952 -0.054344346400844956 0.4099398016921309 -0.09088119684781425 -1.2659321974587021 1.1915210327069845 0.18023943039602397 ]
[ -0.16997780392571354 -0.021254344431769222 -0.13728746146407375 0.013113877600235507 -0.14005657632422858 0.11491499037195113 0.09149675376566987 -0.4456508494062832 0.033367446566083134 0.32496593809628677 -0.09864776133911904 -0.21082306148801963 0.16591328338254335 0.10963282452511165 0.07407122153743251 -0.10547182111705956 0.1526108714195143 -0.806454527718205 0.2040008709721167 0.336686722125537 ]
[ 0.14094251969784163 0.14329072920274727 0.1137047338534628 0.17259599075165954 0.28623254617442323 0.11031706439939211 0.04274468323973354 -0.48943674805391657 0.2860509615502071 0.049564765755456645 -0.0665135880178871 0.20907402732110633 0.1462426950370299 -0.019619409111001296 -0.06831972154412094 0.029081759292822387 0.079958057229981 0.019252309743081383 0.026442004355258914 0.012098798527979158 ]
[ -0.5188578736472553 1.3507354319518727 0.36324191984138415 1.201060965544035 0.2261162320967218 0.8272029224601454 1.347174362843899 -0.4769521253344209 0.3733336212388826 -0.2897461677238785 0.586553392440831 -0.9611720484323358 0.8720013974223991 0.06258241013928002 0.1161989362546609 -0.19253260309270726 -0.39450486865534173 0.8510502444277274 -0.059479988647939346 -1.1094353231677598 ]
[ 0.1993576906191059 -0.06789468743854064 0.46414297347061206 0.40269723036495275 -0.16073994046045864 0.6749511847359683 -0.338836449394666 -0.16994996141452476 0.25682587436932874 -0.6265566698052695 -0.17050158785161906 -0.6561166021571438 0.5757967190789779 0.21026477297156138 0.3566383190197014 -0.3425194072586729 -0.5913355497934691 0.07795720100713108 -0.34769293159263226 -0.012394424281263658 ]
[ -0.36343438692911895 1.1033280363830387 -0.7119089357098227 -0.3478177119460156 -0.36209919540527796 -0.5821618536795086 0.1707266450278492 -0.08484096598563505 -0.8540640786681848 0.17655202237192513 -0.005553601023958203 0.17089316800668136 1.2875997391696048 -0.2251990757290242 0.8918873420439536 0.8913452791374675 -0.5580112421889469 0.8363638471564078 -0.1336686357990417 0.09465376680781017 ]
[ 0.14610251168347632 0.5433016493701107 -0.13741650628201274 -0.18519546412566812 -0.16234293570808794 -0.9729797333937192 -0.5553649280707399 -0.02657316203236197 0.1488731797590903 -0.7025991857418176 -0.23675761272393395 -0.30312799824587666 -0.2678760396068119 0.5405285554722318 0.16562962627436775 0.1490491154401402 -0.6658079444005135 -0.1574322366273362 -0.09059192941252586 -0.8934159593972183 ]
[ -0.08041585731214788 -0.7459394439659506 -0.047300277816004675 -0.9558937144508907 -0.44679734919463426 -0.4995759035275696 -0.4216941632779847 1.017811115713987 -0.38997430646336056 -0.21396941108479026 0.0015800677892149342 0.6621335158335808 -0.574984752364357 -1.0459994366734997 -0.07093347222715189 0.8306811462152603 0.22808172797487467 -0.7153256366659095 -0.13002635991035677 1.1564819568909412 ]
[ -0.01208509732912782 -0.015012393964032625 -0.1504930174787034 -0.07163242656428058 -0.013002948638286856 -0.3211095884957531 -0.29083093062556703 -0.11093112519524971 0.026826935939302566 0.18034996473670745 -0.27155986320678155 -0.10889438501216132 -0.0815993432996685 0.09920919113948448 -0.018681828281103593 -0.14649847045230197 -0.04008073423243287 0.22459971305660512 -0.07355857251824567 0.15148033824797408 ]
layer 1 Activation
tanh
layer 2 Dense
20 40
[ -0.24173814818119668 -0.370625892039389 0.037448820699291986 -0.6819001788550358 0.09210458647868472 0.0065586905160955646 -0.4209023649265183 0.11699627745230552 0.24751568164818602 -0.053255718634240605 0.23442946069564727 0.020869922511831503 -0.024858383624724652 -0.2093672356934469 -0.36067660206151364 0.329608188152353 0.16278382022925494 0.03424326831496309 0.5191251489686214 0.32945113293994277 0.4209203861819145 0.44624710458787153 -0.10661397980836818 0.037930433406961464 -0.09229598837410051 0.21516613743047844 -0.30576035801597207 -0.3385520937806641 0.3822844681673817 0.5233248631870129 0.31773989481512327 -0.37341318568076676 -0.35199480730143995 0.19320600665549217 -0.33384414494405557 0.007570248547761948 0.31464861750355 -0.2888596003861386 -0.30389158330270094 -0.19014740845633418 ]
[ -0.034435207977116654 0.11095634254749094 0.27593546005781716 0.08288317663260934 0.12646303981778745 -0.3811216878868661 -0.15240969275450025 0.06748874281683963 -0.47564367849598976 0.04276326116949498 0.13879555045412165 -0.22759542831171378 0.11756596029846916 0.11760129291338602 0.11125507907292675 -0.1085857096079144 0.43665137340675875 0.055458080548875834 -0.21084770650423726 -0.260435959728689 -0.4815785869595296 0.5216471903531283 0.009189058825815768 0.11999501538886435 0.11847297611480799 0.265790866398522 -0.04318516033117636 0.2783775951737872 -0.1286263208464265 -0.036846969359827245 -0.34272509651558763 -0.34874227068524377 -0.050224458007520484 -0.10984554118211583 0.42143514168777324 0.24746519449566284 -0.29575433588166583 0.36830021247282396 -0.02751977240843779 0.21639908254841944 ]
[ -0.4220941282595157 -0.02402926594962344 -0.27036490173783223 -0.3504463287114877 0.390411840441655 -0.13585767740806873 0.05038740591895318 0.24555183679024484 0.3354632213138862 0.041555346139697635 0.07970657984936977 -0.0554768399331628 -0.43722058854959617 -0.2855842740038011 -0.300310605222127 0.07459669308037843 0.15124956412686938 0.056742750863680316 0.4218755190057017 0.2706082490967275 0.2182192952580741 -0.025061966371362036 0.08711231264604491 0.10698002078614374 0.22368255545069654 0.3645809501391434 0.19166793003188592 -0.1250613760681614 0.45013096020454646 0.5137596058511639 -0.2686111398753529 -0.7581422964044926 -0.09306883246231755 -0.02079037615873952 -0.48668772975482233 0.05150263167281213 0.48841825715790094 -0.34804268759108875 0.09564779507377835 -0.29200882029339215 ]
[ -0.20061688763758906 0.18832811804610824 -0.8568061658467966 0.46415608648105006 -0.013971110426912065 -1.0808593752795534 -0.29141049593500357 0.18617760696726157 -0.3751142972259654 0.029372389776513134 0.0039809837345599055 0.07903203560144832 -0.49895172355945666 0.1987135767826236 0.23646034474514158 -0.5326848675453373 1.0628662470153871 -0.06027875134255551 -0.08244140683430017 0.0870257020184765 0.3346636193177315 -0.33093640685609044 0.3226815025720698 0.15890845614146576 -0.28965838049399517 0.2812510294160702 -0.018806391346978837 0.09658942936645583 0.0003969594724592809 0.29902094862166756 -0.020162539371051884 -0.06347229616502871 0.28628828972746767 -0.01716392244935585 -0.1989162882630589 -0.012743341034220725 -0.07552433213852053 -0.47323168174404645 0.08079585595711694 0.10632152434435657 ]
[ 0.22652368069702522 -0.12267431776710729 -0.19361441404512916 0.0015739877974529962 0.16745577282740923 -0.18998749291475234 0.27310199977438143 -0.28326382562802577 -0.05212959304587928 0.12222695679323725 0.25539000807832885 -0.20618763881524854 -0.2367122911401705 -0.19010059048525937 0.3594941595549292 0.26784246015999447 -0.14393540586039003 -0.2722075352951799 0.03197474771862935 -0.08337663189336947 0.39446234692598703 0.3583136019704344 0.11131794089810541 -0.07868265351934951 -0.05853673294836688 0.1565416472423602 -0.24822020670416084 0.018541386697883272 -0.09563845711032529 -0.03357150341433291 0.38323216897934564 -0.13128528876142725 0.28043780140151625 -0.26020121521746004 0.08900709257734915 -0.45618724487828377 0.05704811942435949 -0.59207694653939 -0.17808857735315617 -0.28504662965537303 ]
[ -0.3132947444708296 0.5561849631675728 -0.06728056353926576 0.6054083093256305 -0.4369339424936336 -0.8216242168286032 0.26912124737505827 0.029200460930557573 -0.11584644414830524 0.19010903824524972 0.3793449803837833 0.0486018984337485 -0.3210697347490624 -0.20386525930551566 0.6214078463571923 -0.2491352152562834 0.5499541336738165 -0.18901535604448308 -0.11863053035032058 0.15330644865308032 -0.5050444581058627 -0.5336833111611475 0.27309007870077145 0.5534856851736502 0.028753329502404005 0.27231627189071994 0.45117278409813777 0.6970261550595004 0.14107952061579987 0.7105799270435783 0.09258579020928841 0.24126575966170388 0.2794831952638924 -0.1754582870586965 -0.6549793165555005 -0.41743298128463246 -0.2738806009563542 -0.42584581886707845 -0.5986435487478873 -0.24925756962292311 ]
[ 0.31587942585247625 0.07019078934683913 -0.8616281162225157 0.4551636215706886 -0.10322975905823795 0.17049853514347058 -0.0393290700135697 0.2788532849311727 -0.42760235014600795 -0.14783736711048287 -0.00013522240261003562 0.023025264961402538 -0.24855839458139922 0.34325017988355977 -0.016915390612080854 -0.13190591065368001 0.3606405864159419 -0.008555046727645857 -0.3323660303329491 -0.17400731460573307 -0.21119870510020042 -0.15117132832324295 0.09232000199626812 0.24065165042310674 -0.3356296454021238 -0.11597098328997661 0.008010503926266234 0.3596801304291715 -0.5492036876298646 -0.0022124064017561293 -0.7735559937449722 -0.2079881107427131 -0.006588641063801813 0.03143764021307598 0.2712349542461952 -0.3714426313750398 0.03455890249087583 -0.7543295690377216 0.052055336512417644 -0.30214241592935265 ]
[ 0.2799169845426444 0.13860610611158786 0.07710954236444803 -0.2967717878656782 0.049168241723605066 0.31706241654363015 0.26815947449755456 0.17155008817580644 0.17604509857048076 -0.1803270194536925 -0.2568573881588733 0.3368793099601953 0.01245215805839504 0.3253641465287279 -0.1371345123393366 0.23940788111719663 -0.3843922890038214 0.18347473620063262 0.11723694571567542 -0.2316208394022804 -0.3821988070792729 -0.45610978114113393 -0.28424749197016147 -0.032113508696053644 -0.2863587060920385 -0.25567161833310864 -0.04455404339362514 -0.13961951488160215 -0.426787625667422 0.3851128956340497 -0.32461033757622565 -0.33416062228332094 -0.13255789707219445 0.00593121411147863 -0.40504985583481234 -0.3225506528085908 0.2980979451386227 -0.04811109839332134 0.3854268316271276 0.37756049101886174 ]
[ -0.1374019869611024 -0.26463756117900944 0.1891301575284649 0.12538856234524273 0.046192326408905075 -0.11209975093453227 0.02517911023704129 -0.1656941351160069 0.11150526966624633 0.2146431957412589 0.04854605661958746 0.26274635607170016 0.011887490112166544 0.028445193329499668 -0.3378802227895567 -0.21532699062695104 0.22887706665145124 0.16356744214242686 0.1620868248785405 0.047377175144989216 0.28865327606623226 0.11109033084199603 0.3388685929903393 0.14514938328807842 0.11750701461775405 0.2576519353002489 0.18587277834485882 0.0204118652828455 0.3221709884190526 0.1525463288600932 -0.28368326000329386 -0.3769609028041591 -0.26929157655441954 0.11416420117820349 -0.40484229997634985 0.17113240444906597 -0.017942359126184408 0.34030789110218873 -0.22459278623618265 -0.34824961129287146 ]
[ 0.07911683655569675 0.11640191669903104 -0.27583418647603275 0.24785444035550963 0.5125778178043884 0.5227142169093034 0.529030080122358 0.04666696237120817 -0.08311977072385941 0.29262079106992583 0.03352193828531055 0.14366353293698433 0.07812394675573894 0.2617388968996801 0.09396515773984712 0.11662870744961859 -0.4760758030996686 -0.20988021163341594 0.0675094451742829 0.1723348861748065 0.6193323591662009 -0.3203935544089943 0.09469813107680944 0.022585340560328366 -0.04121561858553826 -0.7039969727843414 -0.18852783017192418 -0.42626557747199695 -0.4611393538006137 -0.36334232852857923 -0.01624131566792422 0.10300386067998842 0.13712655252426242 -0.18985087698491218 0.22448831278898954 -0.42458166735173497 0.3264219556750203 -0.5801249358424873 -0.13579684773988657 -0.002785277186290551 ]
[ 0.24814191806717129 0.24398420482220542 -0.056364446114340785 0.3010588634255968 0.1503695799857476 -0.07193112908775333 -0.15162839324699295 -0.09980302691604523 -0.11607323586940621 -0.09202719917554926 0.016434464342887093 0.222108141616031 0.13251890547909737 0.18978865352078692 -0.0875977897531622 0.34018653282481864 -0.13436400758108258 -0.02027487912243763 0.1525342355623561 -0.06897897236038025 0.19936755433659 -0.0761695470243219 -0.07924366278807331 -0.05250936570477008 -0.13625633084235347 0.2566647571363089 0.2526172627750216 -0.14289235740976647 0.2169627617688359 -0.037368236842128824 -0.6211408865356278 -0.33852609175189136 0.0836135675539849 -0.15502361497848965 -0.28475446063297427 0.04791227635072167 -0.3113511075772682 -0.1214163238911266 0.07006444571038133 -0.1448077455471207 ]
[ 0.5642729144863319 -0.05435112994295436 0.6283832056234634 -0.22754853214703286 0.4305375597374784 0.5182924950475435 0.16889690312598726 0.25070523809128487 0.44300328911434744 -0.27704035296633495 -0.18845337303679213 0.21070214163293663 -0.0017899615931667424 0.04777177789323386 -0.19476874900281174 0.7735732895893347 -0.9544377726624484 -0.19070473446989755 0.44054662951187434 0.017506830821233083 0.06805994751855801 0.6684304396295602 -0.3720222469444465 -0.27415366643542466 -0.4191742852091896 -0.2948889145572548 -0.10635469109932733 0.09263061234470038 0.16222301178636772 0.22393395531645324 -0.5326267170404032 -0.6587960897592289 -0.14923593791244089 -0.004499295391705559 0.49491286947105934 -0.22289208948969602 0.41529572474838944 -0.36984498526304344 0.4959295564831121 0.032057106167161786 ]
[ -0.5947820620196221 -0.22515656348604654 -0.15736983318555395 0.5218817331237199 -0.6025841796438142 -0.15369429072752228 0.04817821941556249 -0.13806190401242527 -0.44513059264244265 0.3354545609268686 0.14716113617812007 0.19994374701425954 0.049500567117255465 0.10684589762649875 0.03845852338435641 -0.415312425256591 0.5778060486051319 0.3575547291605587 -0.04576505249321501 -0.10869280136602036 -0.7222187637669681 -0.4121873797239975 0.23603226162814378 0.1999360600654987 -0.23091475294273411 -0.27941137518166603 -0.03162227144123177 0.6570368607931949 -0.09725811619198534 -0.42970643602184416 -0.2215072333948186 -0.15132098856823342 0.31074817819147466 0.11463306290342 0.47084615722194595 0.05129450319560484 -0.33266513117764723 0.5818286625212987 -0.3787916392443743 -0.07767099589244525 ]
[ 0.305601198923247 -0.2030423122157528 -0.1301344001594808 0.5985000497222094 -0.2318654921697119 0.13529432082305026 0.20726340510274277 0.13164661625422105 -0.05899390085489694 0.1393708677092363 -0.006556971865278059 -0.043910223681765934 -0.10592052541560554 0.24350124215712204 -0.014166394370235737 0.0471216284725517 -0.1384548183780643 0.0397862033297845 -0.21726644577785756 0.06958355385108854 -0.031822554162029074 -0.5281502852257072 -0.03238211745302246 0.16539433435941514 -0.0530740627325153 0.25179316965808346 -0.14649213411057255 -0.5365034745559646 0.045580181192300916 -0.30673867306848557 -0.4861250562022645 0.09151570601937051 -0.04464534919954389 -0.02136051023536569 -0.3770220224165686 0.16233326674520657 -0.05491703632967804 0.3930072241182211 0.2864206528862264 0.09885227854004064 ]
[ -0.21473433349777282 0.07160658236487241 0.3931207100746407 -0.17775326628786162 -0.33829057565616794 0.3773547836901589 0.008115344084889512 0.1417269666854171 0.000561593530484566 0.2195489017173621 -0.3455772289327721 0.1571876433825498 0.4869586407767689 -0.1697285249329929 -0.3651137662111196 -0.17993521621186456 -0.02112278164805979 0.29411083185314957 0.056694984817351315 -0.37759497353903004 -0.261362372881153 0.3991942490781338 -0.12237164398374174 -0.05164223853856696 0.05814484755409026 -0.3790533825869041 -0.003979941820763734 -0.1298593183663244 -0.03737142607313343 0.05986643733356309 -0.18442421703841902 -0.11441213159744912 -0.1047295928775838 -0.0518049157712395 0.42816462064177097 0.45679728237478034 -0.38055471318772516 0.269017049453359 -0.20557593223937404 0.17034976487597708 ]
[ 0.2727290384997347 -0.057236409634902626 -0.26999239292981037 -0.229594610903125 0.08949409729331916 0.13892746721699759 0.12376751725023086 -0.11492024666090275 -0.08646902200872851 -0.2661348241724834 0.015550244723707564 0.2731502478039319 0.12487594031577395 0.28980460111758183 0.06678772756219972 0.4055185238875328 -0.007045327430476144 0.10108879133144003 -0.37961107488589796 -0.32267320321185394 -0.4244081664173633 0.7300329915444159 -0.018959872199232106 0.22080307219776268 -0.16624494907533285 -0.4066583067883426 0.1800444835277621 0.12938862835010015 -0.4011818848097322 -0.14459948622388155 0.08661524163823293 -0.23888458067677337 -0.16677461136469876 0.01884684645723919 0.45121960997127375 -0.3621448694654576 -0.15066393844253492 -0.5219774749487892 0.4680811397508435 0.36121888304022265 ]
[ 0.13554312451365577 0.026675829371496117 -0.328054232367814 -0.04041460611883093 0.10734888505823274 -0.23185280939914119 0.2909872659354 -0.0565478545620526 0.0734773852661448 -0.08288237275753758 0.1062729469206442 -0.19226768399378122 -0.1588647334353808 0.13654171209884872 0.0822699006502302 0.06523327469554473 -0.21343308015672713 0.14232680180630558 0.04061176984931223 0.25512955850866725 0.2500407684084458 0.11891677098419519 0.08412142511843655 0.42007281169917243 0.00483208010038555 -0.3430582114232869 0.009797179919696171 -0.15349698321957964 -0.394684317925186 -0.1549245898881975 0.09952658038146399 0.05805394267936589 0.16150686891985858 -0.08569169847401549 0.3707319806184996 -0.36759879520187705 0.23428660874916837 -0.5752382836692099 -0.2586382732778315 -0.01662701483488582 ]
[ -0.6167597810260704 0.1493751604754948 -0.09010412826432813 0.06791377088774356 -0.6806981693022511 -0.47614156423615195 -0.3220343867257775 -0.19068454723107275 0.07937917503659626 0.005835976096688225 0.06782540389032837 -0.1871179660850109 -0.10536596109990877 -0.00428966263327982 0.17193428998902494 -0.28041565856968403 0.6035817009876836 0.1710481584149213 -0.06058579201666669 0.02672786884745839 -0.29252885468466455 0.37701534370518597 -0.1794466338505757 -0.017170734136682256 0.1554196292353365 0.14938787067238937 -0.005643488755314943 0.04452293962674841 0.16573833327847176 -0.1517188552464331 -0.07647154959389482 -0.07269505547083323 0.3033758750955154 0.03747574310255815 0.2865297405137784 0.16900243253821104 -0.2990886058735013 -0.30024710009739675 -0.18389758857139593 0.36991090653496256 ]
[ 0.5628297299905693 0.15922102454964376 -0.3901489739696279 0.29403198414152 0.4911982292753793 0.003373879893021158 -0.015166758946621929 0.1933846038273313 -0.09080990442544447 0.14606791285183449 -0.04451981607160908 -0.0656527217753555 -0.2750412047300813 -0.14673440736502744 -0.1016369407063711 0.17895521301127554 -0.0233622180509943 0.2270683803166236 0.09215127810382445 0.33919090111746153 0.5084752637703118 -0.21112285945039488 -0.08884718464145118 -0.050864962183651934 -0.19669823596740765 -0.7172059462633509 0.07811675458658814 -0.3850451400904328 0.18481113369882926 0.1794015222350245 -0.8796823655436986 -0.5385808431125271 -0.3619483335903379 0.0688136499223815 -0.04395873615457986 0.30611507193896964 0.41967398768106196 -0.23890302102968483 0.29787383753300395 -0.49280653147075243 ]
[ -0.18164181206626193 0.1285705518742234 -0.3666353504938024 0.02166613301864899 0.1492351236740258 0.3180041995123124 0.11038012091799955 0.22161992532787492 0.38111451126317897 0.10598352588006915 -0.20397148003745988 -0.04011076729300455 0.333262486313989 -0.13830815276201427 -0.14883015855988113 0.1409520296543444 -0.6527170566286209 0.0921854785822179 0.10074999674129116 -0.12497403360784845 -0.05965123564350979 -0.6836149525390038 0.08663251528084144 0.0699505398129858 0.11224067494188916 -0.39174108821518333 0.22444964613653265 0.09116818855952821 0.1278344164820605 0.0627522100008654 0.4486783222859565 0.4313466695160902 -0.0707485344074212 -0.2307975690380262 0.1900771853487548 -0.4747158417081516 -0.039638419738780684 -0.42608035183479803 -0.06564923228475997 -0.16441744434124037 ]
[ -0.2995924856592736 0.09690099419143919 -0.06452717606015687 0.36730334958056265 -0.14324173396819156 -0.25727053316332715 -0.018676704599981348 -0.058768986177449745 -0.13483369254261862 0.17775267295758035 0.01465865677895382 -0.015744471022633703 0.012251019731967972 -0.0507562301316214 0.10189349103404795 -0.24049931929224913 0.3793058035467499 -0.07798428262729115 -0.043963161370511594 -0.01933870636737638 0.07461996206424719 0.23290515050805477 0.18387086177190398 0.03179382261016282 0.1912011546945495 -0.28573396176827914 0.0741848372634686 -0.1081008479170711 0.11634514349590608 -0.12720113324859653 0.08294494750207117 0.1878939338354486 0.10651549231487197 0.07329483968382947 0.17520781492836304 0.03924906787730394 0.03355296847392767 -0.03531532370234427 -0.17706753270306372 0.0492495386564551 ]
layer 3 Activation
tanh
layer 4 Dense
40 20
[ -0.46505884762147803 0.017413220145711148 -0.18046202535562555 0.02380285256400835 0.015380626804826903 -0.2073440553777247 -0.18577854297194293 0.22463111874933397 0.1989478001563395 0.314912356502921 0.05148668374974734 -0.48687676634511684 -0.03836442228708718 0.4599522295452394 -0.12901851249554483 -0.03888556984714602 0.05567661892254163 0.24500011513694028 -0.3329763314493681 0.04450516239891423 ]
[ 0.09035383866213728 -0.01196382409229811 0.20433196320554958 0.03926915394735775 0.06252461368241156 -0.1054012148282845 0.058205963678741424 -0.24114047445600748 0.0329967465665287 -0.10731875689563168 -0.04883529019707169 -0.009123567184789492 0.07832739018462175 0.29401164422700105 -0.11109651536879324 -0.02560896813479665 0.023872248629678156 -0.17343352102134876 0.11207753036564691 0.24349602252378777 ]
[ -0.04800037894867749 -0.024307031584230986 0.3372978730340908 0.02663546138758846 0.07228354560581428 0.263286561856353 -0.28602098630761263 0.4705545899017747 -0.01887928398462313 -0.1240713879394203 0.04209033752910856 0.007532851609521813 0.048773433896899636 0.057229243392150665 0.15477533978135324 -0.1542831793954026 0.175301474491254 0.3502048189749744 -0.2403964786894852 -0.02721192801671211 ]
[ 0.07990973936743191 -0.08569595519693368 0.08228005367568297 -0.470090173504991 -0.10895625227636277 -0.1742390236130043 0.10795991852450362 -0.19345382801507907 0.2656340730411381 -0.11412670622779501 -0.06834920677192113 0.030290729180281122 0.2284789249997686 0.29622585110876115 0.26227826112367886 -0.25428848497704637 0.07430577844354357 -0.3539687053374675 -0.18518818429007428 -0.20038255680156003 ]
[ -0.19120939214418817 -0.228367500412883 0.19583246444602176 -0.2917137709169865 0.20338059244774093 0.16238113729616338 -0.23840558459998032 0.1970919180108009 0.013322280085150282 0.0461926925117319 -0.038961285688188324 -0.3436743233318807 -0.05133556744970574 -0.07966986929714395 0.15740052762210335 -0.05864883136446176 -0.10390569258868687 0.2098396221029905 -0.0409653270520274 0.14482761284183135 ]
[ -0.15827282350333172 -0.07476043495171454 -0.33424136277405153 0.06677891632924492 0.0674129674693647 0.08648895851688736 0.025910759861378904 0.2436687863984525 -0.15086515814859794 0.20284283318234483 0.13918888708923688 -0.4240878176779949 0.1472690847180025 0.19131097083903803 0.01883708696711194 -0.0013039813368566622 -0.07131034056477734 0.004892857090381527 -0.17183475754585242 -0.2220457190680766 ]
[ -0.014079286872582171 0.13611352324917894 0.0024865627900922736 -0.25730972383356826 0.13271722904619987 0.13137773225553082 -0.2104568254316222 -0.19606755095412762 0.1090175743554687 0.19656615956234735 -0.05328935848930558 -0.08601267092637517 0.028316011217981184 0.1648150928287284 0.11113681018471333 0.23608497834287695 0.09543188047324005 0.06665268712478598 -0.1496473376593194 0.13329197781252308 ]
[ -0.18205986475260427 -0.34490553979006705 0.08529076642046998 0.2575145503925903 0.06914032861456632 -0.3697516417580331 -0.19088224734449594 0.03785981343674099 0.17200878556233026 -0.0988709196626699 -0.19926011712827132 -0.07890447178625555 -0.1363369028002727 0.22996430859858552 -0.2169856115713603 -0.20523799424967357 0.2077806711404997 -0.2681519115613961 0.14561894260417554 -0.047950264457097214 ]
[ 0.19644953742150872 -0.2103193799075236 0.11128277674514862 -0.000485050292108005 0.029858601816347523 0.011063069807711084 -0.11124420713873721 0.356762381624725 -0.06857297388732836 0.026662576189662838 0.04499891326091699 -0.22550602078412313 -0.09475181167439782 -0.10269569998950287 -0.044666531183453706 0.24240956340051462 -0.003286421864192114 -0.22216107599236218 0.11051294396970453 0.12369941003644255 ]
[ 0.42325220984726597 0.12937570536260076 -0.07833068467299152 -0.2964385484428681 -0.030960465321570662 -0.1075131425669077 -0.07525656731372377 -0.06788265976133612 -0.11142509189488128 0.03665279871320961 0.04794718487182236 0.20293336397363348 0.13787903541137062 -0.12439759775195341 -0.3620516458896435 -0.041921112672031746 -0.045286512879386856 -0.046867928367987324 -0.030838554400490704 0.058765457005893175 ]
[ -0.17472823664923504 0.0663263061174815 -0.046337434207834254 -0.174407539214491 -0.10892430810357266 -0.0030998909387331118 0.05133020582738221 0.11463296494782929 0.06393966396359138 0.09401879798348492 -0.1384847595838387 0.21382025433684287 -0.10726410479068503 0.062445602136941586 0.06756604855347538 -0.21462965843873763 -0.16829341186978078 -0.13052955643793493 0.09661791078695954 0.016318437625126313 ]
[ -0.20953022396074952 0.03092189774193322 0.15174363138663033 0.2354919511054426 0.0291984544994013 -0.32397841630689206 0.06977853373906445 0.2347711104445577 -0.0071697868705663 0.007264051109542621 -0.2954540489041522 -0.024636024926721893 0.015562487810137117 0.15945299315549954 0.01362307284675481 -0.08329378717901811 0.2413429640728055 0.2187799292410105 -0.029378874973135308 -0.07673338549944211 ]
[ -0.14117231509997544 0.205286385230139 -0.08605205372088479 0.1683807930005876 0.08546884622335986 0.42327541078173997 0.19283675499345385 0.09813344121559127 -0.13408921655755954 -0.12383083659032455 0.1335695127463944 -0.09681827020069589 -0.11488351279163586 0.1451154766793782 -0.13167790243226118 0.12514537728299505 0.02002724278576098 -0.09200339477006324 -0.03250182140191062 0.05682638904639852 ]
[ -0.025611130206709833 -0.03281839166357595 0.12435423841132287 0.13876189350452037 -0.03684017570259743 -0.2598243433396436 0.21362909086642648 -0.2933751648356309 0.10157506422424907 -0.1672644669913971 0.0933169678663456 -0.0740100824470259 0.14773244055650345 0.0727241475763969 0.20176802369943198 -0.024376237971499667 0.26174130245623417 0.04735700742067173 -0.3838971654771046 0.06514379669578964 ]
[ -0.07098968639874838 0.13035148748940087 0.32938585119494485 -0.17261867249543913 -0.05832993539644895 0.10485885930226285 0.19278376852036622 -0.30212747426230463 0.1945725109915847 -0.010427862073226267 0.20289048074876306 0.13088286624737525 -0.1357238282855498 0.22295169226646672 0.07366587214215475 -0.13546736460553976 0.12093337157828357 -0.3733014151721324 -0.06642657697307863 0.007475673414919356 ]
[ -0.12605819541697352 -0.09575532529537478 0.11651357615942047 0.24801123498169342 -0.25677207009152836 0.07980420230880544 -0.09116831623132034 0.2529387139768822 -0.004960452408961522 0.29372652370945657 0.2961158158394945 -0.32441411676636245 0.13261452881470182 -0.26750094124012036 -0.2763136389887475 -0.07230253365029446 -0.26940915895398204 0.16104043789404554 0.22748813156928716 -0.046950987437878476 ]
[ -0.08554593700965539 0.22217081458316051 0.16351662815898302 0.0952500270413406 0.15399623055410183 -0.12894809401995125 0.017017965364670255 -0.20451893820807032 -0.16924725600305207 -0.04053740290212527 -0.15640488191591925 0.4480977065113716 0.2347653049848945 0.07176494187942703 0.12381858590708136 0.05340416403002889 -0.06965029116456906 -0.23477446412753505 0.03771238428527102 0.006495310318931149 ]
[ 0.1668438860925728 -0.19863453370411593 0.002376440918871634 0.0727579687182654 0.022810958636842557 -0.1627107209362963 0.10275388497314099 -0.1434201059657942 -0.11679672706160939 0.3259956117959219 -0.0975976237840059 0.05248717677896327 0.1225609082049297 -0.016450977152435736 0.19653631105033445 0.18412170796854122 0.04084826146537385 0.3424611304486061 0.10859779003536717 -0.0698933319765999 ]
[ -0.1358325009244132 -0.1309203346335009 -0.1330253726872303 -0.17907081070829484 -0.11900537453953058 0.08054195147542062 -0.21286345100870444 0.4919483189134059 -0.017167266372589283 -0.18121475125709116 0.01259771608934725 -0.055882115314899804 0.02715954152763582 -0.11481949962438592 -0.009539161242609458 -0.1236989025727463 0.07370348595844595 0.43633397397520723 0.21415563949461858 0.0780806797379441 ]
[ 0.15775884994130776 0.2712239763470692 0.22509202168077663 -0.27966676368146387 0.06835987737637446 0.035539439408614704 -0.1595982130858333 -0.049786104837666705 -0.011793291200967684 -0.12933787306264577 -0.13420381104125054 -0.0918421140425442 0.07909727781067888 -0.15453037047467222 -0.10453671366544533 -0.010482422805718282 -0.20459536632508796 -0.1727271999110633 0.012219218825293858 -0.02185313615706008 ]
[ -0.1422408143780153 -0.08469299742087484 -0.1515906726523213 -0.6149140397796488 0.15999317829499515 0.1700842166166462 -0.08076549929637244 0.14843194715192504 -0.043393294904121214 -0.2315733961519809 -0.25923629661294784 -0.45360545052552137 -0.3472740515181678 -0.10016447527000266 0.28061867365332943 -0.15869321306645817 -0.12211200883832321 0.21535372765375907 0.005760871805884036 -0.28290872529092786 ]
[ -0.3632126313492925 -0.2331141464947417 0.17354400886701 -0.1383787669694849 0.0734254020831207 -0.001280833755208534 0.4579927360167464 -0.13882203319841638 -0.17141430912622074 0.21732974586872758 0.30073843162261416 -0.3217723253240508 -0.03461057912529556 -0.1754610190513188 -0.03480076081355252 -0.20634015042542608 -0.00454378631309228 0.1324169105149635 0.559775678675402 0.24236091471394305 ]
[ -0.146183434398747 -0.16527967284774142 -0.011135560556405098 -0.30706002370721575 0.08607665918404428 0.10238300469307526 -0.16430283308030408 -0.02127269911905018 -0.0008714193521966198 0.12287376104817845 -0.05256298325217466 0.13859855720446632 0.029288329092698653 -0.09360125910502719 -0.14668138633036198 -0.23421220996923414 0.021585603751847888 -0.1081433829467567 -0.15426299998763926 -0.048628564531803746 ]
[ -0.050903587186922915 0.04851851955282537 0.23262460943174817 -0.23867584330047098 -0.2011296225099126 -0.2085099892723236 0.019965699550217778 -0.25473986419905387 -0.16212755700465664 0.1714000351108484 -0.000446136982768394 0.039616893962344746 -0.006760375860939046 0.4071546699723242 -0.019821063837334937 -0.07467396175585812 -0.011969524490741186 0.06366581955905684 0.061017147975571714 -0.06025270006614564 ]
[ 0.11459229753563838 0.23814823058928655 -0.023501469719092456 -0.09935564413309694 0.014249040763089103 0.250167574431312 0.058054902116725066 0.02199542721333417 -0.1419261663084174 0.0099864915666426 -0.03884533831711674 0.03406848165617723 -0.0036756836326573283 -0.06592834870262024 0.2276956301159016 -0.08770796898245005 -0.09998974789984907 -0.0801937514360628 0.05087870499180222 -0.013841470269612974 ]
[ -0.23130723809206793 0.15841497118909093 -0.05796980556022981 0.0605232070218629 -0.03776380212589867 -0.15704391509853383 -0.14311719591835487 0.09518747671522362 -0.035221201158116756 0.04461045619431857 -0.04002374186530032 0.420757290929749 0.03965989313159054 -0.12019634954332024 0.23833013167178274 0.19072171055252157 -0.21653557154641878 0.08602540318159897 -0.12833356332301343 0.15417282985194805 ]
[ 0.0951757850344326 -0.11921082774206644 0.010966215855160423 -0.046539094396546424 0.10880886867108142 -0.18287613128175315 -0.28066555375707675 -0.28090976203191903 -0.07589525533630342 -0.11271141352853338 -0.32910061792569123 0.08344597306866329 0.05471360646791748 0.3203159975461147 -0.06106676253998635 -0.005383259521229509 0.14453009215376741 -0.24949128525466058 0.2758785534061968 -0.11498690482288947 ]
[ -0.25824101532849386 -0.25918771316449274 -0.05316304606029172 0.2900943628825426 -0.029063343518793135 0.29961531015425813 -0.14379700571928286 0.02460179840533937 0.18361491279342487 -0.0005843579000806888 -0.20181853800068036 0.6803781434913934 0.13950913395641007 -0.024716977450314745 0.26222990107029376 -0.21160308753443943 0.02337053103065037 -0.01939173233813746 -0.3041263942345607 -0.016710067605725264 ]
[ 0.26674199504140045 0.10534220621585094 0.22892619787309446 0.13450493752264445 -0.13401339253606392 -0.11909764418625975 0.06670291370664906 0.35819809440911426 -0.2837972834333625 -0.09571408754286019 -0.1209029883035465 0.027652848007668287 -0.1571238401485443 -0.2167371567497831 -0.06815928877317513 -0.06107372961777694 0.11777664574353233 0.08260638147002912 0.4263872047035056 -0.2584513128702709 ]
[ -0.2670207910711565 -0.12600913575763018 0.45035796527835587 -0.019362501378961332 0.06946943646186501 0.029921559754215354 -0.2363043599692612 0.2807894836538982 -0.04246244431352562 -0.275619413136459 0.04769803382008821 0.38937958460425626 -0.13457474459384125 0.10845071856011339 0.1502102406368415 -0.2948724237826252 0.31807395212014744 0.1262718909478645 0.2810582278747598 0.03227731286331722 ]
[ 0.29255500742099355 0.10510741043723237 0.06130888393592898 0.30051283479130825 0.0031064361901881666 0.628658730128531 -0.1272744237433818 0.46483098329303957 -0.07137328021346284 0.13881558293873536 0.2752292798930677 0.5719794190042203 0.09030022361807018 -0.06591225729870426 0.1667272855832674 0.0024026462421000505 0.09665907504608254 -0.28691367856419503 -0.30516153424444226 -0.13202523667572041 ]
[ 0.35412343008600866 0.30064740421345737 -0.01912298986910765 -0.328212260273344 -0.2610850374344923 0.32458385473465623 0.14110173611304966 -0.4519855022718452 -0.12032277919041236 0.0479984763253215 0.06048799709399433 -0.031860614008706004 -0.15408150517778355 0.27629034049424517 0.045264899229294664 -0.13195184729495205 -0.139980807335056 -0.3840841457295094 -0.4774645586696473 0.1763659393148392 ]
[ -0.22992103354030397 0.25412864117634754 0.2724473968278104 -0.1997724114120554 -0.34571718956416453 0.09273042475207488 0.2030771658363295 -0.14569682088773436 -0.1960017212570659 0.059422279201965675 0.2532268333051979 0.20098986763047377 -0.09205317381581672 0.02632773739454705 -0.21368599194967525 0.3019864710220212 0.0966193599389045 -0.21198879640941698 -0.31409533657207794 -0.04798550837301684 ]
[ 0.1640185433575278 0.05061262922145727 -0.10960303804635861 0.12269833407419681 -0.0023405380582643453 0.11895342116961093 0.052193223774571806 -0.10102141604921758 -0.07968981013715047 -0.09197400386261131 0.13128875007846774 0.009142891543791772 0.08547903360113845 -0.0700910704461828 -0.06845646895236987 -0.12373988400644312 -0.05974871044768793 -0.03194337177636013 0.17980547142287218 -0.1319733139019283 ]
[ -0.38449450227193954 -0.1729028467782672 -0.15841080351383927 0.0017778328831171933 -0.23738099120419623 0.05210050223533714 0.3430494278087483 -0.5007591744849178 -0.04560487436461314 0.32124427678626044 0.05693333258987536 -0.7359111285273836 0.11646556064301272 -0.4756711050606226 0.28174577376079835 0.00759800933504152 0.21349941762893979 -0.2542483856486047 -0.29940826837778617 0.007451998366362613 ]
[ 0.048429332803393454 0.18461797934545338 -0.33402148922266955 0.2869600234878138 -0.18642512999096256 -0.44268914745723587 -0.09110156757976764 0.3582806222029323 0.051001184360775546 0.21779508493847033 0.026064331444101543 0.10286640849683631 -0.08583432221546461 -0.18838627173163414 -0.16795113404176396 -0.1327621157746448 -0.024742062694027206 -0.07615514314711097 0.10197668928450612 0.027047657890715428 ]
[ -0.11017384418252983 -0.3321268711145348 0.007997405975289484 -0.27376974250689895 -0.23247765501045262 -0.02049793475428218 -0.21052556302480055 0.47167576713187037 0.0469499948794782 0.09140156607301966 0.18164317207513234 -0.2874091564750452 -0.29678839929513307 0.23612200683524698 -0.18851208620765147 -0.1829465832182455 0.2146884322272697 -0.02723833832081888 0.17060305878606485 0.07312634349509016 ]
[ 0.28082416083604755 -0.1926373181206554 -0.15018794806034386 0.23176435292835845 -0.2726644269401265 0.1122452860087822 0.04038441631190656 0.5595282523279059 -0.04628131419554396 0.30826448146539054 0.19741800027892975 0.523688657026926 -0.003887410356989299 -0.01489674622139671 0.060651984120081555 -0.182719065508559 0.02771529889852513 0.4264103434762518 -0.2826650330133453 -0.04573298563494262 ]
[ -0.1977801279066925 -0.02213599954656711 0.2202230115917447 0.35570412305692817 -0.20618853388392616 -0.10911862270746979 -0.020169924393506213 0.15972422504118433 0.26224878918389616 -0.012375316456276077 -0.014659775627351358 -0.39059804505730916 -0.07727194622318619 -0.1903276196961479 0.17125858142838468 0.20065550302732973 -0.019795169112040115 0.022106186476469836 -0.18053448683973156 -0.06456568854446379 ]
[ -0.1527444177806932 0.164754481669127 0.09254703772211424 0.4012413765437246 0.035143653187599155 -0.1011952958129325 0.27997193062599846 0.05822080019403446 -0.2913159025534369 0.23220649790014133 -0.16811151093988402 -0.05894298014063017 0.2858179060380323 -0.1687372747016519 0.10133450588857888 -0.3234536539529638 0.13455177099322058 0.09174819654042224 -0.3274010852859675 -0.05025752001910104 ]
[ 0.0678189593142484 0.06785893900524206 -0.030034981110634157 -0.20492802677086042 -0.027348737732452378 9.252109596312216e-05 0.10172208781576317 -0.24306020697459904 -0.10629755597599808 -0.04444486995738416 -0.05831299056255702 -0.01915086749805695 -0.05005499672827269 -0.09521870432313188 0.04434565302287363 0.004012918736005007 0.10839799001543818 -0.14631308726403014 0.1274529451722455 -0.021652875038027364 ]
layer 5 Activation
tanh
layer 6 Dense
20 1
[ -0.04589507581266984 ]
[ 0.012062820225075252 ]
[ -0.009791963004186496 ]
[ -0.05108787014056833 ]
[ 0.009647751421222341 ]
[ -0.050787758550519244 ]
[ 0.06069854608302079 ]
[ -0.06436606942093796 ]
[ 0.001979610356247247 ]
[ -0.001276151993015049 ]
[ 0.005232986083150065 ]
[ -0.2828742662453148 ]
[ -0.01845495156526636 ]
[ -0.05290427215061686 ]
[ -0.005120181692180929 ]
[ 0.013767241204947133 ]
[ -0.004526969450336829 ]
[ -0.015574950976327521 ]
[ 0.057413905698215306 ]
[ 0.016038874688088765 ]
[ 0.1238185119003043 ]
