layers 7
layer 0 Dense
20 20
[ 0.07175006026447607 0.45429718967720956 0.02813951656641432 0.5145208001441429 -0.031336054051752396 -0.4090584243050613 0.29243570301936644 0.3641673714727117 -1.0393028994587687 -0.4360884108090598 -0.7340781129488714 -0.18222204950017157 -1.075134034548795 0.3749244522108064 -0.6553328163505695 0.29132680442804265 0.3709041140625515 0.7331575491622982 -0.042468818812918314 0.49182511424325814 ]
[ 0.09086487422781818 -0.2522697780497677 -0.09402616073635438 0.1683787026593044 -0.2240231816145451 -0.11507086020044312 0.12568127898984424 -0.3537645703087273 0.24408964586161472 0.3008009059662781 -0.213184365604555 0.16697294002609742 -0.1978834046255355 -0.014186832136601255 -0.12042679873850694 0.21764093831194167 0.14008566908082862 -0.3372678038836655 -0.1621277943763852 0.3844812492080766 ]
[ -0.10639589024862899 -0.045719416917348675 0.18249529438991724 0.1431046801633558 -0.15101594474154348 -0.2575920803413611 0.026015000324073115 0.3100523717656534 0.17489501525607684 -0.3129989798209902 0.015003041502660701 -0.2248696915927444 0.08567482658178474 -0.3650970718672879 0.26007359570059674 0.17145761191872336 0.24234442380385346 -0.08955891659236186 -0.10357486670787937 0.2525317079167612 ]
[ -0.10905764702994557 0.16527139209493938 0.13662609249775465 0.563471167548833 0.11506478675226646 -0.26818250222049594 0.10204081949761681 -0.2286482775029947 -0.4043551592200086 0.09772205127419584 -0.2167621526814194 0.05880300560217942 -0.7794935012161817 0.06305282264235094 0.3018649447237453 -0.21804076682389262 -0.17881319982651103 0.4737921296839928 -0.062432758793089314 0.4649049936389558 ]
[ 1.2610261494604114 0.6617034111518223 0.2543487403225109 0.09242378659846301 0.05914491691875838 0.15115036877842958 0.40133429396336534 0.616435277362631 0.07435261482950614 -0.16807864900138755 -0.3647888246841886 0.07576468850290012 -0.30680616446182907 1.0085732754249033 0.044169669196209516 -0.23269987161930078 -0.4923705546184038 -0.2767358242867279 0.8504533446095804 0.030702889517914944 ]
[ -0.13278173525484357 -0.38194921244376967 -0.02585856559565103 -0.19747001824487723 0.2943852252309969 -0.3655888938568883 -0.11156231900931078 -0.05682445333667632 0.20554674971891637 -0.03837867562800037 0.08477517015154401 0.02839093910896942 0.2515688319256195 0.19050634580503847 0.2114740792543361 -0.31035702346680666 0.233020357896478 0.0032157238736671228 0.2471860419822328 0.3132729214057308 ]
[ -0.3451904120062277 -0.12453586474061769 0.09147367997064722 0.04102824511712813 0.24529432782355623 0.06050189106004388 0.3565689393227503 -0.3810121568435228 0.003865531754534932 -0.20519468230708102 -0.2726217481898227 0.09083429890376436 -0.13351310580215042 0.23348736531130904 0.13216075949662795 0.247617210737498 0.21444826890124136 -0.13451910830291344 0.19767534046262053 -0.1249848049128418 ]
[ -0.4141007989805299 -0.690782471475502 -0.2892450228877083 -0.4207584261724183 -0.4203478243478768 0.1316792073024235 -0.31968752533353195 -0.47038302153666567 -0.05212213700178847 -0.016477947753904272 0.055144458350895556 -0.1812928783300823 -0.04805771321186584 0.1232993081282288 -0.26882480630744804 0.29464527432483684 0.31815588721278404 -0.646723965968922 -0.6377847139996539 -0.4843931623464633 ]
[ 0.764395070116928 -0.32732315973208354 -0.3229084124040258 0.8078526550667803 0.5523498783303555 -0.33232634425812 0.6045679632090073 0.2329624426304244 0.04331946785978985 -0.7082516728200761 -0.38220095684856564 -0.20624650349896448 -0.3071760755533043 0.695914345065446 -1.1216462916862924 0.38981425330957564 -0.7499904361583072 0.033401891512539174 0.18861527509819348 0.9096138325894902 ]
[ -0.45136461924644394 0.2685869681039625 0.8127089732884342 0.060296263037347995 0.6182780271138298 -0.22617484211560238 -0.0830567842663252 0.0199355420546126 0.0908136314547674 -0.4714198571272336 1.2459805268448412 0.6459177353407748 0.7285365845247164 0.4408645584027215 0.31316622117261833 0.3475610496825764 -0.11738122653611033 0.40232097619661156 0.006414068991624854 0.029101934379504417 ]
[ 0.32456009221921783 0.46481013879417205 -0.12626671513664797 0.19317977084905863 0.25550800025649645 -0.5679025245810111 -0.5752781174644978 0.9552352969661086 0.4846686817738442 0.4502135423927306 0.24309309661792836 -0.7801681990004711 0.7103272283778351 -0.23767657998177116 -0.4026448000260885 0.6607924244230629 0.38673479326068233 -0.37773007649662454 0.05497097582793364 -0.23339829728977757 ]
[ 0.09804494192621557 0.20399623532324293 -0.40461527616748966 0.05727905564243716 -1.2945794511642688 0.9109374641990433 1.3181948067647886 1.2628259882758168 -0.4503558792946549 -0.8261047833421505 1.5626704492338974 0.25622953458420794 -0.7631615318104997 0.8711364372333799 0.3555707701647487 0.8890563006918187 -0.5283664958663324 0.4373003222717533 -0.3417410159938511 2.2064531517739248 ]
[ 0.20300897904678442 -0.4858665980532305 0.20429341324224615 -0.43374871760843936 0.08311284808352207 0.5002069261838907 0.6158202958546457 0.094811153949344 -0.6538729576503538 -0.5133393574934058 -0.05691116765345618 -0.9723466996749779 0.21462705583264993 1.0329793438742396 -0.12528413013032266 0.08577029937183918 0.08939846646283288 -0.47924873012024716 0.15998283918397113 -0.25169841382906194 ]
[ 1.0529226530145412 0.27528745967638385 -0.12267145466897618 0.10063524909431783 0.17696732913614227 0.709058350051883 0.18654333487939417 -0.31630824333131774 0.37175547843428797 0.17417303294333114 -0.11291977828472557 -0.3695012787172207 -0.04028382543974901 -0.1687452602056466 0.42280283338290975 0.45078887379980703 0.36976474725738223 -0.43394956271746676 -0.5620117437477075 0.010884269367160936 ]
[ -0.09416336989476609 -0.18231405243016702 -0.13344699294318152 -0.4331093754637169 0.36822248800574764 -0.051147538181243846 0.23948396979083753 0.027665778973295085 -0.34117393938758905 0.45279694193023484 -0.4069560336242349 -0.023974106313560013 -0.32855646201220834 -0.08035826070964217 0.7630680738695095 -0.2141980409115706 -0.10223625755515044 0.053101606206098315 0.7046237155000928 -0.03369004516693909 ]
[ -0.49330525663287716 0.2547519954680328 -0.2511570481423895 -1.5234276197003946 -0.8060108878546738 1.3443208162672275 -0.3973285957151052 0.682860601688678 -1.6906018743419453 0.235805652264551 0.3706544783161175 0.7265551470195576 0.415932356907925 -0.14214539739733092 0.48470484180685175 -0.00022123956734983012 0.3855662119811581 -0.6157646023523583 -0.8125257687617222 -0.36184702525620127 ]
[ 0.7614901648788629 1.0928568760061212 -0.20295512126021747 0.21901611573643562 -0.8076212877673794 0.201029698730772 -0.4010887433820267 0.4293980300893663 -0.7638501041316346 0.8704983277658611 -0.2572876086534531 1.0948309646598344 -0.8244389634053064 1.0319085965725727 0.21621120587636392 -0.8551149741708706 0.20876525078049007 0.25641110872450423 0.7814354916957313 -0.8891215124778276 ]
[ -1.0150171948412972 -0.7835511250310983 -0.5369164625656495 -0.19881491874156348 -1.0917713531604571 -1.0546865117436612 0.7683926993728467 0.7806408173676238 -0.16082307970241963 0.15867878436570215 -1.0625397823105311 -0.40902485919035475 -0.683152309097321 -0.9273944527583301 -0.7191786573330416 -0.9790042861636774 0.02287619894051801 -0.05498414966525842 0.1656921351753142 0.045158743318474574 ]
[ -0.3704481449310469 0.12193406772150037 0.7318471041400657 -0.01686915122864987 -0.40330523214480635 0.3185854582959279 -0.2527751314748545 -0.9445681474502065 0.6387085898061649 -1.412530317828219 -0.01105171543950169 0.8629100398454209 -0.3472060612950181 0.4479284786571968 -1.3500190352331598 -1.119896504304489 -0.027695519828345425 0.02173135125248638 -0.7263151278556425 -0.3651607226153023 ]
[ 0.35662709313724195 -1.0740767181089736 0.3227488272474755 0.1649177985774061 0.9995282104318777 -1.1134317563396225 -0.3571200198996385 -1.5130304849575493 0.10696276777311507 0.031110865400515136 -0.8397638594224994 -0.6249452641716592 -0.18401751204187441 -0.1867061803423517 -0.06298216450779225 -0.04112189958825386 0.17603551995021455 -0.17894929269943075 0.314569965347318 -0.4683535987541166 ]
[ 0.05659085351667892 0.10183452294425664 0.012847517136271075 0.10116037800488589 0.1626893338892107 -0.2896790134877968 0.10248611304517144 -0.03900331461082786 0.19268668796423283 0.039671605292972846 -0.22473273231351748 -0.06575023433667417 -0.13219115244923382 -0.3025217776758757 0.1891158420251372 0.055471393138139494 -0.00843654564279911 0.2715020101115032 -0.012377242867047387 0.2609928553565631 ]
layer 1 Activation
tanh
layer 2 Dense
20 40
[ -0.2011081240797065 0.23598434688997993 -0.1843709247916716 0.5725768446063546 -0.6471695162218041 0.2520873931363816 0.04605307089248585 -0.49937360444198126 -0.011581232109782885 0.11194785724361812 -0.05260127092277737 0.5093194589082377 0.3635543364512192 0.1929802844277357 -0.029891023476023897 -0.6787018857910169 0.36959396691930246 0.03809341980233746 0.6775821025699387 0.19777465954716866 -0.07132958693204261 0.7967128416297211 -0.05445875021344943 -0.6460211243256352 -0.05854607208126618 -0.27727444700791 0.9241494364725934 -0.4188320577170716 0.051920462906857145 -0.32676200812177003 0.7028603940203958 -0.07893072962001149 0.17348921004349968 0.0667876747607591 -0.159029051835791 0.48800789657915755 -0.22934268416768339 0.10211279932323436 -0.20911667988299779 0.32648996494145344 ]
[ -0.29085681299709637 0.17943194624815764 0.21623487176043474 0.45203398529166117 -0.04241161448634404 -0.01322491382194874 -0.4858846647176264 -0.5126917655283744 -0.05790090787492686 0.7664754939348924 0.7517824636252077 -0.30137645310930067 0.6553603936430716 0.7870627987294029 0.2418247002509764 0.5433267189095953 0.5874606928405264 -0.1742837130350882 -0.2913860450708312 -0.03369044968824026 -0.1563637021012198 -0.32354466469289395 0.05534132860008968 0.14368125379422783 -0.2730926818431012 0.1570314232971612 0.2684248898690248 -0.2646574450765784 -0.05672914518462271 0.41128072110208075 -0.4088615218749189 -0.4577387457562688 0.3952432370354137 0.025908084338288624 0.05146777689965721 0.0664291838102367 0.8627881579973705 0.10786101682145656 0.5210231641665 -0.07426450802454397 ]
[ -0.31195879745131205 0.04113709770479347 0.01485599558871843 0.2964815085065963 0.3331096444094108 -0.1713754784557448 0.007054649898694938 -0.5076342478580474 0.06945454538270789 -0.6891939014101391 0.19677527240380457 0.3171213801903426 0.23382055101465873 0.1977272554277447 0.0273245104629536 0.5168384958415154 0.028949287671805476 -0.20438630010245462 0.15293736817811737 -0.07219017321826594 0.09670859860640335 -0.08904797522286564 -0.4309115539284611 -0.5574967460988105 0.20361240347601955 0.33972790763532595 0.18179005557071107 -0.12887610894654122 0.1202393895158054 0.04896354614770845 0.29560870715345794 0.11883032124862625 -0.057053767672769574 0.12084367691902201 0.506340745948797 0.43078430420459 -0.5583080631217546 0.11059800883617249 0.46137449302181305 0.13772577556112342 ]
[ 0.07634379614793606 0.20983090676903696 -0.4412789611777578 0.030949100385002665 -0.2586048643653176 -0.14681208541624086 -0.4534627660721656 -0.16959947200915088 0.002482946579219306 0.31000675135936534 0.57556395470399 0.01903484066936045 -0.4761076262829419 -0.4118256951496574 -0.06205583655981416 0.32410973869950643 0.0167412261990383 -0.02697296761296453 0.11125298617525813 -0.1624556136705271 -0.13799741561315862 0.14670825103476912 -0.28351124078263695 -0.4586066877616364 0.26010425128644005 -0.8310747865520223 0.62951132667296 -0.19592503858582677 -0.17690145540402644 -0.1444302486753767 -0.0498387341055088 -0.097451603210608 0.062272909101242634 0.06006044060752093 0.23054815963252046 0.5232007463719669 -0.6691712457914275 0.19094678406949425 -0.18959043328585767 0.35052975382352575 ]
[ 0.2534485819882288 -0.17693245306768812 -0.750561617291496 0.042438565615794815 0.17646125401195006 0.4204370689725206 -0.6222667115294455 -0.1753312541973238 0.3514464192213347 -0.8903174193669025 0.023195086456001754 0.28771463279717147 0.25972832686604475 0.2746497366073754 -0.041828188469091435 -0.0652281546718057 0.19806376220648547 0.46343273890946635 0.37570545198407884 0.03783458687061532 0.6739157695991848 1.3553338715877274 0.21303331023165645 -0.757118551469977 -0.24180474904621352 -0.10721501488111207 1.1956899796592757 -0.7016412761879257 -0.09336499346117834 0.7181259161970943 0.8276209004384026 -0.42149149450762474 -0.0739221992206731 0.2876305243711718 -0.1805357432646528 0.9387338719511756 0.5750649906585379 0.540398290287575 0.9920237019969195 0.0976700022770804 ]
[ -0.8037587079082456 -0.6790323675207252 0.6256419994722022 0.7163444903578081 -0.6404509757335654 0.1242900813882831 0.0939727565249788 0.05728672440183694 0.0010154248968820532 0.07996900855532267 -0.09855511721428421 0.05341137357367844 0.5297304934921543 0.3457919522187015 -0.1955999080426297 0.19144918717235881 -0.0352124419972385 -0.5714457696414019 0.231233204986136 0.8400271001932074 -0.35537112744654864 -0.22857881560727414 -0.5444855278237275 1.0590966569589497 0.10537057459188862 0.35209102615598525 -0.2814499132568894 0.321940568489956 -0.30597253170064376 -0.4094371100311317 -0.6630203701698791 0.3681588679079703 -0.35258246105929425 0.07385561212545352 -0.30966822394411975 -0.7530167569518519 0.08758856001741558 -0.6403221070015849 0.3322484641443084 -0.04815290377740564 ]
[ -0.08542565196597102 -0.13383132180486293 -0.35096588784886307 0.515544145854643 -0.03801259878166892 0.2765657442404517 -0.7944854757559018 0.8944947633620957 0.31496421744065284 -0.12030127732099953 0.2322196137234018 -0.31727736942569323 -0.1363335163654645 0.69455805058761 -0.24918509284591717 -0.08321918766524736 0.22359693206777653 0.4809993666770969 -0.3284284105363396 0.1083242279253081 0.5695826951271589 -0.47784778706494946 0.41418878728452785 -0.2042727616070333 -0.06971604216304995 -0.25616569046811244 -0.49027490422340714 0.26184424839632253 0.05977211612269835 -0.47917627832923054 -0.07956745980609377 -0.27699212518921784 -0.2574364943991644 0.2954656503759227 -0.6921578095107539 -0.8176580234454877 -0.15409937767788878 0.22554852597973069 -0.6790991899602665 -0.47107906406166256 ]
[ -0.028114388218256854 -0.06272077187055794 0.838710778853422 0.5087104176771392 0.22415870034384391 0.1654348999860473 -0.7315163754725054 0.7168622829876602 -0.4320359194088775 0.7268573815119984 0.00034059667888344195 -0.5271205056051896 0.1951984757401563 0.7006816024803159 0.02155933018252538 -0.12035516184031664 -0.04705093811003318 -0.11717539638568363 -0.27645653378090823 0.40893140451715265 -0.15811524410064498 -0.2481251807276646 0.4667058951863602 0.2589418811189849 -0.1350114751641322 0.04927488228558122 -0.5646396574472575 0.002737966127897803 -0.13455756775222805 0.15478649884283996 -0.5145888679747117 0.17623474642726303 -0.11310630958258135 0.04772172030346386 -0.39565929570159075 -0.38653691218566977 0.5492410435545111 -0.6861058476900557 0.07884730874772544 -0.2635551570369005 ]
[ 0.5880354987178258 -0.22967628450724345 0.2579281606892105 -0.22656082434544988 0.10258575586867917 0.019385003573130274 0.10845507027538685 0.22846179080087953 0.025385027368320014 -0.2756206523945875 0.14347092629771604 0.43412722264316306 -0.22501434959241154 -0.5790626520037464 0.43352655718323646 -0.1318888700410368 -0.41812345786973915 0.2902481109314369 0.42011633232421053 -0.22809977947393673 0.543452261541992 0.8396744557625853 0.22499313514149274 -0.06639241977279707 -0.43607148859410755 -0.6959804290954297 0.11300715504380332 -0.015609522546193685 -0.043906572647537716 0.179472384032014 -0.057894215953177494 -0.1373405239346348 0.08635480439033853 0.06687671477970288 0.3359239343125713 0.4467749734308245 0.02351840929504622 0.25585097194254985 -0.3154595633004113 -0.38463228121505916 ]
[ -0.5903199624728864 0.13901476194997392 -0.25334232341782187 -0.28027596047534 0.47912741023620875 -0.5579336618536699 -1.0639033250273167 -0.262128264976542 -0.10201630902963067 0.39232495834400904 0.18918416714126152 -0.5592656377423639 -0.11938237017781872 0.6894799302821273 0.04396923054685299 -0.4554632048554107 0.21863065650789604 -0.4244280928425862 -0.5883247013424048 0.15864334734111568 -0.13268100166709862 -0.4689301547378746 -0.2652083338609482 -0.060433112061076606 -0.11792474961997726 0.4799442302999088 0.45463094527333264 0.2740115831772266 -0.19456530593549626 0.3561268340668789 -0.09254966274199361 0.06605571709069158 0.34177911305514597 -0.29187115425330756 0.3250673150103207 -0.26867642424914023 -0.10106043275774974 0.29150666175065226 0.3178497729900722 -0.2973561082603651 ]
[ -0.2355856170564806 0.0029557740675161715 0.4365118797065747 0.4739382845013486 -0.13872111754074054 0.010938107574132855 0.2811654931137597 -0.1387888575421026 -0.285067811383944 -0.10477035813689123 0.14809191892696688 -0.16562919718627342 0.6573884497564645 -0.12678341036696578 0.3607483210198001 0.07393905637917228 -0.04290149578479188 0.20168975988790258 -0.819485075420727 0.35889299327918117 -0.5049147261167878 0.37577955450292966 0.15148973020852402 0.42445404827380745 -0.529886123901716 -0.2648066620175621 0.05667330986135796 0.35005042689894234 0.09581840092746186 0.28113142702457167 -0.43241534864758135 0.16765742836510591 -0.10004173517608801 0.04266395816272049 0.45545624754995545 0.0945233808743671 0.5220470451474504 -0.5503026861123766 0.5773935247012459 0.24930032743250455 ]
[ -0.40364805548557037 0.21557426921184228 0.6103880109487289 0.13540361865338668 0.21403512658981355 0.07677179965785541 -0.2324665204223687 -0.40375391593179455 0.380731128184935 0.04269460326457274 0.17072384324186632 -0.33114296246826846 0.07001655410597153 0.12019268859422126 -0.2112110421651237 0.13769663764678827 -0.10124378723910196 0.1600412869704244 -0.9382155877987448 0.06231824112073762 -0.3326175515259378 -0.4248990479859586 -0.350605897485165 0.0875496218089531 0.11116084522727213 0.047166015599888374 -0.3319976153257364 0.104606058666844 -0.18681875855066124 -0.3802712185925007 -0.5458998696882592 0.14860856764027078 0.4430247858981143 -0.25843673248151655 0.4816501447978605 -0.4372665270296178 -0.40198636717837566 -0.2280647154009624 -0.36951701096357326 0.04712283848545094 ]
[ 0.877749296533386 -0.11485649773919776 0.18614994946739963 -0.1443360314273296 0.11783677501120077 0.11938411921415037 0.16533369027194936 0.08095437294931745 0.1710925557857246 -0.7447508005227896 -0.2837168926751287 -0.12057491314420277 0.4020172633257586 -0.24344827491085969 -0.4319820569309079 0.0536008281983682 -0.26811816018708273 -0.06459036369499635 0.11908225462245356 0.41408428307229156 -0.2537330947915143 0.436247699653602 0.16370559452263062 0.5016010519990942 -0.49348271184810366 0.30905073992723375 0.35517260724786576 -0.03958805780865667 -0.09447004252052732 0.765589642509317 -0.09589463880899932 -0.13828768379247736 -0.3889347408044698 0.20230002748958187 0.8502442519228308 0.24105017413876406 0.2452360018403561 -0.48046113845125304 0.584572612098375 0.14708401006547328 ]
[ -0.5830287498831596 0.5454963348791529 -0.114215857098761 -0.06563854674970601 -1.3489945843984035 -0.13883396378880292 0.7120069271860724 -0.8369166796449214 -0.14763892540930493 -0.07390836538703295 -0.4954563314893221 -0.002288272823716363 0.4241363132786598 0.10747224141849275 0.33086960840030116 -0.55099311374499 0.5514872244348453 0.808447211696985 -0.18483269708177824 0.4850040832085085 -0.022849784703223165 0.21858086867134227 -0.6201881910586065 -0.29347398528952595 0.18792743346950772 -0.23496336134312282 0.01161539886552878 -0.44184940758196106 -0.08635499612945274 -0.6121300139247186 -0.008066125020087455 0.2029624263046171 -0.07241552741772143 -0.24341518882142585 -0.2821827623947909 -0.3552592121455008 0.12761987920582749 -0.047097969520999726 -0.6348240808810804 0.48719231569798505 ]
[ -0.45767742101618664 -0.13686363731439843 0.2143824950908623 0.45433127965421 0.6045281105953556 -0.10502829547237172 -0.4195408665317242 -0.008541208039009202 -0.2553252116210593 0.16593592727055004 0.24256627553986432 -0.36621111760459196 0.055952405839237176 0.817737699696497 -0.4512915349045375 -0.5717724574854264 -0.05129907351070041 0.3200254879258329 -0.20447434962059235 0.805902783766245 -0.22086074438103384 0.4322594302380588 0.19239025331213927 0.12821188449022747 -0.46667449245143267 0.01624630954983347 -0.06330994088795781 -0.3657426039752275 0.1727292874383922 0.49147282905501083 0.5863344176783173 -0.1526375257295651 0.012812252497095892 -0.26133101041042245 -0.26587703198619883 -0.25462339803970185 1.3266466237440155 -0.0495163645255011 1.0415348730024168 -0.11642631780896551 ]
[ -0.15911587838994565 -0.09799509581550898 -0.1490451330467638 0.2998143712827748 -0.28445357954908185 -0.10702432183662036 -0.3392501798519429 0.3811750631529228 0.025383260676351594 -0.14192025268682365 -0.34721773552680746 0.3468192272852836 0.49209549948605447 0.18972456533415466 0.1288601252422271 -0.7890164392849109 -0.15902999756513853 0.3896244096124715 0.4781177926308481 -0.13403870879736793 -0.021107239461612477 0.6270986505270677 0.2569969365920531 0.07928453948016366 -0.615473150462191 -0.3094404918060126 0.6978678633167509 0.08160287353532422 -0.13370607663255174 0.44958736459863335 0.38010905501950903 -0.026445919165410187 0.28511710824757364 0.39595318685928943 -0.019687328656048005 0.4621198335008212 0.8964002472519643 -0.17369899701701014 0.8375844284943269 -0.04604259342820091 ]
[ -0.13266283271425452 0.11606036593022963 0.30934949561615954 -0.03281968432366384 -0.14512282861381567 0.12880321561066274 0.2086627867899591 -0.06974711422818704 -0.040769047487349386 0.458564562706295 -0.11015926151645151 0.0745877419751585 0.1105545434461297 -0.2193964269000056 0.00740353731069918 0.08213626035482496 0.42430137553780867 -0.7226760045853301 0.20063524912611277 -0.41497912620806765 -0.30062349553177187 -0.339018438180141 -0.26981492903690274 0.03285685586828263 -0.17057149606136585 0.28852196738572017 0.16568443163259175 0.3142472679408796 0.2726280821332348 -0.06293700118599431 0.5176517437360132 -0.026008420157874836 0.0207133160763872 -0.04477795776468139 -0.06206925854098889 0.42396403061245397 -0.5721869211139395 0.35211714108831527 0.4024273152553047 -0.10585864319173209 ]
[ 0.030819453174964977 0.327408570760428 -0.034519207816776386 -0.02879645289224541 0.032243176047354306 0.1652582944338138 -0.31673450647496854 0.23868598040238684 0.06438580364497105 0.00499098625594194 0.2657110698580438 -0.45787257823942545 -0.021989706101732835 0.2128087006413206 0.07097571357641758 0.49467947345183727 0.11940629139919863 0.1578391010544311 -1.135559537808614 -0.11185559859296879 -0.04813581464209586 0.02534069984350122 -0.06588241715374171 -0.5773403787433234 0.07066143043452364 -0.3001994576341317 -0.4537797149278415 -0.17089785711097422 -0.2732507575645301 0.05521129132584178 -0.6243786707156226 0.042569099853435974 0.0816167512004389 0.3132193823785137 0.3461880454824857 -0.3099361283511855 0.23302835752858664 0.14586638942075839 0.26607609117724457 0.0519847335094637 ]
[ -0.09216686128716116 0.48659443368834854 -0.7117454748457925 -0.16033332113192514 0.7010320539963056 0.3674677189044833 -0.1967140712303854 -0.4359872536854597 -0.10591207205805976 0.13435830016120762 -0.29428845912749985 -0.48876132938936273 0.2431020278815796 0.8058196133431746 -0.5553190181847472 -0.5621836415102076 -0.006933618817088555 0.028101905110775295 -0.4253724902164931 0.32259245652905183 0.22441718522161638 0.1666439228688944 0.07990555185691398 -0.4181132715705664 -0.47306011513853846 0.31473385093979384 0.7072461508487221 -0.5309439877025743 0.28642425269544725 0.023556871006848196 0.1417241796787756 -0.45790688008999303 0.47737365721643865 0.46433209652108337 0.12084327165730135 -0.09096377891171938 0.11196525837742813 0.6327212099811578 -0.594943586056415 0.4324813466953164 ]
[ 0.3828472397994147 -0.05120653769051021 -0.6068963145805828 0.6790146732964255 0.5374599814888966 -0.21861998614252434 -1.041398448248841 1.5349530128037614 0.29369220350874703 -0.577141529758389 0.5338042597269409 0.4649945837147705 -0.29059791465992496 0.10826601608614721 0.4982080905528833 0.2902299268843259 -0.36268461820063236 0.5964996246255367 0.17307924656643783 0.18843936344285164 0.771580298099736 0.3849960439559596 1.0514211250362473 -1.1493026374649946 -0.19535008720646269 -1.0538043492019236 -0.6117245570953348 -0.38669786817993373 0.2810720147382276 -0.4313518597313395 0.4081460401996623 -0.28057575370383975 0.05648104629161741 0.020513292728646316 -0.8643292385230581 -0.19051660208042906 0.7339197774268447 0.6295623995368976 0.327528415577758 -0.2685315419388188 ]
[ 0.19343603091670789 0.10771943430380368 -0.6724934574082458 0.1742353392231105 0.16721445810407407 -0.07596843067140488 -0.5882818036228238 0.41167440053772275 0.06538466186517228 -0.119374925784699 0.5738750429586379 0.031256561795970646 -0.2698090312616072 0.10105369369580154 0.11825981107507846 0.27242633913157444 0.14993910252374676 0.15762640214884258 -0.375121323552071 -0.02402209699220727 0.26662239129425663 -0.11078375327196441 0.28613691556232745 -0.5890463367347714 0.04748559105644887 -0.303588824454173 -0.15643510969231106 -0.11798470777112688 0.10235751118562221 0.1036523111011441 0.2914063462434413 -0.0937547956599661 0.1438887691402363 -0.041193759479663306 -0.1146949275849141 0.10350371949607319 0.12458867585705777 0.2505267310535287 0.2292808202557011 -0.06666195682257593 ]
layer 3 Activation
tanh
layer 4 Dense
40 20
[ -0.030773720924000356 -0.12148360263992057 -0.2766512752730777 -0.4646105135336596 0.2618225626305278 0.2482237015688585 0.504435501115321 0.06487549521528907 0.0721147894095519 0.2683503775562662 -0.42908906350147274 0.5763853886042835 0.0735471209515139 0.34537445830493463 0.1909477576149369 -0.15856897078126553 -0.2077750174810978 0.16312654800436327 -0.24129808061462546 -0.19483331548294022 ]
[ -0.23363389789393238 -0.2428639913711084 0.2611466950004201 0.1845910116644705 0.12934310016353587 -0.4014103742695753 0.244585637499931 0.008116158205659927 0.11465059387948684 -0.3234657378167018 0.013434680094817644 0.1470456641058041 -0.5902180187252504 0.323754393240657 0.19090413222943692 0.08751253489346543 0.4247225888808886 -0.12101747196148435 -0.1969435895998904 -0.3961137156262212 ]
[ 0.18415282627878107 0.10693726910338547 -0.4769634200203425 -0.14336674109288844 -0.26988422793195993 0.20904710368906101 0.045928753128213685 0.06347818303072966 -0.14738464520885486 -0.43908656793889295 0.041795097129740715 -0.1280147176398959 0.4311253544937695 -0.29170397464034226 -0.6157487770926765 0.030691208500297378 -0.07880454062207913 0.4178139115447693 0.407401452280109 -0.10235355590891136 ]
[ 0.09677733881221608 -0.13324056494295453 0.36946312945298815 0.14741342187010387 0.22708614784959208 0.1641076396770685 -0.25996539007780384 -0.3491743430642507 -0.5605630141949802 -0.3800575015092108 -0.19528754379925012 0.3293843483187163 -0.13456064257529798 -0.41774826864449005 -0.3500953681835712 -0.1877746211964611 0.2911305682561903 -0.47707563145799153 -0.32681607916895017 0.5001530975432656 ]
[ 0.02650468268325457 0.3534078328390735 0.01985382392704455 -0.08349092260947978 0.32684194647128567 0.23789246014081283 0.10420189346575089 -0.4388372190520681 -0.2612144879308936 0.2321858155888476 0.3496523478766035 -0.38247315406384386 -0.1760761437277385 -0.3375083558329127 0.2632784458278605 0.012196767608015698 -0.03419909998565745 0.184287905286687 0.357314043649882 0.3538492255494583 ]
[ 0.3246131629815077 -0.2823552163043097 -0.0828995799666053 -0.2286846665935186 0.06793526397742998 -0.3395789745531898 -0.18332441681484768 0.3236293502887555 0.010283270169125452 0.1330255996333644 0.38655061194491647 -0.11608944639742767 -0.046679011235102104 0.18992756147441986 -0.015537173830214402 0.05097283943795352 0.09801487117013331 -0.2025928704375399 0.008702869649337905 -0.025046138304762953 ]
[ -0.2673049608528974 -0.11504565445518973 -0.4186973617502005 0.0952472828649288 -0.1578889247894608 -0.17537926066099746 0.2382563819445593 0.29562173932771363 0.4719925395578857 -0.14528814250039362 -0.38607747023276184 -0.22184041159618423 0.1823553789648774 -0.01762473585104376 -0.5009106969808254 -0.5686530518180275 -0.2561128074047374 -0.11440235068105568 0.39674749318265684 -0.20078892786185445 ]
[ -0.36091213487199003 0.2941628386520852 0.2504831414756626 0.10946233950887795 0.5892924318554286 -0.46049273222551174 0.43673576917761464 -0.45451960790587104 -0.5598254759976087 0.7351268442637229 -0.37732713459638995 0.6028209769615217 0.20908882378346447 -0.15774426928918245 -0.2766260884169866 -0.29542908294970976 -0.5625377433296477 0.1292236700753395 -0.3128612522023152 -0.15866898002903407 ]
[ 0.15123948563665632 0.09268650162227315 0.0575399671801862 0.2811291563706618 0.13798549568726606 0.11981443664338734 -0.060293645565885554 0.16873609906606976 -0.13024257914440612 -0.05938856074977012 -0.10183753471032171 -0.062450283105137554 0.10323307120325001 0.06920788632202832 0.2520581138855038 0.06967881552122485 -0.22400802609335208 0.15967478837705285 0.08425300219055769 0.2942723363557482 ]
[ -0.25479219835433037 -0.008482862805314701 0.01619220003497855 -0.16896633272358907 -0.05043280249542853 -0.003944192624378432 -0.4009265345536159 -0.2511839810560431 -0.21700003107651517 0.039877491240557186 0.3074824779734645 -0.4937722891713408 -0.46241262382147075 -0.6858962259397338 -0.20537372957858305 0.07217718103061017 0.3739610173407611 0.608617641944093 0.21145641228101997 0.01302621656235837 ]
[ 0.19755930873497426 0.2987630603250847 0.6063416182798369 0.06350673153556667 0.02798342411972894 0.1627987956778121 -0.129512382696152 -0.13474230343382684 -0.6560480011392049 0.3112323927155587 0.18226486854533142 0.6473429231800941 0.13035178525646116 -0.27660878006963774 0.14634051938189707 0.0664208275106287 -0.004524373750882849 0.3580159016677355 -0.08670425503699809 0.05191490345257488 ]
[ -0.08754954547209332 -0.1256484047657323 0.1843277772808998 -0.11471000228475838 0.27116601911495614 0.02811228873994296 -0.06652156303803633 -0.1606803524078313 0.014211776888759157 -0.29914347235734673 -0.3074502264307301 0.37117489106607365 0.31734958962078186 0.2116773863347111 -0.40523873362511775 -0.3222022592100864 -0.47609992106521204 -0.06574673211867885 -0.4515998080833686 -0.005977921395005985 ]
[ 0.043298179226155885 -0.5482054539156521 0.14969329203856638 -0.12107358864198164 0.008704345024683428 -0.12009669725668248 -0.48267540553476374 0.16527899232662924 0.015890453855120282 -0.4007511259107507 0.4960965974103584 0.07164242296428772 -0.16557112593884235 -0.22974294775553775 -0.1316253855727833 0.19519165980604247 0.38506878982253573 0.3720999742845485 -0.1660564312547464 0.11464140446814075 ]
[ -0.020112342710945703 0.3592242846177628 0.6304322043268364 -0.11250814772526851 -0.0032156113299899505 -0.2884611893780346 -0.145449196019991 0.23310327216930782 0.1815252439040108 0.2167746168437404 0.17325764382675407 -0.5929736988181258 -0.4801854591673629 -0.19264071693083626 0.18944505756278007 0.42364438317580044 0.5748295473207998 0.1900812227317519 0.03117849967123699 0.3296743874496297 ]
[ 0.009109827016191074 0.018879705760978062 0.04862146803130631 0.49508745715821517 -0.08461311560040262 0.1461341596516274 0.09839020779257593 0.1291543114216223 -0.16086703792227222 0.009211039193786425 -0.48027657581758787 0.23205047410111068 0.2503287986757414 -0.03635277927114013 -0.3718144869021225 -0.0006843487938022766 -0.3063989372161001 0.25772774657117614 -0.14540105663517677 0.08865658384168215 ]
[ 0.08613642035776028 0.3770561103513519 -0.018672689855323842 0.2890708099619945 -0.3279522682838733 -0.1916771359471967 -0.10195897097738016 -0.08764037850913563 -0.22920622983556987 0.4510677994397018 -0.1614669025253153 -0.04104482320663445 -0.22376181031060957 -0.23143851540962868 0.1377506787166862 0.41618006819176223 0.27607464043980545 0.28522907167879735 0.2053346239249671 0.3782916436872896 ]
[ -0.08527826998058023 -0.002838988150499406 0.18390221388816644 0.34284667593507245 -0.29227101778225834 -0.22236024888526998 -0.13103349293248814 0.03356692579372596 0.1337501781812877 -0.10407605059994753 0.2550116415652834 0.2352504990417897 -0.23841655684444185 0.24627508896160785 0.065449357505501 0.16134472743638006 -0.10886395206800004 -0.0023558628255530723 -0.05998644596262122 -0.10203929002966113 ]
[ -0.07133369929192435 0.11545896588434891 0.2501944292570756 0.07405403184001688 0.09061130458187706 -0.19962639447801095 0.10072104220593193 0.3810845027592399 0.34003083381258753 0.05451734318987368 0.004884669110463437 0.3011414931706026 -0.08818781383308136 0.07514645439197411 -0.0994495114186325 -0.24107693895091115 0.4705076359492011 -0.2072423466582373 -0.5380447679100138 0.20092022709700133 ]
[ 0.2842510421719875 -0.10875467930384025 -0.1393401128481375 -0.24687952788746617 0.237251313325555 -0.3261187452896787 -0.15183425722812435 -0.14486520390913057 0.5361812743388451 -0.12917567019482376 -0.26494467468470556 0.10288645323766718 0.43385042520918865 0.31393587799083705 0.012575764036443778 -0.28352233608412614 -0.4446318089855765 -0.3404576704429805 -0.39814607317705186 0.0730891805143408 ]
[ 0.08837167642476766 0.03385259712268019 0.12525914279234868 0.24385552526115253 -0.2574853163270842 -0.1287538194635045 0.22671669607952752 0.16568978160951683 -0.4211036135300981 -0.07496435550047074 0.24972929528856416 -0.05184016597659745 -0.4032567746850192 -0.4263683052891177 -0.28233733741078615 0.4804315167901317 0.32029564656417375 -0.2142053046423026 -0.3320431537023336 0.11133076192500369 ]
[ 0.1643742331955576 0.21320020833404305 0.3742241319956325 -0.18068732245679983 0.31591544795560506 -0.03698939387842055 0.176501568921775 0.013778239042290804 0.09553034727480311 0.41449610921982416 -0.03272255918310511 0.05909654641761477 0.40588592618946 -0.2221542559000953 0.2807148792640536 0.2731278340473983 -0.16397763406415725 -0.16113448690155185 -0.10032138344410134 0.16968378419486227 ]
[ -0.3235420141757132 -0.4493158920347362 0.000930160650668992 0.04012354420942015 0.40038857594406646 0.3365445573901916 -0.5901796968238547 0.49181842447402013 -0.026288958814256386 -0.2899556468783104 0.18633311121539592 0.25326847547893055 0.10209275048532161 0.08977414688562917 -0.22104918383183464 -0.369756370966853 0.06161807615353395 -0.45828636925290495 -0.4572553624051756 0.520323060555249 ]
[ -0.08642304047016476 -0.08738121552759648 0.04661679269523061 -0.17726625938544702 0.46547367292585673 -0.04512486554171159 -0.21691402512188285 -0.39794866883535346 -0.2589089543596144 0.6501230954301466 -0.1356855379035146 0.1669994948675858 0.3949791475291353 -0.4370723968963234 -0.07618633288587195 -0.30431929616588155 0.08182771001275707 0.22741611308357548 -0.29166697962027743 -0.1388841576346878 ]
[ 0.014051941713181073 -0.310806975022713 -0.44837937835809655 -0.22749866644092628 -0.4793972622120449 0.30248604963465064 -0.5785242513779012 0.059178224587330755 -0.17114427125644147 -0.5554226950745368 0.17855571902232498 -0.7174734502530988 0.3187502497290858 -0.3847024196789068 -0.5175770019132245 0.07169248212870556 -0.1530368277192943 -0.05951185698869657 0.7528520223491899 -0.32214536305306424 ]
[ 0.041409955709630936 0.4146824290395011 -0.14452435407859685 -0.13747267707243904 -0.22287619915504173 0.003753089231551976 0.24698806251377875 -0.025261557266585574 0.24595542341649107 -0.22560977107400262 0.4259873198288632 0.12869763759099037 -0.3357211483249969 0.21215917579052954 0.45451215892992597 0.17432789688082592 -0.03149986211631725 0.29430569269071305 0.215031787435137 -0.20663154775299522 ]
[ -0.1583282283895313 0.3779392590884896 -0.2221816076587299 -0.23762867548903574 -0.3070682242106649 0.23567832467909838 -0.5793157131229083 -0.2638697003434382 0.8100824360507749 -0.12469329846540769 0.3652812506210256 -0.3841698609714863 -0.47859987691816586 0.06988348846628778 -0.011446240295879578 0.47004684511922584 0.23163836740249721 0.17725100812016012 0.3950570532483442 0.2009202213843944 ]
[ -0.2669314266204293 -0.804430138154994 0.3387996973161775 -0.20138795537463539 -0.21264268192752936 0.2701638671339342 -0.5383200013311935 0.02545391490145915 0.34606716040074836 0.054757915855988784 0.374423260472608 -0.4763053438710948 -0.1957295461131451 0.06599611533814495 0.2886294530244209 -0.600726647681084 -0.060339667880655624 -0.19736378991500916 0.19462900679712172 0.6681609923710695 ]
[ -0.0623069386441533 0.11771929473551253 -0.3544013836180843 0.1423392720490499 0.11108314168156153 0.21702830021157543 0.27670441670899365 -0.20712524492748718 -0.3295326962387263 -0.15331277039949032 -0.24599214113002324 -0.11304601103790755 0.4774666401467721 -0.07195473578173048 -0.3521363365938206 -0.027713585244507014 -0.19873904958877708 0.30301898320867343 0.5196111179903417 0.04549522320064205 ]
[ 0.1348141861019917 0.01132428593743857 -0.019512037095553207 -0.29174836615517596 0.14951230014101086 0.11569676375751876 0.032696518733761684 -0.4176717705659682 -0.022359940867783142 0.14528102658462422 0.2867792241407406 -0.11955108333919365 0.3263154553422857 -0.010793990970073325 -0.01965040849829569 -0.07395366897702235 -0.011662297267299924 -0.1685617364444361 -0.004471493487726327 0.0013153679278188916 ]
[ -0.12035303844691468 -0.41535320499484296 0.21347926095267122 -0.2073713192614345 -0.11220460175903829 0.8929500553335734 -0.4728649862818158 -0.1363617994070211 -0.1519297609617002 0.3083025098182378 0.027812824818305062 -0.2708944876653788 0.15880915946231877 0.2747170683637768 0.3473263843808288 -0.5617329384018385 -0.31267322400904335 -0.1695094204510857 0.08181738864124677 0.3578377276110559 ]
[ -0.2527445949488984 -0.11049073935911478 0.19724934533079866 -0.16222638728787991 0.23387178055327357 -0.0022846434896091395 -0.12439547153793995 -0.3222465849401439 0.39603935446346333 0.3304813111726425 0.009460835634181331 -0.11937130926017776 -0.41195711947606334 0.39549686293146846 0.17739587510889887 0.04263020095496444 0.04564227479127202 -0.5039839297050305 -0.45751876108317313 0.261830687226351 ]
[ 0.028596403600699732 0.1653376535736994 -0.07461900317236694 -0.015911222310970925 -0.22293674310981393 -0.008961902642793392 0.30929027430859146 0.05861065505246662 0.12423796300487923 -0.3678886119417578 -0.449171043699807 -0.15691440614877494 0.13028623853486587 0.060670476853815054 -0.2718256338706679 -0.034769431316588495 0.152101480267335 0.0750126411910351 0.07890413678303751 -0.3718948830831285 ]
[ 0.0017103120398086695 0.1328003787264774 0.3299356154765807 0.19420446472716302 0.22749117780346464 -0.2363570334128074 0.03540877725649929 -0.1467386555596588 0.10233699479995899 -0.13429634757161554 0.3548039431862917 0.16295259391788283 -0.39352376040358367 -0.30570889321988315 -0.30806003839229473 0.09990866296793634 0.0021954550911514187 0.14873118981396546 -0.05526858583982547 0.1131951093832397 ]
[ 0.17885376584009705 -0.32027841737935786 -0.09803754649677227 0.056217712283767644 0.19843673129369482 0.2507114388209103 -0.16114036593469083 0.34436058118114776 0.09141774992668715 0.30505929653836844 -0.023805269572239485 0.03120144996189616 0.08828292004522738 -0.10381812015845279 0.0958928985457089 -0.12089207364718434 -0.08900429592937707 -0.04926130958563421 0.20008759546356344 0.11715228745979672 ]
[ -0.07194195847664119 0.048410821924111676 -0.37093808731107203 0.19475041848056315 -0.15501632066923907 0.5007423383328228 -0.3076713770737711 0.004298556753328367 -0.017140143604568066 0.21580307829790346 -0.5035142909303724 -0.10186808782305078 -0.2806887021809849 -0.05026442303927558 0.010394353628713729 -0.3790514122552079 -0.2511162669520807 0.4265489552801101 0.4846325282972095 -0.0839572889508419 ]
[ -0.15881884822901846 -0.5046053040648113 -0.22825377593693652 0.14578053268036478 0.07899156586432292 0.5527286271284266 -0.5108086109588322 0.018938345250483758 0.3031780194986655 -0.46200547910539597 0.05903241687673449 0.14690226251415886 0.1530277478399099 0.3777063763387186 0.3329375423527492 -0.3437623892653978 -0.03691503284904437 0.06254798139891199 -0.04849975498203025 0.1446901638267609 ]
[ -0.09228242734441236 -0.46526987476940024 0.5564052987173552 -0.027726104975052256 0.1273133038489439 0.3457620206612942 -0.23676297400323942 -0.18445302121358376 -0.5505616968468952 0.2553175424698338 0.25619494210955046 0.17284423547948718 0.020221402701737487 -0.1978914116332039 -0.602471854346252 -0.4579466356181371 0.16417751994212074 -0.60733861818305 -0.5620842768772569 0.3194244038426986 ]
[ -0.12537144526440902 0.1459097088563926 0.29075139543364836 0.04785622500016082 0.2744559169699827 -0.0719096156506395 -0.015317412385545797 -0.22156679582455016 -0.20303237807380137 0.5617751508216114 0.06735823344936087 0.16910462031710158 -0.3474786401414284 0.3423281467059528 0.08851092067452213 -0.31258422469255337 -0.3753068171500955 -0.5279066202899938 -0.38127808208028 0.12204406000883418 ]
[ -0.14869011126925247 -0.23162638574451178 0.30290759802854494 0.48143288362097436 -0.28605011349023046 0.8566151875120066 -0.2328128724211685 -0.31823173913268454 0.08375389320675299 0.38596929511085143 0.17525551739819464 -0.3179532328547184 0.06109252091499485 -0.16671640540098057 0.2952660205622951 -0.5257699271641372 0.3460120957782292 -0.4546830562342851 0.09137096025035199 0.7116246418897992 ]
[ -0.0999230167850417 -0.42331458415452217 -0.2926787850958403 0.16827006970725203 -0.29357347131874717 -0.02529960879737273 -0.01307053199860554 0.4625018146076583 0.35640896519989457 -0.21983411133819258 0.2960187970336043 0.11822518499329458 -0.6016439539436941 0.3526848547458304 0.2677267357458046 0.263466930938706 0.3207349659653525 0.04424398583279138 0.34743185757440914 -0.17157008029656132 ]
[ 0.07018824032607401 0.16226283369121977 0.2999178521609278 0.005879479788207022 -0.038493104013196854 0.16846689760216813 -0.008033433954601932 -0.18627914723313616 -0.49531937831321377 0.11964978964457444 -0.02475991530582602 0.42611386999982037 0.1037699068183543 -0.006025573330060025 0.11885949648152892 0.08609776408427802 0.16263391619258935 0.25879124360817835 -0.06589314725351537 0.19552053046661894 ]
layer 5 Activation
tanh
layer 6 Dense
20 1
[ -0.002045108338903993 ]
[ 0.2587988072967779 ]
[ 0.28147482033305354 ]
[ 0.018757241157603074 ]
[ -0.24366989043501358 ]
[ 0.0890086397728449 ]
[ -0.3061833177661164 ]
[ -0.13058415873568383 ]
[ 0.36005965951483815 ]
[ 0.2796093980839391 ]
[ 0.00931639780838198 ]
[ -0.2119158628706696 ]
[ 0.059613331526105776 ]
[ 0.12280171823728986 ]
[ -0.11722617052799394 ]
[ 0.1719988789475705 ]
[ 0.121694673158 ]
[ 0.17281574100010721 ]
[ 0.2978863800660653 ]
[ 0.17455023046484644 ]
[ 0.44205501500904 ]
