layers 7
layer 0 Dense
20 20
[ -0.3395689563560553 -0.3736787023387469 -0.35753604936662575 -0.6328694948806118 0.24871477747587628 0.5031405030549898 -0.6411915710566491 0.26374150045008293 -0.08231101776369808 -0.1380691627709614 -0.034398065768059434 0.16348367297455418 0.3359008022044139 0.39958135855804194 -0.2831795960238679 -0.06763104520470836 -0.20621305938677165 -0.23848454425842186 -0.30142856509740634 -0.21925831360623138 ]
[ -0.34331874485711983 0.04310007237732064 0.044602735557864974 0.38262646737782074 -0.19758390931359499 0.12459383076129776 0.1858125420147774 0.13754059130707352 -0.1619637467305714 0.032978591160124325 -0.11357743698508221 -0.3035937003924844 0.3516433151753974 -0.32609161826116123 -0.20841577499887645 0.021298068276301582 -0.3263374814195283 0.13380994846764963 -0.22964058608608434 0.21717899324906173 ]
[ -0.37878289916524793 -0.04709416275806444 -0.011708299997612012 0.26065493628852154 0.3283456389172847 -0.36271675296284817 -0.2512791541248012 -0.021677838490633948 -0.3304706922595654 -0.13777213892199633 0.31559760157826333 0.2431674694224712 -0.020601150299531988 -0.00025078642427713135 0.10582786890434678 -0.21488826595606345 0.2586799854292784 -0.16525671725485255 0.10903695239709205 -0.27020269639396066 ]
[ 0.21087703120830079 -0.18533150276573593 -0.2862169281944668 -0.21625501691577692 0.2020069333177601 0.458411630484536 -0.7409178830696376 0.5098466659837347 0.3103808187731928 0.32566272701686655 -0.13651718147798053 -0.26456044571305815 0.28306647833732435 0.7539315957753185 -0.285997367537845 -0.19687383739834904 -0.1898558227631903 0.0378633907988251 -0.3122635830033195 -0.19872096258769084 ]
[ 0.027720423512558445 -0.5580358403444401 -0.08986943921401075 -0.5386911692050008 0.7698865120819134 0.03840852538188237 -0.13921980779521104 -0.3939140860958843 0.26612121688937984 0.12630666016190295 0.3070278976862333 0.28810327933589136 0.2896955244572727 0.504394435813938 -0.05055402561311197 0.3101889008525522 -0.054142632657072066 -0.15699026515916853 -0.048199920025720835 -0.48682400575018225 ]
[ 0.1645796843048162 0.11524552640923001 -0.11503623901885662 -0.2555299045653103 0.18774511341620131 -0.18616777599152845 -0.3525749081985366 -0.2916844764252612 0.23887217585744355 -0.030828336362308067 0.07412520790840627 0.25428264904708825 -0.18307849221217126 0.18610106002758875 0.039280812641968865 0.3522009458805487 -0.28579107304612583 0.10584923833465114 0.010978782948850336 0.14957301165773026 ]
[ 0.18274794133928085 0.17128950989260627 -0.3398750659975902 -0.2982824623835295 -0.2892021353199941 -0.107256483386335 -0.18915905020326132 -0.007055069403317745 -0.31047695004967246 -0.3723752107402918 -0.32172627181550406 0.30998925273137223 -0.27135813644286516 -0.11742949119340823 -0.039995476537532465 -0.0020109161583121795 0.289397988346365 0.33581623044336234 -0.0005628922503869288 -0.1404474198599655 ]
[ -0.22987181990259742 0.5685276461627755 -0.2019507771087009 0.4734836525556872 -0.6080875711604128 -0.21594156739696452 0.06808722626199913 -0.4095830464328384 -0.14502407172071607 -0.04938902645172266 0.3082666481646004 -0.5540963274560966 -0.07457714750163752 -0.6300117020953205 0.4718270323917458 -0.33533162785528453 -0.2640644400848107 -0.5587565692721094 0.4768819690414662 -0.012692291743713951 ]
[ 0.7722828945372788 -0.1676148174508574 -0.6711039213376021 0.07978861276117066 -0.11543442269430292 0.6104860825789117 -0.6985556621962911 0.5050720270298875 -0.6969249235794788 0.43498710440413507 0.5728946882272284 0.07618904971336583 -0.044667991686730184 0.07443307795395915 -0.5693509628417249 0.7828368727447703 -0.5199285818346009 0.7086780682845737 -0.9005660535638786 -0.34689521606900114 ]
[ 0.08571430812905517 0.20668747506997695 -0.043976565256466475 0.19627145287369588 0.30762844178371007 0.20572270795863398 -0.14389040089438368 0.04016227717843257 0.6779461806843585 -0.15505431194877853 0.9014190513963238 -0.007693709644667922 0.7622037992935147 -0.023550659773938637 0.3399419110974989 -0.26441709467580166 -0.43741133047219344 -0.06615083562102536 0.6875335706418256 0.07233271260057278 ]
[ 0.16552032021847352 -0.8363862167985512 -0.038620046902698824 0.36025879491192914 -0.24827467039294082 0.24889436772060455 -0.057023571128306666 -0.23690370880078934 -0.4732149992264791 0.4931126906060802 -0.17874310464001136 0.15468203802861774 0.5568874053760065 -0.06108443161817812 0.09271666837744155 0.2093222571585923 0.16302403262539164 0.04469107079942495 0.5289161158864911 0.5995565114735438 ]
[ -0.03397776053722667 -0.5720247158008519 -0.7561153053101746 -0.23475698573889056 0.12589417860621424 -0.5678896243169522 0.43662676343516543 1.4342856478601305 -0.7265404655058733 0.014854354074551103 -0.00356233104441366 0.8823947959683252 0.486656264731324 -1.2404535657007931 -1.1684992110572183 0.4855745900911445 -1.2384344404505696 1.6979786210290873 -0.4333184893128346 0.8868806573065048 ]
[ 0.4697829463964358 0.07302106543204159 -0.4074376549062232 -0.04411529939205347 -0.7503425691610215 0.14084026660958657 0.36251825346927863 -0.2813696124160281 -0.6072139679294586 0.4049854949913933 -0.0794340691899558 -0.12348302755991139 0.5956597785069463 0.10669417718225044 0.5596619278544656 0.21459145759702644 -0.477588660780087 -0.3767660542647058 -0.8220404266914587 -0.15992275951918655 ]
[ 0.2991372746876097 -0.3812231750037807 -0.6006570381550655 -0.10783723393353606 0.38746141624625013 0.09619880604254008 0.30373800737268514 -0.3565966996479717 -0.005818991984155332 -0.02082857369535291 -0.728138623060589 -0.5140946495976323 0.07647812666782963 0.11538737991336563 -0.3838750089357084 -0.014138153853732294 -0.24294097672586823 0.3103533071871359 0.307243015536535 -0.22785974795639302 ]
[ 0.444217079249914 0.6087797499731505 0.5478944633935375 -0.26531873150444735 -0.3910770324300273 0.1370134797842812 0.07125500628824724 -0.20640934281550866 0.29239078836550764 0.39339216900678703 -0.6123400285043568 0.3347251691899973 0.25504710594971086 -0.03459385838508752 -0.2537915211799112 -0.049560161757917234 0.5100699008384776 -0.018097958068591078 0.04460604328805109 -0.10919374259209781 ]
[ -0.8446110809367094 0.27734283667138204 -0.34252843943515066 -0.7846886510416522 -0.07827785084725447 -0.9490745295819919 0.819337965990368 -0.40423307929178853 0.2102819535607836 0.08642907870583398 -0.27436694473755413 0.12144133334823652 0.9368952901397138 -1.269402513850591 0.46719010836575786 -0.5457946456717141 -0.3454274736404051 -1.665984514025167 0.537904673272376 1.1949530331426057 ]
[ -0.5053901174648433 -0.5114443709670045 -0.2822081546765098 -1.0975630139072894 0.7965061660286487 -0.21282698724012314 -0.584893903139764 0.22061273780769708 -0.13402054230807597 -0.14777698676587622 0.3842570092560754 -0.3787207678309443 -0.02178646427517937 0.23601340261397147 -0.021949391900892956 -0.2687954228083414 0.5208128313952732 -0.8553565972867474 0.6664462552431657 -0.645228009928245 ]
[ -0.6390049765250568 0.24344130827793253 0.17426860209484907 -0.12824994064433318 -0.2766938595914902 -0.6463768117026305 -0.06963730667668323 0.33132436629519124 -1.2839622869332699 0.1661918126947684 0.42531782283418534 1.1472084406041434 -0.5575700064278256 0.11394490694973758 0.15513975151060289 0.4849103886810558 0.6226621530471652 0.09036523695111176 -0.6181077423062551 0.6587179466028271 ]
[ -0.8393012715904345 0.7518510447066201 0.15400911026983735 0.5429738084105573 -0.13314689464893012 -0.6013270363718857 -0.0142648095508709 -0.20702680812977017 -0.46321801275573365 -0.4818281097320471 1.0113679655476941 -0.7860352430331791 -0.446247678007821 0.14803617693958163 -0.1191863401319893 -0.6993358030730642 -0.7759410753458696 0.40182624104148074 -0.16695609502402672 -1.0081394035327862 ]
[ 0.17077949480137553 0.27052290756253516 0.4627685087826248 0.5426832727671795 -0.9602994229928343 0.7363573126739202 -0.203076848077484 -0.26666993846419784 0.018590784606220566 -0.4157207309639098 -0.04110602609081634 -1.036894738228148 -0.9443391358564762 0.7432029090780388 0.1580299696672978 0.411146346241207 0.4310303778304806 -0.18079787656157564 0.20032133206206654 -0.07157797595461558 ]
[ 0.06566210366548021 -0.1090704576167074 0.03086461218702245 0.03485272785491276 0.19470302674432663 0.23500878011087417 -0.2291489838369599 0.2366485765618363 0.180639791216377 0.08943758569512755 -0.08575281025033685 0.20830919774765297 0.13231984814397513 0.34682584924791443 -0.07687968253191532 -0.030204136963506028 0.009338100428953604 0.12709502586356938 -0.04894929249919184 -0.09110987375901544 ]
layer 1 Activation
tanh
layer 2 Dense
20 40
[ 1.028248026128751 -0.49367175202062824 0.3560915615756747 -0.29283737719441577 -0.0911247172691831 0.3384327327819561 0.1797369063143849 0.06256732010778446 -0.43080589547111736 0.384151200638475 0.44177411992001253 0.48087934345765376 -0.4288503255651548 -0.04801396676652286 -0.10961375806402374 -0.07380655084027225 -0.08850507653981017 -0.02795473908311345 0.6744484911533091 0.15952507785389597 -0.2332674303037114 0.43055331292114535 0.2920260313062758 0.003014658831505699 -0.0703827665257577 0.04676559229960323 0.6387541594868232 0.31016201003580507 -0.3382560278656479 0.6143634177172532 -0.2027440145573645 -0.22090205924510578 0.03735030450771386 -0.4390552662710928 0.06203846118687487 -0.5037353876955288 -0.6118677189620342 -0.8545186592448651 -0.4058927254781801 0.18138091068823495 ]
[ -0.420087543193925 -0.011925522616592838 0.019832805046329276 -0.09008653474993228 -0.1874834854197675 -0.19491757724449493 0.20123534777965216 0.7307311862687701 0.556333738144477 0.2275224019354797 -0.32095225040286024 -0.3317599429014432 0.3721090984398114 0.2744660168084374 -0.07641067410635831 -0.29245261828238156 0.12247660322036014 -0.3126646262322234 -0.10070509743812425 0.06461234972042387 0.4185032791123282 0.5579841446986453 -0.41538901477119705 0.4093508658362113 0.3848516592146749 -0.29783492971823694 -0.20947949159069157 -0.01671141891874596 -0.14391625204120934 0.3771986972940061 0.17890469274174595 0.3361624999596459 0.38707516885702786 0.05301307480068246 -0.057443297986895014 0.13852188868281826 0.15527166185258573 0.6845189066928101 0.07532168946423888 -0.3088340779594883 ]
[ -0.09438013710325785 0.1994677989824863 -0.42118434813412337 0.4484002840291984 0.03553439155687474 -0.11236757976328939 -0.03681870486812899 0.7571408340234305 -0.3103723631290283 -0.34149710199379246 -0.04951857290202703 -0.09164921458592325 0.26932887544758366 -0.137605624570553 -0.06803139950893497 0.34921899619764096 0.5384620553657709 -0.13657480062508362 0.17535715427712664 -0.16860715650126556 -0.55194004843135 0.36928646029621254 -0.4695441600507813 0.6282939574184088 0.38787539774286084 0.476719228498186 -0.3185186489494665 -0.35210009326108704 -0.21898450016604576 0.5496171957913064 -0.0007579274781404277 0.20926331313346125 -0.04940774464651573 0.2529649848817856 0.13579233910715854 -0.18359443826896768 0.6131981021266176 0.8028996463050196 -0.1835433459956138 -0.13401830887866736 ]
[ 0.4345837634401153 -0.8012341681371055 0.5263130081844798 0.6525960266822672 0.5426919015904097 0.11888024689627563 -0.010721389309382039 0.6007729084851064 0.38022293459543927 0.15194408674864873 0.2302933750041083 0.37191157083092735 -0.03579464652417611 0.34155526654597834 -0.0801159304525041 -0.5963526739221264 -0.2803983980389713 -0.24291484490943205 0.46913807003263663 0.077976141259103 -0.5114517636179762 0.40179493897877744 -0.018846319563576498 0.5069584445381023 -0.06820286499427376 0.5597804194729551 0.44375612100051687 -0.43008091473951 0.1396636268225455 0.049338150822904124 -0.25245305994073697 -0.3422467328988733 -0.11259763080562996 -0.3349603599842686 0.3897925392002767 0.9248724372950266 0.004838168051643676 -0.4540041247871414 0.16845960173882252 0.06751808100914732 ]
[ -0.23229249359808782 0.5201761499980486 -0.24030968668773448 -0.2919665006110554 -0.3631074818248618 0.20905968608059938 0.28291518793851517 -0.7557795522380044 -0.3426978506309702 -0.016024189789554607 -0.11236503940961758 -0.4965245365995682 0.2375652297431531 -0.49427976051772415 -0.29168901521217505 -0.2278425285956679 0.36401320964050415 -0.3945746019969344 0.03384674965347176 0.04550978661090566 0.014535997693756575 -0.7557128377605128 -0.373192159567676 -0.4166487332358011 -0.44410359491716117 -0.3115304571761992 -0.13393267657676852 -0.33032596372993767 -0.2998609971407137 -0.76776863699538 -0.0013390405591880473 -0.20596862161830207 0.20413236986077826 -0.1969554752318813 0.07438082427769716 -0.18881104060940318 -0.22616858369199236 0.1917950864512911 -0.4655184403988758 0.23569222004309023 ]
[ 0.665229952593333 -0.01513666896108248 0.1823841454147563 -0.07983722426750253 0.2064049307699982 0.058092242815543337 0.12638419132442663 0.182588437798735 0.21578183290164013 0.15383871836228433 -0.38345047617752126 0.31604358663808413 0.0017874998876366375 0.31157225252595894 -0.3862748678371905 0.2287550003872981 0.20235539944352196 0.386249038946688 0.6251897156642182 0.15412005992015082 -0.6779364931483752 0.22119699112849944 -0.0900332429628966 0.34797104478256907 0.13708995812741434 0.09643409407828153 0.15739991533356237 0.17945876579859998 0.1791391891055768 -0.1273724502016568 0.2528742289114394 0.1694702840684808 -0.03953112737852121 -0.018242026244786 0.4635384944846877 -0.49945231839350845 -0.24336000125161344 -0.4504196575725796 0.27627111141923516 -0.07878283866264454 ]
[ -0.475065927506761 -0.22194659231762343 -0.36312007801854645 0.10163667371850582 -0.2634499528528701 -0.18956874393803597 0.04897456300213765 -0.051966789862554 0.39563100205923313 -0.03629495693523457 -0.06121287874884754 -0.16527754237845377 0.04572114880391542 0.14300898164401227 0.14628646978455284 0.24743925138937725 0.28579099032371297 -0.6145784561753811 0.17276928211935333 0.21115464846469945 0.8966086146346824 0.6058192815837053 0.02319317072512958 -0.9466846672653587 0.19479609191668668 -0.4284100077869322 -0.07823816331213312 -0.22473885833589574 0.3173500364675826 -0.18450668920169772 0.0719094105924156 0.3022189962194743 0.5191798484918847 -0.12895581049313976 -0.44492964530606993 0.17948906970980302 -0.3126090179469562 -0.09891182420323721 0.17881152013103185 -0.21092836070545487 ]
[ -0.02341580837388374 0.17010257305836807 0.32882834116923854 0.1453277583241552 -0.13569000916652815 0.19984369274702987 0.07608370741723143 -0.13800220292976825 -0.4926256890567443 0.4002240477898263 -0.20303891418108472 -0.02007381214547742 -0.45411316261898527 0.014951675135673852 0.3100122539353644 0.22263053822561596 0.5374459032247759 0.027861640464925765 0.16966316474815582 0.05815553203843906 -0.05484762000226381 -0.6368706583211481 0.30239284829227303 0.8453108746552881 -0.3561758427750728 0.45306628664758747 -0.1456111215938277 -0.20619575380405855 -0.1775875610090058 -0.1403060482744721 0.005680789422437895 -0.4946104145652251 -0.13471304094610026 0.4317437218024799 -0.2837850948521374 -0.2156874106692557 -0.19687639767782478 0.3250839109076218 -0.1564812405690886 -0.259556978112104 ]
[ 0.09126243121236872 -0.40623687345706677 0.11827272080062283 -0.33219596808238194 -0.1675345584100406 -0.06638553247308084 0.1052800472388638 -0.06927531780899157 -0.20449433592352925 -0.12855841638534798 0.5576714244960819 -0.314192372823017 0.10970118665433827 0.19625821999924792 -0.5026600452890427 -0.0841760468035199 -0.014590672748725367 -0.5169032810348027 0.15978767095131693 0.3081663933795053 -0.32063037275745815 0.5151192786402754 0.26001096173371424 -0.41626766076173144 0.12136421923089731 0.3905871522408989 -0.07684437261850546 0.2949555024983103 0.2582912133829854 -0.26454582192230114 -0.37439629136291736 0.06660073100876844 -0.2236648726381915 -0.02102664292363878 0.20487234604343318 -1.3429627725640412 -0.4258383700141052 -0.11747751967958578 -0.16957260484967382 0.8824254522180435 ]
[ 0.019666627622744546 0.12306762510040996 -0.03406566049427282 0.33406061662510383 0.027752682402605696 -0.2929255322394422 0.3693488186680421 0.35007536856745725 -0.12697754112410667 -0.10802415205404971 0.31982335035525183 0.5865465057443267 0.12318690376342493 -0.2616531277143519 0.16419877577581346 0.004575959611899702 -0.00957860405598115 0.05871015357016858 -0.2539753846870486 0.028645440501329635 -0.06147249702917816 -0.15124443642371416 0.3463548057720562 0.2033794913112777 -0.3582588413485992 -0.31578961705683406 0.08494492757255924 0.18066223359220382 -0.1373522268487186 0.2742910890374875 -0.088049376927898 -0.0796420385849338 0.25562181179277177 0.177894888808538 0.11345742310888676 -0.5171567610249064 -0.23402380187179286 0.01857358218864388 -0.3101482502243419 -0.027660557297975303 ]
[ -0.018756978288572236 -0.6845050023126195 0.14262617408047215 0.15867971360230573 -0.07584463377144296 -0.2567990370808788 -0.029331286025874214 -0.047235310828750286 0.27990598665751454 0.0059690484309915005 -0.0643128555238252 -0.2027454829542746 -0.2466110269573113 0.39315235614314564 -0.13512289746766779 -0.33817810628851475 -0.0772582489816667 -0.274313630412813 0.2468500779591565 0.3542357575160326 -0.5072034115558849 0.11090881263731327 -0.23047408612025308 0.2683652853223858 0.1530912549176873 0.1455475062133624 0.16813986300970665 0.32602374308044013 0.22522830958700588 -0.05284029003189172 -0.0350396749462566 -0.0019437054491195016 0.06136072117320101 0.001516876142013281 0.15871471886356925 0.7874356961256056 1.1660934224555097 -0.2557735317202786 0.10147009240304344 0.4674676676675087 ]
[ -0.6739966039174939 0.5828310186028055 0.27772211823495313 -0.44703452647673086 -0.46000767597174697 -0.1731251350644566 0.3029306653016071 -0.22523248123559383 -0.2718125217079525 0.5429050443331768 0.022881459373588306 0.4113889835149428 0.1331507581870155 -0.07461458156648482 0.06806033143733177 0.18769099050895127 0.5433238961753385 0.008296518114042624 -0.4336438302169961 -0.1201730840547376 0.3388486000347577 -0.48816137162616274 0.13713879904008794 0.405539589055991 -0.04552231123771605 0.20172273807571267 -0.352901048809433 -0.038227625746857744 -0.08313821090623505 0.4817804308263706 0.07121667427836037 -0.09591321803262197 0.1697619473700724 -0.025718210538287177 0.15712272226802537 -0.6332050339221519 -0.5835689789530399 0.6010408005941507 -0.046147654987339394 -0.028161776734696733 ]
[ -0.18553826198186849 -0.005882304780668747 0.42234441904030584 -0.3492781444026533 -0.02337666980477719 0.18563332353167425 -0.2881777295984553 -0.04367271507213063 -0.05609531601723653 -0.1338858245344972 0.3254222652888399 0.36537312773021247 -0.2660063104089577 0.22165480492413875 -0.11850549380706296 -0.13493975248684487 0.2623256756580753 -0.3863967295825901 0.026735398608244743 0.2295801117355255 0.10072918938741557 0.2429907025355896 0.15449178256000393 -0.7288777489262667 -0.6209941879616838 0.4215453371660959 0.3913432647548495 -0.18046248015553737 0.18067545320708878 0.002388080403523061 -0.08052887959339045 -0.31401796384513186 0.29948518391770657 -0.2166214120021059 -0.1576345842074394 -0.8729813571604418 -1.0673191716093628 -0.40697437516842283 -0.021833296043150457 0.23697082650331205 ]
[ 0.5503597164742171 -0.07159848997110088 0.32818555641637825 -0.04741790984566793 1.1231545355378654 -0.5003119820818847 0.25937516225299084 -0.08436718188807463 -0.27753693986561473 0.6192060491067015 0.1495286059896379 -0.02251116443168962 -0.4153846420813263 0.4470623723171095 -0.2970624056375498 -0.5146556199799471 -0.6703632406506532 0.24406004081702215 0.5303140655538865 0.45997668817905996 -1.213261821138318 -0.9470383466792304 0.6267100879862132 1.057792085821802 -0.21679637770804994 1.3030820802712777 0.1816601063529422 0.31324523900402357 0.4094936034607548 -0.05994535235394587 -0.9491616853828881 -0.23230152625821668 -0.2960563061392081 -0.45987065000977945 1.267290364131636 0.5378957888355067 0.12395091367703098 0.11829539916879094 -0.3156469735883174 -0.00033205642419966547 ]
[ 0.2829918403647274 0.15051161370679927 -0.5415767803439426 0.00816242043584293 -0.05701887605612018 -0.0996161560121018 0.10445684161330822 0.4240809379492483 -0.10250382662991678 -0.31733205216326155 -0.1875703878721169 -0.20837602563905264 -0.23146738397397926 0.12333248822152443 -0.026752719239538654 -0.21724329818385543 0.34943359435168636 0.25746649348657874 0.07976036414851506 -0.28064451800847495 0.3209643666032958 0.22958041377281913 -0.1164906477215474 0.12938217557097972 0.09147306539774792 -0.8328244595289918 -0.037675114137470586 0.18876617778471158 -0.3008682013627723 0.05079695915208932 -0.26509594601082487 0.5019975605708754 0.00020445377881496787 -0.060630982811092776 -0.13279693219583344 0.2548987828768558 0.1588796959992511 0.07696346738002634 -0.20855724976729897 -0.038968283994176026 ]
[ 0.8730753289916103 0.10874805071629441 -0.2655976380458035 0.33250002863397016 -0.4311004186841187 0.15061981088262058 -0.039105331818970704 0.04752128532514272 0.01201457928613497 0.13955552935558296 -0.04798285513060552 0.17430258047603503 -0.2708630423629515 -0.031232554556285867 0.2093599008192664 0.06607765422199388 0.3543912196433988 0.25859377738353306 -0.2075010019544292 -0.18314491124200521 0.17959212680870804 -0.2675923762429811 0.08140411142456175 0.392771737020711 -0.24611909847954389 -0.31227106938441884 0.2737136020130473 0.05534344579182512 0.0458447417890297 0.5617907397828235 -0.255186373571792 -0.3150583948558739 0.21226956981232453 0.2844708160319057 0.004344155506990519 0.00013933336964162764 -0.34441641682986524 -0.49110335263005944 0.2782953854819784 -0.5649316653138512 ]
[ 0.3780389498067593 0.9924201900789675 -0.5289295055578804 -0.28748522229286994 0.003213215793456674 0.32004944821023384 -0.2280829740464143 0.31392123197700394 -0.07194896093870282 -0.14440895456114786 -0.10491316638078055 0.046378777323797894 0.24627888214960206 -0.17569776923752795 0.4184732130425914 0.36084432822771517 0.18519603974773885 0.319793329604614 -0.11447334245891126 0.12756709989518214 -0.10654612718588087 -0.010614922387064692 -0.33035493405757027 0.6240853932146371 0.2589851806620145 -0.03568987513104046 -0.12027524659189083 0.009073726332149694 0.2548278196385718 0.8752208601817193 0.0407245240878109 0.4833425078466469 -0.27360160671518147 0.5500303462195844 -0.034728164143059605 -0.6802718326239964 0.27411735194419606 0.570056761190717 -0.03555402940481642 -0.4161478453063757 ]
[ -0.010294422596762463 -0.2271102252744238 0.7084161938795508 0.09684225812880908 -0.13911858593748272 -0.008648936948553806 0.25442930139354425 0.45617913208498784 -0.18303246783885285 0.8504498380357913 0.29911817631162235 -0.242916398625306 -0.14307791176080684 0.38190482904659523 -0.20898820037776303 0.005225974125038224 0.38602619869063426 -0.47893775990769927 0.45773861819523864 0.043958377404624265 -0.1839545805120758 0.2205517061125063 0.7163278324579211 0.12208487985561042 -0.382792789952464 0.2014253778120929 -0.12852412467070923 0.19030628071220201 0.19481053770055767 0.37972443099064856 -0.09136896374418868 -0.735669829377163 0.061163439321867366 -0.17392800010932488 0.06379959740200093 -0.45885743044042937 -0.4756237091855494 -0.13844122676360085 -0.16902657823033407 0.04354469080213274 ]
[ 0.7361934459236795 -0.9566960429129306 -0.7840516714127596 -0.41785193200538895 -0.3461185106161285 0.27416163882485795 -0.09644661323484133 -0.6160786300551977 0.11054179109854145 -1.1450448487205585 0.22632201496172577 -0.7714530124149462 0.005996233820272452 -0.44470174759112696 0.24155992130908438 0.5342864939391496 0.613163682410356 -0.1114948868370386 0.09897333883804306 0.22191040137503434 0.8586604254951227 0.39187252136444256 -0.7781002403616818 -0.5561774346894378 0.06091098785956004 -0.1856904907312739 0.5864210938410669 -0.6078547373146215 -0.08007666086162657 0.10820086664635106 -0.3873273270877022 0.038152339794658006 0.3840094680582455 0.18019703392390338 -0.37673264522484967 -0.8628380712871553 0.4081137641295135 -1.1157686123159531 -0.4905594810035027 0.40031054497498186 ]
[ 0.14107891577141216 0.3710377070272633 -0.10323752062661165 0.3801658934166069 -0.06471553480243844 0.08863032545642394 -0.180901876072383 0.32374850265715 -0.06870420711374489 0.2634921363110901 0.10670866627812421 0.2782367635289571 0.011073749870046388 -0.20507083841686144 0.30937192119017287 0.24246333993373245 0.6101291052789154 0.36420093087750377 -0.1668680094168662 -0.14265064689658585 -0.018701501244476757 -0.1409487330450608 0.26255896478706103 0.08311859532343943 -0.04913568828190898 0.2697024461036443 0.1946894934183029 -0.42184998021983894 -0.23460617202676795 0.356102018541864 0.06352348058276677 0.05548406489890843 0.2024058464522667 -0.21919932027871694 -0.14454468829951284 -0.2592167382349733 -0.8982812260582524 -0.2687771741695844 0.42089195314084626 0.0014775289550831175 ]
[ -0.11258479842748673 0.0483860294745701 0.35456123539200857 0.003658964501304757 0.2628736014076479 0.05004161283359824 0.06357022592227876 0.11577359293622919 -0.09865711517495694 0.3554403261095709 0.07452387660010074 0.0827852093792123 0.005095425478696676 0.10799586081292856 -0.06478467244969939 -0.029386321410855683 -0.018216644736129887 -0.042368705373522365 0.18741967537963292 0.10458752773277696 -0.4719016498605135 -0.12774206882917094 0.4361773220496071 0.2840069355607588 -0.08585991939934132 0.7480560350172873 -0.08366719163804912 -0.11287662615061136 0.1555262908137892 -0.008042744631471093 -0.08087231800151005 -0.1314897368195181 -0.11479110773346653 -0.2524250879773369 0.23664352022731935 -0.2551193254816829 -0.5123056363902699 0.07028913786072521 0.03496308197796258 0.11814215246878731 ]
layer 3 Activation
tanh
layer 4 Dense
40 20
[ 0.31498628078950497 0.3607674575415709 0.19063898859351205 0.17807752885053854 0.416374503758367 -0.39657570273143666 0.41193504132226166 0.2121616702993214 0.04692254826950845 0.12988678346579838 -0.0178809994017892 -0.0750149844338113 0.6818009296961928 -0.11213493275797803 -0.21132661500515595 -0.39909890739652276 -0.17354216211995727 -0.1561138295260378 -0.4599501425396566 -0.263964786012923 ]
[ 0.22029830312921433 -0.6050306496685769 -0.37518947524268587 -0.1485475369368776 0.5880581161321772 -0.047784067399225166 -0.13333379297258027 -0.41925973165689123 0.02717581483441674 -0.23498893797887913 -0.03177087604186506 0.14124574947668034 0.2978476867944829 0.12161907515937892 -0.12432590025393135 -0.15017618669475413 0.43386002994218625 -0.02342912419366253 -0.13483862380800676 -0.28268106792358055 ]
[ 0.4506412914681504 -0.01817710998707546 0.5037403322393196 0.713290690939614 -0.5732080674193816 0.41405094499729495 -0.22861448558749578 -0.3902547420553548 -0.3599226080758765 0.2492320784218136 0.22566449584261747 -0.22095095957422398 -0.2775099008733379 -0.6640726916016568 -0.45501602482244985 0.08177070072043842 0.36374526105719807 0.33327638075082633 0.7399083730687029 0.714524327474224 ]
[ -0.2085386683566422 0.2159002180893575 -0.17092975070080102 0.39018717129787367 -0.07939157409430297 0.15374470427624906 -0.5672186937490414 0.16734145197368003 0.43159861519633297 0.5119943936414363 0.19137529525477048 -0.13416997056164007 -0.30562400621201324 0.06104179363198406 -0.07272262057831419 -0.19582174478414582 -0.2980736573182805 0.3862057564462786 -0.12330651782867066 0.1614895475825704 ]
[ -0.07535682061440598 0.06051111425076027 0.2565486559154804 0.09190315679846922 -0.5995516046496148 -0.20249375465250216 -0.14210173454436814 -0.37032544047285143 0.2672726628472966 -0.04112680607187443 -0.1927175648908544 0.1535872155388239 -0.13480324355907716 -0.01980714054606956 -0.09820015912440633 -0.0388573062143627 -0.570070826531796 0.3266649690980808 0.45666275385046456 0.47012224312512324 ]
[ 0.010561861897653268 0.11464287474315484 -0.13042999180227244 -0.1892171519690725 0.3852940731210738 -0.10042569085335531 0.08803655271958055 -0.022539454659416227 0.13521796172291506 0.16192872842326947 -0.20303539655883016 0.0510182786833228 -0.07505637414271805 -0.09436693454478666 0.26951975012951174 -0.3662914500373265 0.10940112063549627 -0.017579046338767737 -0.34146464874936644 -0.03630267993778693 ]
[ 0.07410201869516174 -0.146166003987749 0.19107026173958747 0.029293596639314395 -0.2586909105037351 -0.06174596214620104 0.3504705851924086 -0.06813558985752738 0.09060146881027833 -0.08376360981996986 -0.13717249832525583 -0.04916434343028582 0.15151146489953554 0.15772141173233875 -0.30886018918118463 0.16767781722512703 0.30985213083507795 0.19266742354117347 0.021775083512737096 0.08216418379224287 ]
[ -0.1287531794396803 -0.29046939574916747 0.18193182315682618 0.24448908422132548 -0.4734385786302582 0.2357824272191768 -0.3425330036081281 0.4009777754809055 -0.14554536026314627 0.002321576559193873 0.15223545124220786 0.13120054508972143 -0.1984841343413277 -0.18546912793174772 0.28792508356791274 0.4114895141565395 -0.37755617183278717 0.11033461111500867 0.007951381616384246 0.21287717299553505 ]
[ -0.209316467278136 0.062221711092550425 0.13832257448536414 -0.12187648344804985 -0.334704219571755 0.2493335835220854 0.16294620051881373 0.30726764038492377 0.5404323650939663 0.376556927521476 -0.003267938116000113 0.21438556742592432 -0.19180456719711753 -0.10877522578273265 -0.1873696680711125 0.11824429348291139 -0.22834921835796784 0.2437682720237318 -0.3358326514246074 -0.1330066394396403 ]
[ 0.017247447947488476 -0.35943390925703456 -0.15340545786967644 0.39351293444890223 -0.3160634015221452 0.06460301128361357 -0.40847764302945383 -0.5820786334335136 -0.22630231092517228 0.11658834971173176 0.024267988203446333 -0.0873662926546283 0.39045698372437015 -0.2163987218411787 -0.26698393083741695 0.4430224172327054 0.3402901840640425 0.03534139141078216 -0.07832932342644723 0.5642819758714682 ]
[ 0.32698942082364285 0.17401633304845202 0.28051264035329465 -0.05648696760523813 0.07600965363203199 0.05955777804016588 0.5287370284147762 0.02058983216285574 -0.33996879932848084 0.2721059395095536 0.24535952501585598 -0.2163438489990881 0.22351470797489245 -0.22378663453234368 0.08781443791506116 0.0013397633082709141 0.0489914610788813 -0.28043369156786313 -0.1505024270592106 0.19096545752473534 ]
[ 0.027959197181457607 0.36055479096927684 -0.07170758004989683 0.25820679946997466 -0.1537335615311687 0.06847882413499926 -0.19370945773368323 0.0067493524657254635 -0.8239769393803245 0.08990840986069036 -0.03744617074472839 0.0057449259370578164 0.6194066031241077 -0.02772075697927597 0.04955251569978503 0.16239625443937905 -0.0439620596026469 0.3837472481633434 0.008775544820911666 0.46368767515013454 ]
[ -0.3303423746155267 -0.24074786272639195 -0.13206141316619685 -0.04181198251601329 0.10796641995306876 0.18283862602927525 0.1129323407924553 -0.09873505036431665 0.28402397257890466 0.27496214630227844 -0.04097806516615894 -0.2288287578146473 0.09521625555070923 0.3924824359549608 -0.19540905578893406 0.03878538521830202 0.052100227889304504 -0.09662567970948194 0.11431675373537815 0.06350990725774865 ]
[ 0.1693172359287782 -0.26609813446067293 0.521874179391705 0.04581092407073088 0.009868617616903162 0.0978540616515975 0.24473069686796683 0.20766485122058614 0.3801777172572687 -0.07295742695889731 -0.16088209218669028 -0.08449599206993383 -0.35536576327162195 -0.13705053135974618 0.031760780852704965 0.2896833036702807 -0.12717885769821718 0.26392486852148234 0.358494062751814 0.304630489265586 ]
[ -0.3761112865773643 0.08194929758072969 -0.16400896205691948 -0.38527902560022204 -0.012227717156549151 0.22371353113663678 -0.38443384495358496 -0.0935513284748379 -0.11638556772589716 -0.15812960218320085 -0.21807847470198857 -0.1522133498950974 -0.02106117823425935 0.16081647017618975 0.20370813615726835 0.15429590534879492 -0.12649298687957672 0.25812409766853533 -0.13891915012676312 -0.02296087849790278 ]
[ -0.14840014558733403 -0.09605107301610831 -0.15322115034392877 -0.15273662002897875 0.24388212448140584 -0.09478272295508758 0.1318400504679272 -0.17168100605885556 -0.49709690492761344 -0.43873811864412293 0.09170597602320818 0.19308516187303576 -0.1493427493544331 0.3750271982768284 0.03462309441232669 -0.3385590562177782 -0.06132058596589629 -0.13317599890406792 -0.08038857887629246 -0.23766350126999827 ]
[ -0.23789713931788706 -0.16327425713034935 -0.3367632542955893 -0.05310815496399576 0.4313103558080647 0.41191345618436637 0.0440159685846171 -0.19364054986444204 -0.08133917537041416 -0.2959995537430969 -0.308570937323814 0.23393976448991052 0.34336683232842946 0.3218978335002036 0.03515684533297763 -0.19620941593046573 0.6963149691065237 -0.2203586157198225 -0.24946368836469532 -0.14250952340981546 ]
[ -0.23992954358358393 0.16316746638212037 -0.05576052691099903 0.1780063329964435 0.07026822948326218 -0.374319313503426 -0.4823908901804302 0.24010823439458046 -0.14202416594814418 -0.07131174404090297 0.019944153804086474 -0.11871036427013079 0.13902721278438462 0.31806705109328165 -0.14349425722893788 -0.15814831545990982 -0.43186899315967603 0.23699355723701124 -0.020680835391586862 -0.2936021382863245 ]
[ 0.4694890417016609 0.0004337657525137141 0.19619254481956563 0.3543144598035724 -0.32711645793089594 -0.3609925953942619 0.4592871458200445 0.05953605305560724 -0.22106487851149476 -0.007005536867661277 -0.02354610994898022 0.3091795970703595 -0.22752697977782055 -0.5054689865764432 0.10008360798623157 -0.19328424245723705 -0.23978183974541867 -0.4231407589793583 -0.06554715781647555 0.21359108513750988 ]
[ 0.21984024998959387 0.02225584646694664 0.4164212055666322 -0.1649361073330634 0.12649328124494186 -0.21238630595350705 0.5680501292785016 -0.3439612806672122 0.09407510694743071 -0.09566956938191915 0.18467266096380355 -0.003119951865953691 0.1052934928303581 0.03619943604411952 0.22213676117827136 -0.029846276488546566 0.0888732063943923 -0.11355994678581026 0.14179495263172692 0.2754234811858485 ]
[ -0.11151606941167738 -0.32663373449149485 -0.15564412864929753 -0.39191507602873454 0.25208450797433496 0.49006134174751226 -0.07117516562976789 0.4651286211154862 -0.1937942449068204 0.3241205845211145 0.3000411264679312 -0.058889307050719264 -0.16576940495065706 0.5187753171262919 0.21318127830422387 -0.10584052250820421 0.46087512214744997 0.02544301209121595 -0.3925317817933718 -0.38000428950053944 ]
[ -0.18986064974752817 0.30038124588404197 0.7795611803419003 -0.003642957156518289 -0.2485777446780107 0.16093642705231914 -0.3985995370783066 0.31747131794111033 0.22615550970469428 0.5542978365701999 -0.2312039745353736 -0.25684244072450335 -0.34135078993028717 -0.03383958212487015 0.00426272258708161 0.4941559116842798 -0.4624846279775799 0.28048817027669515 -0.3459441570667314 0.09854197071610578 ]
[ 0.22604348685371986 -0.1159379292536643 0.07484923980020616 0.39534276052497774 -0.11238786060995531 0.09272249193617664 0.04527075738474899 -0.4208105969734919 -0.444564961826742 -0.1735611782134157 -0.09807337014404799 -0.3251295735101132 0.22901226340448372 -0.40221154333972164 -0.1970723659174587 0.20698484674211862 0.06209510980031 0.16988547578581809 0.35975112901394657 0.5296472655352331 ]
[ -0.18586920384527225 -0.062374185215708124 -0.16148441722121903 0.46007598508978853 -0.05677765097936187 -0.6164216629641281 -0.37057139574313847 -0.05781986966754918 0.22075643739782635 0.09105618304500458 -0.15742685348680105 -0.18227540368745482 0.27298183549859 -0.001277659395194674 0.23051022918448463 0.34629167589459203 -0.3878130058567208 0.3922868406495875 -0.2204073236082038 0.17922186126541223 ]
[ -0.1705112755591358 -0.20679974104544058 0.18515884737211352 -0.040136140040496225 -0.07579444363658297 -0.23626522432151192 -0.5970537183353908 -0.09738624076481496 0.2561625202105803 0.03747775312256549 -0.22258290210110124 0.1653590473337702 -0.1740064895414835 0.40346519916364143 -0.13310061636886591 0.13873582168214488 -0.5273204745876081 -0.009700708061691316 -0.2752345870564671 -0.13882158366841738 ]
[ 0.5276277763592427 -0.038080559167912996 -0.007824986682543366 -0.15767782558219579 -0.2179513776001791 -0.10814185381600833 0.4333931889444975 -0.49336976528921644 -0.2229511168471284 0.11054904578516815 0.1309259310151638 0.07693313640990986 0.19254354799607318 -0.062414403468280116 0.2283599668401927 -0.04170233292003106 -0.33675601312202513 0.28932081280609717 0.11292670054239036 0.6617341829288227 ]
[ 0.08239498414085078 0.2993314876977798 0.4738850691278927 0.08849814952234576 -0.07409274976989202 0.15680622526524063 0.1826954858175538 0.20930037722457553 0.00795439880124156 -0.010650878614349123 -0.062264077253999316 -0.18743144528130626 0.22713785745789147 -0.09175463987497039 0.06624919945881191 -0.48113560587488896 -0.0010590471432931137 -0.11033837519825761 -0.1780112839214158 0.02335636890282189 ]
[ -0.16203805233811505 -0.07361018265515948 0.32639851235122724 0.32901028437031477 -0.17421093460272488 0.1686875453404197 -0.018437306598267405 0.22916192790187298 -0.2781015230530578 0.16785498556896244 0.00970744477237822 0.06247957568670205 -0.1768916440193544 -0.11738481457498973 0.1423767756907399 0.1615599918575718 -0.37625709652726175 -0.2711390710520877 -0.04943894269986251 -0.05965662868108235 ]
[ 0.20366455815475693 -0.04317654463746417 0.18832532419568684 -0.1271546852298699 -0.017712143696829687 -0.13195207969339504 0.3990609587303486 -0.1912058066989059 0.08021324446468636 -0.24394458111861236 0.157541250081448 -0.07169802473380417 -0.2555208571530132 -0.07011763209213456 -0.01591249233637455 0.07140890184847666 -0.011492400164845104 -0.23923428030203991 0.11526566364025248 0.2554606661729556 ]
[ -0.4201043724164931 0.32642995133993574 0.40343320099735136 0.5791935708570133 0.22253086026281857 0.33737506781131815 -0.3855168780872463 -0.10398078385813793 -0.24572552407038625 -0.21396625413397183 0.37125056766728076 -0.07372608090308706 0.04080536519224681 0.15629715744329783 -0.2282647020254444 0.45857540914479333 -0.4628191994204608 0.4321007484436257 -0.41077362408405094 0.45640234437743094 ]
[ -0.39987209604113566 -0.2417309042581625 -0.1017498830136417 -0.061493622295436236 -0.05243264370905918 0.12508583124255118 -0.4826888460684855 0.41055957381706004 0.12182104046885626 -0.16981360862025896 0.2103781814670854 0.05020362873837067 -0.16355853507325055 0.49628204079033833 -0.1387656552782127 0.005555478596539768 0.057265788780964014 0.000844301206242427 0.10751220582452696 -0.008390638195408317 ]
[ -0.31785682822842937 -0.329033100100767 -0.1393151233475882 -0.017084220324439174 -0.07294349024094042 0.07590877962224377 -0.23813574663676473 0.4064429789587406 0.2722491678005315 0.1019712462772343 0.16992266917714632 0.004566477315685251 0.26871877744779715 0.3421692167839541 -0.17805449232402087 -0.14148227863167423 -0.39324475179739005 -0.0018283683581123205 -0.29293742823109964 -0.21503091829097604 ]
[ 0.03482014364103996 -0.023757659291532278 0.1503939114559304 -0.19293982531448212 -0.07441912872473963 0.29692820033609013 -0.15074563366901847 0.14290710433692314 -0.12391666723601467 0.07659977795582062 -0.09293377387808885 -0.11523460227968128 0.08022915479699916 -0.14864670744154584 -0.28123495792629055 -0.15836877521602666 0.1795945536492413 -0.1694482188764989 -0.15903694381216454 -0.15936602450390133 ]
[ -0.5016607071612762 -0.1203196116707667 0.011664000124447581 0.06021701203384743 0.5186475126454156 -0.041997785160733 0.10419032383454077 0.15843481571838894 0.07027183282345595 -0.32179290473101124 -0.08421052768971611 -0.05424734164925386 0.22560701774083783 0.40042860341983766 0.3151567616415368 0.3493504273431236 -0.13823425780055829 0.12233111836336573 -0.1385122894117506 -0.2634672392077063 ]
[ 0.2878293681683484 -0.09099263953637061 0.3373642335171182 0.17948313281796638 -0.5151009617702395 -0.4033026396254364 -0.2296473267253835 -0.25055890754286353 -0.05817983117749805 -0.11569805251943482 0.05399270098610469 -0.13888593193828142 0.33941312672489304 -0.24833945191349618 -0.03388657300292823 0.1977171383802748 -0.21650346887138447 0.14322343182444794 0.37841194277537876 0.2566066113119595 ]
[ -0.43861749631304203 -0.21164497718043082 -0.1605958023166105 0.16284122618347974 -0.2641232548592215 0.17651852373326377 -0.41966558459974845 -0.06801411891787873 0.2705358314716671 0.4345734961337661 0.29275900366629787 -0.1978633600345824 -0.5972610280392845 -0.2323972313903934 0.11010871527828135 0.37071189642897623 -0.3959472021957261 0.6054566469107227 -0.2031401168937695 0.19921161337758955 ]
[ -0.16079777031618156 -0.12340006325989739 -0.29900183606007896 -0.25633318930452925 -0.12890345030817155 -0.40102530980162504 -0.4263214713567737 0.08960319661959326 0.48187841806864357 0.18443613549491664 -0.14268047460380806 -0.22888254163535435 -0.2709473905518335 0.5062986987041919 -0.1574323592079684 0.1817892139461728 -0.08001006316972192 0.06002733439411554 0.195770818698031 -0.4453087013193293 ]
[ 0.1392300140944896 -0.6277487411203898 -0.26179249667375953 0.13293010620024032 0.319941399913152 -0.3432699142019923 -0.3889540675609973 0.09682904447422203 0.24738550803621642 0.0894799743608496 0.06134548934805343 0.08969405715732938 -0.10402742685853167 0.26204690660036023 0.015509066030159842 0.5304466606152389 0.11722531182485309 0.2810094229281764 0.29199425384784633 -0.3475866229611592 ]
[ -0.188342343359889 0.06036350837010833 -0.04315683291314457 -0.03773070217412134 -0.556568513254925 0.17052771277652573 -0.43409175999886246 0.18714500006425153 0.10320276214160205 0.059866014547491825 -0.2670588296156425 0.12852935359264622 -0.19660469320480292 0.25128451037692834 0.03907618864569758 -0.14817356490766834 -0.18945106564439293 0.007209286605777417 0.12033530857977436 0.054531486986325754 ]
[ 0.4780127685904848 -0.07111148016453989 0.23179912622562954 0.13408775314016838 -0.06083651160345812 0.06943625310775602 0.5562526226239523 0.05133697358392559 0.11426102498960732 0.1444770763705675 -0.0269439142440962 -0.25385743812619 0.29022053363447126 -0.011643218453324644 -0.326030347510146 -0.2913517026075214 0.11306076012643511 -0.46836534291625237 0.10148100022721225 0.20889509484702065 ]
[ 0.10563469271108593 -0.07011557032091383 -0.05296356900116989 -0.02823104336441438 -0.05602897579448632 -0.06626017867046753 0.08273663744067832 -0.1888583134977852 -0.0409131359919967 -0.07547911263224238 -0.0006343065884859148 -0.01206345892393774 0.0718814017463758 0.0015071653087436112 -0.0092149589498092 -0.08065664438394679 -0.013546224947289024 0.06581876791709802 0.15079392547692783 0.2570539475017401 ]
layer 5 Activation
tanh
layer 6 Dense
20 1
[ 0.31287709221261184 ]
[ -0.2781498659359795 ]
[ -0.13749470001222694 ]
[ -0.20074117262039476 ]
[ 0.10518648802359389 ]
[ 0.16100498800924418 ]
[ 0.11328307504538525 ]
[ -0.33537521099210355 ]
[ 0.13190787199913726 ]
[ -0.012185044895613057 ]
[ -0.0056414777834309674 ]
[ 0.04194113562053798 ]
[ 0.19835467558988315 ]
[ 0.20710230905019392 ]
[ 0.010551991364683782 ]
[ -0.24363995344941064 ]
[ -0.20581557845612544 ]
[ -0.11232555105088197 ]
[ 0.27333747066111 ]
[ -0.5985607429932852 ]
[ 0.24428372443556864 ]
