layers 7
layer 0 Dense
20 20
[ -0.1869918420326157 -0.1845880228619538 -0.3116211831862141 0.4218093874433227 0.17861414962866903 -0.6480933540241609 -0.2948315106452177 0.03449833516380859 0.15628539400418298 0.4371411346145634 -0.466090381093058 -0.20170074578992553 -0.03458558513378911 0.46149066130034894 -0.17054104424044236 0.09699247041203161 0.18016652282888232 0.10311761957301045 -0.33055583838307245 -0.4225589986212193 ]
[ 0.3538939145038207 -0.10928990925478196 -0.3653115790781354 0.1334533655650469 0.0698437966607642 0.15168800789266665 0.00193373961875311 -0.35835297616560635 0.1536644214289665 -0.14368210947626728 0.003024458686308194 -0.23557633111645546 -0.2096122555599981 -0.022935784552252186 -0.3670965700265849 -0.21531463118618327 -0.3835056042360906 -0.1735118306498406 -0.018919618850610536 -0.11448842338785088 ]
[ 0.19631984723353754 0.3310014380990068 -0.2025043342588114 0.2166492055713405 0.1663140902039805 -0.09188310853587386 -0.03712237897974942 -0.05091328265992137 -0.16647042401910356 0.378111642781128 0.01829068986121261 -0.3635239272056794 -0.1268853017826732 0.3456085177088645 0.10390160091838373 0.04581524498280389 -0.09574815762247127 -0.07321952059814407 0.23267142133034469 -0.3606703771990231 ]
[ -0.1807599764433887 -0.05194162211922783 0.23281669139887648 0.4120394541591675 -0.2288072435840126 -0.37434226307902246 -0.05739794720510446 -0.05226544184324852 -0.19617210749697647 0.42589756560154923 -0.06462068193598085 -0.1294224889339544 -0.06852041345127748 0.0740380730861403 0.27444636134875466 0.14124267633755924 0.04387662993420777 0.3228621029726836 0.11135830329711788 -0.08931780236717482 ]
[ -0.3776717002098422 0.1935677754119275 -0.17072360128335318 0.15996425611563544 0.369300850612531 -0.22619613227692875 -0.2157861687717549 0.5500487918603112 -0.30548277965658766 0.3699518581474079 -0.4538612450001827 0.2463823466910785 -0.5139413328001456 -0.2684204676328984 0.5067083292533415 0.1467048921079504 0.21494748656542825 0.052417528102791 -0.32609155591313227 -0.4279644553900653 ]
[ -0.10813777642970228 -0.22355229454574785 -0.3340926993848197 -0.17997626593623242 0.08577131763285431 0.29911622344753835 -0.10011758294603838 0.32226796996262824 0.2916667596098739 0.23499020831409467 -0.3087902016014054 -0.02504750166233402 -0.21327528836604917 0.33262363339785866 -0.27322347062324503 -0.3109730923555659 -0.2031598936324315 0.07618438578625822 -0.21754908442701384 -0.03862496141339314 ]
[ -0.268732168338225 0.11062062693730243 -0.3700852248748224 0.22299209282888566 -0.3385747735817111 -0.2907171646812646 -0.03453925246398877 0.02304309115064859 0.0019652908797870797 0.07920789834168228 0.16820315789879883 -0.3606150601297104 0.24391929167028292 0.17646372643304475 -0.1970506137463544 0.31848244340210824 0.32024685362654226 0.17869318930681938 -0.20904877447855813 -0.34668097925805946 ]
[ 0.06480330095711195 0.4366387615848773 0.21416906856689405 -0.005996572105514412 -0.1671704645048087 0.5027570598444269 -0.10084106077893662 0.26149823087178087 -0.011188245562090271 -0.5196706694981154 -0.11282359668296355 0.10636598734425283 0.5605024828065426 0.0666560983727906 0.3675220607545737 0.005770076978696743 -0.006959073669052027 -0.6649554687658247 -0.2760979642580646 0.11893397994524149 ]
[ -0.0783791417181461 -0.6054478424054197 0.40304956229818567 -0.2658823450407195 -0.30822046653261154 -0.3018165338301985 -0.0940501439274951 0.6263361407989443 0.08302178591961172 0.331969082341033 0.2460666864107048 -0.22235217342734215 0.2247890155084105 0.23729540025069631 0.12135898698400521 0.4732198456298397 0.32538755205916553 0.013327525418674937 -0.11309905648325393 -0.37689522574935197 ]
[ 0.23001208635013914 -0.07873919462590684 0.167684061047936 -0.05529417310458195 0.004073179774544924 0.026704839011647708 0.13535361649566294 -0.27264235015010563 0.06357617267362747 0.00020745882985080373 -0.14362516278977644 0.21199221143928101 -0.25465829665868034 -0.20904335711254282 0.16486382450520506 -0.3951145623674747 -0.07764473706428147 0.27298102444334915 -0.5583811239459022 -0.10335526108793959 ]
[ 0.4041054960729058 -0.07859419656088086 0.20020651697135644 -0.3540724742443244 0.1800130671641843 -0.11703987906980129 -0.24779395929142733 -0.15063219339793993 -0.3349755443675668 0.05475244829046646 0.10133944371086477 -0.06984423592650207 -0.19379060426566405 -0.3753837345631097 -0.29304177073410226 0.1065586936080651 0.24372463389180113 0.2093069074654482 -0.1452580295035374 0.11669684116869568 ]
[ 0.1263103092611588 -1.0843138118852451 0.26831408024066417 -0.22211705667514242 0.8407149651598734 0.26397136743882166 -0.12941769801720332 0.21665573737587257 -0.15187188420803974 -0.47872960234588874 -0.14659969910857673 0.1143553071056026 0.3430378171503611 -0.06394006520970082 0.7274958641904705 0.27214012956799194 -0.28783722397153694 0.1796420366885363 0.47136374783259644 -1.0222620049937476 ]
[ 0.19658875253661806 0.07064557287600773 -0.3702317151559782 0.05503105386929877 0.11699232543399794 0.24317284068164788 0.2074885703053344 0.25234613526195016 0.35303748164448767 -0.0956140241045772 0.1449289066296877 -0.4724073847419099 0.2837280533816805 -0.2828674892151287 -0.1753877381992994 -0.2256537239331774 0.31860598706015514 -0.09567502402404612 0.11591904715312289 0.30991785441432956 ]
[ -0.1217977680098142 -0.1317836863450392 0.14835091861893648 -0.1588282078372767 -0.15434306146245017 0.056223196774589757 -0.29900075248769264 -0.48584204020024596 0.09604705602428167 -0.06221585547269379 -0.2864122329397405 -0.1537018780921061 -0.09670720365431064 0.11733318597722188 -0.08285480184577157 0.092058244122309 -0.1031147621008095 0.39784649919972176 -0.3493221108803183 -0.19475464164956763 ]
[ 0.04798992759096774 -0.06057073993268709 0.08410640148818287 -8.813572693392672e-05 -0.018860471310352494 -0.3151207378911124 0.2427277348669103 -0.24099479047444988 -0.5609128132188528 0.08932669360239924 -0.11802451297834778 0.02875322651638552 0.20856173715235893 -0.09073586811319007 -0.1437896351636784 0.4996945789463614 0.0658938096532905 0.1300817372796434 -0.18983164358062313 -0.13640241409243606 ]
[ 0.15502224048053242 0.7442806420872344 -0.7404022517592665 0.5465290781618428 0.7870994530845074 0.7633335689739058 0.06563689016289702 -0.23566564868564988 -0.6015786853661571 -0.7263466497732457 -0.03151515052092023 -0.03173083479458357 0.22814073883377015 0.085527794849426 0.9145477164614352 -0.08563288267125696 -0.6002744257873974 -0.06190684433617481 0.09541992628510318 -0.2376911453294545 ]
[ -0.46794201714308425 0.5015972701333115 -0.3942430228714966 -0.26789107669015705 0.17817628087807522 -0.19893846225675907 0.1593559155720129 0.30412899773900215 -0.5636117346730498 0.06143185548459991 -0.3342990390656429 0.2780486683133144 -0.3739271388934533 0.27793147247210176 0.42378366969743325 0.22476226995143944 -0.777736095989178 -0.3332976653708293 -0.43876035072906483 0.227778375136671 ]
[ -0.21100891759479937 -0.03503822750956592 -0.2905191799684449 0.19888938191211952 0.5700585877622371 -0.03796995108841402 0.11289645209703009 1.0148931949814732 -0.09128945530645076 0.0867490379615769 -0.2450283574260247 -0.2775924456741536 0.384441995391073 -0.1366154477971651 -0.36136866625027636 -0.15780750337096577 -0.6192025236909691 0.03368457301931141 1.0985461310008562 0.14527327629686038 ]
[ 0.16206372815832143 0.008170607181324133 0.11567120082221022 0.30007354706950934 -0.6365961348942851 -0.2966837137651049 -0.03090432269263448 0.41505059220328205 0.8021581439859805 -0.08191282196660075 0.08284426788744291 -0.05248198460567232 -0.3207943328811885 -0.004091088417667387 0.5048846951149321 -0.29727715340764255 -0.5971440741656139 -0.11470089500108059 0.08110273481916601 0.16785847863196504 ]
[ -0.24894769262956812 0.11798237848152009 -0.17748634465539598 0.28978532829437975 -0.5109983500186582 -0.6150779698501984 -0.06872245498603287 -0.07943159053391328 0.17256793831371764 0.6165219137521394 -0.12287946209903808 0.32475026664713713 0.13543493464655867 -0.36725205945275585 -0.8420556690453356 0.003203825640960797 0.32653330553952087 -0.7335328546759536 -0.5944281449037034 0.68967143566865 ]
[ 0.032426288473451706 -0.029981119927619065 0.04740508203185702 0.08922388571014406 -0.005697749931833718 -0.215641892808222 -0.06862278606929524 -0.08577466721115784 -0.11470110138842683 0.14643617499716813 0.09216687149527074 0.004859360544226357 -0.06130875068836459 0.00806806878816642 -0.05716933724865256 0.06489801290839439 0.10764061450300319 0.3209770492851181 0.04039478328615541 -0.05877278078872901 ]
layer 1 Activation
tanh
layer 2 Dense
20 40
[ 0.28992814121152605 0.14647425540961032 0.13958144372665915 -0.24400966424848028 -0.1320943637024612 0.068576338462889 0.23968076803372396 -0.0965142208429361 -0.14337668286791153 0.327056747599596 0.06666544636158599 -0.2710759437345145 0.05347107594807237 -0.06761115208553589 -0.10199671313273623 -0.27864398183462064 -0.29462454377461467 0.3545709326434533 -0.2739732865594707 0.1700235345148853 -0.1521671120020884 6.064445264788537e-05 -0.06859425592631535 0.2998565844760837 0.3052421354966226 -0.17520558500062486 0.3589778430685462 0.2883354540494523 -0.31432198043069415 0.17248053343418054 0.37433530256338005 -0.1871412762704966 0.35718508178087144 -0.24768341021970294 0.33926774801134013 0.04992834943225833 -0.09452098320484678 0.033460501475482546 0.001954486269633928 -0.10173347871167929 ]
[ -0.002329708152119103 0.05866995695144813 0.18352056123530333 -0.0800450467036185 0.1317631702519651 -0.12342335531997184 0.34544913831308033 -0.30061956875630513 0.26743835722973974 0.25016774418989624 -0.07502706689825986 -0.3705912298000725 0.12515287636824024 0.10125661029145747 -0.11770192307622948 -0.31634398449896617 -0.07279597045096924 -0.11110421322072123 -0.14830238324335984 -0.18548388633853172 0.47259555809358383 -0.5075094381314623 0.3656112928416629 0.01331121252021905 -0.13994310038020333 0.3729076051861559 -0.3184838000430498 0.43112408770857025 -0.1133742262898929 0.3174821829629129 0.0866662953292346 -0.13206334820541155 0.03213767278985761 -0.15590219232852282 -0.2093178361479249 0.17327706588723324 -0.24726138727639987 -0.025222073120697283 -0.1757725254334462 -0.04277749330353287 ]
[ -0.20182183195029746 0.1359897057350779 0.12576032721355251 0.2273765516093364 -0.0007701271174269293 0.05007013145555436 -0.13396300281747847 -0.07540216708227972 0.3874896796666629 -0.22659256813714038 0.042777855710853324 0.1408441353311984 0.22348792694681424 -0.13189611419201555 -0.03381156351998041 -0.024358153988567593 -0.11849282436871898 0.5688964101405846 0.18329350942947248 0.3316921046947042 -0.3266091331006807 0.3742653777839904 0.026897311201190557 0.2816771771697233 0.14962711025478403 0.06148305876169413 0.06397559253576601 -0.16392281626579946 -0.060215724013090735 0.2889898641258211 0.08916970404438158 -0.2382099727552229 0.25001194071104205 0.15583127199907482 0.2538840509647674 0.1404155638553295 -0.059910119116183276 0.24229998116241216 0.1837215621772222 0.09046682091318978 ]
[ -0.07206471575266792 0.1731019309456179 -0.18631705038674695 -0.11894365843957494 0.027697608545552588 -0.04467938464203037 0.3910279514572679 0.2718249465151341 0.022370228981880527 -0.16740875220849502 0.06633816295257923 -0.29827810049802617 -0.36425480910691216 0.26635880715198806 -0.20800156560230101 0.05445090905800806 0.43853562176195376 -0.06279188435467332 0.19167949313187582 0.22409575951943503 0.1771107678944117 0.03420765997891886 -0.12351977332347076 -0.08399597356662777 -0.36712055932683346 -0.1481555230483986 -0.4682998115029236 -0.0258464101980299 -0.009617279185137202 0.2519768312654185 0.1818136547128551 0.2378235813892934 0.19801713787192118 0.019298120631894133 0.06962785457882006 0.2074208324588745 -0.2053610552138249 -0.029959305042419875 0.018992683102423125 -0.1442603017599312 ]
[ -0.2620087625518711 0.22176606746606978 0.3172530504706041 0.043303259205089664 0.17837335122080908 -0.038450291920620695 -0.41548012258848027 0.3983316886890382 -0.7207887407806925 -0.22885860691963986 0.24046539849149812 0.28605245296804416 -0.0920899057514761 -0.2877114578270971 -0.3191778121822641 -0.2739266230165721 -0.30111630760984487 -0.5129283580689428 -0.18996393138853937 -0.13833063911888177 -0.5696798388575199 0.1713596302550702 -0.10967998873903302 0.28516474175383644 -0.2098669803077448 0.29573910417384736 -0.07508561858979987 -0.44301326977699307 0.24906647181232275 -0.008094166762808563 0.3331115549312542 -0.12975467218199915 -0.06660443694493852 -0.041206227124969366 0.018653776989159758 0.42032300377579196 0.196517036258064 0.4098678434650901 -0.07169399729432363 0.4371858530923228 ]
[ 0.1552273503533926 0.034278439357654775 0.4542778798667222 -0.7236641097433342 0.002102379206456702 0.3269722455866239 0.23647283236206398 -0.4570218122128479 0.19521289108614143 -0.00961159348430586 0.35032054932854884 -0.07053127585905834 0.050724651260238444 0.031592003573817466 0.17285554427974714 -0.35506568612077727 0.2101579162333277 -0.04779359040016032 -0.5163346228556752 -1.1948737836427459 0.3960017868446011 -0.4952199025792492 -0.36059166134951265 0.6593667945364455 0.027880202574361017 0.2947561192289531 -0.38455459630169714 -0.3685287048620188 -0.12033100342009263 0.0767844667852478 0.10524558417552722 0.24471007824975577 0.2942760034259369 0.13419119339291397 0.24529394500836513 0.3274392230514992 -0.1647175514058313 1.1950209625881563 -0.5095318973844561 0.7682654702686127 ]
[ 0.12939830895142893 0.2920250194739012 -0.23132427743605496 0.1952886282201665 0.22623655885206684 0.1139913890425694 -0.030723616178863156 -0.013369489084556896 -0.16234738905110915 -0.06987829813632802 -0.3555956584498292 -0.1456813289692036 0.0868161256100199 0.20170041710903316 0.09333046220962717 0.17383489030719362 -0.21291845905072057 -0.1957321474711687 -0.10102184996678329 -0.18092062901130532 0.18635229395707745 -0.01013582857934208 0.14715026386911984 0.11328598280851793 0.32122897139513557 0.05134495007861094 0.12260524177010781 0.25925156793574167 0.18738176610938323 -0.10467503938543815 0.16428419549449927 -0.19401918720631922 -0.32901275522528844 0.036772275466374085 -0.0369281304429374 -0.19983859981277338 -0.1520914394390914 0.12067551101926759 0.020115480920235674 0.01180885305025944 ]
[ 0.09483726361378493 0.13580445206687128 -0.18633983919496996 0.1943658589655097 -0.05241106013921234 0.2915460652615265 -0.30975883825984657 -0.19075690588043698 -0.19204258848880976 0.14652948242874095 0.22488966697030205 0.18191314565854294 -0.4502343788973213 -0.22038836599090075 0.06133479444369364 0.2887144917142773 0.01946470266778481 0.2559782083918637 0.10831250428885895 0.37261850708877603 -0.12128864516965009 0.4294798613266587 0.5227409649130146 -0.21893712746397434 0.011602559288107014 -0.5177975746691555 -0.23241925251731965 0.024740810263907235 0.15855838217604995 -0.029321381070667497 -0.40875447155756117 -0.2883202673803167 -0.5190286943325428 0.3095864182736989 0.036866643579566906 0.359071534009296 -0.2531440923893869 -0.2499204894470545 -0.20669243471535081 -0.28554889529237815 ]
[ 0.09650815138414531 -0.158686200527227 -0.06337887991445577 0.24778759553040622 -0.09579172706037486 0.11922729642666204 -0.2458031063367142 0.18659315809858923 0.09608180821600086 0.08482469943889931 0.13674648510521548 -0.21781441648250935 -0.2333538892462364 -0.24519799003367512 -0.03434064565700872 -0.07605925116938149 -0.3823644800985784 0.6717742053084189 0.15280076984750035 0.09779577994500496 -0.16277898626688672 0.10197264024672353 -0.4299143337184825 -0.1941156503777117 0.24262024232983206 -0.5738544047297394 -0.1447477694438499 0.3945876334821832 -0.16496438631203586 -0.22579896100592384 -0.1729496490079691 0.30967121381580187 0.4478927172887613 0.09795638897777754 0.04957701037122972 0.26874416449329885 -0.04123714640250408 -0.008447392378262726 0.1588883635056915 0.10195446358686205 ]
[ 0.28644959867546527 0.11934144260170357 -0.38538042374119275 0.5086463666692507 0.041235192259415736 -0.12437266191789885 -0.224863251153788 -0.0883937271584574 -0.03773323513965219 0.30306143113454925 -0.2949650646575224 0.09012822404073971 0.31408656283968883 0.0014940324192258346 0.22157475096973803 0.3081640736776865 -0.11207775820854851 -0.4603196704616732 0.27356781031834554 0.37833459018747284 -0.2252599929081384 0.36621197161538027 -0.1559697787029636 -0.3379054826607611 -0.26147359470683434 -0.13287696275998798 0.38260383266128223 0.12840446098560232 -0.05052255451293448 0.027723470942098063 -0.3718978174606047 0.1659811977648846 -0.3010779118135116 0.23393028152867387 -0.2160240024858083 -0.17756202405802377 0.22605859545497714 -0.5251118229790106 0.38951296302419686 -0.11225255717268175 ]
[ 0.2646592965705047 0.206648691999868 0.25393128471699405 0.13065134252551147 0.05962391150953652 -0.4424445170984126 0.07590029716957622 0.15687552861240514 -0.24106129562909578 0.14131116719567458 0.08722926058742435 -0.05192599328938914 0.3010138189022735 -0.13729458741858716 -0.24057103011606484 -0.056023552880754876 0.060367990011779823 0.3760678376599683 -0.2358800927637373 -0.3751503840053821 0.15436984996075262 0.01617109656955669 -0.3951057760796045 0.33709070308125644 -0.11183011905983198 -0.3701149682324291 0.37864853357110667 0.09588024855898612 -0.24397481471137364 -0.15166313314317018 0.15124345681554455 -0.06601875617829422 0.2412493932736469 -0.30372756721147803 0.2548180549698254 0.3106523618574361 0.02567608127179682 -0.0998547082210281 0.1718097937247956 -0.07345790380122105 ]
[ 0.06910566161154362 -0.14591826808848357 -0.048359818112593954 -0.24584986798898525 0.07673802314324261 -0.2334112249555007 -0.19335647655489194 -0.029377450753773335 0.30785127987077066 -0.006616531059052312 0.304321726969071 -0.14845680874258865 0.19282615565695288 -0.16778639934248263 -0.17559679369461595 -0.2443631787297864 0.13918722623670512 -0.08197097743206054 0.19310817150416773 0.03826324457892848 0.4302203126421802 0.16939970310337488 -0.008707066424265386 0.10185284616018418 0.22723038364476575 0.11859995180907888 0.035731344428190016 0.08354728596360593 -0.12211430567236305 -0.01740404049985003 -0.01469544911767101 0.18858322059568247 0.18131471886714076 -0.17938711182494105 0.2144943094841921 0.39251998128551185 -0.12475924326676652 -0.23764333672889104 -0.020682576046138452 0.0073518282616934555 ]
[ 0.25221269848511507 -0.3258638236066153 0.07661037977113691 0.05592415045721792 -0.21731881577577006 0.3830125493995534 0.18012704887643502 0.20360123513987677 -0.04380352158944977 -0.15050646904005607 0.3921954823083126 -0.23543164153321447 0.038676384471829375 -0.13361042168817827 0.027607033469023663 -0.16240536680121967 0.0837511950270152 0.22092941235321933 -0.16092053492164513 -0.1310451717755099 -0.24514099813040352 -0.052279287824159096 -0.23567270648685304 -0.005676396562819292 0.26077672662693024 -0.35242242906584076 -0.014752982338438626 -0.26542753456638785 -0.3945961271134386 -0.07166499507197395 0.2645150407213223 -0.24201325480089803 -0.4938792668707996 -0.19889277363731622 0.3360229764381857 0.5894080171748711 0.15905650987571243 0.15426959928421496 0.01183754344221669 0.3605763226652835 ]
[ -0.12628469235037393 0.1625786556855591 0.13577263582389001 0.2159633082859469 -0.014696509857660125 -0.026980477342321545 0.06218538726350175 -0.1663641492834646 0.0174107027125529 0.05131263654452266 0.08925051340004332 0.21748081775020253 -0.30657584444004904 -0.21149777786287233 -0.095942971892401 -0.22118827620878315 -0.12210148663011035 -0.24920962523332982 0.2436178074224496 0.2661867793509217 -0.05371213839771097 0.24174926885082088 0.38191856286456743 -0.27676922344114047 -0.004860400249033303 0.1677556709942737 -0.05356749194528927 0.3549666406788877 0.327501369439982 -0.11107928012785852 0.20918002991995197 -0.2720701569366862 0.24853034128275742 -0.1375904580077329 -0.34657769633669955 -0.14550506500870508 0.1525685396273771 0.05207283474793181 -0.10304253077465142 0.06407120015827818 ]
[ -0.04589039712762333 0.23943296136895734 0.1430108952051739 -0.17629339984490572 0.34927175072748184 0.14676746418835201 -0.3548066972050208 0.623412134070873 -0.2304519203167329 -0.4001813787882888 0.09375388324262451 0.4483928303363262 -0.6942750172756603 -0.07257518833675042 -0.15352776597769063 -0.25783325644345967 0.17714262884137172 0.04181368599551205 -0.15662870247933228 -0.5633639560348016 0.29507687173275193 0.17310693800678142 0.16226135025683658 0.22291039221323194 0.15310618548912297 0.2661847476435374 -0.6433310853196277 -0.3421698300185579 0.29478879562269983 -0.05747366331500377 0.05600375732044168 0.17703508900130427 0.8050304337613651 -0.03644837197836232 -0.18536029618769462 -0.026458290872995525 -0.02067235975014196 0.6178787184301409 -0.19518523277330396 0.2566409942242028 ]
[ -0.13284865314547062 0.027831815106064552 0.15887794842968678 0.288766682491309 0.32145271152406385 -0.03559004620236476 0.00850116763698099 -0.23454183569990772 0.25577308021885387 -0.07309247214381576 -0.08367284168405653 -0.03972624242265693 0.09943704132014183 0.026858411116960444 -0.21563472007787277 0.19497264087795865 0.04679338871269837 -0.2769026899689953 0.1949104300904932 0.3075159315609067 -0.38655997900983174 -0.04816826737681566 0.21662046271289098 0.10112179114396706 -0.24357917457806677 0.24928921061691212 -0.16676749215621 -0.46685474959181344 0.013965193971622956 0.22684397063073403 -0.27861279168858416 -0.39631505055264765 -0.4154347758991545 -0.14515137999775585 0.21014479756918072 -0.19447940267350283 0.0615352283618417 0.12425529517850563 0.3091103624891009 -0.027319360258467203 ]
[ 0.4424467815227369 0.25571860221395665 -0.24091624711693016 0.1699646597851739 0.02871350904025401 -0.011605875168821823 0.06468168928046558 0.34694648410148027 0.4360631313085007 0.08284575112517094 -0.21254303479118258 0.10937303345800051 0.3452212901982291 -0.257105983799106 0.16857039876046045 0.29888014053771284 0.1847801413477528 0.06971776822691719 0.06491342711517879 0.0796490905842154 -0.381524918736336 0.31841062783098756 -0.28087175730812575 -0.012639942143421666 -0.09130611966521003 -0.012939513772474029 0.35978843367015273 -0.005658924905855345 -0.5673382145121911 -0.10372496151360709 -0.012495152515949064 0.1296076666704409 0.08130112618834792 0.2790872682459301 0.035206635993155704 0.17308901217499173 0.07115988593945445 -0.46130857640648454 0.11782957621429772 -0.12505095866390264 ]
[ 0.30014501732345145 0.4277717460049739 -0.10931513454640028 0.13898430233431383 0.38316788366476884 -0.08296388070708986 0.3061056304995895 0.7007938682418159 0.1960848752998337 -0.21341499258882046 -0.04456694065801099 0.12691844118713408 -0.05185743392025646 -0.14257496006119205 0.012845081790423289 0.1808946328738176 0.24004525901387513 0.28040143709458987 0.22169446861085348 0.3389466788173101 -0.06983464980796049 0.18435910372912923 -0.2852731625068302 -0.1792079883918478 -0.2566394820415857 -0.0716591862531502 -0.017461957281795767 0.01571601462135333 0.1587603644831152 0.11985185736800125 0.08409886766939839 0.14703611114282103 0.5268278030745568 0.19974298705427965 -0.45469893051119187 -0.49932560867510456 0.34493874976984196 -0.1189617009615888 0.12157734312766016 -0.1646456056573034 ]
[ 0.32086470417670965 0.0978185279369452 0.10850125359649011 -0.11293633286068154 -0.29033471744173295 0.018316011403030127 -0.046592998614818464 0.2957475601063305 -0.7337039147049379 -0.07874192522915775 -0.2589139652622092 0.20897490310849395 -0.38446752512424354 0.0960609041940426 0.05883718906918794 -0.167108373154181 -0.18705415965499483 -0.3164580671637764 0.04590842347520746 -0.009560225654918602 -0.50266670061386 0.15458151857353317 -0.48715674975046236 0.4282016937703649 -0.4996033360903523 -0.3317507915445969 -0.3498736702748988 0.09113241728774557 -0.031480966887829365 -0.10208117002719216 0.31744489958213884 -0.5517401700468871 -0.07238276472109195 -0.04777178311178653 0.11560992769220674 -0.3155112471281562 0.09172895259290496 0.3528818049998871 -0.30862271238958694 0.2651401077318964 ]
[ -0.22514390755312672 0.07178993623477152 0.24727149564162346 -0.25161610738215845 -0.37067318898654456 0.12025612856683986 -0.030784054270056805 -0.8948837384218608 0.12361940335766612 0.21669851883143482 0.25637567022659713 -0.16085638271452815 0.43967830967859123 0.022049452127528416 0.05774342102027696 0.1930528950641683 -0.10060459597408501 0.4304744975416469 0.265164497763937 0.07819093259129162 0.6967218044469828 -0.4099089726039803 0.012944140069136217 -0.08472701709991873 -0.19521143544923925 -0.3888834022066706 0.4061931864754693 0.45292737581731624 0.1550108348393554 0.09737115100684138 -0.13724511430719916 0.39985261371042075 -0.35912495159293867 -0.21052646378750509 -0.024628563331469983 0.353558354015922 0.008698807075706154 0.09780823427464214 -0.1960240735398981 0.1148371010701802 ]
[ 0.08232301043824033 0.19797757522492154 -0.22802323324376664 0.1964162682796665 0.018341624018577064 -0.09240820333185674 -0.06230847604382687 0.3349234440177702 -0.10841249127778425 0.1761602683577727 -0.23872272536257721 0.05798368389007524 0.21160255188544586 0.07973372572569729 0.08429813356882643 0.095465580794431 -0.06434408700667917 0.06161770815361819 0.07157153610576626 0.3070758643151443 -0.19862803677243776 0.026168772488366437 -0.17933373106074543 -0.24388982414529514 -0.1245395909551574 0.00909477437091194 0.15529332929978792 0.10236834248810756 -0.01595507534123946 -0.08583906210837071 -0.11134994400481987 -0.011897565598850872 0.03155040521459041 0.10243963830706426 -0.16797965492522662 -0.3660732801967576 0.05823536854514635 -0.3554878064082252 0.18853608208883424 -0.1979284250696554 ]
layer 3 Activation
tanh
layer 4 Dense
40 20
[ 0.09625582065418503 -0.11989592757926237 -0.15525641093471518 0.010564837389778006 0.09846315974333975 -0.01938143145490643 0.3103458505230979 -0.30171942942672064 0.33131093504652126 -0.09592188594525206 -0.10864614660252973 0.16936670577620094 0.2762368108787195 -0.030364353793787543 0.07034616606885269 -0.06542724347779812 0.10134443441253037 -0.3403860622578287 -0.03954601659468063 0.15173040649977523 ]
[ 0.297182717303609 0.17564761870388873 -0.06704885368671606 -0.07813389900175992 -0.25816369761454844 -0.02319341341145888 0.3128056282235589 -0.10588808784631061 -0.15455913607967006 0.2501635557892961 -0.1773494917404882 0.05981020253858081 -0.022658942561287185 -0.321367430775385 0.17561954156797685 -0.1638696051246172 -0.03340638678491154 -0.11374499335662677 0.05691882435471401 -0.08088965851129731 ]
[ -0.28506200053883773 -0.16403828168198004 0.26116223332959393 0.1537850902554702 0.05241396109167795 -0.27959018092920523 0.00035029641806456435 0.15772790080191432 0.18620893693719903 0.07069500955111081 0.06464530895479417 0.19367383513825312 0.058924687335305745 0.20524902746749019 0.11815450443572434 -0.05956971148807855 0.1552489648855297 0.11931221715893912 -0.216961957896147 0.21321848281825614 ]
[ 0.17789643557659315 0.12109788537233528 -0.41678362321476475 0.20753944045402634 -0.2396900624899583 -0.214477258736541 0.17517869674454967 -0.2702683700393256 -0.2976689893558419 0.18807634902523038 -0.24102170399760106 -0.2558087079879046 0.0112080333342829 -0.23232635312303118 -0.2511137681121451 0.10379610928515681 0.36671695485337025 0.09424234210248665 0.12324233577906031 -0.04549348969844159 ]
[ -0.23404561268382357 0.16041796440491288 -0.18996836537188913 0.08845483841277979 0.2712243827243861 -0.25131131301464943 0.26177817215412696 -0.12635073116914955 -0.3375245585878518 0.08118618460639343 0.09071749838423988 -0.1483264955447777 0.23852038204856527 -0.1375164763697119 -0.1843172511070893 -0.14373230301802697 -0.05276188177516501 -0.05852894059124549 -0.18412008748512698 0.1575412870377206 ]
[ -0.174142871530889 0.2122911641749678 0.2055798825726039 -0.13893330756864997 0.4405029826317244 0.1170143361373028 -0.23515901539990414 -0.08870590869346419 0.007220192908273816 -0.37987127291888856 -0.03589192412749143 -0.09296546768562691 -0.04203432453135705 0.30256755604075164 0.1669377388981397 0.05687859397153792 -0.1887778814154817 -0.30579291471242603 0.032974450578707744 0.3228686521662503 ]
[ -0.24003851475909108 0.04155587718743038 -0.16518874130717118 -0.20577987108710108 -0.324990990728063 -0.20820641975724352 0.1922476646360303 -0.1684431199494731 -0.36396523697054944 0.1490061548220456 0.1562343288664839 0.3534955441988954 0.38046631227036637 0.09527968397271253 -0.09782931461271868 0.027162730872602882 0.29550855810581556 0.14619014639750602 0.16231702921460037 -0.17785088718909708 ]
[ 0.07684922278159587 -0.07442172793455358 0.238060911001774 0.004272578171607242 -0.04871882720295614 0.2570909391547159 0.34523002448282786 0.16652996157622593 0.020263285429608594 0.16203192406250502 -0.5055344588990136 -0.394037209845404 0.2717933397430925 -0.27521851773382533 -0.41713486823041834 -0.21382727399520182 0.09969131586718805 -0.10400510374208019 0.02549763249265152 -0.1594381354884875 ]
[ 0.05432795936628928 -0.021561887828293057 -0.48798004852631843 -0.1770607528561684 0.14651146183588123 0.15390778442737932 -0.3081283161446666 0.32423793443221277 -0.050742455155786736 0.22149384445285486 0.14685909430094815 0.066597463664354 0.1754772632100704 0.004495873388950359 -0.23405570073911205 -0.20541388109750341 0.3245878504672828 0.3328949372822569 0.08867551244566753 0.10490992246523594 ]
[ 0.086715820165345 -0.34520061677347136 -0.13309475723557398 0.23562093848999083 -0.2722454660752204 -0.1495351900916827 -0.429552083080846 0.022420551996780624 -0.04683740042352137 0.07869818729797401 -0.07222068857729134 0.038263683927568445 -0.1280777246865367 0.04156910364349908 0.03488733742620196 -0.13751401584788642 0.19368917126057567 0.1157606298665097 0.3155005653877362 0.0016498257422361804 ]
[ -0.22380387106018362 0.16992722607034758 0.28864640097667993 -0.11749920437351762 0.19363329821673775 0.019773821876589614 -0.32586213832863425 0.3168520703578434 -0.10186505316251802 0.021196819558175296 0.03836895402166262 0.16657393877825655 -0.050079644872175096 0.4165179612769679 0.20744213431396125 0.011526605176684126 -0.21835198309118364 -0.0696939610178321 -0.3216195053429593 0.2934285878672494 ]
[ -0.3600275885120909 0.03226378427933587 0.055902965946396085 0.008855861554578837 -0.06650223575444861 -0.038137025113580185 0.06300039750793505 0.11532630311029582 -0.08606011769566617 0.3601524309173033 -0.29474879780631363 -0.37802466912696114 -0.15004700493397546 -0.2339904501082607 -0.3094510215283439 -0.23068105589206486 0.1720423099242265 -0.34948844775694493 -0.23407527338077228 -0.08312148136053571 ]
[ 0.36378970716501147 -0.140242805584059 -0.15293212182110572 0.15697593375919958 0.32474940642568884 0.2465744598475796 -0.10095355010559127 -0.11846995347373972 0.06856815296556414 0.30443839148649016 0.003241600201851629 0.34502300849636597 0.33187592982205777 -0.154376383072496 0.2552898352975806 0.32706495573511696 0.008263929653631428 0.255428742698914 -0.2026518905866168 -0.11210824856719927 ]
[ 0.06408360079073455 0.24963755083176423 -0.08605842476041926 -0.33007802609144626 0.05153246297252919 -0.015356563175803 0.04790062826238143 -0.2936373264889396 -0.2589562506686506 -0.1362346770081406 -0.15849040408010515 0.15975345573570635 -0.0002719043007623319 -0.18446292229822064 -0.17052551739641775 -0.06388134193205569 -0.0016141581809649178 0.06321707098952463 0.1819455098353363 0.171308902640886 ]
[ 0.15448735981946057 -0.24445108456303638 -0.06244268375375781 -0.14876270494967875 0.017537719060715953 0.15307335909907963 -0.16497485441107032 -0.2091384065499251 0.3402482921891494 -0.4110596193318324 0.07025899252145303 0.03142043160815196 0.18599749089171852 0.24957393710173195 0.09663146047265098 -0.3262338240281152 0.16170784431753918 -0.1011577769951752 0.1466462886036488 -0.15815291866021475 ]
[ 0.23494748149062022 0.3864744027631471 -0.34668285883142186 0.12376852342922502 -0.3706183012634629 0.24647674915197473 -0.31596132164842755 -0.31624457014571933 -0.1044989545514082 -0.0112690106296466 -0.21108133724390288 -0.07694186416402184 -0.09281313670258778 -0.021788127869308158 0.09911475846107708 0.22234663685184428 0.031456850987681105 0.39426752546463467 -0.01566209083877441 0.12663820891745153 ]
[ -0.19942040771964065 0.4695719841156253 -0.0790585823154383 0.10932800690551943 0.12425526180714655 -0.2280891661134345 0.06760355594350448 0.15712546507500685 -0.16206551978203276 0.07423844999527243 -0.06892725637290498 0.21419574349099768 -0.04658635582276743 -0.08259094436293411 -0.10994066023745808 0.16528868890934997 0.13906223852706384 0.18564200580234422 -0.1901745348836476 0.05372023338900945 ]
[ 0.3232335612056146 -0.272549982131341 0.026031778998973746 -0.2167527152098139 -0.07163183110454409 0.2246646811945492 -0.2211536124104193 -0.09595466686968772 0.24441738510672678 -0.09440006328387744 -0.3075056846278468 -0.046273904223034845 -0.22810764317318233 0.2155714154045077 -0.18799701000040062 -0.15314176284656672 0.30573532992524854 -0.31527430992852223 -0.3572988002420649 0.18791001548706604 ]
[ 0.4578901066175978 0.24901639849463492 -0.30472026458461043 0.07937935633587627 -0.3119103118950336 0.07369140971395516 -0.015177090992024744 -0.2565351360983185 -0.264612556806907 -0.09980656748821702 -0.28908976377346207 -0.0790248014768002 -0.017423423831173214 0.13303034614936074 0.057395424177496 -0.10477559763618968 -0.07274855625749513 0.15658748145899393 -0.2802847454785533 0.21194722152682313 ]
[ 0.3439583975810302 0.300831075130941 -0.18910420092849411 -0.031152004966695 -0.38469991236180023 0.05572735763337105 -0.23485583408981947 -0.2793881818084969 0.19172334909202 -0.08694133210168532 -0.27505597534944737 -0.3668864442434019 0.09154028551654791 -0.21755697660531276 -0.29007382356859834 -0.15641162501968153 0.39099815708079977 0.04824622261111376 -0.00473807864028443 0.06795948301655813 ]
[ 0.19628622590092434 -0.2539234461661362 -0.3331404629106219 -0.1502830395420889 0.14131488958933924 -0.126606542725448 -0.338979645439523 0.3625685682660772 -0.46718698947221066 0.011803323123164969 0.5845675879608682 0.2506863691559385 -0.2576849899641896 0.01930097201455553 -0.19010284788392268 0.19871764610149306 0.17484807370555688 -0.27894064129690643 0.27642670329094904 -0.41923556070457263 ]
[ 0.2315798819979784 -0.11913533497888518 -0.2555124758878174 -0.08128837248575974 -0.31016746503838677 -0.16523963325178204 0.2523267302790572 -0.0006690699749207423 0.2582133072047859 -0.1511958312487753 -0.2165533227144519 -0.3327868016855102 -0.15521423412835822 -0.34652220735536343 -0.1681217278439644 0.03503853443405606 0.15765554352448757 0.047335187318372884 -0.2109019726915992 -0.08898183318463763 ]
[ -0.11809134937847832 0.06363671029596932 -0.1493183957985858 -0.13519878564418059 0.409718026206263 -0.14689902621552203 -0.3761499676665537 0.09729837035872234 -0.3534090557319591 0.30816795880672027 0.03923347416188789 0.031335246135062965 -0.2611534400625128 0.09531652248971166 -0.18317373791671757 -0.060879862468285854 0.3932126697004453 0.27398930451085846 0.03066970297276925 0.12551267168596156 ]
[ -0.34726206237348595 -0.24461726664888986 0.24029239581120065 0.11175785241424738 -0.026270725646296317 0.24087415494819553 0.14264225663097452 -0.2332718740905701 0.0016973442992565635 -0.10740324031487203 0.33130500734923785 0.06498568329209173 0.30611804598324743 0.2171285075756139 0.29767263014552253 -0.04567104970212661 -0.23699494721068298 0.008096356021071133 -0.1649056732589558 -0.14701064943285527 ]
[ -0.3705274065149626 -0.24370880800680636 -0.19085748894059879 -0.03380108752054806 0.4406785882203541 0.2832407534899279 0.20381969260325383 0.2572593462051731 -0.18508829380159347 0.07446806832399652 -0.17514812098590427 -0.1525559765455519 -0.12576839876527043 0.12350509449507265 0.19448382584446608 -0.03514475671710715 0.23148842996345464 -0.013165282166315538 -0.21815556895188323 -0.27303299627389394 ]
[ -0.30106318512952157 0.31181887067407876 -0.008344941290240257 0.006485967750075235 0.022245622881963977 0.1473826637526006 0.3319271441549024 -0.1458797988932715 -0.5695490568267543 0.2565437412424715 0.29264569765533643 0.22248381232165013 0.030196663238804357 -0.4348244862649913 -0.033582599439559 -0.009912112508262145 -0.17177515065406362 -0.00045720156382291947 0.009884679822690456 -0.11815830436984599 ]
[ 0.37595819071767156 -0.3796381677020732 -0.3983519253221358 -0.24382302819119567 0.018954782885848533 0.11422093143743503 -0.05629934101639435 -0.13535196773361424 0.4277958970160957 -0.24490643527927597 0.08888802038374373 0.04529820114906923 0.3072307410693048 -0.21924840639854207 0.2500201619500837 0.07889216345475161 -0.14497208988159588 0.15868637934947136 0.02906161070851575 0.14067145752375793 ]
[ 0.47754935766863227 -0.17862166114696934 0.2673676596392072 -0.2850127633538619 -0.14980046726359245 0.02458269509275967 -0.2650690904469214 -0.09974412075149301 0.06682390934511202 -0.44710205608386033 0.10015083720472055 0.22976320936181568 0.0698508818392656 0.22893193305016532 0.016974590568728843 -0.1263381573003054 0.27532859164738877 0.05463043421479781 0.28427578374844364 -0.47053419653351997 ]
[ -0.32830285174613655 0.19897209029627727 -0.16305102574556085 -0.4251206676613175 -0.16847738209171112 0.3856197977257021 -0.020160073550147522 -0.279066629717962 -0.043367545702800284 0.05271580961507917 0.10709141911119735 0.14643173849170565 0.23209977247418392 -0.04080220629876264 0.08608159252748199 0.06960376325453811 0.029590435016384045 -0.07074209113282924 0.01775054758572091 0.26790512611081313 ]
[ -0.05623181189399811 0.4134505426624795 -0.3215835816744741 -0.033447359802415845 -0.06560145838147187 0.2923474974452563 0.029190138981891305 0.21992670102773698 0.04268813022942238 0.29303498050499865 0.08455208207562263 0.030989140340954624 -0.04006877552970747 -0.1610096361857351 -0.03655111196989043 0.3010986971913534 0.1008004091632343 -0.07365566904547466 0.10775409244481696 -0.0011630954474088492 ]
[ -0.3836485294318892 -0.23733355395669387 0.27223594591737904 -0.1287221713677243 -0.24485457047181422 -0.051013601579500724 0.030168792939359416 0.07729808728233263 0.26944532128693804 -0.034773791318359525 -0.14436229653092456 -0.20447171555599897 0.04651294358788658 0.16238204876182188 -0.16022603782981876 0.1709966901121486 -0.4063701977897715 -0.18334654389918859 0.16277675131727937 0.0017008682028761518 ]
[ 0.330927047964609 -0.09234075286129272 0.15515579329597007 0.18085091605111783 -0.21143620624328346 -0.22555560523749224 -0.039028556714677975 0.2210783534146619 -0.016569420048176502 0.21577391586685296 0.33939468740711204 -0.19146302782356428 -0.026191286282402866 0.07867217562266245 -0.24312348446891155 -0.18616100099379068 0.015404081336661418 -0.09365959874357242 0.1969711815888481 0.21657465754842145 ]
[ -0.4116948934385436 -0.42742775872037475 0.1478190386592019 0.061748359591876266 0.023398771129558106 -0.026075749014574805 0.48585412510138287 -0.06285589804036933 -0.39741927580751335 -0.07456795511305435 -0.26606902295365276 0.040274249609757576 -0.152229323715165 -0.05944267787130436 -0.3462482290106499 0.25039333655472545 0.03177820896272936 -0.4445334838997531 0.14895325469305906 0.1281094788215727 ]
[ 0.11890629487327754 0.1663722602633043 0.14355156868383523 0.18755077706376036 0.16268360084840436 0.3259156004094727 0.04990311273668488 -0.058336329759033044 -0.04466055966675998 -0.1447221626010599 -0.1251124695773553 -0.028422298872987136 0.057354926251714546 -0.08379042041449845 -0.21448037966253283 -0.047020615272405634 0.3370718501645665 -0.10315950934558006 -0.19054644655427916 0.033008875476787186 ]
[ -0.20789608937747775 0.06938693489722708 0.17919314390826024 -0.035657061170984154 0.2003893403755448 -0.26087959772794483 -0.09938120351094518 0.22384702612357335 0.3186990295464871 -0.1307885615457419 -0.08638722914198085 -0.049170466523702924 -0.2168700830436813 -0.100478631440452 0.17863819558094307 -0.03009223009276336 -0.12164356794395803 -0.014818887291340128 0.08471329085661182 0.09092757178022373 ]
[ -0.30683810001869405 -0.11740425935800762 -0.1700047017566948 0.20920682368002744 0.4591478305750464 0.2725276179390077 -0.33854767987491313 0.3510147096500944 -0.06498585768914734 -0.2479738762442596 -0.007526408776600675 0.008242342801721106 -0.2967441821356527 -0.14461734791929173 0.26576146467170036 -0.29401795287077864 -0.1384964184967161 -0.09753171709710685 0.07367718685065941 0.1623688920368243 ]
[ -0.12971668058623848 -0.11298008597566538 0.04558348806769623 -0.028937554633502303 0.04256484727719917 0.16196680108279965 0.05348402957367688 -0.2142061010373325 0.22473799080560533 -0.06929048653011276 -0.3524503707412108 0.11159043390303304 0.19140609131730532 -0.16683087662436627 -0.009286118860562822 -0.30247965590356984 0.08328400742612618 0.38075294878218213 -0.1726843384217399 0.014763415954282561 ]
[ -0.4125904042259191 0.20077315830859954 0.5165598372252822 -0.05276755262559174 -0.043264128226163476 -0.07814052796122542 0.35461006135656775 0.15147593009261182 -0.36728693370770327 -0.12823148247689692 0.27203923910140493 0.24881183347443978 -0.13048600670178445 0.18874899713491397 0.08461387750103574 -0.023765150444402666 -0.4643756388637817 -0.14600774938997071 0.2551725515246475 0.07035983421198078 ]
[ 0.3355785372181287 -0.25512527534828944 -0.23118846143802194 -0.09436144416441156 0.03237600965749205 -0.13781012616431026 0.23935318445853715 -0.04711378662993175 -0.05616591085384272 0.19529943779841705 -0.2767455639607733 0.11910256046433967 0.38223442167022803 -0.047202091503220876 -0.11852817755371475 -0.1354453115546052 -0.10340320737722948 0.28224995087271043 -0.20669213502139258 0.07516443238427813 ]
[ -0.2820646752150047 0.1639475622781903 0.25169249508269215 -0.18223183218264297 0.14547845303133458 0.09479509316886195 -0.19379385598275872 0.09606126363970224 -0.003376508413208172 -0.03878349522491557 -0.07070774855369351 0.08539669724425293 0.02201603848288211 0.15699032312738376 0.5165608350436139 0.0035709832033555522 -0.25625560127723557 -0.1920971755014237 0.10738683051992282 0.0030277818628035107 ]
[ 0.167327259911022 0.019136742565949258 0.002501152695826581 0.007831573351680238 -0.1089527969956914 -0.04375060841249339 0.04463636410934667 -0.1024684136284551 -0.0361581123862805 -0.0014903005794060472 -0.0947843856283283 -0.0017539921065923192 0.07935903823786707 -0.09208731010727404 -0.0867636986561211 0.011107359116309005 0.009608724752990884 0.028992387167283102 -0.018297828104978417 0.003962458582360445 ]
layer 5 Activation
tanh
layer 6 Dense
20 1
[ -0.3022736417786167 ]
[ 0.027726162860654657 ]
[ 0.09997568866935676 ]
[ -0.023788647011947682 ]
[ -0.16459643373851193 ]
[ -0.0484434373515747 ]
[ -0.3442136932921617 ]
[ -0.3320178905122848 ]
[ -0.0601188091812897 ]
[ 0.01775168403179315 ]
[ 0.43568476439318166 ]
[ 0.3159957076620228 ]
[ 0.26465375400128627 ]
[ -0.40542559610361273 ]
[ -0.30457841800236096 ]
[ 0.02411287041828463 ]
[ -0.08582217187816493 ]
[ -0.10003536959733356 ]
[ 0.06328376551959733 ]
[ -0.02165594735068038 ]
[ 0.07671820088223799 ]
