layers 7
layer 0 Dense
20 20
[ -0.33670774626765837 -0.3209920363972445 0.44383160606362004 -0.14768904346966424 -0.7471764151103244 -0.27779070360492664 0.2759545121957439 -0.3063751654642106 0.14182785464695688 0.2182271217891394 0.23538012735488234 -0.5144985515969148 0.08977908010200293 0.24434802974539654 -0.1535845081602323 0.5247200320379486 -0.5043312822909016 0.49811757269214163 -0.39061751906721986 -0.2097069331040312 ]
[ 0.1412254075299812 0.2609180153798222 -0.02299384472455348 0.22953830729113872 0.263606795967956 0.1086492256860774 0.14529184415581073 -0.31779390290286313 0.21548128654536805 -0.2875284803853398 0.19793944690351892 -0.11996600813432755 0.29592179152101084 0.05701084394968112 0.045314650532159065 -0.21105628310835053 -0.30367740165397916 0.170893751441711 0.15228778332161344 -0.0063347651757835535 ]
[ 0.21273419626022422 0.19983803637509592 -0.09536483068809035 -0.025204297233014823 0.16277627191590105 -0.05097623051169581 0.30425078918009085 -0.3160712660785748 0.006475387792113095 -0.30642226740182776 0.23594189621266168 0.2824518338165398 0.17826229347512287 -0.11648955096940407 -0.2064698978426079 -0.13849347620714883 0.3349153314466913 -0.2468489901862956 -0.010829263990431461 -0.2670092408805997 ]
[ 0.09262471383362639 0.12378701999239168 0.02659182324955976 -0.31038315176236997 -0.3664915648794476 -0.10934288188914672 0.1418872591645807 -0.08827696580717859 -0.350467190016044 -0.3980494070529871 -0.07688543177223761 0.15672184914357243 0.25940490616782785 -0.2461751300514955 0.28785529389425196 -0.04208613534101586 0.2590237824049371 0.060166274653652436 -0.2618523832385737 -0.41509144594339037 ]
[ -0.05802465312414922 -0.34552446326211794 -0.14988115922694023 -0.22403237406635584 -0.3255503248675309 0.3002675933417614 0.09618746235264787 -0.1826159757075927 -0.3626775931223471 -0.5891739367360784 -0.419672700948762 0.10077019829349833 0.24739099935711245 0.05782467883072701 -0.11000931391757611 0.3733661630878696 -0.07696216502191149 0.416366679027319 -0.08809272515602275 0.07769745794886247 ]
[ -0.24603250179952135 -0.09872279978620474 -0.3364134386488704 0.36665792606363645 -0.18103261284637487 -0.19264531686315023 0.1366729456909402 0.1031380091851119 0.15417931404599197 0.11826675242133909 0.10235827603625586 0.34283336316533863 0.24937000006195614 -0.09394549163562442 -0.06276601914399245 0.009841728546925551 -0.19330934980314673 0.3331196860853662 -0.33307711540887136 -0.028329291689360433 ]
[ -0.3612464535742936 0.12652112640862426 -0.0349874466315269 -0.17092429380010246 0.10232006205266729 0.16725953546408576 -0.2429687560419081 -0.23982177184873082 0.05936500957332014 -0.07686624608611595 -0.03583921801291444 -0.013919843786522095 0.0776232748747387 0.18796096777355867 0.20569696033707077 -0.0009231899759566168 0.20504300105906811 -0.10983263298938276 0.24430440512897017 -0.26895260557255024 ]
[ 0.03372452352474819 0.4816417094332342 -0.3388265762540369 0.4196613844622056 0.3887864110628587 -0.19389334208209563 -0.19597306223171168 0.04213218357609702 0.5278846071680852 0.49415956323746824 0.3706200137396873 0.4195443127956715 -0.38994843299568216 0.21086987365996857 -0.28112290866638207 -0.29693093089692457 0.21203526212742635 -0.23164915275424247 0.19220727217960248 0.2557454453536962 ]
[ -0.11544917596855475 -0.4408800924276124 0.7052259258031927 0.16118069004426855 -0.3509267868311166 -0.17390392619655162 0.6614545228853724 0.5696717979198772 0.015043277149368985 -0.4135809663176544 -0.6991804312202113 -0.5785838520213786 -0.508095141262249 0.34289521710531135 -0.226332445431003 -0.18071234449308676 -0.6396787643916413 -0.11667325270302191 -0.391850254156713 -0.23759543564957156 ]
[ -0.3012261134107745 0.20347989077807876 0.18401495992742514 0.05539761970755172 0.06444416927557302 -0.22671065351390499 0.16623040873644168 -0.1764630973626551 0.007445357014908353 0.14882990040736183 0.24357092325465104 0.2131474419016016 -0.3519338556117226 0.22372535429761747 -0.3142646180461144 0.3232127992505981 -0.07537540818771804 0.10006252004033488 0.14332667375696012 -0.23064713320884148 ]
[ -0.28072844233753796 -0.20504132027821256 -0.1391262157477863 0.3048124535738142 0.3037589297294513 -0.37852757448560787 0.20224189929549868 -0.04259173900678911 -0.27802594823779203 -0.06822478204683395 0.2191492026365064 0.12225568435715443 0.07722051224713873 -0.474939638098503 0.10442372180141514 -0.16298262385257062 0.3483813146459854 0.12611425629620587 -0.1975320674562489 -0.20724504876232072 ]
[ -0.7486271345997176 -0.7165004592081443 0.6676670326927681 -0.40225398691433467 0.059709167137683414 1.005121479841607 -0.09777907823166043 -0.031846166549792165 0.11202122507333173 0.5662967284018494 0.12622200649965798 -0.72941712373115 -0.09567186458421754 -0.12086022093004611 0.6734462053790135 -0.1719083236837659 -0.46364618813734415 -0.5234640992668436 0.3951675508634262 0.4756541030141499 ]
[ 0.04769087837711465 0.03458036267407478 -0.17150191185170785 0.2087297235481537 0.5672513734064958 0.03959369103119385 -0.04384281978930374 0.15972678127924989 0.3079766744436418 -0.5558401510485822 0.3266425088105024 -0.4921347315891043 -0.033179419852503424 0.7111055691901629 0.23524505438220314 0.3895024141163512 0.2875290638049429 0.2663893502202051 0.32554894413713975 0.4038107896323918 ]
[ -0.46151492891381024 -0.5532745202563687 0.16432996348595347 0.4872035186867572 0.31699714094620546 -0.015988292260792163 -0.1913286631503488 -0.5252895033981441 0.04175211871287401 0.17357934152868773 0.2936911516410207 -0.046163747359596385 0.0056188456925809 0.02458702856533969 -0.20685003315399747 0.13570431613271622 0.02480014286532874 0.36105386142890705 0.03642019294243214 -0.2394729138129639 ]
[ 0.024182989639567318 0.21803855072718142 -0.05968681549412356 0.15953774518172567 0.11076673493178067 -0.1375106048267267 0.21467809673879668 0.28134094743584115 -0.10460483199992371 -0.026692466312397755 0.04581306617205403 -0.24460109811091962 0.4965250303237248 -0.4675206629598361 -0.15969019198824405 0.4580453101742461 0.28542866098269887 0.1905203171068704 -0.2382098472354221 0.10692518421519173 ]
[ -0.29760203706956323 0.7577453433186951 0.2558701675591711 -0.25184611980700167 0.5694218085703618 0.4824238315234923 -0.30246253687203284 -0.5553571927458263 0.25848618228962816 0.34736720677580946 0.6236690433497848 0.5325152052048475 -0.15739563675078344 0.1002618267106923 0.7062892851375339 0.6200570035351209 -0.18864946652363843 -0.27739801971540734 0.07011727439910088 0.8062328552769386 ]
[ 0.20140004259413855 -0.3084830741475588 -0.5927893833869103 -0.5812942086829745 -0.04562230679142792 0.19863171967816326 0.007763600074933032 -0.4306791942057627 -0.6025089151671087 0.13446565424865778 0.2242656252074212 0.49389008833181375 0.03599434576537779 -0.28723053806553983 0.7978699657392399 0.4734165087471278 0.22593101859676326 0.3211209307670983 -0.3040454326906588 -0.19435276603614315 ]
[ 0.3403584228653061 0.2604725889142308 0.027938279230108675 -1.0187389730572434 0.17858610629020405 -0.5568109518481195 0.1349855459536638 0.9695304137126226 0.6121729856930253 -0.04585812622196459 0.1194610691232427 -0.7448018673812431 -0.27265991356681096 -0.5418040434262568 0.7790681681128234 0.041001732300138885 -0.7005193762503186 -0.09736091544867088 -0.029876471915276006 -0.12260814913511606 ]
[ 0.3556606440621406 0.2816602279597867 -0.24957271711783718 -0.6758575687732606 0.18763026015658124 0.276223405305189 0.12826348428372875 -0.26779368867683595 -0.2381008450531914 0.1287808553507793 0.020704287617873164 0.3228916334881329 -1.0338274815690294 0.9331018762573806 0.5435355210258994 -0.78165820260038 0.12052795587043524 0.37664516050946134 -0.2099086138646572 -0.23723675048831264 ]
[ 0.39206917538926805 0.33862183610367735 -0.5388028104784461 0.6500747415267176 -0.3936117085596057 -0.8798236670293234 -0.18712798879620027 0.2950940181206368 0.7225179135390385 -0.3825637313525026 0.07556169332629623 0.3032122736212071 -0.1656476270568482 0.1472877349113792 -0.17937127807970846 -0.40285324137586204 0.3441732951208917 0.4165899996453979 -0.03133387739566345 -0.6130391039112786 ]
[ 0.0282945726735274 -0.04463931430470036 0.2609072606908152 -0.010135037514413331 -0.23434798683765837 -0.10425957732261626 0.11745851688029697 0.01630964229306839 -0.19985252472165452 -0.06315568737652921 -0.03831898403411632 -0.06296292513081432 0.054237937532934634 -0.0013346334756240239 -0.09149029889515638 0.047159907098920845 0.04238532885786258 0.06319122124282961 -0.0734211103798678 -0.1557244191023669 ]
layer 1 Activation
tanh
layer 2 Dense
20 40
[ -0.13127575050045542 -0.24369934149029965 -0.16771475358998003 -0.14528441308622658 -0.03159069050289674 0.3262688948708537 0.1290065101889656 -0.2598409855640463 -0.14688562609756622 0.054007583559859657 0.4257888658936075 -0.1175279490423054 0.30665848320917743 -0.13534421645815753 -0.0784138316136975 0.1494614250453335 -0.42542241106305917 -0.16361141148550082 -0.11400807590312129 0.16606331815389733 -0.14755325478031464 -0.29872402830869893 0.08174322130135722 0.04570781925649438 0.27593910450064196 -0.05507965541121025 0.24368187745360195 -0.005425154123622335 0.005711688998942239 -0.058067341716930114 0.20618494850193703 0.004624664481156531 -0.3061094098538796 0.1609593928346454 -0.3331726507444262 -0.014686940590629782 0.3194817376532308 -0.06733197182302689 -0.11178302204138472 -0.19985449941264202 ]
[ -0.04320755929951611 -0.3854177404660229 -0.21815435779812575 0.18077477613102513 -0.3440929799982227 0.5011222548120944 0.28974055719412645 -0.2434124169559088 0.18512446569642443 -0.10970309279016663 0.001632452323111926 0.2465236095031077 -0.41462352709039163 -0.15772243128732535 -0.2232097537044853 -0.04949127197509181 -0.4373601793123545 -0.499423494124668 -0.29565385909400294 0.11349433973320186 -0.22848364668104837 -0.31831802121464225 -0.21248857220706496 0.03019090710765487 -0.037246670417275814 -0.5597599120873403 -0.14493965664781702 0.15779659771113755 0.2691934687416586 -0.1673340114329375 -0.14684072976757814 0.3749896673721542 -0.6522888289619672 -0.24946813069316376 -0.2646920314071825 0.3503004110888755 -0.09685670813400427 -0.204318783306622 0.014382362052517703 -0.018350387582758143 ]
[ -0.03532773583463314 0.5108329725558394 0.6231741363157068 -0.1661504155602495 0.3417874971971049 -0.14578869084145285 0.28019938494983104 0.8253779325409837 0.12406942358333689 -0.09319024763008445 0.00622767542542442 -0.2708760587180205 0.33865543520311364 0.3955969537056546 0.40464033937378535 -0.5940271244069365 -0.14403387125108555 -0.09849785021125755 0.30255986102337323 -0.22840479388243506 0.18158931107954726 -0.03846949942847567 0.37692834850260354 0.2516130019796723 -0.6742339837732609 0.5184189900128202 -0.13503290920747568 0.186064640959876 -0.6355436602640772 -0.15410323866810452 0.19408736383881464 -0.7490046415110759 -0.10102296681954885 -0.2696426985890102 0.5469477285213147 -0.03232571067457142 -0.059132386905865426 -0.03765752060130055 0.5333226643939888 -0.35858651060805796 ]
[ -0.2336159814435581 0.20920505445268514 0.09015461999922268 -0.2700888144873331 -0.17211302986722138 0.47806497619183685 -0.04046982513837221 -0.16396306459804216 -0.14447887823617384 -0.050808966156897756 0.009741313900119664 -0.15799379371384023 0.19405952768958834 0.2845227357333795 0.15786156223839037 0.07111241526840312 0.8689348451740683 -0.1908104142388814 0.015108795960307952 -0.23913778013419032 0.13324844989084006 0.24062573460584902 0.35736738580332605 -0.4219813418746815 -0.3505528516136095 -0.3263699676113959 -0.09420174445408915 0.4889655495366863 0.17405248688721525 -0.7166335251984138 0.3663155007339558 0.01522919770367779 0.3271818965622708 -0.041626807376856124 0.1738491399157888 0.4008179315601407 0.4441112847818101 0.09425488775227889 0.702310324835371 -0.3356763303371244 ]
[ 0.010001623470034703 -0.22289037029474926 -0.17535667865896934 0.11235304519163095 0.03478326608520847 -0.06982830933928177 -0.3045595603745355 0.0008097948134803796 0.496285103168089 0.26478503674234977 -0.22713294040637247 0.4948736264097114 -0.24138842305185412 -0.27291960464801474 -0.12507665904677406 0.6551786953336054 0.618861901542478 -0.020256954338659237 -0.20075006261691317 -0.37580756237900104 0.1532719342821 -0.4240420717873247 -0.5607634611476321 -0.8968427275536157 0.2221431769306959 -0.9789844773722362 -0.095347943657432 0.22139590988378852 0.6561832626312936 -0.32773035610972656 0.17094050540134767 0.41766669280407637 0.045157996464729434 -0.4234372131845473 -0.2327933763184954 -0.15285842703276625 -0.02433868436342566 0.07630857100349729 -0.46258712997853646 0.5655781615050642 ]
[ 0.22826132698091794 0.09011162480786822 0.06731910916972875 -0.001314138152946656 0.22023437231964135 -0.07340652348561132 0.14489333543228206 -0.04463877351687627 0.06492095663099595 -0.13254831639850592 -0.11642375548201818 0.1663300229975659 -0.19753225040240355 -0.1743104101458584 -0.043193214197611976 0.4596667963236505 0.19182369870583085 0.3752659472712962 0.46592853114156685 -0.3471242775498684 -0.04179264885689693 -0.2311552033654683 -0.2777921196677945 -0.05745073103365698 -0.28919499428742573 0.3628516246490414 -0.2190366665893867 0.08727500167424593 0.15717729732159264 0.31552657294760705 0.05499144393911312 -0.2218276371615633 0.3607508548285819 -0.16957341320591998 -0.13054255380976798 -0.33046985130289325 -0.1677483174287185 0.2541728297171173 -0.23014235372157116 -0.06930986151077315 ]
[ 0.07391847714430057 0.13033784700119166 0.0665468783979772 0.08241188081209803 -0.035516984359008456 -0.3672356934707328 -0.1699644493027942 -0.17589962847698937 -0.1479213076765273 -0.20272857921511955 0.24126386091054555 0.028904621704383286 -0.02904867570193263 0.19430327317492943 0.1857814043224744 -0.1427811957603547 -0.22937102001401838 0.1540580511106997 -0.0492054819266446 0.04517397015549822 -0.08886447243674314 0.24633652273142054 -0.16201905144355644 0.08491109948422218 -0.4019485675919363 0.0191682890318797 0.40599191747280833 0.005869600100394939 -0.28607841297174513 -0.0281566299082394 0.10717481989482475 -0.22708294445609792 0.07520525491002072 0.009955082218386223 -0.006857674899461092 -0.047507547223175225 -0.0821685227760629 -0.04959320589764164 0.25372778679622027 -0.06373852666139566 ]
[ -0.13033112763806085 -0.04149788038793724 -0.35282066614671564 0.30403044585674316 0.2639579066719303 -0.04141973231702084 -0.3842533870680092 0.1411908570227632 -0.3981022800423206 0.11341151959968272 0.01703790302166484 -0.08836715547686791 0.0008988482720918129 -0.21369416052659618 -0.3285905987350252 -0.4280355277687381 -0.020657659906528937 -0.9795430041677052 -0.0326693945382208 0.5899079732963819 0.05129839649714093 0.25716998729160556 -0.027793400403868462 0.21328460885453476 0.22482204314665546 -0.17015262564797914 0.4387381615403444 -0.38262714347941673 -0.2693517831239087 -0.41761526917645025 0.24856781915433268 0.09484399947507956 -0.2803025896053174 0.19258327860340152 -0.011591658877289105 -0.4545898610060213 -0.3909879238836425 -0.06436588432784955 0.2939241886654637 -0.0670920815944855 ]
[ 0.07582419736893747 -0.3141079933485832 -0.13366685850070592 0.1046896941698837 -0.03994364092251732 0.6562566956606259 -0.08983604917439192 -0.2630432131886276 -0.19179490827445678 0.13492239103940026 -0.17406056481887464 0.0921253839829528 -0.23419357925114762 -0.24976975552595526 0.10611719105311795 -0.28416747355962785 0.21413301225135417 -0.4491116839032282 -0.1543100494247377 0.22121298481239016 0.344347103222489 0.015547389092126898 -0.27852605663827495 0.05126378252347871 0.15359817885884058 -0.65194917668202 0.024185335718297157 0.205106760393693 -0.09733313917252943 -0.5497772824814052 -0.14085001016005047 -0.32152297619937026 -0.1487880337468368 -0.142821596767104 0.08768564447629643 -0.3332727975000279 -0.030596788521576383 -0.17028608104445553 0.3215083165606061 -0.3001341664923526 ]
[ -0.08170899730665553 -0.12944585073731818 -0.02218773019909599 0.2796332954241218 0.27553001319004344 0.44549143286306936 0.09899115191091365 -0.06857876998491871 0.33748185730997227 -0.048988053318410385 -0.38142252275422417 0.46570645899191004 0.2713387543572505 0.09512815046495576 0.014568434945676242 0.18212242602490233 0.3018588583537417 -0.02618620294929152 0.619326976732303 0.2340154982198962 -0.25456283654656386 -0.28496027175604727 -0.34224455858408775 -0.31763227346549966 -0.11010425478532908 -0.34033199772341743 -0.29447571875060047 0.2112709975780891 -0.029623516831515644 -0.2658471582188118 -0.10550758960269908 -0.19793336227187197 -0.16135530351320423 -0.13931776386780018 0.168934692145172 -0.7264366367154663 -0.5668539494900711 -0.04281519535914447 -0.4734124662808841 0.1748708066158273 ]
[ 0.07726700152101168 -0.4008635492441449 -0.10714696549631902 -0.11077278071015709 0.20025806278948846 0.43896632018190895 0.03725335245313304 0.17451294301971348 0.17997764721259885 -0.3487712422435784 -0.19148648060215273 0.2529883748451873 -0.25370566635074043 -0.16198591368670084 -0.0006472380073881013 0.4359090416621695 0.09297161446185054 0.33614637551233245 0.37830570332759855 0.08158977517967782 0.09975551577063445 -0.20349631226798517 0.06778374625495669 -0.12382759844567733 0.05136234786278668 -0.4762137147647879 -0.28805868749606667 -0.007515592201963928 0.34003677297360724 -0.04771882764106141 0.29358902476419185 -0.2958627714521666 -0.352421919354592 -0.068216421711521 0.259410503008014 0.3305508800810272 0.2771846064303903 0.28690739972794976 -0.10136291080987217 0.08996802042258958 ]
[ 0.08964054910823922 -0.44077416105041123 0.07240464265371717 -0.03203511959272034 -0.24906274693552471 0.22413192339948587 0.25006241677477137 -0.4136433972082191 0.22557336721431676 0.2917598510834284 0.2443668238240915 0.04614197422252883 -0.15011844691379464 -0.28119622182396753 -0.04347466034741742 -0.003647023983258056 0.3022233321569853 0.5999980975647589 0.18147975919846904 -0.22045268965028614 -0.058811413074328786 -0.4277003682905461 -0.06976017660954918 -0.0822777497404668 0.2725779858463184 -0.09261721590934756 -0.24011323535400222 0.4512920943308659 0.3652842287949702 0.027134901598873298 0.27726432107605753 0.4816682296351537 -0.00044235613282761965 -0.11133604002593896 -0.07663299650887385 -0.11846161667961547 0.33585647931001866 -0.1475159244339817 -0.10771536228158798 -0.10506939412382459 ]
[ -0.1158396565130266 -0.28910518213479103 0.0685892290827093 -0.2635387818771698 0.0394802701923975 -0.3338282991076818 -0.25139628834072963 -0.04164378783255437 0.26850803360054215 -0.12440715007843868 0.09151414250393668 0.15983354424645696 0.038009386437415194 0.4989619652205652 -0.05586035615331182 -0.016439220140826896 -0.31024792987969807 0.14459828181544512 -0.2406420424791187 -0.028064543957554387 -0.01246298349041189 -0.06659610945413907 -0.3476645026614794 0.12496859381446808 -0.05829172586382844 0.1385186242791074 -0.34914878095033836 -0.37655700730726405 0.24298294853024532 -0.021446088911318467 -0.04853167339382735 0.07399295290558637 -0.14734178721028182 0.24573563387409716 0.20277394668504395 -0.09310995407709334 -0.2781164821315257 -0.07582324011715026 0.23009952198711228 -0.0340548215138323 ]
[ -0.36713715143460096 0.2881764170240497 0.2831384220290904 0.2618855675380436 0.03224064103748723 0.5565217864424964 0.10150367221484945 -0.1501323678766025 -0.4707922470630373 -0.3120375826734501 -0.006950994690595907 -0.16273692033067166 0.37669743765028774 -0.2929455319846782 0.12775624657363724 -0.5073649852102207 0.5438315458978066 0.19741294781634341 0.08146162266770535 -0.020193069537945724 0.09150288854089894 0.02503219211516799 0.2918713218755782 -0.11967419444682645 -0.22594996644294105 -0.4591087387582535 0.5285495360236386 0.37044349906852736 -0.4869673672477472 0.23287528931625684 0.2768101592858977 0.046680821329002704 0.17201342203976036 -0.14425660840603657 -0.2428643174614235 -0.055515880144676136 0.13704846886432212 0.047508665353092595 0.19200654388393595 -0.21525154295564825 ]
[ 0.031621118706832395 0.035601210532475516 -0.2882585917626735 -0.08823790308458193 -0.21858138483257344 -0.34292599226870957 0.15054466643703618 -0.19960721843370266 -0.20849214175789588 0.24190709753518003 -0.1663837688427795 0.22388235192468284 -0.37261979110940824 -0.29040174367602223 -0.12388265212889028 0.3622990023538347 -0.09868102255757621 0.12381637334248485 0.1484055037364563 -0.014939140815656839 -0.24582349722139338 -0.46960123407146825 -0.11263729695182287 -0.12729929478105376 0.25256826571729324 0.025487337873921455 0.2269060037879332 -0.20893368921136146 0.2913254663056617 0.31332392406809456 -0.2693022790557728 -0.05662636983453495 0.1997104137401009 -0.06635415131597233 0.1505035970558523 -0.09305482517935332 0.09894451895227702 -0.1083484589331994 -0.7326513562866188 0.16542600309154637 ]
[ 0.23195927981758982 -0.4180580840783788 -0.02767316126706251 -0.33838053191452605 -0.19953718177669133 -0.0636195612585685 0.01942703879570081 0.3622587594591769 0.05064622849085972 0.16767277429957836 0.12830987184616335 0.036824140963369584 -0.4690372500119715 0.20163946874744246 -0.040874100034039636 0.4780985833327437 0.15315747717638684 0.21223650171319117 0.20219522422741573 0.13201106718554637 -0.0026419791205944607 0.1600637027233366 -0.03315352722965667 -0.11938866714513188 -0.212838952672195 0.18620516740494958 -0.057348106113623454 -0.3107046732821888 0.27710406021470785 0.08460514046648072 0.2979489407390105 0.08727483727093456 -0.24425518405839217 -0.08653002846397674 0.5148191003876628 -0.4043258914627039 -0.3074774606390393 -0.04956173649052746 0.17338723983342078 0.2658936699306387 ]
[ -0.02593328255308045 -0.1565930654586018 -0.1462253222590762 0.08196117703647635 0.2664235915931705 0.13296094082803864 -0.08808120292780644 -0.19278774937077103 0.2654881376349941 -0.14879280746259346 -0.002316841446015429 0.07156228045183728 0.17937026569499967 -0.28657121217406795 -0.04432466849259674 -0.03475536984299192 0.2172173425105 0.0929701535790693 -0.09848329881763668 0.24217572614256716 0.06646634790350225 0.2531906686461491 -0.18118583214627676 0.3562437919534568 0.07667069061922095 -0.009876808945484119 -0.6667560060344871 -0.0905306777877338 0.3880204638956799 -0.07487694280406403 -0.206929830743865 0.29328740565561906 0.28929831217059176 0.32463498775530664 0.22468852636118714 0.06362134493095367 0.09617572608144125 -0.019574021555762967 0.2712086333759255 -0.046066152862031126 ]
[ 0.05728142071071057 0.4365461219582616 -0.08485023613928595 0.03251883706238359 0.057873753795629944 -0.16270999820110843 0.17115501032785796 -0.32177177176801125 0.23622761043389587 -0.16772256666011098 0.2665782855419035 -0.01918322272730682 -0.32591080250902177 0.38432085947746386 -0.10454016530015868 0.3677961220015208 0.4915003632210715 0.36731787471960037 -0.1413675395310022 -0.10615740293258598 -0.08942518999529336 0.11816983636495489 0.22008795048011043 0.3970206240542137 0.22389861277632658 0.14207836286672917 -0.24917816126787093 0.34880542073086185 -0.07411971845414152 0.5779539937530584 0.33325968652589794 0.41801622623712753 -0.03463796815535617 0.6166340803239602 -0.09006827219513451 0.11169196614841854 0.7966105048341859 -0.18517657248323602 0.5765660214936251 -0.22890177181948185 ]
[ -0.04550034846270571 -0.26874809799225907 0.1582114421432684 -0.1439842519992086 0.08799698743702235 0.2905761873926933 -0.10513563507225587 0.17524030367837767 0.12092828025936722 0.14261458877608588 -0.19726533118105974 0.3052325834746927 -0.027713808385388426 0.20372719577419857 0.04073655726917208 -0.2712473923001858 -0.1932686575725644 -0.17541175858032998 -0.12727950490002002 -0.11537683034418242 -0.12577011877926286 -0.03363439295503253 -0.017603932255774526 -0.23012179660841892 -0.03337978899825075 -0.1636812532015912 -0.1267911016140278 0.3952171183742989 0.2786933717498369 -0.0068342398187415075 0.07348208053782815 -0.0115092781948999 -0.03733832778323774 -0.21803153638064668 0.004886328703775142 -0.1493104023743556 -0.10241757402857789 0.04366925187296935 0.08905381031237951 -0.016951076904888406 ]
[ 0.23074949308678624 -0.4108149706600641 0.2857263031492318 0.1569238694812643 0.36861584112662554 0.02595600721712421 -0.2157454250470248 0.05895345023431266 0.14217811947987427 0.0707225198628319 -0.11023662884042275 0.22632588089054936 -0.04432368609754356 -0.3630552844728475 0.13946386531213043 0.5058283173033876 -0.30622025249655827 0.12689142724278163 0.3002653796221686 -0.07959158072846839 -0.054794971425583476 0.32184255906527964 -0.09172752391593642 -0.410260940758949 0.14526154237166172 -0.35764799252273305 -0.0771573862294248 -0.24590773854889722 -0.027940422830719822 0.2399390810783562 0.11955780243581374 0.057468668572400176 0.09145728393753924 -0.5072044298616593 -0.2912724581879194 -0.08699683603169457 0.03287433023576057 0.3334142214196248 -0.254213662421937 -0.22829791492030552 ]
[ -0.11082507519310338 0.1669071499744935 0.02793303427105033 0.0086015982337319 0.01671237404877324 -0.11700275265856211 0.05979703337954189 0.10097074516604211 -0.16027389633446837 -0.18447646053312242 0.23181765507685217 -0.10782566277084764 0.08842406570213872 0.2297856297100349 -0.03865992145991863 -0.21000592285233116 -0.20290533746750508 0.08162399675091996 -0.15388643452097495 0.1847633893898491 0.028182906948314563 0.12510586120134223 0.19241421569779507 0.2411938111784668 -0.009143709557685883 0.43349087207677894 -0.04477498596438112 -0.02887140344751596 -0.13188483573022922 0.015186276137430963 0.08767286118438924 -0.04434486858718638 -0.008873298199972025 0.16937244841292154 0.11354593043576518 0.009999104624121364 -0.059511306702165326 -0.12400624462995578 0.05632831733130061 -0.23984099427028888 ]
layer 3 Activation
tanh
layer 4 Dense
40 20
[ 0.2377247603071927 -0.16325884131442386 0.13559106855787992 -0.14750867409007828 -0.23348999612618468 0.27383533681461536 -0.06918678820008384 0.1733499595281888 -0.024419238230986535 0.09446283262693975 0.029146483236709073 -0.09888067674214425 -0.148617380609349 0.20822197469852366 -0.3069145258007464 -0.004054912436331743 -0.06100781758696495 0.05731002854173612 -0.13338641228393425 -0.1766365751467509 ]
[ -0.06436843947659163 -0.3295725899382866 -0.1388031560886806 0.13955711121714245 -0.39530381187052005 0.12899128983014757 0.034624741510433155 -0.11635556581076703 0.07981418039921206 -0.5946083153102488 -0.1344694841968782 0.08468727323636473 0.15524106203057894 0.20336581541203497 0.36279403551695705 0.26969751678031617 0.013164756232609195 -0.11763198883899949 -0.34880236693082894 0.042888395502080144 ]
[ 0.11680622859220745 -0.23979910154863981 0.271697513760439 -0.2176018467989167 -0.42103812674441976 0.26945793928153794 -0.09146156906049233 -0.014690746028839099 0.04030552811729066 -0.2061490172119588 0.21543545791618393 -0.12599997117728423 0.004483223099532596 0.08263080516091278 0.05130968891638973 0.12597552112073668 0.25980339374731354 -0.4161113482603225 -0.05524837398578949 -0.05032509000155856 ]
[ -0.12288406303349979 -0.049673016799746235 -0.11199925511169738 0.37969889866364476 -0.016256278338907436 -0.029380392273064684 0.16864966042004212 -0.21684562091328102 -0.10552465686174853 -0.3518687369733651 0.15028051576457274 0.27873127936910774 -0.10002919685832534 0.08587875788270538 0.35136660917090423 -0.08902933607323814 -0.16849808787419346 0.15855723902650706 0.2497130776318536 -0.2618097620808479 ]
[ 0.2574519476636404 -0.012880373584389425 0.031036034687962295 -0.08211020414398788 -0.4467852619301142 0.09744750530897171 -0.20018628849612174 -0.1685662101730716 -0.09998165015524291 -0.23327698773668668 0.2697373002592968 0.008977755948428208 0.1104391128362132 0.15567626173488475 0.4382111603155673 -0.05731815965013752 0.1522289822188845 -0.0849267874999459 -0.1964382885298786 -0.033999372564764985 ]
[ 0.0011146142485682971 0.3246675181366162 -0.06698295859285779 0.06842224670055932 0.16414049572703945 -0.13960853882383906 0.4976104471705251 -0.2725961843622087 0.18917843017934624 0.07206735425883543 0.11269652710994257 0.21426550826017374 -0.23719474599776552 -0.09867054652964483 0.2566352881699046 0.18308279795372226 -0.2722873035731307 0.1310732387649499 0.023475292696437444 0.1640290203493548 ]
[ -0.16348424349366644 -0.16841905558812734 -0.2398845949884185 -0.21310295647998756 -0.3056645407245836 0.08174859334406522 -0.30958755130399906 -0.20768187674198327 -0.34867738349182603 -0.16237955052447578 -0.2155164875478195 0.040942707274640805 -0.21899267807200354 -0.3902177800790784 -0.18455489014287987 0.09899609550764048 0.3315704040230259 -0.17404394148854416 0.2726647623404796 -0.2642229331974916 ]
[ 0.22291600774029346 0.10471058848651014 -0.1428736089416675 -0.18930801679054554 -0.5536077657023336 -0.0305634388653575 0.14323201838467003 -0.0874190418792986 0.24066874971227598 -0.15606260919659895 0.10061019410614574 -0.33177490772880125 -0.015697280294347162 -0.04425636749382707 0.29223430161051167 -0.247857070517333 -0.14928643052443705 0.01592202206695469 -0.32387974614531795 0.5627057236167105 ]
[ 0.15157609383740667 0.26595901373299036 0.16898701976164845 -0.352767162563722 0.26701802240530476 -0.05619531662065112 -0.06551839606966166 0.09432511181560048 0.2310649035370393 0.10405100519298005 0.12052037277690975 -0.02739702184995565 -0.3918106358094093 -0.26657979235964 -0.4297870750383144 -0.05380734242836351 0.16870127938144977 0.2348865867203081 -0.10915852808734433 -0.07798546750134204 ]
[ 0.25850827537809584 0.1277096147944626 -0.02033324784106518 0.252355023300514 0.3860968487778806 -0.18702259301886556 -0.2809099557038942 0.05062194470199925 0.06634992963886922 0.2173596424180944 -0.2082939921803626 0.23691192600801875 0.2514008126693048 0.22185243641611938 -0.12031958347637757 -0.0010691646435758723 -0.15413906711810296 -0.004147118285024836 -0.008851735984844874 -0.17438474258139725 ]
[ -0.3611254366426043 -0.4370830243739882 -0.14692758548174026 -0.11242353798337774 0.3013904093495197 -0.28046963400808894 -0.3740471154931999 0.23102270268945102 0.1352200570908839 -0.22896938699365146 0.04468372250365988 -0.15149319800626723 0.19003552303717813 0.20651011889981577 -0.10740635820865323 -0.16052648772051165 -0.24904383218370038 0.059355207807061286 -0.09987828248115906 -0.010611075523205702 ]
[ 0.36793132981308846 0.5014361371883332 -0.1328869968936476 0.32088234080651623 -0.2697178824126201 0.1076981566771629 -0.12462107983878072 -0.22436559532730105 -0.1800268589843107 0.25982815451112823 0.17766052980439895 -0.06356758168822771 -0.03226010396955834 -0.07208135814341936 -0.3992848168919005 -0.18573295900648976 0.19245042942776486 -0.06926526277985534 0.2355731734936585 -0.041889144373119615 ]
[ -0.019620870859692604 -0.2438396340149732 -0.05012658375969215 -0.25978349826931435 0.1071322411484214 -0.11010216672518494 0.31563732153585894 0.10067990686720782 -0.19414372094588725 -0.36965604361525756 0.2514931743094433 0.21022104833976005 -0.19606614050530158 0.1837574171667385 0.4432842875158021 -0.17959327789959809 -0.1064457649371736 -0.4602884453037728 -0.05740370003131826 -0.11589903959616357 ]
[ -0.165570255592367 -0.22345565771846626 -0.015021126695882382 -0.40979400890468937 0.2865706045944414 0.247617994751585 0.0967523259782098 0.12315607671962794 -0.24952251921175653 -0.07319988901050269 -0.1989102261106515 -0.3270007038669435 -0.09665912113025396 0.09085366057607626 0.031114876014883608 -0.09772276598334705 0.2956200888510337 -0.2088162696735889 -0.24253681194682464 0.3037118901334407 ]
[ 0.38060071039781357 -0.08147424203823109 0.21433716015451942 -0.17688802456751015 -0.18191440972038894 -0.13022566974263947 -0.08207707726848397 0.19061064741345554 -0.31615281737905454 -0.19148541424216484 0.07426595972864983 0.05004089318365275 -0.03462670288873998 -0.28658038507331657 0.08569005844317788 0.24143778831209498 -0.03343186116739801 -0.2736576103983312 0.09843375011886069 0.3568666977531335 ]
[ 0.15327663030338265 -0.12429541544087065 -0.008023223922362913 -0.31677594052361124 0.21432481346412977 -0.04359163392021183 -0.008346100395606224 -0.12295223068944137 -0.09747343808360869 0.4508428844704383 0.3535148405371624 0.10546387329948767 0.26353247934924706 0.3858416597139333 -0.5859265161097665 0.23208625987637377 0.347786911896609 0.28552072770416465 0.1770130741701336 -0.4965313401412991 ]
[ 0.27973918894778627 0.5739304099052293 0.23922806441200967 0.08393610626825736 0.2214968534870818 -0.08898883115566786 0.1083197024218693 -0.09147055680543316 -0.174192099573639 0.09234141360118524 -0.13237646480584325 -0.07698940273571661 -0.3344207743402868 0.09424926296558289 0.24190114774954585 0.5076385196447631 0.2669500805476054 -0.2697186727569961 -0.06828814859595467 0.4157124466844694 ]
[ -0.016228388808266377 -0.04492188930971838 0.25833264442818293 -0.05387850772573457 -0.17698208805742768 -0.015491434870218026 -0.11632326803678612 0.11685358212784633 0.26086739002966153 0.3042443860029489 -0.09800956910895396 -0.26852175232273673 -0.14840961174465747 -0.029637887050474935 -0.5307423477640946 0.3668175018508821 0.3784469765062214 -0.03199921822893595 0.21962982982913534 -0.16203817106781498 ]
[ 0.34408364885111575 0.033484157998674574 0.20400079224847448 0.37018351976866887 -0.23833059288207098 0.14246769337711873 0.054046828318817124 -0.17760387388444943 0.1068769024756724 -0.12699575865014198 0.24981227321051494 0.023033959761694766 -0.39903085244287906 -0.28368198545464185 0.23922242873241947 0.21557818632996806 0.07811377156207076 -0.052722725481022456 -0.16736555293818653 -0.27548203375563574 ]
[ -0.17820563114909913 0.017831697334569224 0.22838198847356023 -0.02585626450114716 0.3596054750999041 0.285234972956187 -0.013477100681515199 0.10226152022836311 -0.002877517775850198 -0.2755012608173766 -0.31603976823269414 0.0857987835270449 0.41341107940218497 -0.10871032468672355 -0.16503523604853837 -0.46298909966929946 -0.25409050790202237 0.218206916031231 -0.060695180405002824 -0.3312628414271266 ]
[ -0.04341749236928997 0.1552142600053841 -0.17777129458652152 -0.2065968618811453 0.0010653007904071533 -0.3306623897747805 0.15327698676160034 0.20498459441200226 0.13486753426327833 0.12507759181251873 0.3305664293653043 0.19571098760845748 0.09104171782711325 0.038176403008876834 0.5582940219654902 0.13610183741039156 -0.04961524087721902 -0.050598953318261246 -0.021417831232338286 0.35508126131349604 ]
[ -0.21872721841840967 0.2440253863054023 -0.07728409683006586 -0.18923555816859744 -0.09039045610124007 0.24586752452774316 -0.17169220577101937 -0.28149365918757474 0.176466890308538 -0.256539713205131 -0.20420166443282406 -0.4757954051219419 0.11147814995574062 0.067462002362403 0.6256852156664761 0.2403682769051081 -0.12014931192250608 0.16455066704345872 -0.3093881453991598 0.41943480740303674 ]
[ -0.16514218914195128 -0.33562438387405075 -0.3087508484647021 -0.24549708459227046 0.26177625498438895 0.13357775492516152 0.09445653270918292 0.050999014517738896 0.2643149076370212 -0.2737700423233218 -0.08196185552030175 0.03259570977930833 0.01373812647515987 -0.2947161322135026 0.2216958684003366 0.0455221507301354 -0.03655183154100003 -0.25775014865807383 0.15488144995994824 0.08678310230678786 ]
[ -0.2350405133463861 -0.28420002026844493 0.20590520776193497 0.19044287835504875 -0.26536200125324794 -0.20479921022230946 0.11632483416945391 0.27648947623181214 0.047046660903642436 -0.2062623799513895 -0.2449526265117915 -0.3593115026420195 0.09130613923145277 -0.45199472865041274 -0.054589951779547646 -0.1971202375911831 -0.21732238892430797 0.03343157982455295 -0.2180880200963619 0.12234495296194713 ]
[ -0.3108817658239282 0.17445447516696141 0.22046360003141086 0.09838042833720335 0.19934913085674624 -0.018729552904300555 -0.19189454732611405 0.24046308803811806 0.11841526748175246 0.2001589460854478 -0.22216828942899974 0.4152207018036693 0.24597229588270816 0.14111330208291367 -0.0359935887580239 0.012397697206698153 0.21184043211987874 0.32878457823188345 0.23345527851562622 -0.10991398946012172 ]
[ -0.4411025053447165 -0.43434109842955804 -0.011082946967781813 -0.4163256603348655 -0.46510881464700415 -0.1151233392591668 0.01104977699881068 -0.30222270991743694 -0.008637798359946089 -0.2311050968701568 0.06728006991283078 -0.433313804552447 0.2950886472471166 -0.3343546542045765 -0.42429331473555576 0.09368710699365958 0.14595944395770005 0.26637244803399235 -0.10064753182061008 0.14072003271005126 ]
[ 0.15642763573275156 -0.14765244666071056 0.18445974668910872 0.12007327976438424 0.021279833461687336 0.29785972590715676 -0.07910208219193011 -0.225931087241617 0.08697124506774095 -0.41751569945234474 0.2971780480733203 0.1353849346233788 0.07291372636571772 0.16632014854536947 -0.12655589237688042 0.15119102685325275 -0.2235224617632517 -0.06505246875081959 0.10796129757004932 0.1208134241234343 ]
[ 0.05040896844426068 0.10564419317401084 -0.07631234485319448 0.3361499691624951 -0.037244242777657116 0.14761736236016565 -0.058333323441305256 0.16350070060012176 -0.04738135385102993 -0.3075997506812445 -0.20371440408140395 0.3112848985717713 -0.015376798056084719 0.18073904575772518 0.09311651400461006 0.2651726491355667 -0.013996558069407751 0.0952385819649062 -0.15154210041129693 0.017759380370068505 ]
[ 0.028045142250487858 0.26208444155858507 0.08553096271615632 -0.3697516519001875 0.22698991105729735 0.14993034799898566 0.2104842442553249 -0.12811490599469186 -0.011126810883235541 0.44937242137514066 -0.09319070077169278 0.10971711022594384 0.07101461302502496 0.02472181334722459 -0.41259570465530393 -0.11347563707611588 0.25718028397598164 0.21970467339679806 0.13335746917851507 -0.17974736062810948 ]
[ -0.1696941781170701 -0.2957124999178156 0.3175127868295942 -0.010144586025435099 -0.25791616589535926 -0.18721109703028485 -0.09643702269520704 0.06208235843039247 -0.12372025606631354 -0.11290375759142357 -0.0960908908390323 0.1736665067443904 0.2212802214383458 -0.17708752012390527 -0.3226652676339299 0.02082658429674285 0.3711864845324177 0.19730996659938543 0.301354962152353 -0.38761484896838055 ]
[ -0.17803581423576556 0.1552824984521588 0.04906356604860976 -0.06923265046015492 0.4500113523348405 -0.18075435741460802 0.06766725613729115 0.33587949329408434 -0.19402816703856296 -0.06845541190092061 0.1860529622027594 -0.0042461763244091635 -0.07348664554741419 0.08241076485779218 0.02425419890220619 0.10542284842125897 0.2194772630636423 0.11395014055521208 0.05795825788820773 0.3425239913126749 ]
[ -0.24365363954041483 0.22269799732276138 -0.07347115966597936 -0.13210965069100858 0.4343112315642892 0.22470937020869527 -0.08053301260045417 -0.23916485519738834 -0.14503274946475425 0.4405397618789327 -0.20339757959846036 0.19726546805506587 -0.2097044821703092 0.3478037709882399 -0.06493940356482461 0.11511356346829237 0.32745082139545756 0.024097784699320043 0.4302583882306744 -0.28965707668065277 ]
[ 0.01597763883259382 -0.1741055940185248 -0.13719902482356594 0.1237102922185468 -0.17971383848122055 0.16685848563522718 -0.27457505678531696 -0.19435910394794326 -0.03923203310922144 -0.16222913314641338 0.029825502158132445 -0.0434995661233622 -0.14520915163179604 0.32191160738141095 0.11128936716655373 0.3387398692151977 0.274063037138234 -0.042370511295075484 -0.06905040029831727 -0.04554113489407876 ]
[ -0.5471025917426922 -0.390905664629422 0.18146538176485436 0.04198000064666535 -0.1271677860117153 0.025679684868111632 -0.25264883900074275 0.06299245838887911 0.24295006913878295 -0.06770184826498289 -0.25512096955374414 -0.10313932360427629 -0.10315888169712621 0.06461452131367978 0.23561936200435885 0.05620661191625254 -0.19811258325758066 -0.1635280857015973 -0.30462308726324167 0.3289552671222478 ]
[ -0.07593209927838017 0.027350808700186767 -0.040281788995778445 -0.3532963298817826 -0.17916742256525783 -0.26343692498771343 -0.14160310232212225 -0.2109524516091947 -0.11031713976040983 0.005713380972066 0.18382498683526394 -0.28054164448373403 0.3140074510893012 -0.004990458948020299 -0.1563427658111369 -0.18183549241198013 0.2449297325644233 -0.2500941934317943 -0.13029783949958795 0.2947307383591794 ]
[ -0.40792494866886714 -0.024181714072878013 -0.12486843326610944 -0.12434857123217269 0.10998244794250597 -0.09547005483656675 0.10811511919014306 -0.2875954139293463 -0.2087174696979105 0.17311563815425798 0.2398438904839925 -0.254614655291254 -0.18442281145019593 -0.3162587482352801 -0.05124670490307356 0.18384518572346994 0.1998058480951796 -0.26379676199881186 0.2664460200133543 0.21394404538334558 ]
[ -0.3737767908017388 0.03789782867639194 0.07526599478295111 0.1457820647860507 0.15052611071346297 -0.028569664631374184 0.009111966756234388 -0.16406706602088428 0.2203922029858635 0.1716577527392694 0.13236961488017215 0.1803847053644831 -0.14912349212597317 -0.2859414407632181 0.2603811749444477 0.3999905520694885 0.41924446746632477 0.104570216250147 0.20187126460047589 0.14014295311679514 ]
[ 0.2599784744173759 0.21104191748324924 0.24322318584243613 -0.3271251996668001 -0.12194288580615985 0.2754030705571612 -0.18472330376464044 0.21452752451205218 0.22747227169685266 0.12613589259554694 0.3221740592662072 0.1869452250499073 0.010632510954790798 0.1574550649778014 0.33083693958853305 0.2678583402825396 0.21628114923335984 -0.08501152511040902 -0.0004270654866663831 0.10541729839933273 ]
[ -0.2814427003059302 0.23155535080601977 0.03212112653350993 -0.48517598837809084 0.0630018781561007 -0.08038603024366615 0.2275640462058651 -0.20630695774018798 -0.06735290413251237 0.05421460790063598 -0.22805528181034798 -0.43437295166729334 -0.4325476854785487 -0.004229280037193384 0.48462207144164987 0.19755470607067738 -0.04841702953252398 -0.4410214854325919 -0.3411852728289737 0.35067186057101335 ]
[ 0.24140288736699025 0.3155063525917537 0.3673486527373311 0.21748929117502191 0.03341107261963661 -0.30238403188644314 -0.07476549570430309 -0.17317251682121926 -0.09053657887948516 0.12058274655477651 0.09320283441074043 0.11788219302103344 0.3519008485101596 0.0532833336330704 -0.45912844441097117 0.15236442120012803 0.10004929503841567 0.22877078093485131 -0.08323377443918835 -0.47065291004806953 ]
[ -0.16792060897007607 -0.14542110821770585 0.03310378089439396 -0.023697089368327564 -0.17254638822299517 0.042982574842697484 -0.07923454171833519 -0.05978543699194402 0.020972044351957812 -0.09608264413792691 -0.07646439178070201 -0.04885656051184263 0.026585683969061392 -0.06127185594824017 -0.044472422369405705 -0.05264748067800776 0.018845242404622424 -0.056270174662806725 -0.03652803200862139 0.06299919311063262 ]
layer 5 Activation
tanh
layer 6 Dense
20 1
[ 0.2595856993999814 ]
[ -0.357478707677572 ]
[ 0.015017569031777372 ]
[ -0.14645445470491283 ]
[ 0.08716200466443023 ]
[ -0.018627323763157604 ]
[ -0.021397346633033623 ]
[ -0.004263974555082702 ]
[ 0.002455134609867778 ]
[ 0.3316876043099319 ]
[ 0.04104724935409915 ]
[ -0.3718402983180137 ]
[ 0.008339777122446776 ]
[ -0.17785108340683278 ]
[ 0.09187183878994172 ]
[ -0.30983982804329374 ]
[ 0.3177944097781366 ]
[ 0.2212997454304476 ]
[ 0.3022657921416906 ]
[ -0.16495917089646564 ]
[ 0.1097275797057477 ]
