layers 7
layer 0 Dense
20 20
[ -0.07006935231589505 -0.004641818272020725 -0.00672051840299465 -0.5718428050266822 -0.2037887174800024 0.23590505968697767 0.16592541664432287 0.19886722228590148 0.1555810141718812 0.08084109557783062 0.589248459186327 0.3048773325015432 0.40911503675965455 -0.12433985352612394 0.23323687053674763 -0.5945814511473808 -0.3346691479240404 0.4689352992636035 0.19397103707808883 -0.19172474748682586 ]
[ 0.20264179126893386 -0.3706027458046264 -0.11197936529299665 0.25181016281657514 -0.2945091979530058 -0.036462404721149436 0.19913334171147237 -0.09932424187866248 0.3566306587058887 -0.11000484477535119 -0.21758656329820958 -0.022273806343282673 -0.034947293740948245 -0.04471973851731268 0.32600780123809847 0.0884864953120803 0.15380806580811077 -0.1456633287928461 0.10723505981764334 0.3303345915745458 ]
[ 0.3566617989716894 -0.07643715951768337 -0.1967284043847361 0.07418120526726732 0.3476935969517209 0.0665773256036432 0.014442676548904751 -0.34114337836555303 -0.12611352111586238 0.36890878880628636 -0.24763008498637495 -0.007002377123792625 0.02224536887908299 -0.1382884381245898 0.12193989781131129 -0.07672376779024402 0.1315814839692121 0.10693260084757658 0.18713934703669163 -0.2363832846497477 ]
[ 0.27700533536637834 0.1551559324829948 0.014790819209567098 0.14665762033910526 -0.2615037985016632 0.13056161185414641 0.1257245595724277 0.1991892629263181 -0.2311138575361889 0.13890315652090904 0.05309415480722474 0.1368421958205483 0.2607296524688988 -0.3848294573177588 -0.2652758371486068 0.091189870631225 -0.2637530417955684 0.5899565112264324 0.012257523824465311 -0.31881309268452784 ]
[ -0.23496761406192454 -1.134283375000305 -0.7361034114224518 -0.3158505906875314 -1.033043238708334 0.4154313883801289 -0.047274768066938345 0.491114580678495 0.19471916527109764 0.3067478656652533 1.4760639609113229 -0.519237754711969 0.29070580923845074 0.23963170207524628 0.5261375230491121 0.2629643548057181 -0.43626900775815486 -0.3978430408220535 0.026679951203399048 -0.006647804455397104 ]
[ -0.14243498939344967 -0.05790006275199955 -0.36351854263645844 -0.2974977100243581 -0.32072033136795197 -0.2885222706407509 -0.05670806429343613 -0.34931863759021015 0.3661161011453792 0.34944189121088304 -0.335207365589971 0.3264821262017398 -0.3035929912835464 -0.21582600220161388 0.25306784582362396 0.1373662893597046 0.1636006424576036 -0.3405097992020774 0.22959349430200882 -0.32158269834330044 ]
[ 0.10760071586077212 0.3294944668732262 0.3567319218572803 -0.04446212328754209 0.3690605807898824 -0.34307960422289535 -0.09324105964126957 -0.12058011585735516 0.16775485588312883 -0.04853599844797488 0.37188197135669204 0.2089825846497153 0.23610867836617988 0.06782715217426766 0.2058896945651088 0.017927994500004672 -0.2417431983486769 0.041305930253404594 0.16534692736409104 0.3815737844397722 ]
[ -0.2546845120298957 0.5690184021826906 0.29293141235707915 -0.23672323153769217 0.03697237250619409 -0.21665853026547693 0.1737710134788228 -0.013576719417895382 -0.4722112052629484 0.008244780350512987 -0.15771617286865916 -0.034836543573753494 -0.024678251990122066 0.07553043227495015 0.3921341312835957 -0.20539262315921306 0.7392013380313718 0.09438892580002052 0.09011872763870933 -0.018137911657018713 ]
[ -0.46062920258551887 0.33391351204108577 -0.12374240914018018 -0.1835404671925731 -0.8495132029861123 0.09872048179541304 -0.017069149273178232 -0.30866096493531553 0.7985299667917753 -0.1326961894775533 0.45404865977376224 -0.27910423542303303 0.11517357861139076 0.21101012175058387 0.14034250283924432 -0.36831091907693947 0.3609515837073656 -0.35315149806061497 0.22955451171922103 0.3419201296501622 ]
[ 0.1828518380712457 0.24946148691365 -0.20869847843687353 -1.1274658916588685 -0.2613485360405143 0.13145689164516222 -0.5271427999000201 -0.49590493218935944 -0.3610651974158985 0.6199066183157879 -0.4153058672017629 -0.8902836304929521 0.23388763706972693 -0.27700063688854537 0.7177600296981383 -0.5120911470993306 -0.3418235959777826 -0.8127583536618462 -0.1481254217286069 -1.038890251541326 ]
[ 1.1677590670662585 -0.43874955113580816 0.7938510169955613 -0.3577989636195199 0.12590097058436778 0.025581085952405838 0.14093958419571345 0.6638820160066868 -0.257880896137682 0.1969608378814109 -0.43580505825363625 -0.660109934652731 1.2006043390458967 1.0824709149633565 0.41745953459845797 0.025611816722531933 -0.20322410232356775 0.5506875366290744 0.6310947548146145 0.08542559019338986 ]
[ 0.9176145094529888 -1.619812904356369 -0.9185319201361626 0.3569630303953475 0.5031077233983487 -0.2371420236091249 0.5567925644610606 -1.049560000279328 0.5296806700238236 -0.6172556845680282 -0.339203262257672 -0.6635207816907728 -0.6310606535739962 0.3945334926089213 -0.40621297986562516 -0.2777077236918212 0.3182974464235987 -0.39817276208759483 -0.11511311232667847 0.0018741492177400685 ]
[ -0.20126948545979892 -0.035930356889350035 -0.48337932989253846 -0.25733302397656366 -0.16850339036175782 -0.0419445189972765 -0.1252508398097705 0.3857014844313637 0.050068903041901626 0.09125367304849162 0.8304959834987659 0.22678622428797476 0.3197790138187722 0.7667413030480384 0.5204412201778672 0.19026975732709087 0.104551932870831 -0.48872954498400284 0.23844770065417314 0.4487569916618361 ]
[ -0.21020586332972352 -0.18918947433366157 0.08572749780732127 0.8012429726752808 0.5016105396379614 0.04284023609657531 0.13876070968822962 -0.008380484261027223 -0.23001909452904662 -0.7873832580098659 0.41509558118211953 0.14098843164663727 -0.11803245217717022 0.10593353582301039 -0.7507224841538649 0.5932875861920002 -0.291913307338527 0.4144086791145811 -0.13366365664806343 0.8641512900863099 ]
[ -0.5671189925284247 0.004338224122942125 -0.5936124321673366 -0.6948880387752943 0.49880605630331587 -0.503238949245285 -0.15432753297689725 -0.5859922731366402 0.2228575689543422 -0.15658539430480484 0.4544723530479644 0.10589269985735553 -0.29045701762248277 -1.0172380299743375 -0.36098847388916744 0.6353958730024144 -0.10052229293272476 -1.0476534675067977 -0.9683898932339239 0.5287629694857727 ]
[ -0.5055415449030481 -0.7759786894806253 -0.6722183975935572 0.23732419139897465 0.20054612980300388 1.1495172999118748 0.3163381523616373 -1.3970089919156243 0.838554079564223 -0.49539524002884455 -1.2458403078977 -0.39515512195274094 -0.3445378181095661 -0.7113212990678976 0.5329540830710839 0.9080719327790095 0.5035472266892833 0.4415169910592039 -0.3097842527853113 0.03550960615250647 ]
[ 0.5482874710980129 -0.6540634232716953 -0.5549617510186166 -0.07250430178818881 0.1496087401842848 0.49692035897694553 -0.3760297428124597 -0.35752241549085273 -0.9432803737839685 0.14447571656043745 0.6136516100545192 0.4077399132325862 -0.3602612146534322 -0.35223859271502456 -0.6203928385305569 0.0774537616554941 0.7538300306897456 0.6980292569186443 -0.07920756393848019 -0.5529797582469062 ]
[ -0.1155642048582738 0.09280562561585592 0.007222908586877033 0.24912955783238766 -0.11084645073678898 -0.2320771747224766 0.02267214376255016 0.27166855705599185 -0.21441574665287078 0.08671090189498819 -0.06194088984664481 -0.16494199074628907 -0.40403941170135405 -0.06593529963126922 0.13820147045046352 -0.2026546213270692 0.49447471487726513 -0.23163264565570335 -0.23835209986333464 -0.0883811191379579 ]
[ -0.11544583466337716 -0.12551030375589328 0.016363477465699296 0.8332272530889454 -0.10072707285146623 0.5143547354118225 -0.05808408066226566 0.11959740249753935 0.12093334975121107 0.5004993037575644 -0.01212565153411227 0.22534958950088585 -0.5566938029435801 0.12373315380851815 0.20929376587900853 -0.2949084686208128 -0.07118015628143824 0.019223274127327734 0.8124011490989326 0.14087590078190254 ]
[ -0.006642735646558385 1.2635347736034803 0.6161415707647553 -0.226928621146528 -0.17724990949298902 -0.8367564441497756 -0.3613021122064161 0.6144887374295769 -0.46639065027269605 -0.4092399922839906 0.2339934575754207 1.0067233092547587 0.13883572890373364 -0.18034142736521308 0.020190319400309586 -0.7502731354293194 -0.08181139895257955 -0.1905647442550662 0.07291054008101203 0.4754905559750761 ]
[ 0.07960683695159872 -0.00020952007068725573 0.09506865976393074 0.011953844610485646 0.172221115201925 0.01479661768571442 0.11697341324497654 0.09848363845200629 0.090558282538533 -0.017409872265548906 0.1141074064246663 -0.024066993428668953 0.1203254068728041 -0.07254070308493243 -0.04441554935828403 0.12516689510967569 -0.3936183991870084 0.309560858921141 -0.1006316912707061 -0.22537486617132857 ]
layer 1 Activation
tanh
layer 2 Dense
20 40
[ 0.4299338939099296 -0.3255643702045745 0.3069644157300871 -0.2599945983809463 -0.02233579713969843 -0.3437670584143461 -0.06743793054598105 0.15285809109656762 0.12215950399059178 -0.16574595158232633 -0.014683421979795084 0.020430619614368803 -0.1629714677570595 -0.1600645136846345 0.2731517916007116 -0.15209822614369137 -0.3041891790232256 -0.09771490443945108 -0.030691823851829572 -0.6018926907914534 -0.17953117095754584 -0.6147825347570642 -0.031583889657652506 0.34490336854963144 -0.2513748792031104 0.06644796534624148 0.2744922146548328 0.2025030668086079 -0.4165283604364241 -0.47044509862846173 -0.13378808403755338 0.057492754375425774 -0.6092711475706638 -0.06398952587983803 -0.1901554986352743 0.43772692987556017 0.09361267829761004 0.0982635895381535 0.2753286636212261 -0.1889861328486287 ]
[ 0.07362121751384294 -0.11424179478572306 0.1570248476892122 -0.4123182534708441 -0.17153704100178818 0.672417196543705 -0.4770685906350759 -0.33785085022895145 0.05657823652693135 0.12557424147467844 0.20915413135033273 -0.4602779595779825 0.16446549190649737 -0.08882314221205746 -0.4161404854385519 0.11833541064030698 -0.42237907046078804 -0.1609563794922699 -0.2861197326491197 -0.018937237929374233 0.04795904226218993 0.8044316292426178 -0.04035060971506957 0.3948361793124031 0.5238364839950516 0.0551584623853658 -0.34912232052320863 0.210886782635916 0.001460872841799945 0.0988873289724538 -0.026659809865020118 -0.27725833955834966 0.11854313324215507 -0.5198278576489892 0.18879521163491395 -0.20899079505198517 -0.31511796504703754 0.13808518834935948 0.4378226758860437 0.46002125336482386 ]
[ 0.2573170635219807 0.15242211544546191 0.5859858288800144 -0.5977216330373626 -0.062379440129730124 0.2132028295587541 -0.24483275670702256 -0.16260231588740742 0.08770658347382593 0.05588373805631838 0.05281069861204486 0.10685138626496998 -0.8086676611029411 0.16890166649582813 -0.11731171706317053 -0.31767868577532593 -0.092816855632765 -0.02910748984025288 -0.08723144238513125 -0.18175085563216367 -0.1870586823761334 -0.2826619682274694 0.3335354501249525 0.11792996177865749 -0.058090004520778074 -0.0979082534965461 0.03156438152766502 0.3767639457558878 0.03221098947802243 -0.23088879988866065 -0.0053349410507784155 -0.798111805960422 -0.0026867057832838017 -0.10432605771053546 0.31747196142971096 -0.26524319087836484 0.19021232963495055 0.035436881196703844 0.09583075290904151 0.37634542610023997 ]
[ -0.25032000451853764 0.21695130881256466 0.15866187388121802 -0.1815879437750999 -0.028078435603287537 0.18368614922830137 0.4531903128693994 0.11683462228018027 -0.2887066066445328 0.0553556947449059 0.056826026392951215 0.4131313625097687 0.6463882010908131 0.22490752284902804 0.2150498373560606 -0.006557436125885739 0.1507929432735442 0.4651086784204047 0.26615713664879315 -0.02158262313330995 0.14840235316917536 -0.6006219251942033 -0.12553094113362714 -0.5098290218318565 0.35324766176994193 0.20241848531469284 -0.06380671847119737 0.11584797605737625 -0.19428125661741608 0.09177503568070498 -0.004652414798537223 0.4323216451198146 0.10335746904847525 0.2809557571815264 -0.16462022049442568 0.2019129266033976 0.22573183151323664 -0.3081773666268788 -0.162284153115925 -0.16163707787256087 ]
[ 0.19287185536295068 0.3752061748168348 -0.0133692944306235 -0.07479511736429917 0.17464767481657828 -0.3106761287615716 -0.09095146687039612 -0.08598885359487982 0.0005697060941499627 -0.24579116018143368 -0.00012353883375477602 0.641468512038607 -0.22075889937693027 -0.0432858210282467 0.20261854598316448 0.09201307345729448 -0.008276845735590758 -0.05682014489364804 -0.3005463341751189 -0.07404320830183064 -0.1490303778947363 -0.19163444316950598 0.0628672207621658 -0.46288319528609323 -0.18098839861249696 0.20938947795472254 -0.01833480533827773 -0.14621351937710814 0.07141405222061402 0.2807723546487989 -7.196269734536208e-05 0.07616685152198956 0.1053172499254038 0.009558702885236697 -0.12904954481044437 0.24630075912374005 0.07131358582303128 0.28079518791460367 -0.6979207533414832 0.4087046869304989 ]
[ -0.07295747207726903 -0.1547635938200857 0.05364308877575917 -0.06082046636719579 0.011083675420885739 0.28516574290340213 0.31645216347975014 0.11777456943783124 0.025277223718704143 -0.307456402873479 -0.07484744305457273 -0.0734592958909174 0.05460212131705057 -0.2826332063403592 0.06650888107629642 -0.12655951459073272 0.2128929246392937 0.01623512562030788 -0.10003776665656679 -0.29394155638095015 -0.340571385371183 -0.014224425070262675 0.13326758990244675 -0.23687975496561367 -0.0643360173270746 0.14403454188940912 0.19727046106993862 0.04877958229370733 -0.030548092596272194 -0.02343220445891466 -0.1771680962071674 0.30224899365056185 0.06177972564660435 0.36756033726593257 0.13474933504137612 -0.177370898402531 -0.10968058088906621 -0.09479848871393401 -0.14539026627982232 -0.4088515296218623 ]
[ -0.03686693138234109 0.23693637111870527 0.2639165678085692 -0.3176240066252573 -0.27807557427613083 0.1469666213509082 0.3965120085229863 0.012995455027408453 -0.28976781973069793 -0.16266996003579937 -0.039946943999246524 0.06247164067401455 0.06706325940342213 -0.22549017331876314 0.27696780454756526 -0.541484147069109 -0.302214399970236 0.004362978168932357 -0.09776315636219035 -0.14295483581100615 -0.08068989675050418 0.08787276083207435 -0.22760631070677254 -0.31735598650658997 0.25362608782806334 -0.36328835779228286 -0.01695864560073466 0.12497796621066866 -0.13851935015485883 0.3787448333560883 -0.1094244552173099 -0.2660732799019454 0.11595044729366721 0.03774987419941427 0.20010501426542515 -0.11004000398323714 0.16229321044589168 -0.17025880688532433 -0.15224996994461773 0.04766674915348398 ]
[ 0.16302156366398812 -0.008657182629305064 0.2199371167114815 -0.4186116006642708 -0.03879893246516178 0.28787759146104824 -0.3976136952513847 -0.48605346973488955 0.06795241191516671 0.10437044540632691 0.436562075639785 -0.3336994098858038 -0.38691491839519354 0.3599455000202337 0.11677734220208764 -0.5106556162257122 -0.13396955337413385 -0.03436008541786271 -0.41928594628166294 -0.33272932627739144 0.09195488749574143 -0.46150069931343674 0.03572700925897327 0.3198440012185155 -0.16654153900601334 -0.10154808885074389 -0.3951551689486009 0.3135349743012025 -0.11564145619788914 -0.32640902092158547 -0.10739992622840666 -0.6368273345818167 -0.10583428683938785 -0.09082541296066933 0.33384755776378977 -0.16806060567821215 -0.1776519956840425 -0.11711813467475618 0.5032026711746298 0.5489353276589459 ]
[ -0.2004626945066865 -0.36206423703379953 -0.6814039054891202 -0.5033764929676627 -0.03560181977336481 -0.1943551193333911 0.28500866389813506 -0.10561429024279748 -0.4937495402923554 -0.03389355262125474 -0.44816107236383507 -0.3508122311393917 0.6785115723497225 0.11606384995329115 -0.34329228945416085 0.496421461039212 -0.549606053066335 0.09740580342106564 0.2625364415680453 -0.04466549981318556 -0.06046946574651564 0.25938302105529093 -0.03413834522244899 -0.17847358960345383 -0.111484324335655 -0.2856065408770821 -0.4751270740564028 0.116522226076955 -0.6989657984095116 0.02904413462103967 0.07064982372327905 0.30342703709722546 0.48677417973951165 -0.07332490036042559 0.03539525688832846 0.13169680565065792 -0.5195980973743421 -0.08752236955569759 -0.0013096972361752036 -0.29799201560293753 ]
[ -0.022415661945243363 -0.3053048965233146 -0.02171313225284298 -0.21495000801587918 0.36568741620857353 -0.10471252836949706 0.030657337509736655 -0.1723936127591794 -0.06763700388055359 0.15065249143946727 -0.2639039908879571 -0.2055346733692613 -0.033338343942746124 0.10773865548671341 -0.1965090011571011 -0.04291054746344834 -0.4535150720571114 0.3457415137482503 0.010671352899677548 0.017733931850293344 0.12147897001884711 0.08340842099378941 -0.19547921221071388 0.10640087952382048 -0.2894995115005809 0.28079560836437545 -0.1488902942851973 -0.16721220718461338 0.12472850141020664 -0.48881356991551994 -0.2594437994891696 0.2136595660116984 0.016641939614802658 0.16570222082223596 0.19455470745627973 -0.370985439554605 -0.2817683263324727 0.2025300240893846 0.4443825208130602 -0.5702911144235193 ]
[ -0.18623552212754507 -0.21372677234702564 -0.5937935069343225 0.03174171028054912 -0.265264787371538 0.2654332687817053 0.5911260008903789 -0.11909463972718128 -0.1582840195807655 0.013507610677683584 0.5237579703970877 -0.017815875845295835 0.1594363341403923 0.30870097126217527 -0.5689212473512635 0.6405771694955669 0.29585848596281544 0.34549541113060755 0.1673721601760379 0.4093944156927782 0.3033898160756878 0.4760990537054049 -0.2693489328630065 0.7136112860608965 -0.1466196690614872 0.25565690304334326 -0.44765240656029237 0.2728193261941412 0.3778393209988549 0.639394389077145 0.04476031327180002 0.35124599410907187 0.1351508273737766 -0.08518831081843492 0.3822412098295764 -0.07633105181027883 -0.4161129472926394 -0.35555232474105863 -0.1982979841672621 0.14913770720842054 ]
[ -0.12950336924901432 0.31383564340440684 -0.4291786387812101 0.63457056351435 -0.5229744502934334 0.642883260280221 0.11289254853658157 0.1414224341556891 -0.051552733381418116 0.3899780891732528 0.5432679633658053 0.4634474027014766 -0.2826405950707739 0.12996091951107605 -0.13571404874438758 -0.16458362606879517 0.2039918245427428 -0.12276183911618667 0.24794534569266702 0.36925346982835283 -0.24576839149624066 -0.4182158963897825 0.3409488846970826 0.14397407621039154 -0.20957556056047258 -0.21112882306885622 -0.03789710292186563 -0.14519229815614984 -0.017776309522945885 0.3803181165144119 0.1462050159777226 -0.006305841691445357 0.34239814087488823 -0.49669817467987054 0.014973106542736066 -0.2957045528315232 0.4914801137692318 -0.2100418707386192 0.011786426810933077 0.4221921616075711 ]
[ 0.1989433020552676 -0.14134549261119003 -0.12969964269663423 -0.4499256949262693 -0.15636843399863612 -0.08357968155816695 -0.5743780387495901 0.02230823041060624 0.05828877468623224 0.23943677159664872 0.08684893060402409 -0.3992681660180231 -0.7129205755435327 0.36119024857158777 -0.0681416815344599 -0.4078840703964189 -0.11265460312259229 0.07921946441011518 0.12683761811827965 -0.19430775386927315 -0.12058603892495393 0.16025866124076898 -0.1064984532219256 0.31687668490008997 -0.1951336011238003 0.15175337818364926 -0.10754214367565068 0.2650917326543737 -0.12597190755184678 -0.07257602688729078 -0.08647749207405006 -1.0006936327821792 -0.13557549143680594 -0.28167843758710276 0.036470527095131725 0.034743823391894475 0.03638285067322689 -0.007931417503545247 -0.21116156925340615 0.1924112235564412 ]
[ 0.26247793259969454 -0.08575819213942859 0.006234271951191982 -0.4378249233075168 0.060206858320575075 0.2827103458560693 -0.01602648167336349 -0.20264220281649886 -0.13881893490986646 0.12604648630264567 0.1949928235203009 -0.4340408856796187 -0.002423788458499788 0.14569275610215493 0.1868586872899343 0.12738507986945075 -0.4266868314843701 0.22265949081841838 0.15112722552540317 -0.21261007943421303 0.29329972773424756 -0.303300301567484 0.09633557236932984 -0.15131422004531878 0.4164978218453839 0.44406824496646513 -0.18429086080439902 0.5463740956059262 0.583289690285631 -0.3977730713035588 -0.46405504069152065 -0.32124633951601683 -0.09809942084302038 0.5943988005364359 -0.016993735275277998 -0.14117082205365833 -0.36690067711453317 -0.2506848175017714 -0.1293096210983985 -0.01919023608261307 ]
[ -0.09054912439023734 -0.2625854182937165 -0.014338275960954936 -0.5533916093150618 0.39266660261946706 0.13976455947451877 -0.27929369438378293 0.4125294608697333 -0.33932849502847445 -0.2598984051879444 -0.5335427589633062 -0.19540491539687405 0.34666778314296487 -0.4773769896808341 0.18526760418884142 -0.1029305922644988 0.07336461089232131 0.1972272251493418 0.2736325857998819 -0.251725932001418 -0.23304238191367674 0.7796828187936323 0.04045186195726564 -0.12432872868644856 0.22767738983042027 -0.29199143721118154 -0.08839250589028394 0.41725952111052267 0.7046733620318315 -0.2580700105224043 -0.03967172299509053 -0.7387982396668582 -0.19711370360756106 0.06840585774771808 -0.25909919236551443 0.11033232998052495 -0.026538337497934137 0.17725709407197632 0.18915765261374018 -0.31551902580381447 ]
[ 0.21926073881453292 -0.25392573854963313 0.24857338244699848 0.3184088564780986 0.3316060925600509 -0.4355424218739799 0.15975847851048425 0.042574043754063 -0.26834808049104236 -0.03281717998637161 0.12374616341111491 0.4008443743441514 0.3715691044974625 0.10681298209254761 0.062467002918170894 -0.10964836306810656 0.23174596971104036 0.1998254246207641 0.09899834089625285 -0.3672451065486383 -0.06423925556042556 -0.15414215843208665 0.027524521206849336 -0.07610845339365555 0.38352843526082714 0.19066089371251113 -0.16238535211563468 -0.45049739053847193 -0.36780817530683285 0.20136191802677242 -0.02682047333928197 0.5002524632483871 0.08039824044415571 0.3167330035702112 0.04892671419997588 -0.24186661874057758 -0.1276157016913698 -0.14272870015456846 -0.29080355918471223 -0.3004523694853058 ]
[ 0.1563001746168741 0.19999877124659537 0.38479774395814004 0.4151554892730498 -0.2650436547665881 -0.5364557208379275 0.10039138583298877 0.03820197688481296 0.35184462205171624 -0.5221494636098392 -0.44878015963345846 0.5074622876215512 -0.11626250503921882 -0.22996642627033823 -0.11556233433498353 0.07418725462326602 0.44410631273722495 -0.18750551774735727 0.27746748644370817 -0.02150019435760601 -0.353760321182881 -0.18995166105860337 -0.08434841495157154 -0.18377792857318528 -0.18707695882814476 -0.07685115497914902 0.6836460538880611 0.02646997825073707 0.6771766676447514 -0.040120942676141136 0.1745117061407181 0.013895812997923368 -0.04545722341422422 0.35100757361318535 -0.3144697929091469 0.243444482702718 0.2728853802151587 -0.0057850779633625195 0.4688793305720692 -0.1247011936983078 ]
[ -0.17852214716866907 0.11191535795495562 0.3801960352352006 0.41360943315035764 -0.4186176658296722 0.5019610396597611 0.3327588435902393 0.07859705519801435 0.2271400905762934 -0.22297079604283818 0.31995209969221927 0.7674772484210812 -0.22297100794039215 -0.29994781255384184 -0.09772139056227114 -0.548757749289505 0.00917437477987288 0.0002030603439288083 0.1366163053289283 -0.26697177288484664 0.23082463237232184 -1.0210897385906972 -0.05012930219445239 0.05978619679828333 -0.056710234844347465 -0.2714088153604806 0.048041199022273176 0.009764597014835197 -0.3881419301582236 -0.21544901891189513 -0.20884111181394457 0.25328201519170207 -0.330920212491607 -0.2885769977637437 -0.19098670025343426 -0.33014755979330374 0.3328391231692872 -0.24319410636676866 -0.08125056522215887 0.5061673750008963 ]
[ 0.10732382293782454 0.08975096714006832 0.042979251842716296 -0.47947836926658327 0.14883391973877175 0.6130188977011615 -0.14408979214042367 -0.1431642620386668 0.013680877926278956 -0.06937552084674176 -0.1880573108274495 0.010846446974729113 -0.38207342226479746 0.25590741661554217 0.03277184515112564 -0.025670784460038815 -0.19046790073733577 0.14096771794938534 0.1804404444567148 -0.16646622312421896 -0.1072062169974373 -0.6655594578958862 -0.021124614843735914 0.15161827932635252 -0.21832487464186087 0.41112349388080854 -0.2755818231991124 0.5259810309127035 -0.1328678263166604 -0.2493125320432527 -0.30881242302194134 -0.32484700922979626 -0.018977668916790754 -0.26304389739122347 -0.014712278990177904 0.14310860666613648 0.06403341494006685 0.2542573503036209 -0.07213399006469619 -0.3846498241821111 ]
[ 0.1207155379217924 -0.11392568090756294 -0.30851339168501096 -0.35250890553787584 -0.1465701755638199 0.4187456768627532 -0.04172837387648398 0.32661908262622963 -0.12511359298152414 0.02093909298634242 0.42977625571366274 0.157319539935315 0.07874243394081736 0.5045705253981877 0.05137132804147104 0.27689481910566055 0.5158460352633903 0.2278054759678413 0.18036877994351952 0.40906675787505575 -0.00776667164925592 0.047441958023569916 -0.07937906750388257 -0.17346055973207994 0.7023834371194257 0.2314014240872068 -0.277122882139365 -0.008624253258376305 0.3039778305360562 0.6758587944410257 0.42656842367085623 -0.33813861004595264 0.26219466925002116 -0.21110278631139126 -0.19004312069196005 0.47220552834566826 0.21577134149418103 -0.11572800834708429 -0.7114143681596388 0.5963609298997573 ]
[ 0.07507877289836512 -0.1569759183697513 -0.08288988634953116 0.05443058079362686 -0.22034459206173182 0.10294409814949902 0.1178266652346892 -0.047921804372418296 -0.09853173920858274 0.22539324219517795 0.13442670758669417 0.055927986142178455 -0.20850639555604197 0.1775282850371797 -0.20763679550223324 -0.11835522699982581 0.10436827545595254 -0.05249631877052676 -0.040123491719441504 -0.03912322559123607 -0.0033920425445569486 -0.09229231145029454 0.08095578033291519 0.5060829255816721 -0.05613629241358451 -0.07186999150536826 -0.24438566021821484 -0.045824876624938164 -0.6086178870779294 -0.3261347188741092 0.2345545528441748 0.39908047990178797 0.007852740154513592 -0.38397321087771413 0.23293806938878175 0.041917572883215716 -0.07635555283432095 -0.058311159860084665 0.0739320747662084 -0.034307687589844094 ]
layer 3 Activation
tanh
layer 4 Dense
40 20
[ -0.0762560581519071 0.08483362152977324 0.16561654576127824 0.05146871523571949 0.24870207515475648 0.08079482155353199 -0.20325343734797116 -0.1372415225631799 -0.2114404942898622 0.07615295493208168 0.029753208544077828 -0.00808832919117077 0.12892016733278924 -0.009873543170401358 0.10578833765716551 -0.050832059572402624 0.07365853906562085 0.20585210465336556 0.05186716349473144 0.10714144343353987 ]
[ -0.3004315099586212 0.11948717635798951 0.21584386346608037 -0.03154801422435616 -0.4413547865803771 0.05127658531183039 0.047936805070185176 0.0424346354330541 -0.28677854954264237 0.18422526040545237 -0.12396823807283266 -0.16502312867637728 -0.029375177779813355 -0.06067976129668477 -0.1793659075206671 -0.024932281285209933 -0.24974288987492474 -0.23657135423555742 0.12426576005289396 -0.11653112630515107 ]
[ -0.17397651093651123 -0.15371889088282772 0.07003991638293672 -0.18730072048231053 0.26055052582638843 -0.057131507573360614 -0.08820578486921375 -0.15563668526424368 -0.5172132722300531 0.16535712299141286 0.12305720727768196 0.1309720496700753 0.2825851430550618 0.07713576229510029 -0.05470546624455745 0.30968244683182083 0.33963007613568463 0.28510135975247797 -0.06741707774083294 -0.16816484562391382 ]
[ 0.14487777498497603 0.16512478795161728 -0.22560657913358087 -0.08939841845373549 -0.17108700512237615 -0.027363375133043665 -0.024286736167566384 -0.43797895388552066 -0.23595589920572824 0.07084774440505143 0.49462497611997797 0.1516367905945998 -0.012637166999528156 0.011735381403306084 0.13312283490029345 -0.43129178214856534 -0.1391719566161442 -0.7178903275406383 0.03945007473738555 -0.09409232028140534 ]
[ 0.03807452390986446 0.1772746998496706 -0.35643873474635696 -0.04728287120290071 0.35648586714254965 0.06117259852083583 0.21693266003508374 0.07771866247997554 -0.36196402671773575 0.2025337946598427 -0.04912877188147197 -0.23750053979733404 0.019402419275736306 -0.27705676843440563 -0.1313108480332405 0.08762545102156634 0.27979002232221095 0.043058952923445894 0.0291405258698191 0.19255320697769085 ]
[ -0.4642861965524506 0.017282317943580733 0.27124850164295466 0.6459477590500684 -0.04208759668347026 -0.1868456897203966 -0.4453122091305496 0.028901798011001803 0.03601847723785412 -0.07742504237855062 -0.12135954167216527 -0.10357627807712501 -0.2571558473120156 0.020012282082724753 -0.14939337319458448 0.042933799441625786 -0.5003357424300993 0.221308934853856 0.0016831779935548277 -0.5675475046657272 ]
[ 0.4750327950791953 -0.006135732173647179 0.3575164395857735 0.021617948899943396 -0.2572826586602538 0.23757170150109272 -0.06841158538147357 -0.1785435500909073 0.101974667657874 -0.12780819526058065 -0.09020100595647852 0.018528513223258363 -0.07129390517095868 0.23726959275589818 0.19447233604112127 -0.25907409621954974 -0.3175449533167316 -0.5104257203277418 0.019408915314926736 0.32424142405659984 ]
[ -0.022619809522857352 -0.06408508971571253 -0.13859219600512443 -0.19564849647102925 -0.06145947024421952 -0.16495460586812835 -0.04311885452454958 0.009506077396842068 -0.13856731113174856 -0.1799133636537865 0.10459046816473759 0.05395885166578364 -0.14287464879593859 0.09998498694948273 -0.05173515727099582 -0.20664282295040928 -0.36909980020243616 0.19504400562044075 0.02455682716496357 0.09300246430440791 ]
[ -0.43006165216917214 -0.22980876806915276 0.08474169065355014 -0.11703406210617603 -0.16149039360612596 -0.06402231379301856 -0.030901883700952936 -0.032572963337080964 -0.26607452577858737 -0.09157430688063363 0.10310244554977172 0.07211244748182151 0.08099022893766047 0.10417950707886618 -0.06246489357510262 0.07007678358643638 0.05872473169794142 -0.1952464923768683 -0.12456009596221089 -0.12999154258034984 ]
[ 0.04125100338485557 0.29012892718498584 0.0027571715116652597 0.40226906174647664 -0.2098665989319907 -0.11141540415100033 0.20917541303667272 0.09627647212554113 -0.14089178699633678 -0.003277688372905795 0.11716399700214444 0.15302586532762816 0.006099136219935349 0.28870706361577436 -0.1194945289675783 -0.1967568335654342 -0.16084548254684106 -0.16887832836225977 -0.2181922590253622 -0.21809786987588528 ]
[ -0.09396828000323335 -0.023486937592761974 0.13610939153495819 0.1886835811595761 0.08635638179524013 -0.03272364864189952 -0.34019809959199987 -0.18478353153161273 -0.19539346225576618 -0.158884993571155 -0.1522496150825544 0.0012611273651081598 -0.024162166350267848 -0.1325696204872208 0.11475775567758098 -0.10566942095013149 -0.6669761943549606 0.011947175771283298 0.19522542456041492 0.15872331409237453 ]
[ -0.014471532854196343 -0.2367973267342711 -0.05509775315797561 -0.42093788191987197 -0.6442057425749056 0.0974215229848866 -0.01543744526665184 -0.6247118499095142 -0.3965140031003672 0.012865749229575783 -0.354501702532299 0.20706926601924033 0.15914314653629225 -0.06317983740498653 -0.0508344150801735 -0.49710804167784267 0.00321245828003411 -0.735948623660321 0.3150747434687354 -0.1167366973241711 ]
[ 0.3899128700349472 -0.14193459784608803 0.1490772478533824 -0.29481887045651484 -0.15668757339604658 -0.006954114574834006 0.12271372447396298 0.24849106917649819 0.10905834432339519 0.1003584349350446 -0.3636718688707131 -0.1371104494623297 -0.15989986915701684 -0.04608111828065259 0.19791518257954793 -0.3343780799618515 -0.09943263593965919 0.18074615622530524 0.0903776344926124 0.21121441801434007 ]
[ 0.08688685027919295 0.270121195746413 -0.028618170414967826 0.25790085580595257 -0.037739503877404136 -0.3004428806030776 -0.189726501308565 -0.26766885325992723 0.14075686422171693 -0.1923253627561363 -0.34077111547099265 -0.2472250395550781 0.10099107850729595 0.12157543770863635 -0.01304288584546967 0.21123170604619113 -0.23414868314006887 0.13293056217181048 0.07779361633907386 0.02841717960054706 ]
[ -0.30133000598314535 0.20056934630606862 0.11069300467497815 -0.29418815379979796 -0.20193598906958907 0.0763291687446929 0.17762785473759762 -0.023639115409937368 -0.40847531040198065 -0.30841657797564115 0.04466973809367964 0.2424257889277965 0.148777546320903 -0.15846168989198098 -0.07132768786298219 0.20499683181885606 -0.09466048038524175 0.40042776571007416 -0.19163437228016827 -0.17427781280072407 ]
[ 0.37837026311373917 0.13015308141790036 -0.09930263733194603 -0.1301986044152022 0.33042948052152804 -0.12448774749704979 0.34970886779322413 -0.04319598932713687 0.6401236134583487 0.045728875444206035 -0.30964705597342707 -0.25656337064341456 -0.2547578032980918 0.10161043722021433 -0.19116403360161963 -0.26829203019946896 -0.0870305941982241 -0.018589307912283016 0.07387719729534546 -0.02110442305277417 ]
[ 0.1611177735123244 -0.2043496126759564 0.10689604621878654 -0.13330129515111547 -0.40493444680266194 -0.22232455806450774 -0.2608553854634727 -0.25604552443714945 -0.38693066129642234 0.18713935147395908 -0.08464868833827549 -0.023669088501226874 -0.2526821836025456 -0.11110507336811837 0.013329517736685406 -0.48055827207948254 -0.35878463451288906 -0.054226417079842514 -0.20461354823267972 0.056513385600733705 ]
[ 0.09285261175033968 0.1965516292132292 -0.020811389317898943 0.016301246550606295 0.008531968122784554 0.09881586034942433 0.04644314615650485 -0.0697180221374196 0.3566518646744757 -0.0001549406556913733 -0.15437513000655906 0.1114892646044633 0.021342155383537904 -0.037928358475067786 0.04697791296296747 -0.31067024505950425 0.022294958008776223 0.17390060926070433 -0.11404159035752175 0.05772803397102861 ]
[ 0.25432227781475764 -0.029281818426825645 -0.06565541295817835 -0.2409681693263868 -0.08010572054161408 -0.09159653326929532 -0.49662082090931536 0.1157603745454902 0.20693896346522345 0.13465150972552 0.11469407245364754 -0.02113823744284227 -0.0024386649351197387 -0.11157302324951021 0.10066807906456302 -0.09532975333934679 -0.24231161027998502 0.07969581038952007 0.0904758025181022 0.06524514010154202 ]
[ 0.011237497063993905 0.12850726631945417 0.048875250714568046 0.05900817405280988 -0.13315711395444335 0.19139959087590352 -0.1724530557296742 0.16261452084802755 0.3806817283682919 -0.022771008254299594 -0.14900246590629176 0.10966314566043547 -0.1744850888943828 0.21008786379833136 -0.26344765948568055 -0.1830256984401898 0.31941998167379027 -0.4960547439625106 -0.1673735369029525 -0.17320552058538713 ]
[ 0.031026093723836613 -0.0007528252128374389 -0.06143593336651326 0.05516095262599583 0.42826203709762306 0.14051926202129597 -0.10998150150060079 -0.12357571991785676 0.5684260151576368 0.18223711988684888 -0.13415976713067598 -0.053801067572139254 0.07468882603197281 0.17925655330066806 -0.052490491387460175 -0.18794748061093808 -0.12125381221630077 -0.09167251743830528 0.0017367745243261291 0.16596391355034001 ]
[ -0.11017710556327738 -0.3165206347916565 -0.20079245866911064 0.45925374340277664 0.0017564167630341554 -0.0237847280996633 -0.014642790101398911 0.7324583941094672 0.31748575484568425 -0.083127776272779 -0.06657354401344327 0.08965282542483607 -0.5565946611096678 -0.3537536269261501 -0.1755768296125077 0.10870406612818866 0.402108964333372 0.4975601910762399 -0.07041866185595846 0.0586252268824356 ]
[ -0.2110633663263866 0.04744694109716079 0.13181961247166454 0.0813295953696778 0.12475581158903995 0.06414104508122638 0.10357319001192268 0.14624348967561993 -0.4216822905017301 0.23253662285393115 -0.09762828623402373 0.062186839154789446 -0.06372521387144273 0.15239180565836738 0.05903871419893159 -0.06266645941229686 -0.09967933517040356 -0.16331743029058274 0.22263244413338396 -0.09641210314415954 ]
[ 0.1860554969566451 -0.15716936376034607 -0.16672913011523 0.33849251307591344 0.004932992216272457 0.08366698850871089 -0.17760702310108895 -0.029545135287491794 -0.1242774898262917 0.24006729807825009 0.2312235617375691 0.2776869636162485 -0.07525293895324564 -0.1064740871102247 -0.07147122475461656 0.12053088855720986 -0.012949576330840562 -0.0027916437909348206 -0.18908001308360783 -0.0273318914738861 ]
[ 0.039388587617884316 -0.0013825430814702233 0.029773835030899247 -0.07721786589756127 0.14110047626399352 -0.19435347155441596 -0.10389083730346621 -0.17190110458779612 -0.10650963825650556 0.3523515328630906 -0.3482323709976567 -0.15888896145831316 -0.3302309838508106 0.1418028848231419 0.19164765872575237 -0.03302145755060598 0.09391473280251053 0.49952086876279084 -0.0847938543278688 -0.18799099515469264 ]
[ 0.0718417350611391 0.008231298964057972 -0.015294335300952488 -0.0668101420164044 0.1438589625358499 0.045931029537993696 0.07162236854526777 -0.028749165835212784 0.015035857021811228 0.141892786937321 -0.2698599998737396 -0.15016515946473025 0.08549129221538966 -0.24534974574498944 -0.05483903291220372 -0.09477799402224021 -0.26387579101469116 0.33953359380357656 -0.2588179427952616 -0.029446937977275867 ]
[ 0.047301647691548716 0.18129793563655885 -0.24493481694940833 -0.463598200885133 0.14659336349579186 -0.193937300364494 -0.0029139850805212438 -0.0007286986243869029 -0.21401337067219345 -0.13951090233787095 0.2428131601811185 0.15346971398584625 0.11888998982529939 -0.29029892740638746 0.10107726287675783 -0.06469754914458557 0.22613781406127936 -0.13518940831741422 0.060242588255046886 0.2186234779100336 ]
[ -0.10561078294002128 0.1728620255839803 0.059518562667659605 0.13011337374613716 0.08856584547919906 -0.2732751963240982 0.13636972972008 0.4451644556177668 -0.2167412541176034 0.046737711696202146 -0.12533169427975657 0.26870926889067753 0.3012777663790471 0.1380479958392651 0.1427130140840473 -0.010470601746318028 -0.16232754027968688 0.5913721241688973 0.24520763797290115 -0.42482473041710705 ]
[ 0.029380472217292845 0.12002893303718778 0.14718820373787495 -0.4188825223711775 0.2061070958734631 0.17976856655176027 -0.024143076828048806 0.07793891519782434 0.2791940509403838 -0.1159215932168047 -0.2530364026315579 -0.23133302004692957 -0.27109843634590186 0.25042424247238493 -0.07209758748961809 0.10572944241230578 0.09995657727328006 -0.06470613434179909 0.27862084376030466 -0.23233834366354542 ]
[ -0.25682110572701333 -0.23774390507284773 0.1082077223236518 -0.19398663668049942 -0.31387129709639433 0.07393734271423295 0.1478556845358473 -0.06855154971729456 0.14475046125777966 0.011756717067210796 -0.2686204317435715 -0.12468315736286965 -0.40857931249328683 -0.23000984055336623 -0.2111840150040477 -0.31967634571717063 -0.3814098695183951 -0.012899865573199078 -0.08510501710173327 0.29482322871031164 ]
[ 0.024434072134826422 0.1699401054639076 0.1531964335310011 0.16211140433086593 -0.24855203736614082 0.284175403969953 0.0567774551258987 -0.16079022911196003 -0.11986911696796197 -0.025230121718374993 0.09381671420896555 -0.08137689091279332 -0.20791598250008347 -0.055459894188762966 0.2805474359992064 -0.07403677082710379 0.01849944571871022 0.17424456601196683 0.3920016319781217 0.11977873097508063 ]
[ 0.45711121153022083 0.27964570303586417 0.15637868338090571 0.15194997370196742 -0.21201973278349065 -0.1382597131515989 0.14627356603394148 -0.4193481886989536 0.32226669052094437 0.054248983129162404 0.5971409556576757 -0.12489576548062951 -0.08240865591070441 -0.14205559374678134 0.07194817854157143 -0.1549571570621015 0.011237118741929215 -0.5592961712134803 -0.389527168909094 0.10355042249126266 ]
[ -0.04423414809564121 0.18300703104018867 -0.06813883511091971 -0.05814200377836189 -0.30533350950704924 0.16432313487755976 0.3016600822287134 0.19489696858867198 0.047863804925804845 0.1523094358114762 -0.38568199843165846 0.21017282494704498 -0.35192059164593725 0.1674026281216049 0.2015504216123075 -0.20246205918109675 -0.11589439263489998 -0.32514960868874077 -0.07779597994471497 -0.12208572807128325 ]
[ 0.21045739258429025 0.15886788867216425 -0.006241990648996812 -0.3447219408268118 0.21260584062722496 -0.017488042016857108 -0.22749678796179415 0.151173620414184 0.28880726635871723 0.012818538658802333 -0.059108830074240754 0.014730112159665201 0.21454854047083327 0.18143942711764932 0.15162066823613038 -0.5302734946779696 0.21802671227516499 0.34218422763213835 -0.20967169034564087 0.4605774410162019 ]
[ 0.08430708672796819 -0.13776981383509537 -0.19597815047147685 0.22120020729335818 -0.03609527249858363 -0.03226182599723331 0.26615122722593215 0.020380105205119008 0.07946374696233514 0.2110988197184377 -0.07753656843744619 -0.060662495425659886 0.03341341033603652 0.012904901124666062 -0.037691696850507654 -0.10323972775837968 0.23259569302421676 -0.14841751113507645 0.031071432928428743 0.10062044804167965 ]
[ 0.0940064876408712 0.12664627581070614 -0.03091537560185973 -0.12740911408931369 -0.03833166225784202 -0.24137387190289256 -0.0967777755175828 -0.21861852036663215 -0.04557900746555635 -0.19116892467636826 0.08000423676173544 -0.13338591481344755 -0.04275426063910475 -0.010916706559131403 -0.03813770746784422 0.29897988486299604 0.13750803337088327 0.4962299377577435 0.09520925496003448 -0.07644239372459957 ]
[ -0.34735973917226265 -0.2205272174779812 -0.2177296664110505 -0.22335773767329783 -0.017320009861242647 -0.1514213409577344 -0.16020437330099382 -0.2176815020284324 -0.8684409444989755 0.22375056234947374 -0.13745203007750179 -0.12094409632643988 0.00399634603923498 0.2523434236192771 -0.30672688416189314 0.057792521756662454 -0.32120655326433933 -0.4389787010014147 -0.17583975323142728 0.004884375323956964 ]
[ -0.2756060662931129 -0.2626987778742481 0.10971351663536054 -0.1658961851528355 -0.0076491305808563895 -0.27441398428248587 0.42571546832920726 0.07063304017206244 -0.1752446302822614 -0.2521867216437268 0.20262232489634016 0.05649180443570628 0.09227567188396986 -0.2934846387938622 0.13877693675956237 0.42811846073908766 0.6685393273373514 -0.07968580656542427 0.12249991236245941 -0.029469621966028196 ]
[ -0.08238411375948763 0.07226550262407752 0.05819365425949495 -0.03198490820422216 -0.14161361305608117 -0.19067492763959173 -0.11222128118024938 0.2831567175840331 0.2944211714139216 -0.07893755331600666 0.4293733375564519 0.18989790679861812 0.00877146947186954 0.17908427170020147 0.006939188387479667 -0.24441038897141984 0.6356399618495009 -0.0951526632003173 0.01969127840839954 -0.11268453616445051 ]
[ -0.6654128665608569 0.24882236455815376 0.11254071472664116 0.3431687361193167 -0.24721568941057676 -0.3352101540996621 -0.475057251237084 -0.2494749654874474 0.12014196910116604 -0.3411776963876428 -0.35726139494870596 0.21977643892044113 -0.4028699593488729 -0.19216670915763392 0.148474361394023 0.14063905504922267 -0.22576285122026543 0.2620966321511317 -0.4006960379225408 -0.3614768294289477 ]
[ 0.013548740918863206 0.037748852868288926 -0.1168783823997769 0.35776378902810296 0.05333130008105164 -0.15472066019686373 -0.061184353160362255 -0.054183864690845955 -0.0061117866541841 -0.08870488531100387 0.14212772529703893 0.028323508557265818 0.02618739349153543 -0.0018251480613531521 0.06990779947111883 0.06676255536474203 0.041858365983963336 -0.2642981966091513 -0.06388059463678926 0.0167196572340597 ]
layer 5 Activation
tanh
layer 6 Dense
20 1
[ 0.09773200788997198 ]
[ 0.0011463456946064338 ]
[ -0.009380265074167431 ]
[ -0.14359485643469078 ]
[ -0.020923685364310045 ]
[ 0.0312764896111527 ]
[ 0.02471859704682602 ]
[ -0.2311847994437801 ]
[ -0.07009969786818859 ]
[ -0.006934762582275336 ]
[ 0.20391740591051255 ]
[ -0.01764439203897655 ]
[ 0.18972587801921162 ]
[ -0.015019325259088794 ]
[ 0.002212709283882482 ]
[ 0.013461096545551407 ]
[ -7.198811688474368e-05 ]
[ -0.12596273128283297 ]
[ 0.01624559304994935 ]
[ -0.014106787259491806 ]
[ -0.06244300628808834 ]
