layers 7
layer 0 Dense
20 20
[ -0.11249135028223252 -0.32408905298373486 0.012180015798730534 -0.24547645521781414 0.009133162798651402 0.5103047836891124 0.20570555686086298 -0.2681054630094158 -0.5503894411390632 -0.3519314894608547 -0.022317591305115576 -0.0550576199711404 0.7119118992304273 1.369482696955692 -0.2831071669171582 0.303573953539118 -0.8905935367678343 -0.10066756500150534 -1.2095231194532083 -0.037069704962895925 ]
[ 0.276137172798658 0.23115937996187072 0.37488302531085976 -0.28091994044182284 0.19941905483008965 -0.27569817093848187 -0.2839658617382786 0.27404977638871936 -0.12435994680561742 -0.15705575560661458 -0.03739066977182692 0.2428089130313797 0.21707119487167095 -0.3116575023533044 -0.38005386784397827 -0.028161376623142085 -0.365072961662274 0.04808297582824241 -0.30169959836598415 -0.12620138473571058 ]
[ -0.26904560605427896 0.21168159987091892 -0.27515123769907424 -0.38299158409557094 -0.0017798871998847613 -0.09289822932422573 0.02768701231209808 -0.1897353345062119 0.10469068511646423 0.0833434797552348 0.2178566719504901 -0.18458968024655195 0.16808998598999986 -0.01767502908581705 -0.1274377876683862 -0.03675790489223265 0.005329842061284073 0.04207038942632906 0.24727204585479945 0.2470217462787682 ]
[ 0.188620026727671 0.22609422914323934 0.18963561956647187 0.3298497137252881 -0.38077204726348934 0.46368749912755847 0.2725304489210055 0.04985984924315916 -0.17079204490479188 -0.3817308268265255 -0.40210233582151195 0.3011130193002719 0.10576972204321539 0.5256859389792884 0.11455032870089595 0.2713276033400518 -0.7597020005015337 -0.6069497347838835 -1.071562766636731 -0.2725160945089993 ]
[ -0.79600865681312 0.6846186809498287 1.0930270649122356 -0.4611798067168665 -0.04969361784871858 -0.004312303456449327 -0.9676123839480888 0.14200631277294554 -0.0318517278375304 -0.9917080038945388 -0.21646388396927058 0.4204737358374152 -0.19529395701261745 0.18919717277166082 0.4251091599571843 0.48624881792466873 -0.1721085541421164 0.16893335254599412 -0.30004864802919134 -0.04292962154493761 ]
[ 0.0801481295194473 0.1470132379682841 -0.3592528232696106 -0.2896304284171741 0.25395461078467496 0.12949641753438199 0.2764866383069688 0.06927653120831323 0.16203032349574545 -0.27414393618499827 -0.3047025236613953 0.3533279022121379 0.00405510433720877 -0.07947450149398887 0.1986146471778281 -0.16384715180647083 0.26576422237533665 0.307367869627292 -0.11780175513139773 -0.2593482489312479 ]
[ -0.05284841932022132 -0.2829578533250667 0.35180240298609977 0.245678807706311 0.368882780895036 0.12132885605914315 -0.33625911360510435 -0.3374094235511297 0.28629283259693383 -0.14091484315500338 -0.36633654032315344 -0.31028043153019214 -0.04767055746838941 0.3653783814471236 -0.19182569643409034 0.15826972036183498 -0.3210375569186418 0.14068366738489838 0.3866750949772373 0.2375173534720301 ]
[ 0.3736061085126293 -1.2438725840595708 -0.9383253312889853 -0.14445899314384306 0.03511287570414472 -0.43337467806808116 0.688027582387755 -0.29796101187972635 0.8880739190278873 1.0762882032680765 0.590041080628916 -0.3247593945365187 0.3158087804924652 -0.9064613926434253 0.05189958182833088 -1.409515604718697 1.2339621222426342 0.7397321310992195 0.5890791669026003 0.6211819183372013 ]
[ -0.3731945425858957 -0.7898018817643121 0.11397055015145151 1.0958656041452792 0.6983909905405662 1.4144556679553426 -0.03617038273599304 -0.3199769767021306 0.04005303634992149 1.0145537970883234 -0.6161772672203389 -1.0421057521989578 2.645037918984693 -1.1771424902439698 1.4308959691876908 0.6999740454675971 1.477838794663396 -0.49094715297495756 1.1674623442996253 -1.3885109820248818 ]
[ -0.19217453562120346 0.3139102960023006 -0.09413212200303023 -0.02427723652502532 0.32900025925870163 -0.06560970326493859 0.4383334211747924 -0.029489211088359262 -0.0890351055085774 0.5539307233902845 -0.9104766498040794 -0.39441092510307035 -0.5773779900674357 -0.26083387741007863 -0.1560540710119765 0.36480897261648704 -0.6743002327502962 -0.08689292054553997 -0.11953595335490509 0.551135270163555 ]
[ 0.047963291448850386 -0.06677785374006588 0.326106396605696 0.47904680600359134 -0.8134055209626749 0.08587777680759034 0.022811359887663592 0.7257921185606943 -0.17571604632891552 -0.7056829247813645 0.7866211125509841 -0.09902180431086052 0.10183155741872664 -0.23629574819001334 -0.1972987144428223 -0.3016828921718116 -0.4588615081757197 0.37369437947643797 0.012567610745777677 -0.12636121187646648 ]
[ 0.07432271772460963 -0.8121482072198609 0.29047031719401917 -0.4438379527818773 -0.7199419041510632 -0.4041092766149299 -0.05050420381013398 -0.2997676490627332 0.302447324627666 -0.24068193131285062 -1.1267328305825053 1.5346780185760394 1.4436238139933129 -0.13268549717201994 -0.5837669339879012 -0.25906676800781797 -0.7224085762389117 0.8770085776972187 0.487555885829332 0.9333811425406725 ]
[ 0.13788201285855659 0.3136642629180438 0.16755863726971074 -0.7219451835957407 -0.2277733695086519 -0.15950730005357833 0.012530664333223631 -0.4978855782889097 -0.17242386199849627 -0.3162302119878819 -0.16055808084568907 0.5910787193514127 0.6701440610348716 0.9857362876311252 -0.06445009305269532 0.4530997131758169 -0.29850086106709023 0.6374849185378649 -1.065387657027642 0.7534391706187784 ]
[ -1.665774143782234 0.7327733391569651 -0.842073004790791 -0.670729268703192 0.038239403805951075 0.10699893165002153 0.26407750816530906 0.9009929358627482 -0.4441097637588223 -0.86140942784563 -0.5236629089121997 0.9564948698246549 -0.3809342973030661 -0.5605630316671163 -1.1665569047387883 1.0592633972463323 0.5060347009267027 0.660368099571026 -0.0021538153923946995 -1.5233568097274213 ]
[ 0.7101117658788947 0.9803589565762987 0.31904105083473216 -1.4763508180330893 -0.6809168929076209 1.155668252613157 -0.4319741674492 0.8832852616485356 0.2179251666172158 0.32083800701630905 -0.9728133453521776 0.03470224948192323 -0.4100518665451699 -0.48506773391540725 -0.16137555270257609 -0.6460306505278179 -0.16673924654088562 -1.8574027040745653 0.4279712568549606 1.0728950723900608 ]
[ 1.658380459356711 0.533197200728255 -0.6490361366452482 0.8040907947439115 -0.7412279016650793 -0.7940897952000988 0.2523777722466424 0.09060785790511015 -0.00028449503485331517 -0.3914358154133583 0.5874699393878906 0.34966369097040756 2.216347611320906 1.0980601016828924 0.04553197447583099 0.6484890298027194 0.10721738810452477 0.048493856441474206 -2.4118957255772173 -0.3751870479994407 ]
[ -0.5051112268035248 0.5229926031073537 1.2435444161715874 -0.5781863658293557 -0.755582554800926 0.26345790160374905 -0.08417049250763889 -0.4855201075393244 -0.7227789989286874 -1.2235706724166981 0.12210377888895091 1.0816551107563173 -0.26379724992603554 0.9780057197206882 -0.4636214392037783 0.19344182158090706 -0.6674056766801109 0.5774395609322751 -0.2380649291548465 0.7527768313480352 ]
[ 2.103040129326689 -0.5396565344751812 1.7627553329091104 0.6679927992574204 -1.324888621485411 -0.8356074524372789 0.18852216235435526 -0.7729308055832894 -0.4162966689014544 -0.07534768794276145 2.0412921415680447 0.10591639236936824 0.7238218870594377 -0.14117648585717735 1.5158163594967555 -1.3663714957735826 0.8332064554449274 -0.7894683658331985 -0.04714014557448194 1.4583124944812522 ]
[ 0.19687865662194498 -0.9911325050811965 -0.2952161107854894 1.1588769379224217 3.130461138307432 -1.9900217344177105 0.6719020034651687 -3.5664320574705477 0.1873388388557266 -0.17212497127261614 -0.003527059838782549 -1.0642687303776537 -0.1849501546499018 1.6550558457843307 0.7640965989473144 1.3064804485118062 -0.0034562370350930106 2.1511124136869553 0.5620930207864462 -0.820499503812413 ]
[ -1.076030464232038 -2.0881039883413455 -3.4281340292608657 0.15310510716440115 2.690727308273489 1.7487440674640256 2.8977555437350926 -0.827862703666091 -0.547810155447985 2.04461242360729 2.7792645729306407 -1.345663262238996 -2.166002377766539 -0.1030586802445729 -0.24454671251532123 -1.5565772286671975 1.0129707613287364 -0.044747407256562115 -1.1050047311681819 -1.2928954686286231 ]
[ 0.1347772143681459 0.22113617008279587 -0.12526521954750713 0.22133362602301518 0.10249668813071672 0.041316138666184256 0.10378618139594174 0.16248293842878078 -0.1102638192024193 -0.018243736754702145 -0.19579942352803786 -0.17879464673409678 -0.3377923031000543 0.22687978600018396 -0.07574623056633382 0.2807091472262839 -0.3994774049580982 -0.2371989398721784 -0.301918123887118 -0.21575814455779185 ]
layer 1 Activation
tanh
layer 2 Dense
20 40
[ -0.8337381575725251 -0.08924946350937808 0.5863005086832159 0.06839828787416376 0.2714796711954541 0.16309540836721445 -1.021863663581426 -1.4388363291066606 -0.5665400782075205 -0.7890563471072194 -0.5956235233603254 0.9732840310070541 1.1097848098829761 -0.19854626770882594 -0.0025676484990158014 -0.3633094733517782 -1.7141881774338583 1.25329841421635 -0.5402670594406958 0.5218816562674076 0.18171630990717724 0.4090633765924011 -0.43357185692051814 0.13398010852971187 -1.0539387925320394 0.20585175162122377 0.11266519899625531 -0.12839404617633116 0.5506951443611499 -0.421212646599523 -0.35336963792654025 -0.009330465898451693 -0.560042009760848 -1.0915350590733803 -0.3183428064197941 0.8858374972842731 -0.5650521810670592 0.9038445527089546 0.32813453053816494 1.2977081372927566 ]
[ -0.32387953676376946 0.3149874589201951 -1.3833721130308378 -0.7419273123087439 0.12920908863685168 -0.040979473469312154 -0.12989672907912744 -0.8304918872787246 0.08901671777393967 0.386679170575554 -0.6260481399505187 -0.4520363589797605 0.33127013264334565 0.8356972765984786 -0.3703014052723096 0.34837605158207813 0.8529444533293621 0.9637321383363 0.6945491466232652 0.5592854668038972 0.18817090539774792 0.3102790337606133 0.4960928645491473 -1.3186673110570482 0.30754936388504966 -0.00887281045961884 -0.2189174458379737 1.6184695113342644 -1.1721095048040702 0.2968956246103462 0.8991697162357637 -0.6251744820750226 0.07395588092743051 0.262749278230245 0.27237581966496976 0.6646139125364039 -0.6355155658462233 0.13503110656319947 0.10292224712438133 -1.0219197227420682 ]
[ -0.19810128465855203 0.1497814047335411 -0.7546977187063356 -0.4205308378517182 -0.2759123349336093 0.5603679943489035 -0.14809214365008466 -0.6422300681856877 0.4218030151620842 -1.1851500249055338 0.3857020499386835 0.1965578602184915 -0.2490595858147708 0.13224933130329591 -0.09605336012363319 -0.13520002666672193 0.3762359090858857 1.0752319365266383 0.5627940198752761 1.568384204640672 0.9109968358843158 0.28364637981046215 0.40757948614448697 -0.10884784282343023 -0.6062249889694085 -0.027410642779808175 -2.1899623259027696 0.5826178887828296 1.1959776612895088 0.5770630334661851 1.4471333919688274 -0.9535818844438182 0.5619372281513065 -0.13607204529226088 0.46576552815354255 0.12396524946017946 -0.688915388986133 -0.049795810260437 -0.537999484523092 -1.0443846654598343 ]
[ -0.700995868324736 0.19912658700104874 0.35019454489118707 -0.17252259964824188 0.06371192589902504 0.2146650936694145 -0.4084276111470235 -0.986809130277112 0.45823127137953806 0.08779076452357391 -1.124454077801865 0.39507961135889924 -0.24447472907789872 -0.05024734008739183 -0.2826401025915207 -0.09595986409735478 -0.3053379050252578 -0.7790674080490119 -0.22312255774513917 0.9065143821445779 0.4574361694948351 0.09514911141245151 -0.6322982150766101 0.9501518161970418 -0.08012062995846266 0.8462009877147456 -0.2961260647830271 -0.25016102723272743 0.9526889380557279 0.5469911650679257 0.19000279536177658 -0.3821631877130025 -0.4130892649128076 -0.8003040797285683 0.4942352634059119 0.2919569058763944 -0.2535238611171582 -0.06999377509712569 0.30715697714519696 0.9503740503759931 ]
[ -0.20911143640129895 0.8302129621221179 0.6418152815164481 -1.2965952836368 -0.17780183556541967 0.03627368088555783 0.7165049489202142 -0.669643767754329 0.20441489185256667 0.16993988146056543 0.17153461263215963 0.673624382382551 -0.5815024782851806 -0.6587460469045743 0.07281708991731517 0.113333082494071 0.49128872087625397 -0.4897620367580208 -0.3034162328405644 0.040059310077281515 -1.594913385604876 1.2705870864460116 -0.3851854537793154 0.4308655395393979 -0.18994610137889012 0.1677712794875196 1.130927964965651 0.8591537237635775 -0.36795886910035525 -0.40597091455759887 -2.113015870472867 0.8519442175361549 -0.36597326167915645 0.6063640254536559 -0.3868103413233469 -0.49811607056742124 0.5518512090877504 -1.1243114334073554 0.6507816169199437 1.3686477206674121 ]
[ 0.05974407343955796 -0.040328541437467384 -1.1311229925948791 -0.45833934059163267 -0.4722940917754379 0.3866427607158004 -0.27446002364577926 0.6954373515553272 -0.13937270903144927 -0.4078382986683761 0.1328985639886776 0.5547943593941158 -0.16958556706282488 0.3051496764327518 0.24629799790607626 0.4627463451921997 0.4393234004759243 -0.3953230811830294 0.7331802482386982 -0.2878513915002335 -0.47289594553156594 -0.4593936577489021 -0.5445124218921157 -0.9313026736745406 -0.3022809209629515 -0.4769732897033499 0.6225629627070232 0.204789257496784 0.688555224443669 -0.001943577900178386 1.1764044345511502 0.3825480834966694 0.4288116127403925 -0.143941509123826 -0.2721161902225285 -0.2561819269783018 -0.07302842987354832 0.5930574445342124 0.17664478247534507 -0.583240742852746 ]
[ 1.0264063870040634 -0.13427476729788937 0.24790272686870887 -0.15920447173854665 -0.23770827033842926 0.21061049007758853 0.031125257389026 0.29184084943454824 -0.5101480038748055 0.16810193256954797 -0.09267489313373768 0.6676443326648932 -0.42329384185964225 -0.18177499664816538 -0.10022921462149319 -0.5255797884614274 -0.10967855891009766 -0.6212989861803406 -0.08518544630971725 -0.818065394003222 -0.0990656120399425 0.25652006404635574 -0.10124603208533746 -0.23181185208347352 -0.018252446951843495 -0.24810104416016657 0.7056367666561179 0.1379705088830814 0.02388852994935237 -0.08948904526092791 -0.4716103778117157 0.6379831475068106 0.1601880735831185 -0.45429660863971355 -0.004682895057540139 -0.23954627380979604 -0.3087659947859027 0.4585313360002875 -0.33579182193586127 -0.049526901722719015 ]
[ 0.2731649367362642 -0.5822130872086322 -1.2546855529943854 0.752951628992184 -0.5079614680234744 -0.19964442296644483 0.29231651340584314 0.24982789467302272 -0.9124458573724371 0.43843087871458924 -0.36218083610693086 -0.3369934029004843 -0.16414519305614617 0.7578448073796007 -0.45309628247063577 0.12985052518787363 0.3143812231533293 0.050825954128607694 0.9606560893566196 -0.06333132412552885 1.0817693495996916 -1.8224895442890037 -0.1728115751159336 -1.3126280940083983 0.7550382045560731 -0.05349768407520771 0.37105445045980423 -0.7339916424849353 -0.0519078545174465 -0.36347942551546575 0.7503935827866739 -0.4002666689088094 0.3510639117413302 -0.14110028091717505 -0.618957920727685 0.10290903460820977 -0.4459318387162128 0.36468369680386103 0.8694281841432338 -1.245108982131294 ]
[ -0.5376155371352278 0.05384865684349564 0.07600556633866837 0.17000889532635713 -0.06334377924895628 -0.41675482181586027 0.10548470090723187 0.03616552408835158 -0.3235316103534851 0.7221846519227961 -0.4818020011528066 -0.29267950130347425 -0.15796555285592953 -0.09361824125279783 0.19508175635408695 0.11098266062376937 -0.43621688833032396 0.42322790292677603 0.137464783112504 0.2244908015629852 -0.7057055054463746 -0.1413993738816752 -0.10896272686275713 -0.07163293333498379 -0.5985642161241361 -0.04139121967422534 -0.17838248192069286 -0.17061517072217874 -0.03378286955178442 -0.13558723301978928 -0.36723789272170543 0.5372483138704642 0.4043848509203535 0.4309640904089892 0.06720233337764939 -0.2757791612206469 0.26470684651392323 0.5814658798932977 0.53664496178908 -0.02685135500976207 ]
[ -0.22358678520712602 0.5468534514318393 -0.3214878454783576 -0.11474600752507452 -0.35471627627135394 -0.05714803061327568 0.0810106713562432 0.8130215710862413 -0.08903972942530015 0.2307477521257295 0.8455342345952288 0.9976335101053747 0.04445287138520528 -0.010473565659942874 0.4072157618570724 0.5793710013214928 -0.24323875891023233 0.6497516370373724 0.3877326046066357 -0.8862264420003256 -2.0488479386511855 0.3580412443816665 -0.38438707198113087 -0.24774701464725765 -0.12370049837874486 -0.8353148465703593 1.5163084244514569 -0.07889035222219223 -0.06672350807942788 0.16184513934945127 -0.5602344165274685 1.6190675752900867 -0.44006473644589317 -0.06108680334475652 -0.02850973651226937 -0.0986919687880756 0.09593285249072664 0.6232900404638838 -0.8555796090821388 1.1234862434173611 ]
[ 0.16120540503099867 0.13216813998458254 0.7602835734918845 -0.6348005084936507 0.29206758255831516 0.30243767864389043 0.552528105092921 0.06187546952992815 -0.2584020625990911 -1.6820789268337808 0.08904974534039235 0.8559632396860822 -0.6261099601146557 -0.8423747841837513 0.3617655609976713 -0.1715714052309705 0.4540435193047201 -0.8805632550046906 -0.5382413178005743 1.132384447436631 0.9327748933714436 1.0182046163940979 -0.9607938578711691 0.16492260555877614 -0.1341321002195808 -0.20187304936879655 -1.571720169317291 -0.8897794066836237 -0.005682702187430727 0.4472655860646457 0.0706002589459615 -0.4757601377023397 0.5727849872085323 -0.8369279560918936 0.09565150606423443 -0.5658225583103037 -0.2738220195805113 -0.6983362546536527 -0.9031938426145991 -0.3770294949674222 ]
[ -0.8531870496389499 0.10725989965263487 -0.3724976912185932 0.21665035184605802 -0.21620042294284278 -0.07066773293620851 -0.15253508420004924 -0.30025474521712553 -0.5010871389739745 -0.16243507560691067 0.3774097506245445 -0.8158818841404586 0.9822760983603183 0.6545289921412425 -0.29787318271983804 -0.4117645326443149 -0.4018746203700658 0.5364637682784247 -0.15789290725176483 0.40408315367844394 -0.11240441925223943 -0.4933556837261306 1.2651788472507428 0.5039559739346642 -0.24913708577726348 -0.073187732557434 -0.7209391825328928 0.020708063324438114 0.07161406794028922 -0.233693690058934 0.3783459052572472 -0.556738698446579 0.5118157270935559 1.2121075063137654 -0.1002519549989827 0.8142629453483297 0.6636377355326336 -0.2904272263550388 0.5260597947161673 -0.7794485221177252 ]
[ 0.24555956515339933 0.5414247290403791 -0.32476045341628657 -0.5490966268079329 0.32098003708348105 0.46302532231370597 0.21639283097278245 -0.03360597231917278 0.1443629093655902 1.0302277587554123 0.1984642131844749 0.40617135075394684 -0.19818595162190178 -0.5500219069191354 0.4465731161298573 -0.32217785662354664 0.4117825701744904 -0.15467028424126888 -0.21644027753993508 1.2477487340821394 -0.9130133475676458 0.42323996626187876 -0.16164794155586165 0.3436938760319691 -0.83811506177301 -0.577030055416177 -0.6147786077433267 -0.4952000458087642 2.0320732748584405 0.5272573281051021 1.4881481250295234 0.34486158992830473 -0.3325046751936523 0.7021372440865965 0.502527660278642 -0.07946052537137883 -0.45186520561992755 -0.4114747879679649 0.2735041226693297 -0.22602417664453547 ]
[ -0.0274831389275129 -0.42981613439421884 0.9487827054995417 -1.4287685608334175 0.2652052967652097 -0.009403793724107573 -0.12574090993793396 -0.8391784663890758 -0.13771916817726235 -0.4266327785385304 -0.04170147950180191 -0.38782313871080104 0.31973316819885916 0.7047704314152953 -0.2740121874417057 -0.34753452124386247 0.16137077705104444 0.10433427690560564 -0.5221452395349838 0.46099649653303926 0.6262370375443957 1.2942677214855425 0.3812079470651406 0.6653987156912066 -0.16749130177861732 0.41374503820287967 -0.7838463203218857 1.3759908168457677 0.1748350475854057 -0.8210159577594938 -0.7737375105247781 -0.17957755413153795 -0.12827419878304697 -0.18062641617747657 -0.5714712308190576 0.23628980056735147 0.9108014313458163 -0.2904194675425566 0.34889279554069197 -0.2946947689904071 ]
[ -0.8068817471522465 0.46219403094835415 0.2916263100706143 -1.095058096542839 -0.3650466706267029 0.6625289295836094 -0.4130895290072131 -0.14685435499837207 -0.35011420442885954 -0.5933475115432085 -0.5620527712080255 0.4049988704541887 -0.23294434094755578 -0.11006926442374218 0.15701051633106777 -0.3339215231094806 -1.2524170289865257 0.1108631730489336 -0.4058407383952293 0.6189506915726036 -0.31668877391907213 0.31574947974266654 -0.6692937582395817 0.596220660276423 -0.7169661943737706 0.1600211508713804 -0.47245640667262784 -0.03503044410305068 0.7054341837621784 0.31334708464242034 0.22463433499024235 0.35157578885219964 -0.3708710321083427 0.02213884629342818 0.28465116395783485 -0.4832349548153886 -1.0491158195247032 -0.7144758307197288 -0.41907538230073127 0.5780746421402946 ]
[ 0.20507126477031326 -0.287749996064287 -0.37109496991669016 -0.6510864406396903 -0.14814417944171002 -0.08014740681200515 -0.25031576589833987 -0.3898772125702041 0.11045922031173626 0.9195748372452859 -0.6849581213663001 -1.2820510064394663 -0.3412888559309602 0.8079630680536044 -0.19126450567681685 0.041134895231466 0.06987301568284304 -0.31148179551226235 0.4050367228082992 -0.07358852356288365 0.08714419973555423 0.18055827373120295 -0.5634211804704173 -0.24267953890245358 0.6118820416560645 0.6048768725703142 -0.22794622786523816 0.9942074638559647 0.1219336019118799 -0.4140736656063675 -0.27574186157491415 -0.24885544847641758 -0.017193950119070236 -0.041888989844792786 -0.24244075484861888 0.06967472697744352 0.20453454103707558 -0.6342264361526984 1.364849600354525 -0.14234338601271596 ]
[ -0.6465997372118345 1.2662701898660096 0.035462258726608124 0.2632785615080999 0.07473915162809405 0.179362984222198 0.17183711521561415 -0.4111568354413175 0.13593219525124914 -0.9338847011036707 -0.4190407314866265 -0.5178648390302065 -0.18392776114850415 -0.5163617910909847 0.32341887942440295 0.23603546086886762 -0.2952742540520039 -0.48869915789713486 -0.6883377280999082 0.5127886702913165 -0.6341926838035785 0.5018615324550969 -1.153332891060784 0.42565199295089595 0.07865008936022584 -0.40829180260692777 0.27942521241031265 -1.177677957292134 -0.2531100422384752 0.08297348069772918 -0.4187388280397594 -0.1596413363168403 0.4654106934191001 0.22939832336312688 0.32526169046810566 0.24951784962763982 0.5794149907773349 -0.4881566644989382 -0.4919361743906469 -0.20777323284909419 ]
[ 0.8966317586346031 -0.4918404204764343 0.4736409618440371 -0.12343436305909439 0.19849311978939033 0.5699577790233777 0.7022578785093982 0.2846144149601544 -0.03972938247950641 0.5276477994926697 -0.32914268641397276 -0.34376918008331764 -0.555872461009371 -1.7514722582676587 -0.20616163993650785 -0.28643922148414963 0.7053393612278899 0.09936271165595588 -0.7099686562381695 -1.5600308139260757 0.6680532436542707 0.5843808492172611 0.7887744486356935 0.6532660939654866 -0.2351673542668403 -0.02322674353813821 -0.002753648682503046 -0.22107952110196957 0.5102977249434488 -0.5675178269705827 -1.0023807532959643 -0.39376377929322864 -0.9456351271091274 -0.1405925923400237 0.26528422308235683 -0.9890203802213835 -0.163584544361934 -1.2565992048201848 0.13559967376239307 0.3289577110917722 ]
[ -1.1853348004514406 1.3445340325055992 0.03997167316868273 0.8217932725294576 0.02227753577249653 -0.2305815464973166 0.2220258940609621 -0.13245821418193357 0.692024984923613 0.5819421312192993 -0.6073618450678495 -0.0656600199533106 -0.18537600105147312 -0.8370316998511858 0.22933629644642198 -0.021105976572988978 -0.6619104569132227 0.297628090667849 0.17877414009027487 0.687583153784227 -1.4503568036260017 -0.16929789982382495 0.09456331309377168 0.35226969857338325 -0.2560077919073444 0.0652925713251724 -0.19377992527549887 -0.14754077519984268 -0.02841708131686933 0.8016199101677196 0.191609794639624 0.1783696256454298 0.007755955876959468 1.0389356050367569 0.5669822746215092 0.1727118137059722 -0.1858107448113597 -0.20667955850271835 0.11235786803413134 0.39419232894030853 ]
[ -0.7596088476124709 -0.9146161038532092 0.5884690029922065 -0.01641292522149021 -0.2728826267234789 0.7350899489105559 0.4498619726020931 -0.12685620472653322 0.22941886826782149 -1.173379321090054 0.2959556600523112 0.6705533874683621 0.1409509493202141 -0.570603784000254 -0.3727378720758253 0.5796215980554786 -0.7927537792986408 1.657460339105191 -0.22119050862867873 -0.5523988696501084 0.479164475262462 0.19297617358185962 1.6269935118953938 0.027042369951580304 -0.7608076334444502 -0.5142516413682473 -1.4194875823351212 0.6912086231057866 0.41618480229577987 0.5373102858932227 -0.4462553775534689 -0.3630947022560148 -0.8891621033600102 -1.1897855018763153 -0.9148789363024117 0.350650810375858 -0.8142523544412577 0.215733111981357 -1.4356909796510013 -0.5655876338841019 ]
[ -0.24065915726347312 -0.47769433950302226 -0.052703581765180786 -0.09114668016996351 -0.2973270758423616 0.07031858315194879 -0.6701667019497973 -0.4817551662938379 -0.24052955516084085 0.3589757331737231 -0.3357953893185732 -0.13589415291077678 0.21388484571636937 0.6619701772268421 -0.2883514070031199 -0.28265750350873725 -0.5436645497454712 0.09471926358379038 0.26156849992615583 0.47952844264369604 0.7026622286942776 -0.34160095555297987 -0.04953953636045328 -0.23616919744028364 -0.050201724223340946 0.5781208998661442 0.2812157917763947 0.8077696554589843 0.32989670926260484 -0.20565830242784502 0.5927265379496558 -0.13307356606305498 -0.13310693501392765 -0.22766684996426234 -0.3791206347300361 0.3967285579694384 -0.11936262340162603 0.4173490421186313 0.7065115278272596 0.21023807235375422 ]
layer 3 Activation
tanh
layer 4 Dense
40 20
[ -0.10691716809723086 0.004797918799995499 -0.3226224226398768 0.19145322755829824 0.13482383391851382 0.6009384420223874 -0.0406711974742115 -0.1406258066246323 0.15155764513055625 -1.5384279391449998 -0.4698213170298191 -0.6574971044793491 0.16175151587314457 0.5657228062058239 0.3072798233968827 -0.3145852428908948 0.1394396444582348 0.03930103111157825 -0.1982006277195728 0.18417404733647955 ]
[ -0.5087323370907005 -1.0464073522831352 -0.5320653388475234 0.3286168160493164 0.9259362149728235 0.1065333868520476 0.514402121442379 -0.36628941895624945 0.10074956004030523 0.6759398886612735 -0.5827582549364068 -0.26230606914873345 0.37140598813763864 -0.610960469654692 -0.06106685703756227 0.9280416946323562 0.25265046856207624 0.05965095100670505 0.10807453672977833 -0.2831936429399581 ]
[ -0.19631442163927137 0.28246052012516676 0.38714229334564976 -0.19532576597478202 0.5660349140005668 -0.11912123081407272 0.07326082517943913 -0.4129280756515254 -0.319536249012477 -0.03363200768768359 -0.5913508561829338 0.2954285284324755 -0.07486925006921014 -0.3469664534161475 -0.425194921576431 0.33557425447915357 0.5289842055377606 0.4862645494466336 0.2759110798513724 -0.4464091220288898 ]
[ 0.23391627648055177 -0.6466323317287453 -0.5432554248150041 -0.5036237367143062 0.436364489290447 0.7726552917085594 -0.20864124491617073 0.4530845365998761 0.5370741540033452 0.04957253621534649 0.5689063755376934 0.2283022078627258 -0.1285650745927428 -0.011525981402926887 -0.3014559170952391 0.17099839274510242 -0.9369248374540797 -0.16703874888236403 -0.39085812652161606 0.1554440724049032 ]
[ -0.0646325766551768 0.04872018731514565 -0.10230387671046869 -0.15709875104672794 -0.22811003825280432 -0.05913924082733324 0.15739383717153407 -0.04392509886575326 -0.48003543963512485 0.09537429395438003 0.23600630958549987 -0.3765132421995448 -0.17637007666469573 -0.11408890658090187 0.011905727767244845 0.004375232839063527 0.3237914833294621 0.24717548624148936 -0.22559317927771003 -0.03054539832965358 ]
[ 0.29387244594026846 0.5018480374098969 -0.08877514080602963 0.2394783118009965 0.21865701421997905 -0.1876108741421227 -0.34359540539582795 -0.314475139098589 -0.3384248135758518 0.23391376825607704 0.29138614742531566 0.06300113793341772 -0.11650513782130803 0.00625714025480713 -0.18623968778715286 -0.0052741108316281485 0.8715416393424372 0.03930854178406289 0.4545478601124592 0.6277251967918824 ]
[ -0.31902189649268464 -0.03189162257264427 -0.7810581742838691 0.30680620939531794 0.4434630875961108 0.14407753972563778 0.19497444970995748 -0.2589691799607363 -0.3748782324294669 -0.5081515264499775 -0.07727784583620502 -0.3646412760829467 -0.15422197515708688 0.023355786017269186 -0.3781169972437249 -0.5230047734205708 -0.12370538182699893 0.1495259568863427 0.2169665027077475 -0.44223800781421785 ]
[ -0.12743256484191162 -0.11115118089810798 -0.3915184541744082 -0.16778524361340813 0.8171130670653348 0.45641743204992685 -0.08280581268768734 -0.11926819852325941 -0.16821959252050872 -0.3364294433131896 0.06955841744683151 -0.04554109322786038 0.0038831986603664694 0.8124322683022561 -0.3891764040056725 -0.7417770582752713 -0.35991732566081075 0.00934724142261694 -0.1793700662220948 -0.08824660038134187 ]
[ -0.0313089112540484 -0.2352252993231934 -0.24313098668462327 0.28400469275973356 0.4204388796134729 -0.3795902030093578 0.5717980240711078 -0.8061505458093394 -0.04154678653073124 0.24756661270654728 -0.5453918206876803 0.09139484759278398 -0.26619469399183493 -0.1489767293389537 -0.17689709037922052 0.6571509791863201 0.46602931524769814 -0.003399188050440319 -0.06693217514225212 -0.19841927255787506 ]
[ 0.2758521983271857 -0.11988633369798518 0.03465131338558532 0.18109067727306366 0.16341199122926256 0.5353481523410761 -0.023564043867973356 0.4884812715669482 0.3684956860380135 -0.5346376408925021 -0.33178892082008254 -0.09830648057459951 0.2716292970565404 0.6390667224832439 -0.24738614735824943 1.1826943786248312 -0.14491063122925035 -0.08724641678442267 -1.3530298226409445 -0.07260749240089266 ]
[ -0.1060531480393338 0.19230052604244052 -0.2563479377129194 -0.053844995776023565 0.5341329484360618 0.2531039328091742 0.02755755300226612 -0.16824478399559495 -0.03128148202697146 0.15425494957243438 0.1153369457015867 0.674695536339104 0.11530506010321892 0.48295863226340363 0.5587170979079604 -0.5319494261124209 -0.14861504115381569 0.04333110364532189 0.5098204115506262 -0.3941100659972549 ]
[ 0.7526997867612405 0.176206370090723 -0.10353489872786288 0.4844568172013985 0.3268806643799397 0.10605036644462518 -0.25872023082295664 -0.4010620525795151 -0.07326360677891809 -0.11040162078632135 -0.4255741605320331 0.2664063214872023 0.6247823655716614 -0.45850710094702785 -0.4044565536800378 0.17611634650608507 0.42518452437818005 0.3668885292858147 1.2204431712956543 0.1450858643226613 ]
[ -0.010506455491569738 0.41700401026026246 0.29835556594741247 -0.5588996767057798 -0.31977124032832577 0.13951127768843657 -0.42556077983603513 0.4524294516574332 -0.05874996757234903 -0.11551451856713364 0.3282617632416491 0.20111037426314812 0.1878003041221065 -0.4115073469326023 0.5519873194552395 0.026976955668980642 0.1530084406104228 0.17099184907558068 -0.21302753329240792 -0.0772702298225361 ]
[ 0.42234508772840224 0.026422799839951626 0.5112976412720639 -0.3219368704957762 -0.3578618149935923 0.4823583583428369 -0.3550505270063487 0.16977011388659816 0.037928658126024625 -0.7569821774665844 0.4504266140321561 0.05958085316459599 0.8860864534971401 -0.3520457926606761 0.1373473727556963 0.23233325379399675 0.11119060283072038 0.10415405731195429 -0.6330411471958834 0.4691075464213661 ]
[ -0.16371596295466398 -0.19171603537710208 0.04054364584127147 -0.2103576512906723 0.820458839094045 0.048895608895487594 0.3973690658943502 -0.15704410051632012 0.10167764310257588 0.30533216269693586 -0.2837615864958253 0.6365887957916159 0.19229490967103363 -0.06808413529796956 -0.10590007560311276 0.12316237494224802 -0.149468861907794 0.24652356535676634 0.07377681819060097 -0.03576163436173442 ]
[ 0.20500784953043438 0.10636019108539695 -0.17545141966078695 0.20319913882657897 0.09996283202407726 -0.22169631971503523 0.08053273552772015 0.13612508831022424 0.6316501982508155 -0.13676065953842675 -0.7038528333082672 0.43946109297721603 0.05991815970442742 0.03516619608161306 0.09710559803790578 -0.0066889451627658615 -0.2714742922644617 -0.1667175644855805 0.08973338030321837 -0.25022582361595624 ]
[ 0.4028907773813063 -0.3397866102448145 -0.7373196762166727 -0.07897471164492077 0.20335016431703212 0.5342580633570343 0.7588217412533215 -0.2756600712980768 0.078703896997592 -1.02354029260447 -0.33148572348832517 -0.8267244734205699 -0.29218826247588586 0.17304878550030053 0.6852258411968115 -0.8053679285830482 -0.13046632782202036 0.10874531576320821 -0.4929527821566118 0.049872231257610276 ]
[ 0.9319167924754376 1.0120299271742297 0.02351960385980731 -0.11775758753656401 -0.24152118275141762 -0.4425145364918507 -0.7055007172127605 0.11421907543335934 -0.04775614010325759 0.3072731817152969 0.6744913755406434 0.057298847280127366 -0.3455822952369343 -0.012419137100625992 0.39414067698200683 -0.09735458076336903 -0.21803037816954063 -0.2051117822128219 0.20217663648392592 -0.14043664303435374 ]
[ 0.287165515237978 -0.2079415785100686 0.059827788673075574 -0.19414500267663246 0.18010425932760388 0.15686043345956077 -0.36267907593705034 0.8780768852323065 0.6878325833265279 -0.39964635105807034 0.1779584619981204 -0.06243871511973647 0.6136014089608641 0.2816886792664639 0.6686842584508402 -0.588992599209475 -0.3448519371606268 -0.7032413264249467 -0.22350263178735658 0.07096606359731981 ]
[ 0.25604084113644404 -1.1979560959048823 -0.5363843377984058 0.22976543625218349 -0.4300352046182821 -0.5228154334917816 -0.0031501611018056506 -0.20869808286465347 -0.5160372236120765 0.9463525643986916 0.6239689921327721 -0.3671682267549479 0.7331542124130029 -0.42679195576946927 -0.09033195516172006 1.11034313673532 0.6573256801052509 0.6694317410277986 -0.25854286471741056 0.3090556292666843 ]
[ 0.13480697745845052 0.2036280695131321 1.388923453943513 0.19358503594094556 -0.6149977242893375 0.08387571579297362 -0.30325083847712425 0.0014196353065516433 -0.02860641782888768 0.23180047866001396 0.9858610701932388 -0.6851784301327619 -0.43336450129119547 0.14101766191890033 0.2856132846396133 0.2884894567451863 0.2049465990467342 -0.5039785863557928 -0.19284420486701426 0.09664663435786393 ]
[ -0.43772650894953663 0.393100307846627 0.27802658644387646 0.11933662154962402 0.2968054420601936 -0.01682564324904827 0.7103530239080227 -1.1160879902408904 -0.33392849185996376 -0.06614660228279383 -0.5167561732449948 0.03745537456114488 -0.6456221676361723 -0.1330955375616296 0.05671016440440151 0.6676801210559347 0.47612828343947816 0.46184030676328675 -0.2912293996617509 -0.14426700170230755 ]
[ -0.10926325166623743 1.2681731772632607 -0.24591329714495463 -0.7879347079911029 -0.22620777368207368 -0.06885752916276403 -0.12076769353911154 -3.5030524532294466e-05 -0.09077749256863182 0.015381090915448493 0.32103480878820173 -0.1478543342644182 -0.38261548355794534 0.9601380068954193 -0.021726920701155474 -1.0808497949987457 0.15810288490271837 -0.40899979166626754 -0.04942815139377313 -0.027184242525553973 ]
[ -0.9192597227435536 0.17110565665350244 0.16560377759850678 -0.30444267605196507 0.40050507782998684 -0.29548059381174463 0.2971827624584877 -0.6569885960617043 -0.3906236943312107 0.5528061048495919 -0.06624815751947499 0.3051788607734194 -0.5323173188435995 0.5696742493763086 -0.4832267531348594 1.1360780842218288 0.5354706274880457 0.5644396415082285 0.5699274965015514 -0.4306924112473389 ]
[ 0.009725587228730712 -0.2063573386245438 0.1202344779043033 0.0533036008914726 -0.2015720157626663 0.3813716798558643 0.5148191899832748 0.4811458948737102 0.22354346872213113 -1.1340376379789203 -0.4740885084513333 -0.3816609476925688 0.2245036222363278 0.16833123033246047 0.34076283655684475 -0.5141074242409871 -0.6173034183236582 -0.5179617164337356 -0.31493746756544766 7.004956072555234e-06 ]
[ -0.1328346344880035 -0.13755340584743372 0.2690713809052755 -0.2539545428804743 -0.009906336220382112 0.05858793155780741 0.45870194354421684 0.17433650508112555 0.23469906643402857 0.26332995843456836 -0.3134911873282127 -0.547979716108229 0.06726603466334188 0.008484966191853073 0.19982633381857398 0.357369606267985 -0.25281538080717947 -0.2817663124680241 0.01002249576805226 -0.03537261489215524 ]
[ 0.15830226619256857 -0.04684791163453723 -0.4150108251778788 0.7952173545379961 0.3430122082961102 0.9260266871356273 0.34268894651616555 0.07233429030188865 0.18734606398734638 -1.4135835600943925 -0.7326956546933878 0.07554331651555565 0.14992586457763182 0.44789242083235914 -0.430448361105847 0.6532251740842862 -0.28633272854677516 0.9355346057575318 -1.3989116544693472 -0.18307936769486072 ]
[ -0.24308490578563016 1.7694039817033473 1.1661541796292845 -0.004239120258408432 -0.32181491972013004 -0.5032703724055354 0.3398127546719271 -0.1337743715756136 -0.027971708552711427 -0.30778201273308564 -0.6800450031744705 0.14858190163493043 0.41530648791004304 -0.276680351523567 0.45073880619289625 0.11029882497907426 0.27819972797220627 0.16125416707204107 -0.0418534980789569 0.09893316622687796 ]
[ 0.11750921933179005 0.11437935282066049 -0.6480455793552603 -0.5587489595888876 0.4278538971974902 0.14650388180451937 -0.22672716981152236 -0.5289012909715972 -0.26112533618123496 -0.24217314677005247 0.4765913524804281 -0.5235503666361243 -0.44069226550866153 0.06886674744329603 -0.07781285284419298 -0.18534070029615166 0.6235084287593622 1.0021829020907145 -0.0017766857181778823 0.27066343161778644 ]
[ 0.5591306151037256 -0.4550240013385328 -0.4263027207787998 -0.45091268713867416 0.14724635243667666 -0.46328077941460133 -0.19880336513535624 0.030128574492943986 0.01873478654185774 0.8864799490481833 0.5107466069626335 -0.19755583265502139 -0.29752444552830476 -0.27463400567278823 -0.18497708009908934 0.3206815280269507 0.25580441117496183 0.34498488673692856 0.6181484421795476 0.1950566994903496 ]
[ 0.9305258606688007 -1.3145236278210024 -0.8008190862087141 -0.9004502861804881 -0.5200962298678612 0.3097430610389476 -1.0321606745415193 -0.20784258022346971 -0.033792082292146364 0.17193731492390718 0.9828890007310533 -0.6754242767129479 0.14844504217351395 -0.634350258484755 0.2543864450731996 0.21261432721462042 -0.03354650943690893 0.319239043179898 -0.03522671017344064 0.5059200477596142 ]
[ 0.08092226315271785 0.044315275877706034 -0.4675483888340814 0.24354969730646986 0.5919781854295708 -0.11766991712818428 0.16800662604639616 -0.004363463422614439 0.6640160844808086 -0.4299429137150608 -0.7130355597705219 0.5782883712676186 0.237113403974967 0.04820201699483363 -0.2728865930013296 -0.018597983494747956 0.12715999622981836 0.2999462404395699 -0.009705797791747624 -0.1797225211698821 ]
[ -0.167733141448946 -0.16901729074346838 0.09227157720546704 -0.35181467477673406 -0.7088221338425599 0.2802549574360747 0.13345532913079913 0.23200540110850515 0.5967371400530987 0.7059512570747808 -0.09800691676044662 -0.2539269846881695 0.49344009199080685 -0.1424819595514752 0.4080930844242541 -0.1003903314133376 -0.46402934691698605 -0.3070397089710979 0.14387577588351094 0.2426854760039256 ]
[ -0.6352355658895302 -0.1021565654865844 -0.5457618101351359 -0.10027905392272482 0.5292302974466012 0.8033832941403161 0.7201823285906133 0.28769848293892325 0.5018369967351728 -0.5136951728601201 -0.4844031948062383 0.04527448701919632 -0.008465315688542967 -0.02184516077487889 0.09908500009505972 0.2179224406541471 0.3278301926000304 0.322666537918111 -0.5354229147241002 -0.20526325997052153 ]
[ -0.12053039034739946 -0.26630914815957973 -0.22523257411505626 -0.39991073309277064 -0.1351230594140137 -0.1729498375810254 -0.07517590996065636 -0.31602475792376683 -0.005382079046532593 0.42163772376127506 0.1347186555377161 0.06416888355127273 0.047052296566222916 0.09984157336720059 -0.2701918746532683 0.6192676747156959 0.09944689770915591 -0.05305941249405401 0.15030640017007232 0.1755788424238742 ]
[ 0.2758261791649723 0.18360596074426794 0.30531880415350016 -0.805884638786128 -0.6054251155191013 -0.34596100321100776 -0.27876308711018843 0.48448334200859094 -0.12289284326570162 -0.3460512479134641 0.425567571653693 0.5190999860271444 0.03223207202445673 -0.6312544453833526 0.15175975342507858 0.017153383592170834 -0.14655658026688936 -0.18315808304466322 -0.14249906766335999 0.20227582814048065 ]
[ -0.5764061786993171 0.006827990507297936 0.19215315400695313 0.028018732576855707 0.27492249444521083 0.1978316378945723 0.5817791584270133 0.21430680843273495 0.43037541109196753 -0.27952404922608814 -0.21925859827135083 -0.2383711504845409 0.5264599188302966 0.08728545646603482 0.2238624939270858 0.19494911093171827 -0.0439183539302418 -0.18857742752507173 -0.5654150993802097 -0.669993974981997 ]
[ 0.5909970683223512 -0.06422146257477922 0.43768008149395604 -1.0448852514343756 -0.2870276553340652 0.18096711423744158 -0.8502198642781957 0.7421828251182312 0.09408694052255202 0.2887394774009633 0.5055800660883782 0.2226096740524762 0.303241310642001 -0.1715587738917169 0.27875126017674395 -0.3528940164329023 -0.8949808879517409 0.05416689574625572 -0.0158111841404906 0.10794084693712906 ]
[ 0.4312816836324149 0.08278922008077967 0.7228305822571558 0.7849572954385136 -0.5848989662552917 0.3185778033930549 0.024883788844735216 0.634926626177024 0.5971656567358204 -0.4493883275501778 -0.10006189837513182 0.010273340698326526 0.8277977738095325 0.2350621605547375 0.17017005380679054 0.45452661312253345 -0.10891814708459713 0.3053678632451876 -0.6283425017552239 0.2321412657524484 ]
[ 0.23196383160317247 0.2146930152531153 -0.7960292051224865 0.8121145293596642 -0.08601357999800655 0.39066789621811054 0.7564323967002025 -0.431188160395014 -0.07715943581023374 -0.10676003940467782 -0.5066587941892515 0.05677834230224222 -0.9268536889842618 -0.760632854960185 -0.36349385523700195 0.6888776512615598 -0.2641742091713403 0.8260427190094349 -0.2069403563973641 0.11871277807992305 ]
[ 0.3532541738134804 0.46029802864225705 0.6875610435186925 -0.03237649006854109 -0.6102703729250126 0.14597153062932905 -0.16021414723257874 0.18378114881360352 0.31814922886349484 -0.0016873983939675466 0.13711385531902137 -0.04619480193050721 0.19606444286907604 -0.1619290578884455 0.14340962583987915 0.22015747564103422 0.3630539449746967 0.1418243891566388 -0.205405129349671 0.19795816519576764 ]
layer 5 Activation
tanh
layer 6 Dense
20 1
[ 0.14387751651406688 ]
[ -0.1905459266323151 ]
[ -0.24234916132728435 ]
[ 0.07553372703595979 ]
[ 0.017737956075286047 ]
[ 0.05075593753074154 ]
[ 0.05650081745241979 ]
[ -0.027860511357488904 ]
[ 0.01604790878863072 ]
[ -0.05423696722840174 ]
[ -0.04362533504856471 ]
[ -0.018027852592452508 ]
[ 0.17051295964315608 ]
[ -0.1484905312448859 ]
[ 0.044757966774152856 ]
[ 0.08813030537100709 ]
[ 0.024309317613897204 ]
[ 0.06640303299172312 ]
[ -0.05045395343422348 ]
[ 0.03596935417669766 ]
[ 0.21620787837221672 ]
