layers 7
layer 0 Dense
20 20
[ -0.21959251976235616 0.1610347785660925 0.08251078047243528 -0.0789174866610809 -0.022511791420934343 0.03673238916910305 -0.40872999149510925 -0.4824581970565255 -0.2504626004032805 0.3287668374521891 -0.046319975148792526 -0.1555830993395042 0.22878613103644316 0.16212874023554075 0.1809063787772296 -0.44012837673805344 -0.056471717474885615 0.22724609156026543 -0.11830998264693585 -0.22726544302252666 ]
[ -0.318955133492155 -0.28161456030126825 -0.05612803666280705 0.07976208048216815 -0.3190186559795706 -0.10573315335883937 -0.3114920385141706 -0.08978269292968931 0.24283974222471727 0.20229466095620102 0.23730394479675174 0.24143387947048572 -0.04810940772558819 -0.10562782595780561 0.10789483588700682 -0.24781212324326152 -0.16177343212714945 0.004650169761423078 -0.09587164403576119 0.13405255589437165 ]
[ 0.07063724841067232 -0.35315222896869686 0.27215775594010705 -0.35606688866312447 0.28743680407589717 0.25993058996162083 0.016432042381171613 -0.29068441536431133 -0.03873678898978667 0.03333255305115653 0.3282414512586527 0.16648781913280122 -0.38661361083161055 0.11068740096778162 0.38000529495644725 -0.013763337172457615 0.0823595483101129 0.16205321180652854 -0.29805617512649385 0.22007185856494466 ]
[ -0.17394354790288669 0.2938407702952563 -0.38150781524838673 0.4127840064740755 0.06218006768651141 -0.21295396818550397 -0.02886440543180446 -0.16762382402206985 0.08754255229903397 0.05395601505655674 0.11974191141665733 0.14021660389225796 0.3043748938408342 0.21155335155242577 0.0823844699301764 0.018772860578949658 -0.3612686407329297 0.17219157359539417 -0.2779857208058101 0.24687669416758637 ]
[ -0.027276024430253003 -0.08996531065511451 0.1559891476501128 -0.1674987437827905 0.2948952111695313 -0.024391180762771542 -0.28666440606959587 -0.5517309236172047 0.4069964878469468 0.0003132110630434924 0.07903672403577913 -0.33856258692344565 0.2123591734241529 0.3056235441930191 -0.22404206484772263 -0.3836136550282867 0.42452194894140793 0.47703753342115823 -0.5051892820076809 0.16682869532570838 ]
[ 0.09515739999888788 -0.21682348972828466 -0.32239613113714116 0.05870100229542921 0.313040174447053 0.07596985698274694 0.16223957347758503 -0.27385269889015845 -0.27345421353149246 -0.056150387889281526 0.16285062779542156 -0.06255348891309144 0.09425267460699813 0.06807776250062565 -0.2120841961438274 -0.16339790593573666 -0.17525950568506907 -0.0777452972903216 -0.13737857938899883 0.11467314436236214 ]
[ -0.21123648017736946 -0.1130471285207905 0.32109299067700703 -0.30340408458011475 -0.1773352076567245 0.13121083835178665 0.15009152285158855 -0.07468081579521539 0.14795939852802575 -0.1525513240319099 -0.1416470839175665 -0.15381518563077026 -0.11962707523584949 -0.22865895340065315 0.03486132096015431 0.3499551479062842 0.22720539541088153 0.29470291962276884 -0.22894408516796194 0.0916707645339943 ]
[ 0.2641191590059512 0.259761816674994 0.12619710582049992 0.09328267340770045 -0.33515187017678477 0.3821436204734401 -0.11563709746057363 0.11493564300225793 -0.3552275108467117 0.2976838007377958 -0.13186929582010265 0.043476286924072065 -0.13696453884786244 -0.26704326379702975 -0.05577454360530322 0.006239281738189665 -0.43247471811408417 0.1748811941816201 -0.12437292873222297 -0.24671466962230737 ]
[ 0.5135993251222839 0.2985905596267044 -0.05323922574526561 -0.004275250936077516 0.14644927464743393 -0.07727378259601415 0.22176818122452446 -0.2124811823693386 -0.05660977251052907 -0.26913426588335015 -0.4455033887804235 -0.19800877904585007 0.07449494526108554 0.4016630481431336 -0.2657413493223691 -0.15768518282282404 0.43118446266191385 -0.060514823168370466 -0.6713773813953713 -0.2873275965001077 ]
[ -0.5428793610902664 0.5168325138228211 -0.1469186742202758 0.31389489183449326 -0.17877343749819477 0.30566576728140044 0.3192551685438283 -0.09048928763969837 -0.2502637710655953 -0.4287391691442791 0.09023835377201082 -0.35163081948179753 0.025398226389948313 0.08327366902147525 -0.6134532447741985 0.5254358306583785 0.008849504766576012 -0.13326870645758707 -0.3370894006271841 0.26459485745583883 ]
[ -0.17844725096028585 -0.344670085856353 -0.34138849971925206 0.21535736303244907 0.2595399311929777 0.07396091418923326 0.2992097348057176 0.38107878994824607 -0.24030362097066704 -0.15056569142445603 -0.100694152055017 0.21822833227487534 0.3168338037915431 0.11642797761837148 -0.3123713960420328 -0.297480617214827 0.2539486222959651 0.06666439424200088 -0.40120250545365366 0.03967037054814926 ]
[ -0.29796057479488847 -0.15271960206793833 -0.15861266037052146 -0.4540253089571179 0.1031633665472584 0.5556188751881733 -0.2548282845895821 0.40777904763059614 0.3532395091551881 0.017917935331900055 0.29246303810962837 -0.2536858387728324 -0.7433485418199545 -0.3882632489128627 0.24595903088692675 -0.7969024703556284 -0.0599071973089492 0.48186619224947164 0.054905907365561446 -0.03564487998865772 ]
[ 0.3228488697811282 0.31699063520788956 0.29953248910310626 -0.05300157278822385 -0.10608567735478433 -0.5330453591234373 0.08051317674332245 -0.2092089172054828 -0.11694738364976516 0.30391724878693815 0.261106162167994 -0.11706530816891673 0.18082347222343628 -0.18225826811604093 -0.11020321093805588 0.3495411115821636 0.26607986268203665 -0.19091546488781005 -0.6199825937261964 0.3235792897346121 ]
[ -0.41894334634049457 0.15412259388593016 0.3650004551777685 0.1772382125009532 -0.34037680890618227 0.03533400108729135 -0.052998596114846835 -0.19626507536928547 -0.6558139399220505 0.2636808604389998 0.4474527020244747 -0.209819262700704 0.17970066293590492 -0.4012269322214538 0.11796356719018071 0.283362211649534 -0.052544659205058915 -0.5575059966418745 -0.14968329006791253 -0.22394014461990686 ]
[ -0.5859300594810373 -0.25506022900625397 0.2867229716524461 -0.0702857202495764 0.12189658037681961 0.3402770730322114 -0.20399613897355365 -0.23063781685255877 0.2755443562921936 0.48708475762973574 -0.5402334892598913 0.34959681814586513 0.09594512999185106 0.2943994190544327 0.0022454571299059495 -0.016511139657707348 -0.1682050088353015 -0.34805871901133817 -0.22075769082562158 0.2433030455804613 ]
[ 0.07116298593517022 0.09653784508620586 -0.29915129060415985 -0.5390073473163997 0.3891043340985608 0.34064849280725357 -0.6242562870793759 0.1610396763439216 0.4548794734147388 -0.36114078845289826 0.6756586882812902 0.01907590976872888 -0.6170342331545432 -0.18709311713780918 0.802041652338226 -0.43428306746590056 -0.5489953773734493 0.6423278641505935 -0.07348923931474562 -0.2155456731357159 ]
[ -0.13686369630566184 -0.21190821896268774 0.7090475836285232 -0.28192266829435 0.04521632128249613 0.05134469615861655 -0.7501218877786878 -0.4805036529728246 0.03196667012200389 0.20592024720099797 0.5009813965431867 -0.043393363996080625 0.09910871669365567 0.2768478906654074 -0.3007171837586268 -0.6830390000477943 -0.03107480631382127 0.5805901027217911 -0.20092800427070426 -0.19410269046376696 ]
[ 1.3780418489741713 -0.9039711279549199 -0.43997483073782573 -0.021267208086644153 0.8141450720318613 -0.8062845673720108 0.5793823971772384 0.019330504677205294 1.1536252717319504 0.06058669024012072 -1.2592033394745443 -0.6681028748699648 -0.05160252794384677 0.3121978519753732 0.6839339566520612 -0.5112779681062294 -0.5403182295415275 0.4077437159943432 0.46240717661266967 -0.5307275830645709 ]
[ 0.6407561257259894 0.49260633765473427 0.3674244840876817 -0.6505156299447448 -0.7298764620119151 0.6627558812444531 0.2554634636471242 -0.2882171726532725 -0.20026558862565588 -0.8399401172721469 0.6710428550263515 -0.198476775605138 -0.8332479205881916 0.3928147889981687 0.46559348745458656 0.41557803005269867 0.7684948853079524 0.19735349524723655 0.3962569105873342 -0.08010516525535961 ]
[ 0.26812314715144525 -0.24630165238770277 -0.07157487394723759 -0.09781054898216908 -0.19930107150466667 -0.5058754722088762 0.33620073485009283 -0.3277164328904911 -0.6186361209180062 0.023803603795293882 -0.6269831020699295 -0.22872499932628867 0.5440321597989827 0.1362282519162533 -0.1682249281113529 0.5177129063547556 0.299575646885088 -0.4720853345391841 -0.12898722677283436 0.045385795905981 ]
[ -0.02376929672191961 -0.003494691006881392 -0.1654336812199671 0.1476298853584821 0.07518684741790006 -0.023354288726037373 0.05925847225185279 0.025258072942007187 -0.03805618692228785 0.06841724144582934 -0.04904571809232828 0.016097589637633913 0.0641370966310751 -0.03756128874238444 -0.11271514915990814 0.11359807464061998 0.0007852882409964189 -0.14535781175758467 0.1665861461160751 -0.046969630429271256 ]
layer 1 Activation
tanh
layer 2 Dense
20 40
[ -0.6905119398246568 0.28835244470603183 0.1530278275905542 -0.6106614710072861 0.44918334890711725 -0.17689223676242807 -0.051065008366756114 0.18050346918521637 0.6396024558293963 0.3174012079837701 0.08157294028947447 0.22772512137445852 -0.07188800809501249 0.32409165303513976 0.41267794895839616 0.38636156055637105 -0.4389857807344611 0.11540917373453435 0.04474549378314176 -0.03248934942230324 -0.2036481583169066 0.03204794150202804 0.16956218313654492 0.25009293333563 -0.0123869481454927 -0.32743130287664635 0.14486376016036132 0.45171489523663416 0.3929683629544266 -0.18165207230151315 -0.18545596263827413 -0.2171463004756134 -0.22362705899084964 -0.45088954181593593 -0.12479242335671324 -0.28457087523659724 0.19687253259566195 -0.23197108371251973 0.491145281332534 -0.3958639479877878 ]
[ 0.0721232075362834 -0.0743974058988652 -0.46534901067758383 -0.14213584797487905 0.2323211459110869 -0.028477173096528124 0.21896002004289952 0.3130439718114303 -0.19530773714264568 0.18487180915818524 -0.001124370957541386 0.24765927106355493 -0.3015535596233133 0.23323904502680906 -0.2410434035164973 0.32291376485796713 -0.36278697574272045 0.2090565172629568 0.11383582085531614 -0.3292107495074301 -0.32485980906050954 -0.2055784311277617 0.06399785061610232 -0.10208567925231768 -0.04807761249694308 0.019607412820643922 0.2251395980434709 0.09933163521861396 0.1226072386277651 0.3891171209220216 -0.07769669728492223 0.0849503928776618 0.1296967313623328 0.2652135515885987 0.05832496160465109 -0.20604981169914924 0.44067028029513006 0.2895603240869948 -0.3813079718979485 0.08911578750839795 ]
[ -0.10674957670797203 0.1069583464070985 0.13295090604623067 0.36397911842522884 -0.5483097594614738 0.07567522169369259 0.42210730824997605 0.256968683845753 -0.42243956752607315 0.1555258430735115 -0.2180691993415542 0.3328710686054197 0.14541526238933 0.4026877985446125 -0.08095344021865244 0.32069070172864755 -0.3174456544375377 -0.3226495566593834 -0.3543699200971913 0.07766343700255184 -0.08978960999619645 0.17048705804764613 -0.04642288593744614 -0.4236840521322438 -0.05347506219565909 -0.26670423151396977 -0.38805962400351984 0.1529008976897622 0.17061648718629302 -0.06201455293572971 0.05186641521755548 0.10244765116421431 0.16133271881725034 -0.24364325474404566 0.0771364217973683 0.14221648285921745 -0.29818790574480414 -0.31241151717487753 0.13486086881202233 -0.032251259631280366 ]
[ 0.3725683294974718 -0.08902712388339173 -0.23704200960093155 0.21264997519527892 0.5331915106070326 0.23241548023658845 0.174142057457063 0.24512893601500382 0.1614207916243059 0.13401653679710723 -0.13270025441660502 0.3270409364345448 0.09197956767448241 -0.054397322707874673 -0.06104442194609605 -0.2718635431587758 0.45053165582524857 0.1295753883967314 0.3368521596999167 -0.06842459692538526 0.1684529588279812 0.09191689516260312 0.018975068128304826 0.015881739063577996 -0.3243859877901469 0.026623000902090146 0.34071321831680673 -0.31294461160113807 -0.235608789430088 0.13688490165672174 -0.08310032137196473 0.123173145910128 -0.032107249954419825 0.29035168707088255 -0.17554003338378135 -0.12287612335198304 -0.3052489145766358 0.10459344418888725 -0.28062665111326573 0.26902382639701433 ]
[ -0.060138093786200844 -0.20410419724774767 -0.24699506509684432 -0.2917549872762349 0.17263777601571034 0.0394502833618035 -0.38527547351537716 0.11382935640609096 0.053182094697151426 -0.2844206682815482 -0.3673555692699553 -0.5233156120917772 0.053376892712218765 -0.2581783447198483 0.041728816500251543 -0.23972998380703514 0.19117029730526644 0.16218966231831838 -0.20705167180672782 -0.12380831509773141 -0.04442713175821196 -0.21372885500807073 0.027583420365571557 0.17905984849752155 -0.29355258834441644 -0.08940772571522365 -0.1307995852027743 -0.22059918068664078 0.10175822757642136 0.11223028298839018 0.18349703657249591 -0.00881227821073758 -0.2657560549367252 0.2592678328369801 0.08146405938739507 0.05649331770454893 -0.2772322180776937 -0.09759069792522798 0.249253324453504 0.35062342734683016 ]
[ 0.2879126966544577 -0.2767937786818007 0.10324048732672947 0.005665927409535792 -0.38267088308179387 -0.06425984867694375 0.7149765757811679 0.27531535494861903 -0.992598182033569 -0.2913715969812773 -0.3765614118059498 -0.0222609041531183 -0.3234567386569363 -0.13071361889768549 -0.5253059579132647 0.01778203605318616 -0.025432087527606104 0.06526518338900257 -0.40280955936472995 0.4465031369727921 0.015078443843017087 0.03006084486112129 0.15175433680855094 0.37192767658961545 0.12028728730138948 0.20495369492875978 0.3053276614140258 0.36098633527017965 0.27692016522091784 0.2556314699969906 -0.11572968882607028 0.08346615002849202 0.07226507135947068 -0.07578858141167087 0.03958965921073443 -0.30682935328296423 0.6767974134701901 -0.026560163091809124 -0.7378219318241299 0.1373908677474222 ]
[ 0.14819213465723696 -0.18728301103413988 -0.21287709554141446 -0.3018718402459906 0.5246908541391349 0.2583980991537438 0.10800942520292099 0.16986428151375463 0.39948753841348433 -0.3964644676508741 -0.0481463487536135 0.3680951745785887 0.10735779459717905 0.26988708811643886 0.4468071061837794 -0.28449195883262124 0.018993403367336518 -0.24966077796658845 -0.29887315356977595 -0.11797027985065212 0.037779254298465285 0.14535871974465925 -0.1778801937390268 0.10288983959543943 0.20460087183943398 -0.043308774889374006 -0.022034623264343644 0.11818563207146146 -0.05733422430120971 0.052601234648792454 0.10130128726666847 -0.2701607010608432 -0.0582907102520313 0.22412262288156895 -0.15026622933948233 0.06385407810835433 -0.1715830982187233 0.27709617683421234 -0.18541587439098062 -0.19785192831498422 ]
[ 0.1367450603816542 -0.2759486039539869 0.41620545918420976 0.19463058169786157 0.5640607167501784 -0.04034309652890266 -0.2977807102146625 0.012648409984833662 -0.010127402860270234 -0.26713547518117303 -0.04823915982417732 0.1770523001235746 -0.2699952311632611 -0.5210966583790839 0.33679022675390746 -0.5413086119057406 0.5067454825611757 -0.07233037996084284 -0.34940601269671423 -0.07501510122774938 -0.28081784805939974 0.06361059184268833 0.08344601674196504 0.11268015479320931 0.4883793093359031 -0.011190990439190529 0.24478978017114625 -0.2500949006201846 -0.2242233848369562 -0.5039644967681304 0.18399502035741486 0.20689240716159504 -0.22375312952231483 -0.16673112900645173 -0.4149298305626123 0.11248285321865419 0.276172005886506 -0.2981809628037597 -0.9422071217506487 -0.01821437175856132 ]
[ 0.0576007242606182 -0.13894279833322581 0.13273991649912836 -0.002802301965322411 -0.30383657740062275 0.17495205773226366 -0.4017678317556264 -0.04316682180763666 0.06479772320423997 -0.14279600463759987 -0.29441739013985363 -0.6571472361175779 -0.05601447070280586 -0.30436395156015017 -0.19783908246969648 -0.05599785515682662 0.18940527796060147 -0.30291974237785196 -0.0853755314560516 -0.017434856226991695 -0.28192361508776353 0.08241075004836723 -0.17495447630245647 0.5101261860658983 0.14766090003835564 0.11520825350816262 -0.12363314159274871 0.07767666780064572 0.04621033895851372 -0.22372977290193496 -0.24011182303338363 -0.19598412648346347 -0.282862870444135 -0.23528128453168726 0.22023954534298726 -0.13629477162768144 0.27254991148676877 0.15590978394116706 0.12788029639318962 0.3984201703885084 ]
[ 0.03624553835411614 0.19177143119091955 0.09434481325397368 0.40691039726364203 -0.029293995622059022 0.08115984332116637 -0.2767306607892614 0.05719730120649748 -0.13100963600134677 0.2652253884088238 -0.3552536768144925 0.1964382774412912 0.07278053450409158 0.04030564916538738 0.10679696571981286 -0.3084194922484696 0.2887840319968797 0.2552859821099463 0.06426552065560348 0.09827220219667168 0.3309017085140972 -0.1968808052109346 -0.21381789483197572 -0.3865571202395919 -0.11513949449137652 -0.17988639812391888 0.10790956017582602 -0.10460143753580463 -0.1537245112028619 0.13645097422557487 0.16614421136232793 0.1617747302736409 -0.08543201014962536 -0.18030515024876398 0.1753199522672095 -0.2009454761971265 -0.008672403645484982 0.13618021240744677 0.2727808441131872 -0.058367248742467445 ]
[ -0.18364131437449693 -0.15096876886909172 -0.07811483868330543 0.562956560927682 -0.36230185234371987 -0.008275539219613695 -0.1256581764448303 -0.07634617097150909 -0.4401479180636466 -0.28728597167653847 -0.19360665633283777 -0.2477860055022519 -0.44525728484942056 -0.2257761127764653 -0.07830473391549636 -0.028847439734117096 0.29620230666151154 0.12924208761797834 -0.05020192188921627 0.3206132991090924 -0.5418030346429833 0.0811501401247788 0.029307463174385873 0.19973766965718692 0.3574590321984876 -0.09204271075260895 0.33176188445888055 0.3597344412221855 -0.26687499016548044 -0.36193786784107246 -0.23033802640290463 -0.1776882485753242 -0.31724477357827546 -0.00919362365829544 0.042544110258271824 -0.27708742885387017 0.61467633432293 -0.08328885099705785 -0.2892534569884432 0.25040169863839135 ]
[ 0.09466194055860742 -0.1370019766279896 -0.15712756062124483 0.23032405439040857 0.025370752126844885 -0.015451123148925706 0.017422885970553876 0.06999319763262629 -0.2032286631129963 0.22220812997006045 -0.35671807648465614 0.1550673828769497 0.06427897779299226 -0.37124834617979613 0.1986846736583349 0.011773138521138152 0.07112243876531985 -0.038408817893775545 0.08660583907197847 0.11092790329825437 0.03154466821920432 -0.03024642060539191 -0.23141667291709864 0.07356939349162178 0.06207333858451621 0.02515554791783184 0.24597556324686057 -0.014872675597527661 -0.00914811421000126 -0.07682910204940734 0.17487810046889157 0.2238187834941753 0.19602977271537705 -0.013628100724513679 -0.06425232956012444 0.11884192004764521 0.10973413231261717 -0.38139039398463676 0.08849999075965626 -0.07369143990477826 ]
[ 0.17906692333714194 0.12143526544796686 -0.23390685717101445 0.15420213432142793 0.28924645241288827 -0.016992240249130108 -0.19500175252992896 0.07976246287312011 0.22974581938884744 0.20876919521100457 -0.3592790547804022 -0.42439428310475064 0.6078512111154637 -0.2286269426812246 0.2026864397463461 -0.3300844296261919 0.4965420780979236 -0.16787452109221485 0.40129902808749596 -0.7849350038294794 0.7239595544832855 -0.15946409351024193 -0.47842933696100604 -1.056105203140844 -0.80414117285051 0.08697671686372722 0.28829296330638526 0.1306348953098024 -0.36670567039746793 0.6042458063795093 0.4872341599043528 -0.28826609350832594 0.11545427149066538 0.24884130748231564 0.30456115518387894 0.35589073805251226 -0.5218979994141988 0.22329939310559038 -0.1169567659444201 0.15377940591368247 ]
[ -0.02513685853891618 0.26536138662242087 -0.09545779777644064 -0.10296583098425602 0.12400885149048411 0.10487357139988737 0.14959072462658987 -0.07895106849764132 0.3048618751466697 0.2992235269696056 0.3420194990008845 -0.3324671119721869 -0.2283081291774703 0.19359770445665792 -0.2223469671604402 -0.0296181700586552 -0.3854284062758026 0.2513502176675589 0.16721514049748423 -0.010255404032273438 0.10922427823687597 0.2568268726287393 -0.28150087343599495 0.012131619514129936 -0.1039096454518839 -0.28365848985625236 0.10874381985781094 -0.1489227571434957 0.1485555576661064 -0.25307102272690235 0.2794666625699097 -0.002668682071878191 -0.0478822043496145 -0.0007826355801346694 0.11810308338663039 0.17929036218018135 0.11042516907337487 0.11438977744323006 0.5114431620318984 -0.017874412633738655 ]
[ -0.1295891493498958 -0.05250223583447123 0.3396740556425495 -0.10672186507956238 -0.43464198118893155 0.05156578461231875 -0.17489781340915872 -0.035088642974938945 0.2835336953969126 0.18110471567120218 0.16438259622771825 0.09690594587008405 -0.1838892934298651 0.2951699600234947 0.07912221412518353 0.09947625422529524 0.3688667624447876 0.09498580503911895 -0.19025815842677454 0.15473518549274456 -0.225029764542096 -0.22115150950664594 0.05460482508466139 0.06065888202863227 0.2914718472132771 -0.10301124860233506 -0.2979940121465533 -0.07781046850569882 0.1557674232896398 -0.19266898456418854 0.030297683093177055 0.058572802120855444 -0.08052203787617447 -0.3987122065014365 0.02760952163188133 -0.015045822338148064 -0.03946485229740754 -0.19853890641284785 0.36419752968198327 -0.18720031434240636 ]
[ -0.2799553673515817 -0.3493291925732578 -0.1110114714803343 -0.15773194320126643 0.48567314405967016 -0.18366458196932145 0.31845866636814285 -0.22578383708146496 0.032026227439689185 0.14891614251798727 -0.006877296194232652 0.5813541760012716 0.14617262669592865 0.04642882558553725 0.5334510772315963 0.2595848834433683 -0.30453446282947 0.15725749356597085 0.0362218427642825 0.24309049318034745 0.2776869303747986 0.13569844547078003 -0.4019368640850876 -0.20861448855083642 -0.21299784166171642 0.27254324978804484 0.35555006939156863 -0.02845662646665466 -0.05437031553454647 0.37175912377076836 -0.07762224081701428 0.09551477570731357 0.159225075049982 0.35256502447011184 0.11972321143162826 0.25952793843265093 -0.004393121531928408 0.09700506383839874 -0.02560075857412126 -0.3578178574217502 ]
[ -0.0447471204940835 0.006186228222342672 -0.29698214960388575 -0.3117210654213565 0.45214641176098097 0.16468734309383376 0.38563509254062445 -0.027471854629869275 0.016446529613401102 -0.056384323809907606 0.386663675277248 0.254771018166495 -0.19932479693854885 0.2484803883867409 0.2733118184389921 0.043672799350825534 -0.320437287586175 0.11730333990342275 0.03225807408161707 -0.25553136737427923 -0.1839654794300388 -0.020556147710406 -0.08447207651613535 0.3047023698786225 -0.21854060283851984 0.0990894385842104 0.3494643999153676 -0.1737575833127929 -0.06200822202954108 0.37911003032794305 0.08487340837952648 -0.25662705246447626 0.047314512767331465 0.353213060887461 -0.00029206260780822497 0.05004047775742895 -0.21234619567015575 0.4023257118252395 0.14047730143413947 -0.053933952047319995 ]
[ 0.13748220219558416 0.34686434150056905 0.013128681232228821 -0.31241049740221644 -0.2772679672314939 -0.21696963016759477 -0.15529444069811688 0.10496617893402319 0.06537483144106196 0.11775260013376844 -0.19158553777877202 -0.7574575174483754 -0.05062407044308138 0.19616739824190713 -0.2613983594057942 -0.1584141773213325 -0.14448503354848174 0.2798870235796282 0.2481428658597259 0.06091498575173967 -0.28861924803266653 -0.31015456677785763 -0.10330010513493959 0.2275082720774817 0.051083617892457404 0.11076962413489216 -0.14838206290415407 0.144265022689671 -0.26573950283844416 0.15488781266669793 0.24687748760051104 0.06619562355372202 -0.401027517364549 -0.2928526880120062 0.015124708893685578 -0.1520161281204954 0.2858232603943583 0.23644652569445548 0.10601538071782488 0.2917018741305752 ]
[ -0.04527854490867516 -0.4166770419288889 -0.11312893753740229 0.12851369534068888 0.1813770686329303 -0.10218293825458587 -0.5300498506101422 -0.00899967932313231 -0.11675430755918591 0.3857569164024376 0.09461942858996114 0.14565321750854837 0.14291984024415924 0.24955345344130453 0.292912050152193 0.07865289255241807 0.41767919827805994 -0.055130901338583525 0.1727786302269712 0.2445345532950541 -0.13687838403022315 -0.027514075355454023 -0.05725403588968614 0.525236523695607 0.662677248467738 -0.12398826986583943 0.094567202980667 -0.1653647594605095 -0.42176549013406506 -0.6249399144954171 -0.3337010706305425 0.3049314803841302 -0.356524684329414 0.14744337575905583 0.3254139884581495 0.10108620350546788 0.057896320709905885 0.34178836131978946 -0.19934099895290033 -0.5339880562528989 ]
[ 0.1667649436975153 -0.08381133913736881 0.042459138940624086 0.025045043109293785 0.06504930343433617 -0.1002323522936624 -0.03395710269767317 -0.0017064121515933026 -0.3948054146337616 0.3506223424590136 -0.2690367005075037 -0.284647312422958 0.12669615309475174 0.18125585663599497 0.07686938478465503 -0.279313113147107 -0.29753924147744626 0.2146367018132599 0.02413825959340836 -0.2640947425865792 -0.15130616875119246 0.1346392588590915 -0.22993665535406033 0.036341815579320716 -0.055089264193549835 0.11670385998458187 0.2957319319828806 -0.20559919334822432 0.3010181442766451 0.14414059912016888 -0.06094625738014483 -0.2400864575838873 0.3721462624551017 0.059409404590957685 -0.09876149613407807 0.2627758848759323 -0.044347577645233574 -0.09889271835009397 0.03450825057863454 0.32123424999837663 ]
[ -0.0018823449034424745 0.019809875672121363 -0.02402610452235664 0.04511367483072501 0.09039140103145579 -0.004056167384300741 -0.027366797045969657 0.13683949662290665 -0.07950124979784225 0.08574276639562625 -0.21199365731857153 -0.14162071896771594 0.0416680760742348 -0.03619662234246841 -0.09917057269318985 -0.02099107308670447 -0.004986235395926142 -0.004529626603936443 0.26217520332039224 -0.15549347773175962 0.0045898128411689795 0.04551742407429032 0.048395058027494185 -0.011671644102532134 -0.03864269172444868 0.03771655532255818 0.05721376420785487 0.025732384007354822 0.009407779495709761 0.16772159971892817 0.2539238739493125 -0.014794883835479401 0.04706531075780165 0.06253145650215203 -0.12068177142695402 0.05063627594668805 -0.02170239689619559 -0.017358565946203674 -0.08523688586480532 -0.05870123078652284 ]
layer 3 Activation
tanh
layer 4 Dense
40 20
[ 0.027978563843010423 0.02474215419134756 -0.07775839682291621 0.2268887321497996 0.17199282624166562 -0.17413880127034045 0.23059960511741256 -0.06257103288686525 0.24608464029264826 0.09365625861349289 -0.16567931987051837 0.06596507434306645 0.18061237293000904 0.21367093957016028 -0.15080353222476808 -0.05608536846314653 0.21545514969451224 0.05040361175292401 -0.023011253998513476 0.19732863195440922 ]
[ 0.11564343023628103 -0.0364727480275398 0.23123931210943358 -0.021682740809338324 0.11344497980169457 -0.2928434051291522 0.2789046948733285 -0.19711972012646745 -0.18367853632851305 -0.2582902578401496 0.43108367307404083 0.28067918841525286 -0.3190764239813028 0.22984990208676448 -0.028638126755996838 -0.23968554149448018 -0.31986191260147323 -0.31247522948687273 -0.10459133950045686 -0.001064336607174687 ]
[ 0.009727206703647651 0.20222911345743627 0.1775276285960701 0.16055206589444776 -0.1116441823673045 0.21013334324124422 -0.14076149727896142 -0.18730311975476585 -0.359691039273494 -0.11301249132530843 -0.19000205600001535 0.19520911543201563 -0.24214105853428605 -0.02007858078568508 0.14016623883642065 -0.1939937624197769 0.13722970054651262 -0.3701682458703428 0.30100711671368796 -0.2989148072839574 ]
[ -0.1443779778344354 0.18246765691522962 0.10136570659133637 0.5099520363990745 0.07479248643892361 -0.3537051204266047 0.3558716437737014 0.15901963958169513 0.1611544959517455 -0.11543453339818312 -0.20144043294045327 0.05563408957906524 0.31768213746456225 0.06717315271993454 0.04331417759625784 0.14533054912673088 -0.0035772776468740333 0.3663793655698594 0.1836804034395062 -0.13594715084223216 ]
[ 0.08510383178526729 -0.11487231451560993 -0.2993689945441515 -0.32445873727804575 -0.07903628443800204 -0.05502908710074909 -0.46078227206238626 0.13632712218459367 0.4081690603271224 0.29261859467604956 0.25878496302373016 0.007833933460469322 -0.3931766587480396 -0.34496301654163863 0.6417667189471958 -0.22323798716980295 -0.3762092293504353 0.2013327805120725 0.026824765762721837 0.3470433447349022 ]
[ 0.09021980003645556 -0.06369958567374451 -0.08285868253782906 0.137345827803084 0.14066607608928836 -0.12316656557175631 0.0426209299047894 0.03513713876564074 -0.092380673472157 0.21719468845031462 -0.1349257152961162 -0.06880856613129077 0.21614419688785752 -0.13635411363450575 0.010441706173116266 0.04025367032166971 -0.13368911827750654 -0.2739489559813102 -0.08358200013383303 0.06411292606219396 ]
[ -0.4077791677621829 0.16198888096344682 0.07844440810765954 -0.37340597688069765 0.3109254242405304 0.32855868749694506 0.0463356692863206 0.029316463945519247 0.21019208618320018 -0.12298342020170956 0.38628177129150304 -0.11936371973066946 -0.4024060001218572 -0.1964800954065097 0.3078174360294915 0.023029999190892436 0.15671718909242421 -0.04055384897002978 -0.002277530624968034 0.12189986006517312 ]
[ -0.09411443436935486 -0.2463669415892433 0.32892602933416754 0.02853250437234481 -0.13131321947871677 -0.21189937375166035 0.11861392603655638 -0.1315155266854171 0.005808057088542756 0.11466186626436264 0.19432189035990866 -0.1717683109235441 -0.20036207890349178 0.04390721576610897 0.16791887419319435 0.11536111774320759 -0.2366790583687486 -0.04807123016261348 0.059526411955973954 0.03125226159142204 ]
[ -0.2624461471112156 0.16463804018450995 -0.55773432570672 -0.07542610571197726 -0.4030719345406075 0.4083836196182595 -0.4853809119773851 -0.16671563941404652 0.037486735989369704 0.13592602746795227 0.3776588384886708 0.13219767540468352 0.051963371335049975 -0.07070155903832294 0.12257135395845244 -0.1786786212906309 -0.2461662928617588 -0.4339631951255874 -0.4571854295272947 0.041656586933087936 ]
[ -0.03731158895264862 -0.2122792254000696 -0.4200360994364291 -0.44552764834211545 0.14404160509441136 -0.017543857239358442 -0.007411068841277403 -0.3804505131000268 0.15029573022392437 -0.1680701449429797 -0.2892129735161392 -0.0346157855104505 0.07284811520747676 0.1324011513152944 0.00853018535263578 -0.1910952231665199 0.23836145123412567 0.02474636093619417 0.14174325974841817 0.18389373479886906 ]
[ 0.2960575909811072 0.16621174708159342 -0.12455215024698116 -0.2885794334383249 -0.009012286575730267 -0.2541522340495863 -0.08402527149350687 0.16932501263583896 0.1430705710153187 0.12278665328718466 0.1962123274609471 0.038541826025132314 -0.11380221618372181 -0.03066262489535125 -0.0636207916831948 -0.18900969399016326 -0.2365287935782382 -0.06347739233426002 -0.10752068354778259 -0.27202657583093715 ]
[ 0.12081095575167825 -0.2792647286682178 -0.11803592791751731 -0.47908508642594316 0.3540664867894001 0.379483722174465 -0.1762338721666224 -0.11402305741316687 0.09160478379857656 -0.17625580825492468 0.3046049798518353 -0.04786279170089634 0.07951408896382872 -0.14018355124035634 0.38585734950234163 -0.2418051722416033 0.19666176731538795 0.2261693573099359 -0.3782120745871252 -0.09129681396367181 ]
[ -0.01735723884654219 -0.047855744876278444 -0.18611397834063054 -0.04623324644757868 0.2300183408654517 0.0821783353133651 -0.3113597340458491 -0.09522757837478973 -0.019672341284773815 -0.03518246955875676 -0.35579125322463234 0.15895971649223303 0.21389299090819558 0.10175844299240785 -0.04340027155623461 -0.16993994074634666 -0.1259830057281503 -0.3068533965294442 -0.31400362770376783 -0.024865635275358282 ]
[ -0.04891029479187377 -0.10722394590695035 -0.42364810931032526 -0.5493799699116226 -0.15108887408267763 -0.3295323621148884 0.30214409892954086 0.24484939617280108 0.26200988841427947 -0.19354056714773352 0.13300719585073356 -0.17038355643897102 -0.2281142535410185 -0.2752712628490721 -0.3141714532277348 -0.1931346641102881 0.04863642171452621 -0.15846967227596023 0.03725066255558061 -0.2580005951387316 ]
[ 0.15482636540459252 0.1752730986590889 -0.3500329987478283 -0.4804265324735805 0.2323784626995629 0.054951617349509964 -0.3639152095110862 -0.024428370029837387 0.019965252752211077 0.13168315792182916 -0.09747871385712856 0.1690536354437467 0.12781798929519977 -0.24240930443717632 0.15376665932773492 -0.2249604048296618 0.10702004029220077 0.12370235451949788 -0.2874991991016112 -0.19578657204527267 ]
[ 0.05655546121179021 0.22129230190039756 -0.3832877637937003 -0.15137269264640982 0.1735762204587001 -0.3497189913341309 0.23030218123710372 -0.09540071519064074 0.018703551172717648 -0.0669544762029894 0.04055987782734109 -0.1322436454203202 -0.17350107494202308 -0.3216061991683417 -0.2390484974959171 -0.4163122067854778 -0.0783038176509874 -0.2175770350799498 -0.4632777474645269 0.01639203834159905 ]
[ 0.22811133640365527 -0.2165051236869673 -0.16871644427217772 0.13297980600282877 -0.47594280951556844 -0.23851609294856754 -0.2090251898853936 -0.2572232285417717 0.04652557391799416 0.20971992636924616 -0.3152820096843937 -0.17273366828312803 -0.13266466631792026 0.28154899479971957 0.2820939128138406 0.3006862628635427 0.29475681309965274 0.41077311413831613 0.45647355322014677 0.1300558673570973 ]
[ -0.1802997446001567 -0.1461102992113523 -0.1585549061744186 0.23466046205553645 -0.29602520997418924 -0.028629371532059536 0.05099861523291396 0.28486477853462977 -0.11746605971543682 -0.1336379413803419 0.16942262531803234 -0.08184057600897784 0.0879360843050976 -0.1905517267192084 0.03697187732934641 0.14519398032681138 -0.3080993267931673 0.26440782920744155 -0.25880582471906505 0.07331756703416431 ]
[ 0.3261094212865912 0.11448672451342232 -0.26360207397582197 0.10090971285874008 -0.23217076026252673 0.08878986521463753 -0.0616922336676395 -0.10747473651878281 0.1411834233576953 -0.06440525631016386 -0.1187620809342273 0.07723847720433384 0.028631988766422773 0.08442420091795937 -0.007208192850966325 0.22886181927447505 -0.32505384943611915 0.14207669149356134 -0.007047005265588851 0.051881144898818024 ]
[ 0.28075035785825586 -0.06429193296293526 -0.19681676270588663 0.15002709626695235 0.3391097612531758 -0.005691625633527065 0.3766030872773292 -0.04467776936066678 -0.283112083534612 -0.28653146056545614 -0.19008243784734558 -0.15305200816430692 0.06713673407989532 -0.14664950094977908 -0.26602998880598205 -0.2505983144375911 0.3257429555024298 -0.28223758298135837 0.32897909411529597 -0.39175527607856553 ]
[ 0.0804734163574737 -0.33416016318257225 -0.19619148638681486 -0.08727376289701766 0.15042766239017513 -0.01499698512245288 -0.32846680737395634 -0.3210868899082646 0.33110380872542794 0.04672257915768364 -0.2856683065458361 0.0625171093374508 -0.07526842675008107 0.13439129663199023 -0.0026835840283812988 0.10155817202226795 -0.010075579406954839 -0.23139883090533703 0.07295290831279715 0.14926013222602474 ]
[ 0.12476700449535345 0.16393140718612523 0.06028726653050222 -0.008838684161561151 0.18212794770926713 0.30572650322951006 -0.14477213018725596 -0.09798151878119046 -0.04307443440698532 -0.05810394474710081 -0.2449737017692467 -0.009320383736282623 -0.09716258945893735 -0.18622611489149388 0.26721308554862805 -0.08295253519275095 0.04391543339433431 0.14980513261207645 -0.25981339721098906 -0.19903515184255616 ]
[ 0.08917658642982759 -0.1688001420008499 -0.08365268008116132 -0.1863027798428827 -0.10854303700161902 0.12901951446503174 0.1559654813375639 0.22085089726083826 -0.11938036371999923 0.24307535717056558 0.31921121613286146 0.26828590592063906 0.22589383704838892 -0.18664607199037134 -0.16312720543832876 -0.08752807951009997 -0.016467904412108852 0.03518277420958983 0.3427015107452513 -0.10074069706781373 ]
[ 0.01284212599003179 0.12722156288920758 0.16570426456807968 0.24340596273555418 -0.4220677933253496 -0.1517849184118198 0.29169239094330446 0.35571114131390613 -0.21476547540572552 0.12368127648088773 -0.1703177421315122 -0.27530345014949087 -0.13221308545208968 -0.04983339740729408 -0.264344044190707 -0.30767843102411235 -0.13484022297389628 -0.05346524058402359 0.31538957345793617 -0.09969937736828594 ]
[ -0.1608053923214155 -0.23999942388259385 -0.21462756600456204 0.1431934884645191 -0.2823513596840658 -0.166537023828717 -0.15250499275508825 -0.16238415354391939 -0.15769856500725246 0.26493420814760543 0.05501383859043197 -0.4542138472450702 -0.14799746792011728 -0.15425439456043105 0.05326118280514368 -0.20665318984028527 0.014467182613334089 -0.029704156914352183 0.3834474068550152 -0.33060579454837324 ]
[ 0.04383200670671102 0.22108495872968784 -0.011103406976966126 0.11896920197826888 0.1620146907049951 -0.10200010591790763 0.27304914287825316 -0.04541644296829864 0.3790954880160726 0.08187733711537759 -0.007296540712263191 -0.3748260185306068 0.15919732704292328 0.22917405859737178 0.3941591275347929 -0.0736859505831334 -0.1994437142260569 0.4933099041258065 0.05055332671811538 0.0007616653614001917 ]
[ 0.210884806013436 -0.28157653963577484 0.21401320495258572 -0.11928671942410093 0.16459957151598448 0.2266652476014793 -0.1105840423107824 0.10344714147146113 0.22444791778183948 0.26732651241747973 0.17035738887240226 -0.39507505614777716 0.13304789947596976 -0.13645056903140165 0.4503380314185735 -0.06711633267394947 -0.17410495474464013 0.551506731770937 0.2295226441339451 -0.35410561454869294 ]
[ 0.0013786619016597982 -0.28806660667333084 0.20845499285698973 0.14873314042502692 0.02394797983071521 -0.4372248600626259 0.008497882737106518 0.24125820686501556 0.13286517491883815 -0.2741179331530845 0.18658194354676605 0.1868924168551409 -0.1227793246095149 0.015043043834725128 -0.17739244526102735 0.00614079455498047 -0.07360465204427868 -0.06613176009165528 -0.041460026596332286 -0.1910446213771859 ]
[ -0.14387260491007128 -0.3185349572525896 0.052907863835850534 -0.307063592852664 0.002688436647100988 -0.22807771121166873 0.28895175691219666 0.16342869311546696 -0.11108171878252264 -0.13389025131287544 0.11009703015490097 -0.07219053792399842 0.21541109240757014 -0.26431963685359944 0.05237471193349739 -0.1834925899195084 -0.02958144604523426 -0.3672540311564932 0.175065462899542 0.03526489173308144 ]
[ 0.15652077254743102 0.11828838439133567 0.23211278087930096 -0.25606648983237507 0.1548511369821227 0.08736477918340645 0.1258736791581185 -0.1287018183152965 0.2097867089338834 -0.07033568637538036 -0.12276089723316269 0.42058966548728904 0.21952239315969213 0.04937196625522187 0.3387858756098397 0.09342795835274456 -0.23777869310654215 0.2838338313627814 -0.13026950131959683 0.4168414098557416 ]
[ -0.024479169767458262 -0.28829741279069326 0.025527049685333175 0.007792220694581816 0.037476217921789644 -0.09339646613808972 -0.290328166024333 0.1747814508121398 -0.040517069089713885 0.15365385360183037 0.08810475552739713 0.36756353077995346 -0.3285002437737115 0.09346307249744834 -0.1018856707364936 0.20940863860976264 -0.20806317664084395 0.13742582236976902 0.14538191577777013 0.2550182150646977 ]
[ -0.1683187776291114 0.19671864568946743 -0.12377485520759393 0.211385531742463 -0.11624241624125733 -0.059481038992987345 -0.08860662909331186 -0.12296065589980748 -0.1268881282107276 0.1510250702490233 0.013402917427417841 0.19914416386747805 0.26343326287455093 0.13280058540469128 0.12013260243979106 -0.07625003126820669 0.04121817143019202 -0.23507262378705104 0.07901928745140742 -0.2106135200560047 ]
[ 0.12489750638294246 0.053233358492085055 0.20448083222782093 -0.40190123415643575 0.3333542785680952 0.027958189342329243 -0.24361750352780187 -0.2759845704496578 -0.07460312662513499 -0.007187897496828112 0.16743279196181307 0.09724931684017801 0.11725907257084704 -0.10736883861162877 0.20868401106959464 -0.20508532803500967 -0.009365899893647745 0.3745186186575721 -0.4764465171877172 0.2096769229447015 ]
[ 0.05278803453343257 -0.07493890670789535 0.005382446970558151 -0.28720299880010186 0.04719845328845826 -0.2176409318593986 -0.04981816636179282 -0.007090717363463154 0.34904823386399497 0.13438203819320402 -0.22335748007252287 -0.07253421120654796 0.11292693439792326 -0.23856270653398845 0.13000890157953257 0.1197321777821221 0.19683559467705852 0.3165766104540754 -0.07941143676621631 0.14582691013290797 ]
[ 0.033307181424874995 0.23353634477706584 -0.06185291035330719 -0.08840549618994066 0.34123031502147977 -0.2634816262854611 0.3149374724152282 -0.06350876537808194 0.02838801588312658 -0.12732352732424482 -0.2816799387516417 0.09161763945763382 0.07547378284125708 0.019792836227738052 -0.314555159975744 -0.05951823166210726 -0.16005991385351315 -0.10771282359219236 0.059080145411326175 -0.16189701058630862 ]
[ 0.09824821456688754 -0.2644223036433197 -0.3559472015874075 -0.37844207488178316 0.07453895437007922 0.026909083924074918 -0.1736139619216075 -0.2930367683410566 0.1300598998474508 0.36336555233101936 -0.3755359881843487 0.05762366016559424 0.3187601041870897 -0.13525446012020734 0.3676062209356746 -0.07408017031206686 -0.10880866949418737 0.16095049268902192 0.0555236126924896 -0.07808058236178717 ]
[ -0.24027650843689402 -0.13676018160084644 -0.1805308746902621 0.3306255830247403 0.24115347600407513 0.26367644539977353 0.22462443165412835 0.2831756239812877 0.003716779785406671 -0.03618468117870183 0.4172293305088515 -0.29728609323874616 0.13682402824595735 0.06563820462920446 -0.38469817303591075 -0.17978132823076975 -0.14181848966298444 0.1882706394599597 -0.0022790877057466564 -0.2112542679085595 ]
[ 0.2103921927352455 -0.298739717161775 -0.2551051399352174 -0.15639851284866504 0.22775693972031666 0.3033798519952001 0.1539920153809094 -0.032507512129943274 0.3451832955835483 0.2114628377687252 -0.038848886972734434 -0.22899181085330295 0.22315580929711198 -0.07971056590699549 -0.029609737631806767 0.09135140295406204 -0.21456960529049773 0.37792632923323877 -0.20396832282771274 -0.026928903378682558 ]
[ 0.14031867888561375 -0.31096214885069695 0.01143039376492318 -0.426408027423514 -0.23838778542043684 0.06787199373974742 0.22543354310289088 -0.29095158483547606 -0.3101576306859766 -0.3233449384407324 -0.061637556401250376 -0.19467072636945956 0.2059907048610071 0.22666333463241134 -0.2612652498786806 -0.32260349526357046 -0.32327342722073504 -0.26291354650990073 -0.2881696968528403 0.2831018864055345 ]
[ 0.19671799266746262 -0.18939784020376688 -0.14497152282613454 0.3129592631124846 0.08234843922824238 0.25563082714538055 -0.09580621216499655 0.17291469593149997 -0.039101153988241495 0.26475258617753256 -0.21592191967389554 -0.0110830697949446 -0.09887636217872245 0.2751486373074695 -0.0892681131954412 0.25436512484926743 0.03737202929230471 0.41174346743136775 0.15265322688509755 0.10804841624508435 ]
[ 0.001119305140662118 -0.06613379390107985 -0.07304345015776573 0.2465459446382694 0.04527451523862826 0.083561720699255 -0.025894863775431567 -0.05321594984808055 0.03427314530903301 -0.036409477564047346 0.027966274990805024 0.04211161890800108 -0.03903224991505212 -0.03597608486084444 0.025537432029390572 0.02339792196372608 -0.13642329439059256 -0.0030692526441493824 0.15069569943463137 0.05804415781387172 ]
layer 5 Activation
tanh
layer 6 Dense
20 1
[ -0.0002187545524453106 ]
[ 0.016803536708402414 ]
[ 0.11149936484619956 ]
[ -0.20837038207917324 ]
[ -0.17854108554590295 ]
[ -0.005097715540756738 ]
[ 0.16145544548204818 ]
[ 0.29902779694062886 ]
[ -0.2870203266065992 ]
[ 0.28010774117843995 ]
[ -0.24663971229974999 ]
[ -0.13134561899370054 ]
[ 0.012915781823580965 ]
[ 0.3039078136500685 ]
[ -0.0921903999657205 ]
[ 0.3486877844033214 ]
[ 0.17278329028455358 ]
[ 0.1526189614509474 ]
[ -0.14836679545114606 ]
[ -0.29656576922293426 ]
[ -0.030677177913599307 ]
