layers 7
layer 0 Dense
20 20
[ 0.2264617392674566 0.35678257838625593 -0.2301291138741261 0.1470800680282751 0.3358631198286629 0.019994283844683765 0.04775254295466103 -0.08822800833269094 -0.2567023164686325 0.005013760093167717 -0.45329498731383405 0.16619597506974243 -0.23571258650409965 -0.008671896967756417 -0.4617893527366704 -0.10819598793148488 0.14359239881522895 0.2745246073474847 -0.12777531450482907 0.4130752375720874 ]
[ 0.26980940110694945 0.10547655702954066 0.150661654904606 0.37809924716725557 -0.23686705225002871 0.015005317323640726 -0.27705336744113895 -0.04611050399177049 0.28202803706727375 0.014025300742256847 -0.26156863521806967 -0.1669129892436405 -0.005544293004968234 -0.0752922903045369 -0.18181474274554285 0.05820465302427535 0.34875181378464265 0.03853126077339895 -0.19949645523691714 0.31231227907943465 ]
[ 0.3647997994790513 -0.010414638576356333 0.19756204702185734 -0.07759880940912592 -0.28655450327237636 0.14733644776119761 -0.35548605394394506 0.10171125623280833 0.06875102972759678 0.3065883416862495 0.23909252265017017 0.29302489258560244 0.08647300795548228 0.13251818775849886 0.12054095762860467 0.26317212180046257 0.25042918759491584 -0.004712067659861376 0.0619610047757235 0.2680675526966157 ]
[ 0.021310536682099337 -0.37300332205791764 0.06817336447816123 -0.14947372958263702 -0.25053650540883177 -0.14751827720080377 0.015353532834712504 0.12237180715885163 -0.14310482202363872 0.2729273192543736 -0.19435843984423234 -0.29270839624473066 -0.1027153930287213 0.39357760493103333 0.09522395758759074 -0.17692873616300892 -0.17534955444577213 0.2392815176176349 -0.23270038759077372 0.03478995169970744 ]
[ 0.4733361710058616 0.09775037730630591 -0.13829257584394564 0.2193137415927051 0.41144785124050864 -0.21321273329158358 -0.06786710994659155 0.12299710216608817 0.23486970913104924 0.45112995531062844 -0.10248578634180366 0.036082546350461306 -0.6713363069904478 -0.3369892180217087 -0.08741815834122985 0.337772982961255 -0.18413692209915453 -0.10093277120181916 -0.38000580642887016 0.7140883543152946 ]
[ -0.2238503207713127 0.2767560083306928 -0.35919196431637457 -0.20456100652310963 0.371740905158353 0.0709585449235257 0.26986922135170743 0.010376928383360608 -0.09646515062224023 0.20206232411070546 -0.1280165967506129 0.11218394756195431 -0.022868068298190374 -0.3150248856551374 0.2830943636774537 0.24675680636226255 0.08330647679406947 -0.28819523974465605 -0.19137139537182207 -0.038243782565312245 ]
[ 0.12841920807443902 0.09126123385477519 -0.12608715349829505 0.07055652806080867 0.23836643554204578 -0.3006466398298116 0.2401941069113767 0.2931347320967229 0.25294025766238004 0.18800394567993606 -0.18482791805128382 -0.003356030105626687 -0.35218652832223846 0.11554819070463763 0.35196478821246074 0.24222786208332855 -0.3108316765218916 0.3502976974543654 -0.06311472679246563 -0.09431146106539559 ]
[ -0.11900728746236107 -0.32290663438353895 0.16777268316234342 0.19897661686861745 -0.16695136919330555 -0.1556625584478106 -0.2648616547783134 0.009859551481583281 -0.0631524508690466 0.025048699425870402 -0.3818663219030019 -0.139739823824113 -0.21235760994909858 0.181381265380608 0.16462744791286354 0.2553432364173506 0.33622107904182796 0.2046705392567203 0.1830735221824878 0.0396883773696321 ]
[ -0.6828547721993151 0.11898472891192967 -0.057307854718600795 0.33249540111973136 -0.23928211913382444 -0.1515352673930957 0.7696637321476683 0.351741479186598 -0.052683248705600996 0.15834884015475 0.19739612601769616 -0.3440799172353676 -0.711590648840073 -0.23622151983801745 -0.09932828588452003 0.5701979809956312 -0.1139666104288582 -0.5258924018514549 -0.15776037323829237 0.643452925957481 ]
[ 0.29849793109968725 -0.8841288562213205 0.6794618702904167 0.7797493044663921 0.5751100504581294 -0.6662141946321939 -0.091020085833323 -0.8095960899573189 -0.46408978964354486 0.3392977568553752 -0.1286841955815398 0.04914757117064731 -0.06255045454887423 -0.9145535129252714 -0.4596554044954158 -0.670440169099402 -0.3782104163780174 0.013592337844078223 0.0633229751271957 -0.1768301495133011 ]
[ 0.11121884649863771 -0.34495821230980783 0.10634975622756943 0.09469622908840214 0.5733694440195917 -0.335126364225382 -0.19277844389656923 0.5642373856989829 -0.45390508608928054 -0.9009739057086522 0.6530484278450427 0.543569962351285 0.297556132951907 -0.9409839504598648 0.2884511289898355 0.2598517159367247 0.4667377528125718 -0.950900459308318 0.7935207095401398 0.18941703479917657 ]
[ 0.5441003142792847 0.3714627642133224 0.46693055958567636 -0.07288192775689238 -0.43755365710094335 0.3420904298253665 -0.398011993039031 -0.649337282646274 -1.0560431809196535 -0.5355909357668837 -0.8973747123897955 0.23790278480242882 0.4338449444254232 0.20212246945880427 0.3865411241892044 0.9791592525396235 -0.2831063926057423 0.5885391095769372 0.23618681988624673 -0.5004610588471177 ]
[ 0.055894637352877495 0.0807742779193723 -0.0019973655222583733 -0.2653458997733351 -0.1797167075362039 0.06210118245636956 -0.08373055297824697 0.06621705074967316 0.1510183747115689 0.30268424628300805 0.7017484653651714 0.2274896526521102 -0.5973216018339751 -0.6748563117993277 -0.35360731681459473 -0.44673087758674296 0.10743252596654249 -0.13087900133090663 0.1473870518362265 0.6578131997069887 ]
[ -0.22559440647957654 0.42160146154209033 -0.5096217486735963 0.1378580621138117 -0.24998768916585817 0.26151121817792555 -0.06933591436534689 0.3456666368607798 0.12585588804779418 0.1539959140473162 -0.24890301705429108 -0.021599526467310042 0.026732415378585218 0.18434547671476556 0.2777810820551034 0.37136131177009485 0.33561674080834314 -0.299693636259884 -0.06186842599611752 -0.07143516989044586 ]
[ 0.2301883192646132 0.003964572646932507 0.19082388762983557 -0.19692604661782 -0.07045051689624661 0.024161129196740398 -0.2793243424214138 -0.13017250279501252 0.4699689572461675 0.22696466213814911 -0.017309838587458166 -0.27437996320073554 -0.2883818302776143 -0.07131544079976299 0.2232305266089714 -0.05948989136275121 -0.07545573327283801 0.43135048514600866 0.11799828954123626 0.14045304817251952 ]
[ 0.6617300990671562 0.8028754900314365 -0.29007159843845876 -0.5364712547507325 0.2860547341419062 -0.3306735659020565 0.30000271150364377 -0.13460601389239182 -0.1771658280852314 -0.021482066776339962 0.6094851501460069 -0.06315800312360811 -0.3924959459680433 -0.36789188862477223 -0.7071401905120107 0.10161021910075696 0.20425688641717243 -0.5879903937875518 0.330264001200498 0.5177541165505964 ]
[ 0.7784860067390543 0.5310869062976187 0.2914611004308279 0.09156324922634046 0.059908972511919546 0.15884279868005222 0.27816162009145623 -0.12873002437225659 -0.24344228339477642 -0.10602812002684757 -0.04179641432084511 -0.08038561243934635 -0.26730186032055364 0.03782441216176036 0.3602594930446568 0.01226533160936024 0.07604887615945016 0.22785096245476943 -0.8446154165530118 -0.00931679902784593 ]
[ -0.23545135300599807 0.8548026185475018 -0.6163403023185241 -0.5632151348309185 -0.302835172129903 0.2987774910428038 0.7395493208531085 0.2515738266956136 0.7618359393035318 -0.29639588660856486 0.5731174049535201 0.06289791246693223 -1.3346463804656488 0.46718361563778427 0.6258527155016737 0.7182518224073193 0.6502608381710684 -0.1886950527758708 -0.02745189907063529 -0.07800446532221283 ]
[ 0.22575060633241023 -0.23949947467417687 -0.4482452584982065 -0.1523836596548902 0.27738211856669676 0.5535084954343611 0.32597519836761024 -0.4639818298026599 0.4649407145395759 0.4233125271945592 -0.3770837528815525 -0.367562695693963 0.10227721791615538 0.6261203561494497 0.11238800906383939 -0.17972538335886612 -0.2868177276977879 0.4274176692965357 -0.1616894208186409 -0.5988121572932645 ]
[ -0.8335795185667825 -0.778632666360281 -0.6016030187943018 0.1413069062357248 0.33001131490172014 -0.02869770530537636 0.1727667022515956 0.5122109953912547 0.1894339017669364 0.47321299437224706 0.24593262464954005 0.2574366676395612 0.26270332681835384 -0.4965413413308697 0.15830013319104677 -0.6646402153800339 0.05817665042578037 -0.0005421697465004024 -0.44545049936588793 0.08163854194579727 ]
[ -0.08662613952567258 -0.12256103637339011 -0.058430261323986224 -0.13101565544302252 -0.08080042936795569 -0.04495147705944593 -0.18623377497254512 -0.027757281545196192 0.04657599860582555 -0.04843770843254189 -0.019095563131994318 -0.13334724909591314 0.2057430828450554 0.09327279238117375 0.01373282290277689 -0.09458679864834961 -0.07399415094772968 0.1284284043025453 0.23090583908050502 -0.05388095947860054 ]
layer 1 Activation
tanh
layer 2 Dense
20 40
[ -0.4065406594827313 0.19549648818829732 1.0052916222626582 0.14095823150162182 0.2676886339343317 -0.30468136470216844 0.035895658072126774 -0.015253943997396805 0.1405821800607015 0.273441060736957 -0.18088111429865414 0.19460395544562603 0.17020344657282294 0.2242111662980478 -0.32271127265217453 0.37666772352699673 0.2328860245859692 0.4691035568095236 0.24122954948201533 -0.0723729564290915 -0.10013509616125643 0.04870944032715351 -0.005098428086632276 -0.39841753394174706 -0.5753839786705044 0.5124515981097112 0.20004283489174185 -0.22553237129121795 0.38842849933408286 -0.23354327604219374 -0.05397866727460301 -0.22415521904071156 -0.2635973010473672 -0.20375467411156042 0.3709901287604904 0.15979131937014857 0.36308589263070495 -0.05068678051033953 0.1411840466522724 -0.2995569008592024 ]
[ -0.5922581024888212 0.47922781658030583 0.588134743826441 0.23605012699170846 0.41041120583055235 0.3247750174993889 0.38624915418897726 -0.30083654954297584 0.10361197696209919 0.42692725059233194 0.12829389124412888 -0.09255594800775728 0.6326357680791787 0.21672110517594761 0.3046418389692346 0.5260117540356611 0.13737537659811794 0.27064335687684027 -0.3405408993868323 0.361338651450589 0.660476212762123 0.0475249849909748 0.10875017337846377 -0.34476684049441725 -0.5240591288070579 0.3449184751983787 -0.3081332343526843 -0.3628997761935571 0.21129597277190326 0.5330003878259655 -0.1978416184977119 -0.2653864762673292 -0.2391414529375163 0.33402539630532263 0.4412346676500407 0.05551293589048743 0.6771720985952391 0.11223713936707101 0.47743799310500223 0.19503225187696768 ]
[ -0.06119421778261288 0.25511997533854724 0.7286194860031182 0.12496668897740902 -0.042975334433857156 -0.234684676880911 -0.21415474440726512 0.16382354459075277 -0.05610491132600882 0.3497541779464006 0.21376836333331686 0.24094682607422024 -0.1835020164710657 0.25801252903277194 -0.25776242204292354 0.01741288027143477 0.5548435121872797 0.3329775347973934 -0.19495798326672384 -0.2777302881408285 -0.4496782254390185 -0.24118043580041396 -0.38124505788284746 -0.5178389298297557 -0.2648465881899248 -0.25533808140293385 0.4057928231353637 -0.008010237751749536 0.3535156552570939 -0.342838310738157 0.0934223525868146 0.11274067391421515 -0.4690256696155337 -0.28311135839506696 0.318877118863555 -0.31113653980003686 0.11120995650978807 0.38966129833422664 -0.15188834700342047 -0.2719993195780378 ]
[ -0.1313146366460826 -0.03444858475936006 -0.08125660468498462 -0.18275367043036908 0.041748805358957974 -0.07122520981230089 -0.3468699225810626 0.16866905545726932 -0.058510733829074846 -0.04778431878741304 -0.14079264859122106 -0.06963893465676775 -0.28849400483009763 -0.16972934046537344 -0.002681042002602819 -0.25163868924009386 0.18995970755029898 -0.17276507071093888 -0.21430329006082857 0.10372377896632388 -0.26995631463919023 -0.5162777816382572 -0.2598871222805501 -0.09467356251948401 0.18931224478518877 -0.1559143305746681 0.39055593812907713 -0.10114290490247706 -0.3314996020928673 -0.3450802638059694 0.015630852636086667 -0.017846996283626338 -0.1610554951230091 -0.3628064583392994 -0.4960068504257319 -0.06645937464909009 0.19294935808006605 0.04263859614667809 0.06816011956889746 -0.21241040242986525 ]
[ 0.3980317495268577 -0.24924209835706995 -0.07729973662396931 0.0050408781345267755 -0.320036170978761 -0.11886042551326811 -0.2533094003898633 -0.0011763257854797112 -0.00949058546761465 -0.221321860656421 -0.06998787509640521 0.15741007986275035 -0.008917767796611192 0.03392095512588221 -0.09634514323297233 0.45976004580032914 0.26540780219109933 -0.4416789468709443 -0.1358916323368836 0.32772213266509836 -0.055500431246508525 -0.05086358377920659 -0.5254075706696301 0.1932213198071522 0.3470643638293109 0.39393310010045735 0.05551736400275461 0.1685706203450329 -0.12877592685664396 0.18948643078290725 -0.35866583912569483 0.4167110115406284 0.07677261720438336 0.004334900371931616 -0.2563275065727931 -0.09389096576023202 0.3316043633873417 -0.16550966737427966 0.11659915514784838 0.08027550923434446 ]
[ -0.016681915308699374 -0.05852344685384919 -0.010662152741560686 -0.17168327112679566 0.37041351080612855 0.2830261766281247 0.37436585935504657 0.08759393340657604 0.02348629921791009 0.22621432747550566 0.025976001101171722 -0.31824184795363064 0.285674270013229 -0.3802967048198956 0.06914942358122303 -0.25818243793612944 -0.22992243144170815 -0.03593531397808967 -0.23263286169067515 0.12789558575624865 0.23589401186930348 0.3770591043611498 0.062085826693791986 0.11525244307046126 -0.01459059360951694 0.12275160662590935 -0.44560257472019127 -0.266850833515338 0.2621994395033875 0.29707345889500825 -0.13407742027740466 -0.5802809861579176 -0.1999093539546663 0.23991459384008157 0.06656995948649772 -0.03934633476618318 -0.09143034313158065 -0.21049284906730908 0.030229242132945092 -0.35852924391748436 ]
[ 0.21447255317773564 -0.09628705262248094 0.6187626111897494 -0.3127277577640463 -0.17841170132365844 0.07976248795140257 -0.055333995359318634 -0.0667816095695931 -0.011538215852409257 0.02485488966361961 0.012000151836618752 -0.10316126291801223 -0.09749056080804006 -0.10598114197763962 0.3201214857673245 0.05434071303866758 -0.3285171146944718 -0.20175358350169015 0.014133971304155009 -0.1569577460692384 0.21325206307181152 0.01174474176625987 -0.06346372555925948 -0.0430687622794756 0.016184620291436577 0.10548853721072149 -0.022249418837248812 0.20476826145116783 -0.10304023349568266 0.30442183626736175 -0.08130347581023226 0.02857474954637658 -0.021055698886902945 0.22877880942079337 -0.2554243111203128 0.09463723291950286 -0.1082978492412898 0.13320207275306123 0.17727900477843245 0.0035506787606466384 ]
[ -0.36928717758092366 -0.6557522484470723 -0.1003277466032267 -0.36539439710089744 -0.19134675325209163 -0.18059371476412425 -0.22450181562506588 -0.058290521984554804 0.08125125362171078 -0.19672643742618504 -0.04029101431609991 -0.8636581555973423 0.2591974291159369 0.013840427448442768 -0.2499764180753178 -0.3690878546983092 -0.11153145388521693 -0.06086210238289949 0.22369467024689085 -0.26199493266227786 0.2536990945224064 0.3567907854831996 0.2940774025519717 0.5119859091711937 0.279024917397766 -0.230210048988205 0.19568674279119863 0.3567598851839086 -0.6069494690983505 0.1412291551990373 -0.31092099101848303 0.23229998668908597 0.22479241125427393 0.41090208928964883 0.03593903919940358 -0.0531092569458373 -0.46352892907929366 0.08458281779100982 0.16875870190735792 -0.1814260211068529 ]
[ 0.5744520766856046 -0.04559498479188448 -0.36874118784426846 -0.3923246727455251 0.3650193515640323 0.09812661452903271 0.019677905430278968 -0.43134113817613623 0.33269328250168984 -0.37843955307890353 -0.23256942742877196 -0.6096204379608513 -0.1487739839712763 -0.018268389308476293 -0.2524828981227565 -0.20563800512423072 -0.5656990630761992 -0.491447435125103 0.1104794096524846 0.13149971859159218 0.024558610407777223 0.2506239373157045 0.36308994546189216 0.2899621102135665 0.09599679672036975 -0.06647070198018494 0.5022787006782558 -0.18783080271153196 -0.11960900198125002 0.2002918385802834 -0.24820452949167074 0.04966943165193453 -0.25304990081239975 0.45196859274944673 0.052636030933683776 0.334526466283055 -0.4071604106562972 -0.3080946609838437 0.07189392667970539 -0.013561230309096926 ]
[ 0.817442149227595 0.4974686786999726 -0.2747517029409026 -0.9000069835600183 -0.29498585319823445 -0.16263917278296947 0.28814566520506857 -0.20110443042382792 -0.10128451291780642 -0.13009741786671394 -0.06999949439325036 0.1585368000517415 -0.33535464615556293 -0.15331904077627323 -0.16578480368342297 0.04680063107186086 -0.5808856022195548 -1.2226143621114118 -0.010778789436122963 -0.1873896378762823 -0.37583089243254975 -0.07960229862256234 0.2070182652902569 -0.3213796307386202 0.2844300564932026 -0.16556342446446073 0.8436609785113924 -0.1272738701250709 0.31666246148265503 0.20236135947387757 -0.24106299212951524 -0.44768452666411596 -0.4342361142445979 0.07832034659747703 0.09231695105319271 0.0038774294731831046 0.016436297842508617 -0.8253372593856468 0.12749572696239572 -0.05505782358497401 ]
[ 0.09623550494132557 -0.5251497905877303 0.0169595022044449 0.24006481463871962 -0.11084605533237146 -0.3284892024984816 -0.30814279583219856 0.06409864548341028 0.1526233368778853 0.2709195708486944 0.13348217722637584 -0.3897925546268263 0.1460904350703302 -0.06802973104081012 -0.5812574051471002 0.15077020076186742 0.03794797571265931 0.34741051183222477 0.043802993877834456 0.17371078246644073 -0.2871561386075736 -0.2343566035010261 0.228256873944847 1.1796940757953878 -0.2653755731297969 -0.26220943118371026 0.09376039699419314 -0.0031204240867160624 -0.19223720455015664 0.05544972990570453 -0.09044059312021736 0.6261107327530885 0.060370644640407846 0.004120836655944269 0.48006436850234707 0.3660349046638884 -0.6000618410167823 0.02503756703457853 -0.38730370818499843 0.10277451318054323 ]
[ -0.2340533868762424 -0.07637734057841108 0.0610018930192941 0.23188448415687776 0.20556773730390457 0.08809507536998114 -0.11950981873387 0.12186965791868205 -0.23758737444993128 -0.17145575892609988 -0.06820590292177307 -0.0351236782017028 -0.18494336807309036 -0.09123356053307129 -0.04225172254040164 0.2982524574738672 0.0763156367021311 0.1346994396597027 0.28916898186643575 0.006696236378086817 0.014048495455320897 -0.03943636484315309 0.011306788981720287 0.19547694859936648 -0.19972081776127595 -0.2894278323594966 0.022385548192394335 -0.16250549845435922 0.05793533640671856 0.012838472916809483 -0.20315108816513514 0.1366317480612883 0.17903753505439549 -0.3235860871403359 -0.03308197145150603 0.27840353726625505 -0.23799965456002123 0.18166575341190105 0.14042523914270102 0.29487326965647614 ]
[ -0.47297237803334846 -0.058055017984450105 -0.8659230577627244 0.14467164823982634 -0.21263451181116905 0.15230581650938801 0.13501162154307605 -0.035212776589985006 0.03429093657929568 -0.12052308526778016 -0.11418839174534777 0.32789974974167263 0.18829898872195908 0.3993647593885666 0.3497397045846086 0.354150845982423 0.34588283424194677 0.5352459095236413 -0.08320788676877199 -0.15746082733024194 0.441598212616868 -0.08768006269483351 -0.5295183232845891 0.06610888372650757 0.13823492994681794 -0.2732735852304977 -0.3540703725281604 -0.04888749121364961 0.2755419332559993 -0.7792693869180972 0.39502555221333097 -0.27261174638077695 -0.18499450428009392 -0.3558139489327587 -0.0012426953169290356 -0.2705767074413919 -0.2564522581489169 0.0963225370657996 0.09210215123575236 -0.09846057216919744 ]
[ 0.0202331919662746 0.007564412722855493 0.2254915529733422 -0.02647978322892927 0.24055073139931935 -0.21522124619654498 0.020569750854807976 0.19457036455764748 -0.411386095719461 0.06092859544691887 -0.012931644434957664 -0.11246254680544335 0.5306016306963849 -0.35680829323550467 0.11987078732120289 -0.08958235002505054 -0.6154342946877399 0.08492046306300771 -0.35118262644668613 -0.25138185511833994 0.7121136459114786 0.673033926965809 0.27043788430933147 0.16007791507089525 0.2571179183738246 0.07525712241157363 -0.5667163077704277 -0.2166814970354986 0.4138230960485788 0.16862355052862657 -0.32495914375598006 -1.159605541644125 -0.21289964248130736 0.023074973487044338 -0.10310955124789527 0.19020330901974303 0.13126144773856338 0.11747931756231982 -0.41237672778630985 -0.2240899409674291 ]
[ -0.3537023021205849 -0.08432703019383725 0.2671817887829271 -0.02367807913487123 0.4958653361290153 -0.036794626943544975 0.10665407994888067 0.1668580724994078 -0.12854438084769113 0.015793734932674244 -0.0046735387760268934 -0.4554047183196463 0.42371289269184725 -0.10821536797811397 0.23947923134912938 -0.0509379834816298 -0.0021515926014420575 0.010220148003944707 0.2694108328355499 -0.007786315447493754 0.035782554636488384 0.13427375635189392 0.3040485542514095 -0.09504379088937077 0.07549746505598116 -0.3329454322515161 -0.09266928204013337 0.08779822770913655 0.21312131124819744 -0.4452713968428883 -0.3043984842551835 -0.3894101733986718 0.08814022221615689 0.0891783825828265 0.05851622465719643 -0.3834266732301086 -0.1184120685663856 0.3271445479048214 0.04161143558896106 -0.19887288737975184 ]
[ -0.16734083257855378 -0.19902652329904838 0.7845609822614062 0.48937095254181795 0.45358270779758747 0.14660936104039796 0.21213487754686378 0.1685226597624614 -0.15295232531756883 0.4890855396193334 -0.09923051141235727 -0.3296821598491421 0.0639714601033055 0.20169573773778918 -0.2205465183900349 -0.07957723439064629 0.044206398108075494 0.5957657627000038 -0.2513065535457165 -0.08649051756223593 0.3479996881802731 -0.03940941686127544 0.057732618256652914 0.05001153246200951 -0.5612775771945179 0.27939020253230806 -0.04556287667855099 -0.1454991874540496 -0.0014449349459073398 -0.20541302269313302 -0.14339133950056546 0.006957508305879556 -0.28292930465801086 -0.00752378188293745 0.1974756518980808 -0.2587465695988437 -0.02921228212776503 0.3743150788795357 -0.0030628109715536206 0.11532870124931013 ]
[ -0.11272678808241189 -0.2958269996533511 0.07648146580580084 -0.0869869451331864 0.13284416592587095 -0.14082238235455774 -0.24674977412119808 0.327733082507257 -0.16214412626814995 0.204840486226594 -0.030174866492747046 0.25456127981951454 0.2631421886662159 0.20439363017054368 -0.03592078568397382 0.05713640837365931 -0.09514218399291825 0.17756218115297778 0.16753966865029132 -0.13400300926354358 0.3300276968228837 0.04017675160363195 0.3272745377710739 0.5624002028893148 -0.054522714078728565 0.03163333640615635 -0.4214370087147462 -0.06988103157391282 -0.09160464799250011 0.28279560303993234 -0.05968394522939448 0.13273667962589786 -0.08517405574503607 -0.24225250903967313 -0.010431630698153244 -0.26794531887948114 0.009564646987497776 -0.09103261741955757 -0.24294270866179069 -0.13377408178546815 ]
[ 0.2624596755479406 0.5238284981001606 0.24777140024894187 -0.36144596236453347 0.10040187311895207 0.04634552779782258 -0.05893891640465818 0.26492791465233984 0.0285522268496945 -0.373466260357175 -0.03477582069107026 0.24966196972033386 0.09797093994358573 -0.22363959300016262 -0.06634299730149762 -0.08268325449008909 0.09200227880708785 -0.5815311685466235 0.17616304173332414 0.11676594018134412 0.19524420816813245 0.42232922583200455 -0.2682556382619038 -0.589248701821472 0.3523057451796679 0.06825938293407187 -0.011467276446739016 -0.3362571273159964 0.5029661307122884 -0.019035273737001878 0.09994805902643775 -0.5435439185464066 -0.10925588310557205 -0.34057554844171395 0.024809841765648592 -0.4613401672883626 -0.2043757868444028 0.0539472568009306 0.23476959256150473 -0.26057611793398955 ]
[ -0.4297354808394934 0.10150404562253586 -0.23540632212391202 0.28101528495650807 -0.19619566444400713 0.10476808306926681 0.23851235851238953 0.24134703012929037 0.08310479819574167 0.0941124224460296 -0.23266790815015978 0.1689188213429105 -0.026773332746474282 0.05822096201229419 0.12927940176305838 0.2632298822015358 0.41796554730189933 0.2833274811663948 -0.19147710631096138 0.1666565486240476 0.06826414648874143 -0.2879679708322015 0.061126099580971024 0.39685049979152787 -0.1294718583977297 -0.05826110246446835 -0.11928222334041255 0.22226205153163875 -0.07031319208675445 0.0009711269122704069 0.09264666744587514 0.5213916070699006 0.06284261979360141 0.15724350781203328 0.5223927694144356 0.009818758830404131 -0.4404863800308003 0.3883732654594826 0.1881884475720506 0.24856448434147452 ]
[ -0.2262777055300773 -0.2818587779453682 0.0796526677975932 -0.1535376513181456 -0.22143399792958557 0.07495593029863563 0.06879142525104594 -0.40724557392847227 0.17602473920021716 0.4581595562344381 -0.1619607643476926 -0.4183835542553884 -0.2653045717724661 0.31074918600966933 -0.048303062700433136 0.1584844526166781 -0.18007453345859023 -0.036270536453101576 -0.11010849053630754 -0.1369826329078644 -0.5458024205032984 -0.3590291790686005 0.2728320689688964 0.14309266107279128 0.10894774444060543 0.02283254030848045 0.3707160840523764 0.13095108083163545 -0.42851727232867715 0.4171156526533238 -0.22822273722737046 0.2836455420254947 0.35362975278603914 0.22654104953490994 -0.23595565474830357 0.26074996199008593 0.40422062984657964 -0.0821630848768801 -0.16091669808685516 0.1931693636766811 ]
[ 0.09265552943822686 0.028674947358633178 -0.07496377277007787 -0.032787828283849595 -0.1755890449418694 -0.01668146672321267 -0.08819821890792554 0.013766812071462601 0.06272170910359572 -0.13660107036035024 -0.1106137229783988 0.10037888694608695 0.07929740532251468 -0.18014289411908901 0.0036125070601505053 -0.07683558162705796 -0.13920981757891182 -0.10825483029284676 0.08987275238938752 -0.008450411007208827 -0.06313475036039679 0.1324384838737544 -0.08818044418653251 -0.04135697039542642 0.14280912430636913 -0.1017285535386596 0.08109836043061891 0.03765842980357526 0.15104675334743883 0.014289126593943876 -0.05756262972947084 -0.031055133370367045 0.01682414852804185 0.05702765041645744 -0.1794787154029052 0.23274745154774454 -0.0711111943909673 0.008527794828055477 -0.051647704109159066 0.01008525313822718 ]
layer 3 Activation
tanh
layer 4 Dense
40 20
[ -0.36755108230178957 -0.24795268627562767 -0.1669488768110395 -0.13017963681636066 -0.24260087458920693 0.21974275202094154 0.12456912417174278 -0.14411203509261034 0.29665064932282065 -0.4714515091639681 -0.059688382056798835 -0.14833777551925037 0.2351389030414359 -0.758259619713586 0.3635138086896753 -0.16657390420605325 -0.21683559228622692 -0.4702501227498964 0.2377061817203743 0.027371761778148998 ]
[ 0.07389365155049084 0.01842314754095668 0.15201174971580794 -0.24907582414108123 -0.06151998337879153 0.413065569141208 -0.2514203579485381 0.3352641506926127 0.07050075320913887 0.36933026179242195 -0.2916089783203845 -0.14932718678973408 0.37070346261606235 -0.1216093585684332 0.06468997420592405 -0.08088034611811892 0.10081076713494977 -0.375927879294239 -0.14949468426220872 0.013311461678906424 ]
[ -0.13525351296325888 0.11710201632186837 -0.11347453396183814 -0.26336184610852326 0.2192539403530117 0.0529951713893055 0.2044088156315136 -0.2939656269022321 -0.3633557916839462 0.5398387431817224 -0.49331521984641274 -0.029145650721348722 -0.07688656781208184 0.032751346531820026 -0.24767884877035165 -0.21443649447129723 -0.3617145022164013 0.329319625423328 -0.15529286567722958 -0.33771618814418364 ]
[ 0.3227925450559282 0.376939810319272 -0.06815175895703464 0.2904275344297818 0.23672471875705123 -0.43586216723085414 0.47293976441197066 -0.1263354480057718 -0.16875038289559852 0.14129616985277124 0.4711788678873383 -0.097997661981027 0.02165982890545557 0.24925143278142664 -0.00500744932885723 -0.0748093283069331 0.16489687122530408 0.11218794646266429 -0.020326937482373655 -0.3021520020471654 ]
[ -0.146028241051825 -0.03292352921602906 0.2960361839252174 -0.05818580514893304 0.29220424260028083 0.4241531334669476 0.20430961285684104 0.1987665115606569 -0.16347012132732042 0.32745064068120483 -0.3745268900093604 -0.08705535722869091 0.10206538533927682 0.1926716499218678 -0.09618507778867952 0.21983287963828094 -0.37296460232696127 0.3162590811583419 -0.31621045482104854 -0.05712205971958089 ]
[ -0.21188975888591363 0.3237034859727288 -0.21024016537636644 -0.0692505453580942 -0.2741169990145386 0.1346505844703258 -0.2614696714411893 0.021740317600924704 -0.026176999049615086 0.04545739568260999 -0.12465150851956365 -0.06682221827365661 -0.13865657837212014 -0.07038272718205771 -0.017124825307367808 0.18367272386981093 -0.11234947863749502 0.178379913478343 -0.2324360432445304 0.06435227614390654 ]
[ -0.03555131508828065 0.19503518086647662 0.18203942459057706 -0.053126412418902196 0.08425323171077118 -0.09711464215708454 -0.04334267039666632 0.05408742486495482 0.09878336452296631 0.18381280699656533 -0.369006732856872 -0.25537496199796283 0.1687931544985563 0.1921120134323143 0.19476202409792379 0.26547596603975004 -0.3095656733352242 -0.07889262203562378 -0.17632889890604744 0.199050914040477 ]
[ 0.3030381965380162 -0.4086894859252376 0.2667669320440588 0.09019224773549306 -0.04766447566589635 -0.12084653621602726 -0.19761958191998394 0.057859334623081536 -0.0260602207082522 0.14669995677010847 -0.09672270248876924 -0.3262791885483582 0.044886181221975865 0.10866184171067429 0.24564417201384617 0.23413858071475152 0.3354205889924672 -0.016595253680629415 0.09694347980397748 0.18700398769919663 ]
[ 0.15325311035382308 0.43387254607562725 0.051727876664562314 0.01711423218962023 -0.13095115519299816 0.05755811123259176 0.15973549912462098 -0.26687626278351667 -0.007862680567486074 -0.1977914001058222 0.1876799825934333 0.32951056328258094 0.08632059174889505 -0.20023725320120042 0.09659416113666235 -0.1198870990214028 0.14150351603389194 -0.005392114397392011 -0.07836722666947149 -0.12835592771728502 ]
[ -0.24626026280102872 0.29585465197820565 0.33408174398188456 0.03886230064782359 0.036104383632759196 0.1120335808818113 0.1384107589819994 -0.2765217828945307 -0.3156554185184627 0.12866348825695748 -0.012505185319966049 -0.3446184696380798 -0.12542807070002174 0.528736159028623 0.2291947071794813 0.14088642252673098 -0.22451140309749418 0.054537590518044646 -0.3860424474234302 -0.1097512625369075 ]
[ 0.04563732519951199 -0.07347854062114326 -0.2736596086046168 -0.0034933775185019295 0.2055985080250238 -0.01327819028883678 0.10194115602947816 -0.18919885980792803 -0.07884798373056547 -0.061065347345858875 0.10652067119687962 -0.4598603159602252 0.01501276323920082 -0.22158418189999707 0.06029505089850748 0.05460839752151333 0.022124885589576506 -0.12569167258673655 -0.06823803595949131 0.0986327078155612 ]
[ 0.32943350852195796 -0.5174253299507364 -0.2752654889026804 -0.12310409973472129 -0.16145530280318432 0.38897111060302075 -0.4110124180852264 -0.12970475311532262 -0.13095171943982095 0.497100145397401 0.28583235207845303 -0.1816978268183476 0.2440155636854161 -0.409604928222671 -0.14769312979392996 0.04352509866911511 -0.02165415660373857 -0.12913899832141698 -0.16077832059348826 -0.3869971920769321 ]
[ -0.02311616520543071 0.316707245380335 0.16031521136399743 0.14564805652767698 -0.05105191293601637 -0.13049134639338053 -0.31677892069466723 0.07059292435417251 -0.26341625362618665 0.34825654041994103 -0.45909651584516675 0.15389697851352588 0.19845267885067028 0.44119513633562607 0.06860089321035126 0.30412158009332596 -0.17598114637190906 0.1841248106151327 -0.02492929229884577 0.37013170558434627 ]
[ -0.2211090656968777 0.1411358301615296 0.2151572054605959 0.011039640230882788 0.0019398764116336838 -0.11323271676011305 0.2171326898603993 -0.3225330057866155 -0.08660567542697055 0.12679585545846211 0.0851150978273255 -0.06026991561458169 0.12941963573112608 0.3900524397338386 -0.05783008135738397 -0.15871029771602765 -0.20148171084593433 0.23128672616924542 -0.03285570807311005 -0.14068025729951333 ]
[ -0.17845376084634973 0.05614398828398688 0.20171270116197101 -0.1086373124153809 -0.3108008216947307 0.03490364346787136 0.09271180697991789 0.25200139399847726 -0.05461022906452252 0.25179249010970983 -0.04390770595182573 -0.3267386652068359 -0.028965387438035547 0.09528576275246536 -0.19440353863689233 0.34926365060864023 -0.028601682187449236 0.3835615430907344 0.10713678070144793 0.16230780165303074 ]
[ 0.0577427154179389 -0.061389338904603324 -0.07985246228466596 -0.048875135093998365 0.3735587905056048 -0.13417731905100566 -0.12188481280193719 -0.3193819548798097 -0.07027353154302125 0.09017043016327861 0.17101357600630215 0.029966897016680063 0.36846683209204767 0.15056165546644928 -0.06446165017415742 0.17045655560495707 -0.2752252400417793 0.04706983228704239 -0.27328373868417377 0.09745872088388022 ]
[ 0.40666296466448354 -0.12294637748590463 0.22006949797276765 -0.11284665835482945 -0.2546898072358918 -0.24068125930168888 0.18366716592632745 -0.03959840648879814 -0.19746335973909143 0.312215825423802 -0.1719813010670068 -0.012610650006894531 -0.16865044801090273 -0.03253506418296015 -0.11238698059477487 -0.3109552661374024 0.2671449986024402 0.259239531847855 -0.3417659739338179 -0.3094874338938152 ]
[ 0.23872479685516018 0.15331965908783945 0.13313343465838529 0.3232528797735827 0.4075509887241273 -0.4759415978438368 0.05022539553097089 -0.29938738024765515 -0.29514654221942943 0.3160466350605334 0.27510636118280013 -0.0696959382772959 -0.43241145170833717 0.061732709164175815 0.22556215777925495 0.20023649443751343 0.1412837707502529 0.2570976378900059 -0.3228644368078688 0.06792824469006045 ]
[ 0.358524187307745 0.2499976532189095 -0.06354039863312907 0.07435919254654608 -0.12152461158627821 0.08168461523977363 0.047098043277468526 -0.04611248116600876 -0.09364174434561098 -0.22791409296788115 0.09930750542979855 -0.1437041463631272 -0.009929011259568304 -0.07153314151762767 0.1319352320613073 0.1513814278021206 0.12243362929895142 -0.25592188836945545 0.1774706632111539 -0.1935834460344301 ]
[ -0.053561364320053206 0.25954041585046306 0.053177450828633385 0.034053374883005416 -0.07699885573607979 -0.4563803796395993 0.39548325745485086 0.11490522623171485 -0.04806077095170539 -0.15117147575151435 -0.16676356401328163 0.03797950024958937 0.20396674689036245 -0.4272637196247062 -0.10981665838850536 0.27216238630489004 0.353152686679738 -0.16589701944496707 -0.17205540267562724 -0.13630076520841147 ]
[ 0.2266426973695513 0.045760169812504844 0.19065418735213982 0.4420912459965084 0.09004461428394993 0.45867624067975504 -0.12526941632219116 0.3393785076221176 -0.2976227439401012 0.24065056006466354 -0.240213988251818 0.2086410701364058 0.21585689135351072 0.4060816452817428 -0.21536855271477517 0.5068920739186331 -0.27046011012624677 0.03353530098216132 0.24291983530375078 0.4464507850782147 ]
[ 0.017441037694555437 0.07493959244766536 0.25839201356712466 0.33519785296010085 0.28200196503702507 -0.25069413562641557 -0.23444313233507397 0.054718606184342766 0.2070968944401997 -0.14302105925366448 -0.24956516306201867 -0.021583860537063092 0.22546964111339696 -0.33431709687696215 0.18833814367270038 0.26860454845193726 0.21714848941197346 0.08195915933236106 0.22424771520209094 0.12776644305254192 ]
[ 0.013649074952293075 0.36456147693301694 0.09504707671024502 0.07628002652606018 -0.007086258122105741 0.0153144682700408 -0.0813195169726687 -0.3242751898217082 0.3002563500463002 -0.24068785313460905 0.15021692214292237 0.035259106876028595 -0.3598964135157713 0.3328648608539036 -0.21651365631581443 0.2204527340130431 -0.014663906030892059 -0.2187204319811461 0.16671977870182852 0.29805843541483606 ]
[ 0.09587463309906098 0.06917072591405013 -0.024916841408883887 0.3771151968187498 0.2214029227509882 -0.2846268445443149 0.32182162891200977 0.23189230088377055 -0.36447471094084044 -0.315904020498426 0.03815783289694642 -0.023259694580764323 -0.20913772806799852 0.4859489009033463 0.1607201691296578 0.31594068519748597 0.45456130754949214 0.08000169625114317 0.32312847547701484 0.2664942686062125 ]
[ 0.2097424601343412 0.013166950185908608 0.05571371011054965 0.2289594348200208 -0.21618159247776034 0.27991590313707726 -0.1630905661986915 0.12267126792071834 0.2615195339252006 -0.4214923565569749 -0.06405265418791738 -0.18069782312603147 -0.007786646032183415 -0.23484567066797496 0.0557033035682865 0.2527415091109464 0.1000966217363608 -0.11297326114368847 0.29414742528925386 0.11828138911549077 ]
[ -0.31091375911034946 0.09498579307520234 0.13312168088654355 -0.07849765718769204 0.18949105384581116 0.2506064528114065 0.13513674305416937 0.16767491218802452 -0.05250595354563678 0.40775996371229906 0.09190142849426462 -0.21997190595924135 0.052392481725903516 -0.023291132727013816 0.0026600180601116853 0.049345818949473014 -0.3400214758568916 -0.1443223321699407 -0.15769586062090754 0.03475276386517069 ]
[ -0.24190714304396543 0.034286455679784056 -0.312624014251096 -0.3313703801898679 -0.36127041114651265 0.19903473440605163 0.05463892719516998 -0.5093047844967655 0.32931807224423726 -0.3365026774682501 0.04297009048655873 0.4289057478184989 0.02298481431685965 -0.4601278049371027 0.12763933112390194 -0.33553311108534306 0.1207232094198344 -0.0967045754297389 -0.10549021955599364 -0.3582788318250374 ]
[ 0.012615355705819998 0.07644615059342287 0.049572737325342536 -0.14692100191279847 -0.0749688582293581 -0.09273927328995293 0.10008680063363051 -0.14399117475173606 -0.18230114753920515 -0.19698294615849316 0.2628228483626609 -0.20168959219482083 -0.27492169245600345 0.10746603748554509 -0.11292786861616476 0.017479778746692924 0.2760501221085153 0.1654232946523951 0.11930143399598019 0.12012732660856623 ]
[ 0.13345750755782035 -0.2805475434087417 0.12753469991797844 -0.2817150537162273 0.3167144717065653 0.13289998355868654 -0.31970195614192953 0.313740973250533 0.2177224501381194 0.09263027559609291 -0.22302679406775314 0.25291661513930724 0.33592208094621484 -0.17834301935535501 -0.20468158907534656 -0.22743201520106632 0.2154419722428016 -0.5133181804136326 0.16661926297786703 0.05330590015100545 ]
[ 0.07061985894609726 0.1673574692754743 0.028213710380258463 0.17716627743375626 0.15545967946907865 0.05355300925187381 0.11626096751213945 -0.21965540383109255 0.1253347044050042 -0.16872677383493406 0.27627027015432676 0.03273631625355845 -0.05462044855256088 -0.014678250177548043 0.20660448300278714 0.34751527774375296 -0.17581658830431943 -0.4043250083700742 -0.09935968786124845 0.3006397632006614 ]
[ 0.3007631966099873 -0.2528909599007495 -0.09926313764199851 -0.29869779363601223 -0.36647384809119443 0.3112011808978605 -0.220416499818898 -0.12021623637355064 -0.2587259230377343 0.06211476565552216 0.07356290993064252 -0.04817605831324641 -0.3001807998872282 -0.13236806270990478 0.027406443929004497 0.0033158644548497438 0.12443379774084778 0.0298478678268431 -0.008607022392013067 -0.3292489280920747 ]
[ 0.12553538004918133 0.43754789775692365 -0.025855409836087175 0.2779556934049087 0.21423960288869678 -0.4080495909657319 0.17022626336028243 -0.4851283517541513 -0.2748774544754062 -0.21417495647304713 0.43410037102619864 -0.029818339371382514 -0.34215740415540274 -0.2818518435622428 0.1395051025025846 -0.40989443136720927 0.19390067033964886 0.33576553973371637 -0.5998921784590951 -0.2197816064497832 ]
[ 0.15679627239326688 0.015011257164685392 0.13563109051120295 0.13218599457978616 -0.3001339441666345 -0.596557281938537 -0.11572146283159478 0.1276161538843745 -0.09209120838339173 -0.3718008582979677 0.24771717539140303 0.2323314010421404 -0.28572417872827666 0.20479049077084144 -0.14684525301141865 0.19768644108863043 0.12261963278365805 0.13267880886319627 -0.22450051989006686 0.14565378207734034 ]
[ -0.24858371622371805 0.23053652075369352 0.2627639904949234 0.1660106438953753 0.273458059908602 -0.10430027469236783 0.2736507417434852 -0.3201602476240323 0.3006314551863398 -0.1880044889079437 0.02323001456821157 0.0896299837398809 -0.05421972632520746 0.4172183975109907 0.2704411547742539 0.06860957115299665 0.15529365483995142 -0.1450151835156703 0.21924593906384957 0.21478335533117635 ]
[ 0.2015486712811862 0.4089246838446381 0.054578144149451384 -0.1731436984720398 0.42531916955664684 0.2738401204625924 0.19463120307046028 0.0426149061353337 -0.24897992679104902 0.4875483807336785 0.13727921227271758 0.05617516879945817 0.2020470684995525 0.5772795788993048 -0.3405645683296685 0.11441220978729362 -0.2881261413090066 -0.039359315546168526 -0.19645171402529268 -0.12335210322794277 ]
[ -0.15935838465892074 0.4169633289688492 0.10945554885896386 0.15828226051606192 0.10159000770419226 -0.412356411198733 0.12245114996627693 0.11390029502343446 -0.2616317605870496 -0.09865505653475522 0.1454510952748201 0.09752108563722373 -0.06526163792534398 -0.19118967391352334 -0.08105251919065842 0.1052028005181734 0.07415585563700972 -0.3817047960315847 0.08118665733188515 0.12373479456750579 ]
[ -0.40256460500601954 -0.11904575458615854 -0.22517290160718184 -0.36201851534895946 0.23523503848035585 0.11057158987548014 -0.39236246746022035 0.09061168007797127 0.16390351788671215 0.41164461574910655 -0.006571641723770527 -0.0055621606196991176 0.16473564770428276 -0.07212865941731489 0.2723991574893653 0.22883656589731347 -0.6002582180891599 0.23215769795084054 -0.40052571640274837 -0.17218191785395057 ]
[ 0.34317077362510956 0.09628989032182701 0.2732814603180528 0.12620784673778537 0.2511669049289858 -0.17982401094739744 0.219025675713764 0.26526589835673586 0.029627114101034902 0.08389738957168036 0.17279111105393288 0.014714574762609928 -0.2906924994350873 0.48119467370631647 0.18490118265954747 0.1435093165933905 0.3883552083493999 0.16645530619417928 -0.2359300318381744 -0.22419778050109032 ]
[ -0.11575470838594691 0.11489048865898074 0.20256653132396107 -0.1360247365086136 -0.30219212382203325 -0.04024101139556306 0.10710286882822063 -0.11958774756552479 0.03619483051187135 0.0629108597448993 0.12509785471344653 0.20845772430524656 0.14474506214593552 0.05931176225963683 0.1565403042245676 0.16660002565816498 -0.20298859378971637 0.052341770781555746 -0.2792288178939561 0.06287009289962037 ]
[ 0.0803134643463385 0.13059111192962725 -0.20556760676543295 0.27072425807908723 0.33848307131436145 -0.5297957583930859 0.23614092285286484 -0.07369221052278627 0.1643795322457749 -0.08602753068214843 0.26198732659377577 0.0027615425274654317 0.11401700825768883 -0.012003235758257205 -0.2890228077187844 -0.17693284735798903 0.2597241585492055 0.3159189979323962 -0.36780813614095614 0.15799590049234635 ]
[ -0.2108159205154294 0.10167689706721057 -0.12525524390626558 0.08529705385637683 -0.23467792248729827 0.07080479182692158 -0.006764255741067425 0.02060155277452306 0.049111432417970044 0.31783707340810086 0.009293170892157702 0.2872741972965339 0.02772482061167584 -0.0897043791272493 0.10092626309778505 -0.1446794754867274 0.050916858381486914 -0.06529964230030692 0.10986447121642823 0.027482269335434437 ]
layer 5 Activation
tanh
layer 6 Dense
20 1
[ 0.2329669254122559 ]
[ -0.10999460343543258 ]
[ 0.019565480844135716 ]
[ -0.27011676062384343 ]
[ 0.18766832807278264 ]
[ 0.14303180042420316 ]
[ -0.13080304547770255 ]
[ 0.18224463124335036 ]
[ -0.44314165290138935 ]
[ -0.21914207695096588 ]
[ -0.21793273730199536 ]
[ -0.034135731696995755 ]
[ 0.405068354572276 ]
[ 0.12717815367384425 ]
[ -0.01599295185688368 ]
[ 0.3271300628839231 ]
[ -0.2498467714686103 ]
[ 0.306037967093547 ]
[ -0.3587799194730611 ]
[ -0.3820598334728597 ]
[ -0.013130568122103826 ]
