layers 7
layer 0 Dense
20 16
[ 0.4417766949426056 0.18937065592556174 -0.01159244134482537 -0.2383184490759946 0.10867464208811646 0.3374631365036301 0.43018227559398475 -0.911676453152531 -0.4554532482440971 -0.15569792143084224 -0.18887993127537586 0.7343135780323964 0.4966531999507713 0.11322135894190069 -0.28744604966798637 -0.06500942532231736 ]
[ -0.40763817991042994 -0.14688803815063625 0.37647319024507225 0.3354384013922435 0.5653011834881131 0.30798623059306524 0.06006861767158328 -0.1328714584347433 -0.2479301185442351 -0.31569171021721143 0.1488659077671101 -0.15483085408204278 -0.07663703111088731 0.2157359563520015 0.1534779464803701 -0.6007288661400916 ]
[ 0.27532790708065097 0.37559557277903777 0.47225348516917487 0.3836930401053878 0.6226150874388197 0.0725254365564068 0.31664420482248296 -0.18621183056013854 -0.04144009085182123 -0.5807519399565648 0.04034150165500226 -0.2127636504287537 0.37311141998385705 -0.31118901875851057 0.17848478710275484 -0.6145676647788564 ]
[ 0.07583577543222059 -0.11865946202547419 0.27079606987753996 -0.538309579260599 -0.03304324752669939 0.2840291736234724 0.31166769470603173 -0.757869702047999 -0.5860101811551364 0.3149092024555276 0.37410895726528826 0.3475599402718257 -0.16594740174622225 0.02072030193559398 -0.05061523871720474 -0.11910360514170684 ]
[ -0.11343950245715326 0.22627534587023732 -0.3981668503941977 0.3869633582575329 -0.7457743790055041 -0.035402805680186396 -0.29431934953159256 -0.32006744061919534 -0.2354971315644579 -0.21811512552474502 0.272627637426159 0.019733126839488076 -0.5695930695720555 0.2576330488072343 -0.784283778607972 -0.17263448616190097 ]
[ -0.03050706273711163 0.07296950469880695 0.037214327165744875 -0.07738262976117061 -0.5056526794908337 0.05656996839350608 -0.22058491532117028 0.21036977793186423 0.36182011823774696 -0.13961866328928033 -0.44564145310883135 -0.22958481973169512 -0.5676252208676379 -0.3974405365376816 -0.36747385978923586 0.15627674562942723 ]
[ 0.15422243059615154 0.17729060237042765 -0.41995636218031235 -0.3833514875345034 -0.4608613900123019 -0.5250122203854468 -0.22140347234298496 0.013511227696341844 -0.20667243023512413 0.3229618529957761 0.038034612625042936 0.3613639382125843 0.0326321656467644 -0.2961803635071969 0.3325943909151845 0.2194837010253053 ]
[ -0.02948608361747515 -0.0666910062584514 -0.23344373463122325 0.07650788874689704 0.24246293804481298 0.061255423067958586 -0.21143784865520196 0.5985088275214636 0.32086879942422825 -0.041170624290796334 -0.26130279337795187 -0.48777544905459885 -0.06270778503873523 0.21912239487248064 0.24018303670928168 0.39001388798433284 ]
[ 0.40653693376620914 0.1875512479810885 0.37312577128395447 -0.17247600687639966 -0.26634834915962574 -0.2005652701268738 0.19443898759153447 0.2647848218677411 0.1361760312008562 -0.05199211212915682 -0.13423192473199766 -0.09039413991484126 -0.2766548264398257 -0.1916081555743865 -0.09104526642043301 -0.18039276479540917 ]
[ 0.21641104067609734 0.218970548118562 -0.05055402206583678 0.37735673174377826 0.3244664231996754 -0.26029232408605824 -0.20288075909321102 0.10171932119655674 -0.13584105003571076 0.907384696877923 0.12860529029027096 0.010152438987329617 -0.10923219879452627 -0.21917987996427704 -0.3023226669939571 -0.19985203949383 ]
[ -0.15613383286641033 -0.023664653267658396 0.6455050928124703 -0.32020691899336323 -0.31915389860404586 -0.130589184032846 0.22212005893082493 0.12039007890175861 0.0767571604972813 0.23288971666888464 -0.2194252614090515 -0.10496609193711005 -0.015533393820306872 -0.11610229716398823 0.27543918818323077 -0.07512385310014365 ]
[ -1.4072013236172487 0.2746049102882329 -1.0275567976571502 -0.1740494808706843 -0.7650302677508389 -0.6760106101489155 -0.7164687460284784 1.5492980911007401 0.29619190056034045 0.2663775805694989 -0.8299678360763661 -1.589601391696666 0.06261373692226573 0.9732840789817008 0.05640759519589572 0.3088381258631468 ]
[ -0.03337858895680461 0.21040598620771808 0.2605110445998782 -0.4025089890028621 0.09211571643243938 -0.0489070975003374 0.07009654852911947 0.05207453339695323 0.24942739068419642 -0.572151182873665 0.47219803654054754 -0.08321412007410019 0.14800055045218494 0.4918831280259629 -0.45035747421452293 0.05954894941634712 ]
[ 0.2986935310118818 -0.015400120121724627 0.0825666632010442 0.16014453605004816 -0.0072503420774517645 0.07951410131258907 -0.26965891424057725 0.11067586586101139 -0.0950384308624553 0.5085164591362125 0.18389424491522707 0.29753576558130584 -0.07621438818556137 -0.03870878673965763 -0.09702032475052538 0.3379330727058109 ]
[ -0.11625130468862062 0.07208340027201747 0.48308355213678483 -0.2992697661609772 -0.12213386180240453 -0.2632365822117611 0.1337403837720744 0.17169616833505788 -0.01156975118835521 0.048385772969059666 -0.020080402787910578 -0.27135271661567795 -0.13201841532852435 -0.016218268682866056 -0.3067341639021305 0.00507854021334124 ]
[ -0.9771908311153406 0.15910930448465774 -1.0536130326618591 -0.29840354289661203 -0.2503272396680013 -0.023247063785518513 -1.125246146309438 1.9090669767396118 1.5803650129383504 0.16034339090936234 -0.3462044506231065 -1.1462803649655022 0.1557359947361987 0.5759707591085531 0.67468502906144 0.8355326450470263 ]
[ -0.3499431410816977 -0.09420509968619865 0.13437127085452813 0.02883480807159651 -0.09556525006449262 1.1544041949941404 0.2940406914552483 -0.35983091904204445 -0.4937686850796486 0.1887151499841366 -0.396824312686773 0.5736743144593744 -0.16297094668127646 0.13417477810233294 -0.5106309454187216 -0.21377367645248402 ]
[ -1.0710826296078533 0.27990527123286235 -0.48238164198516925 -0.5314428275918157 -0.8118248650491338 0.00876577342298222 1.3231218159944795 0.1686726396964636 -0.017131734170629395 -1.3732101638235052 -0.010685964666666424 0.21796937172552217 1.2408086531716978 -0.21428411952507553 0.2695901507109118 -0.1407789620040353 ]
[ 0.8175515892253186 0.032340991086386786 -1.2325983803021017 0.25816852708569343 0.3122264758376661 0.1457890070191805 -1.1194173088930008 0.0688080450130712 -0.06944613895820646 -0.8373495199792156 0.6349248086644165 -0.16465458840618832 0.06493602820726997 -0.2189954309550463 -0.031422178503460914 -0.46875196739109454 ]
[ 0.8847782474208427 -0.08328928084211606 1.2363106625253775 0.14571812138799076 0.4714034287715552 0.12305938511115325 1.2719349660612278 -1.6558752406322108 -0.7234487308743801 -0.966177126159549 0.6474262447885356 1.183973850006695 0.8239921956606516 -0.5816426832656881 -0.5820967780680758 -1.1163594597694135 ]
[ -0.0005663125970876599 0.024773764281182317 -0.08734063276299057 -0.0029889882298646257 0.17660357062458568 -0.048679999564940624 -0.15730379570224148 -0.2184072788803873 -0.16759794930566146 0.13677660943268666 0.06400241530425846 0.1571885611317067 0.06860731028639408 0.08791013129360678 0.07074344153226175 -0.11964639072335657 ]
layer 1 Activation
tanh
layer 2 Dense
16 32
[ 0.4437493761560892 -0.005249058165332958 0.021517299395999646 0.08945439997741864 0.05217551664785101 -0.13315975122907356 0.21267045771192924 -0.19474678005579832 0.10982181409496221 -0.4727961640283674 0.46703235707906 -0.3389286229274011 0.23335846508523964 0.2359956866646968 -0.11093786348917688 0.026186482234657804 0.1724321924941257 0.07013974115540521 0.0224344236877572 -0.2513898109970788 0.3463010176795274 -0.15893596426175916 -0.7129126957034768 0.15396420187755558 -0.07205933032366509 0.14097513326193914 0.005662610464996213 0.18202537350303155 0.011959370280896445 0.10449130835540403 -0.1314838809659598 0.3159491427594794 ]
[ 0.11844179729975331 -0.14702120909139654 -0.12210328304016009 0.07176353370714883 -0.12967005069013227 0.07932152590614025 -0.20329269621746043 0.14327113936012137 0.10020229610782411 0.20904307642852862 -0.052572313692058656 -0.04738544567507023 -0.1298712955764554 0.5511486621647093 0.20144913438755988 -0.11560392219455627 0.07449451486758796 0.0006514178059443954 0.10481829808419581 0.008504289867633068 0.2781041533385718 0.04957738639250872 0.2276278333101966 -0.22618150565055598 -0.35172633623563737 0.08578886240665998 -0.032398283298903346 0.13099840587322772 -0.09241943472472494 0.13802336470548945 0.26956422240238215 -0.1013172634232143 ]
[ 0.658589211310228 0.16555495003934464 0.38407631663191816 0.2785769725886669 0.09330434448107432 -0.3028028517120078 0.41941189927352635 -0.5809263021372755 0.22684251886476797 0.2007132206668111 0.13134218969267472 -0.3928056315807091 0.10403290045436522 0.05688647065685012 -0.10399921934467563 0.17277922996040604 -0.15665045804289918 -0.012142606915591823 0.15116634541574153 -0.1248506607173025 0.02080277407181595 0.026927366921707968 -0.4231223891588214 0.2632968067608787 -0.1610021670893398 0.19917577950101922 0.06712607380943941 -0.1003515107641438 0.41937635442976123 0.12640541226180693 -0.02804770856737518 0.48547652204358277 ]
[ -0.1496362234931866 0.17940077361443366 0.18938645917200897 0.13674448661880848 -0.17554520140436383 -0.20028925168929348 0.14012161708864462 0.22036597211376877 -0.1752335745650122 -0.275896725516327 0.06632272740375492 0.4156995132564226 -0.23294385027231598 0.18776183526957305 0.09351939031483708 0.1613018539252287 0.37904543378979627 -0.02279381233961502 0.0804454068656728 -0.14192978688883426 -0.02218020959806438 -0.22019927010724494 0.08517551537857761 0.12228430514272577 -0.06820198648995847 -0.29407114875999757 -0.3681966708790045 0.24041686629646478 -0.02856090007000888 -0.05350531922096819 -0.0925404493604026 -0.021361841167123502 ]
[ 0.345556936720393 -0.14916367297817504 -0.1009722451751659 0.45673773823668073 0.12648727385181477 0.10847667567584748 0.09857867173361834 -0.1035210510876258 0.08086146065762524 -0.2294235242570691 0.08583751850322223 0.09593885398033741 0.23923352826650868 -0.20355832055902354 -0.0134292080450186 -0.16043023823262564 -0.025030649118587246 -0.23894581982046442 0.0541526054754579 0.08242029892506753 0.14320923323781282 0.19936829752300372 -0.28850325262424253 0.0038734186003814178 0.07056991913154997 0.05837773664288179 -0.26495544216204286 -0.3502294603817504 0.1757264194463568 -0.10661094634492306 -0.30491642088627624 -0.04846529500287393 ]
[ 0.20288677498740212 0.09575214307513416 0.13593670092045562 0.44210599340365386 0.01129884011641446 -0.052907864993361364 -0.0021789400919502047 0.16453506589430852 0.0542076735052345 0.25629958065289343 -0.4288680111203137 0.03970891364264904 0.12457037373671521 0.0776620961795227 0.11089705713715113 0.3448757234357217 0.25383209126671075 -0.2832734575678632 0.025546523348104616 0.15690303636912048 0.08976152813473397 -0.12294771111804229 0.25524998474074495 0.3938641186832407 0.011698035895017164 0.04003608481124793 0.04135314450699973 0.053512596844455126 0.2997531760355796 0.16238470751474657 0.04697946303801408 -0.11825351420174508 ]
[ 0.4220511516310523 0.2098186059173302 0.3124193592966769 0.3319693788456206 0.11438763966338379 0.09034514043910787 0.29616434217968424 0.10128348227107536 0.10074285642017551 0.17666598993396143 0.21746229757375446 -0.3403733656839277 0.020892324238793388 -0.0015776420827428317 -0.09397234419574219 -0.1096028430240118 -0.0839352965930772 -0.17402602532099748 -0.047862944272305065 -0.18994795768479675 -0.31977077006770327 -0.2403040090802912 -0.34043307342779966 0.3259912581543989 -0.32975926105099995 0.16571929298184057 -0.3181330130951506 -0.29591485493625314 0.28224895467533045 -0.04873344708583412 0.07535118186125266 -0.09685003068769947 ]
[ -0.02583435774525131 0.16337255899232872 -0.3818539002023305 -0.6482990857875348 -0.539658987880199 0.22454595251024997 -0.9134080522938821 0.9370895035929226 0.14569605895288051 0.32959763265864844 -0.35001689292298627 -0.40998044503957226 0.2772149372056466 -0.43021969167265944 0.2095464484239553 -0.37161873548161156 -0.2798064950262047 0.589646720434902 -0.7699636243929798 -0.0076005975972316545 0.36169140886842605 -0.03465108413855549 0.32435759779288503 -0.46807245989105845 0.301429965421267 -1.3040851804606213 -0.11480568574753044 -0.05899726788152145 0.4564801128523007 0.12987546076875905 -0.32545396218953193 0.018866986960835143 ]
[ 0.251957188475686 -0.07858551515328581 -0.03560778631579006 0.08928202027164284 -0.3967168615120627 0.05878217179806811 -0.1553941366077698 0.07132329434434209 0.18475174121830712 -0.20206461109176427 0.039762872548875484 -0.06516404303929754 -0.07654209702626168 0.09396855649367926 -0.13319130980141364 -0.16891887038293357 -0.1913923589588166 0.29543430595804865 -0.3314975550322878 -0.2938429553527798 -0.055730317500792076 0.16598073094941718 0.006641416246559079 -0.22363050435575205 -0.09812443913866524 -0.4415077774186893 -0.08680865701485792 -0.003944774846384853 0.04399124761413441 -0.2479025654332036 -0.4361863165300657 0.06109870599504046 ]
[ 0.4753100668050228 0.034884796286447015 -0.08577234130999405 -0.1314910160075813 -0.06949401269553417 0.10525945863371329 -0.19596930755840614 0.259348364294382 -0.021971502963011317 0.4040378713024329 -0.09409155279624061 -0.23854103344540123 0.0009343241414853773 -0.4731380241637212 0.38428279461231746 -0.08652535660483582 -0.46390366778543246 -0.22551870706116842 0.005083175135370079 0.09995281966525547 0.05929966653299793 -0.19955710497537238 0.32541572212616343 -0.09215906462034652 0.5675107512208926 0.0012729368770709442 0.04301308240181121 -0.030578086659704098 0.18841213082417288 0.21860413903311016 0.2787058162115784 -0.2440446293794787 ]
[ -0.24403578651318275 0.1236029772031308 -0.3855797682743288 0.08106335021777027 0.09034659865436062 -0.19326051288228424 0.09270872746955638 -0.3848222940541048 0.17632911789542205 -0.3188588168392178 -0.04817635481846618 -0.11020800929515884 0.28974432153337515 -0.09151024650909025 0.15595036872444665 -0.06960440195211624 0.2166998692072696 0.22886617014214877 -0.025448482934272442 0.04041918143246826 -0.17356937286104296 -0.09356678884057884 -0.2584240640181116 -0.004335783909708004 0.246775731931875 0.32482803930982423 -0.045411796185065086 -0.054409933197253645 0.2963364937394299 -0.0732300928142604 0.3125029029146404 -0.010628705141568603 ]
[ -0.15613192294925943 -0.12756756332631997 -0.297177398278665 0.1931684639262454 0.16983321235426863 0.24277547495493 0.41288342402500033 -0.26772182037015013 -0.16705345307823072 -0.09427975196645327 0.10400841109563858 0.07805794815936186 -0.2772383830781374 -0.004780476945933002 -0.06409534691212222 0.284632404197905 0.0996645659013719 -0.012983175820373196 0.15449227581285152 -0.07390844622601749 -0.10392713249143959 0.1815623443641556 -0.4604303142780876 0.21969808850205644 -0.042629823165008414 0.23015570896183316 -0.1340771826259306 0.4696325540266689 -0.24917281314501602 0.1627828835119577 0.15746262383159926 -0.2741216957707218 ]
[ 0.1833814181997065 0.09012003182539008 0.24030845941941179 -0.15648902659180472 -0.267302888478802 0.08193298938556783 -0.09730183752294669 -0.022095955613143363 0.037273644428998054 -0.09451517249056769 0.09194872509790714 0.02839946699668959 0.2595373037768613 0.0657417480179814 0.37847223958748233 0.18397822273239783 -0.17643491357950514 -0.15946311424920565 0.1523121417893094 -0.16049232538922753 -0.42769062153840925 0.20497672516652857 -0.1987633696462815 0.11169989521376851 -0.2904753074384386 -0.06540888264833285 0.06280138154390917 -0.30186172079119455 0.4457942243783066 0.0821236797805823 -0.28169312512492967 0.06860367093245305 ]
[ 0.26033325138609875 -0.2383804728057098 0.12648438818478097 0.09708720883164583 0.07246513229051593 0.22700851486432472 -0.4085894564816173 0.024628888462563128 -0.11886817026678814 0.17858457824295407 0.3059181225537994 -0.031804400818555886 0.31359027461428823 -0.16238633834092828 -0.28408260650383627 -0.003992860963401537 -0.038007643719904706 0.06850274365039699 0.1997502565890813 0.0824989220163422 0.17977224340638082 -0.25017230582008204 0.302986741215775 -0.13117604376463451 0.001319420143691406 0.09785460748986065 -0.17273435515855873 0.2768002144678777 -0.12687369641899843 -0.08078950158942541 -0.15329803430743913 -0.20160373211187735 ]
[ -0.12155175971362293 -0.12730629137766583 -0.2643450294997648 -0.06776026550154514 -0.2745885406717169 -0.027024280116049522 -0.07859434158293534 0.14434761128329338 0.26682929058565735 -0.05208660378152544 -0.046361102922903685 0.17971472463118177 -0.05123057315713603 -0.18638640936964412 -0.019733262242054194 -0.12765192535200476 -0.3540886278531373 0.34598224367199826 0.035090176648106916 -0.05499103932657297 -0.3127224359340225 0.031887010962521535 -0.5551352872233972 -0.2723689693315837 -0.28713663830186936 0.05359965714662999 0.08239345732325139 -0.21275265286156184 0.040347735271167175 -0.0012670830907374742 0.1466846957824989 0.06771674698898526 ]
[ 0.6328624716279873 0.09488921236622466 0.15571519776368545 -0.30133644340770055 -0.2594337235491271 -0.06693920506333532 -0.004734733816961904 0.10875604629735039 0.18986120023983175 0.3775838989718646 0.18947246518763508 0.2860817658715741 -0.15137126257161412 -0.20250887614817434 -0.13080650260590176 0.09750568448230025 -0.18367063505204803 -0.09061616373420667 -0.0419346808911203 -0.15755006071675642 -0.02242867445013747 0.041906700320173795 0.316535684749744 -0.06151046563587774 0.1923672495065457 -0.019255895925399207 -0.07377234033544812 0.18943572935278127 0.20925797504684931 -0.18194020245775283 0.2083895367321641 -0.43058945804632637 ]
[ 0.10287141306426488 -0.06699892265307969 -0.05429867196140084 0.1746217830591586 0.33130680968119747 -0.0005431962426717961 0.6682267032245622 -0.39945440880588345 0.14447749209123817 0.06923189498644791 0.1305233761670241 0.04670961736280932 -0.002541239180636762 0.2425822796039324 -0.2180713070500517 -0.06834765056626017 -0.059424235029238395 -0.22681185086277333 0.3898888439238963 -0.06387316600997174 0.04917277421975288 -0.04963556927466043 -0.23615153008097836 0.1967059941971831 -0.23218936184433642 0.85395006849812 0.2511405517557336 0.21574129252673074 -0.10363898897190037 -0.08079701883473758 0.6110424840627385 0.02569848210929793 ]
layer 3 Activation
tanh
layer 4 Dense
32 16
[ -0.2330386193808493 -0.3353882592315354 0.011399596723694118 0.051697201477154495 -0.009118264481778306 -0.04013505400721281 -0.13083702702140473 0.0637331350265794 -0.24092717899680943 -0.07350139366639835 0.23173927947544926 -0.30698009555962624 0.08467626082683029 0.0027634250681196192 0.06448701978633395 -0.1888871610787603 ]
[ 0.28355875020960003 -0.09609678536466698 0.18650754812800985 -0.0004122825905876084 0.011258311491620229 -0.12778128726197246 -0.13980934314185842 -0.14971182585915818 -0.11879067145343306 -0.013052220816489673 -0.0091658882881888 -0.009495542439389661 -0.0026131317103010956 -0.038160963183904315 0.3257888518926744 0.09133656842896377 ]
[ 0.16656758075194728 -0.08513043732025417 -0.18758891777788195 0.29757476922884346 -0.21678513969172966 -0.10940305096998632 -0.2482299830577608 -0.055860059635794226 -0.07073659093518594 0.05928381646637254 0.40862925400722 -0.10680233289446785 -0.1403594897613613 0.11937071743834296 -0.30984452182651645 0.244055886070102 ]
[ -0.01166894186171059 -0.5196879382834746 0.060494075358572014 0.24620667280450603 0.02619961082187925 0.05052816396328443 0.15999332165706948 0.3091983766132382 -0.11974124215016625 0.19917378932394733 0.07736458023154594 0.2686775248164909 0.2255590118578049 0.07379724749606727 0.20503547823352916 -0.14933744558395382 ]
[ -0.4581058217442541 0.40149476503686016 -0.011010789274931322 -0.02500697142822974 -0.18282046801722843 0.2785904463477958 0.09850515585075335 -0.16795360870799597 0.3325623928130918 -0.18605315507691822 0.17961190094200957 0.007718149981882991 0.22745018434979442 -0.12649522536037458 0.10373186014249108 -0.32632434171549707 ]
[ -0.12756233765932332 0.2936945104744764 0.09636211889329882 0.12337003216303503 0.15046014542898975 0.09274447256754915 -0.1651028688521846 -0.17308127535071838 0.20237095482750916 -0.13715903783101105 -0.037358881226880684 0.13524334613440553 -0.08577008585910027 -0.11399101752050858 -0.03975918261129591 -0.12535180098952503 ]
[ -0.463811745593554 0.39764585866818164 0.10957035650574769 0.3603444171779387 0.16679923890583975 0.33485363823322223 -0.14416094293508405 0.34021675231156345 0.4439183715049454 0.18437262753900158 0.3255199439590247 -0.1719672583696428 0.12336697850147654 0.12696417454357076 -0.08449446386002378 -0.4615633511164323 ]
[ 0.4958917959026179 -0.47688759073368003 0.06496869030660368 -0.06040804381878876 0.381986575665452 -0.3589683178161372 0.0014646523516953966 -0.5061683399054435 -0.32154021422292817 0.07662454834472891 -0.7819491149527332 0.20509023943458746 -0.08148440840949173 0.11668672728436237 -0.24637689867220036 0.5771572125852051 ]
[ -0.10322486609127722 0.3413691844274905 -0.11962335921817865 0.05711124094664591 0.2056918418068265 0.16503115654475212 0.04080211838525936 0.007958616872387437 -0.15412981995452174 0.14969343030400395 0.06217683413528857 -0.12217991216957111 0.13620474420809173 -0.16771938867880792 -0.1333553423704946 -0.4176712774936573 ]
[ -0.19928529996655595 0.3540128818566934 0.10946520644452164 -0.08456146947204776 0.4315712505359063 0.16362719042972199 0.013458243549812525 -0.18226807438764517 0.3400485575137978 -0.01840308240305904 -0.08076449842555554 0.09121504722868334 0.13548060173716422 0.18332995235129618 -0.05195455342580901 0.20620823618950335 ]
[ -0.2207022641115205 -0.10941567601240215 0.036253174587150806 -0.014056782608453649 -0.036639205297401 -0.1903340602045803 0.27591085195798876 0.21715878150353857 -0.18513668642124867 0.1524521603752563 0.2990607523242528 0.10377019798288487 -0.02367673521399022 -0.19321440338202983 -0.032567423451863454 -0.007165802793350999 ]
[ -0.13462702384195926 0.06743534680362806 0.14448002728498346 -0.056182575104808896 0.12445334374869842 0.23629165182509673 -0.03699658525370689 -0.22182985070495614 0.09454914329774564 0.04838157271458696 0.04671192473552886 0.14200846867830796 0.12425928133602486 0.2903947774598069 0.01404468192329436 0.08675383055679836 ]
[ -0.1520249809116356 -0.13424682614358938 -0.10026877299034796 0.02938665459377084 0.08556886699803326 -0.1392350360932622 0.09058456522791827 -0.07200536255988253 -0.21506033892052537 -0.020689163995273187 0.13376905692835034 -0.006350237590164598 -0.06460392557733147 -0.04049631527800567 0.16137260678041193 0.07044433942944274 ]
[ 0.06211178934187957 0.06864783786335524 -0.053327697718282 0.15606805542284558 -0.1662880129901015 0.24824998653792305 -0.15094622160350252 -0.012398809770866569 -0.09229771917682748 -0.14812059665318475 0.2801431874033073 -0.07582129879317685 0.1444870139211944 0.16501643077125308 0.1434059352883031 -0.3347459630584019 ]
[ 0.060346401895225825 -0.3561411908783212 -0.07209737035367828 -0.052158983968929505 0.20202035477027525 -0.31408137102917066 0.20142177286214302 -0.15953322747952467 -0.03150943940148249 0.11775454877805869 -0.1399872134354593 -0.05900244819642128 -0.020113965940993628 -0.005463902027152027 0.24015494725708372 0.1585121676768054 ]
[ 0.011505390054713575 -0.24796966203488988 0.17747612001896584 0.06569124856139505 -0.05918834848162809 0.022633419396231185 0.19175651046855705 0.27459457277582106 -0.09518215364211809 -0.03193493906227065 -0.05838741478545356 0.08095649040101542 -0.256429090064466 0.021873428683522697 0.0739629144172133 0.09049377555678761 ]
[ 0.32589479318214015 -0.008076919639070214 -0.08656915314543094 0.28462842568459895 -0.24595435563298018 0.22136392135925273 0.16129149211885807 0.02082596325992549 -0.07318530732994137 0.18693692324949596 -0.043790434722601454 -0.06527954108114377 0.04975038419107786 -0.017050205376031278 0.1905520008736713 0.0702236382755651 ]
[ 0.40543611397263274 -0.39704074486200486 -0.1937374654873056 -0.04490384136024738 0.17468619438238933 -0.3704837362353853 -0.2658726730963266 -0.42393413779280686 -0.07022838806987104 -5.226552902659325e-05 -0.12060199167499111 -0.13916013361344914 0.1664746880896489 0.09868907008178632 0.21390736302913152 0.32705058473155324 ]
[ -0.6089506702354395 0.21621964183166656 -0.22202936421107983 0.04979901994131608 0.04029057397173777 0.6782857991704362 0.2648187160737653 0.38618408395146797 0.18135928930517067 0.032491207623714026 0.4004885936172809 -0.17237428591719287 0.21209086218351839 -0.043837224804401755 0.18545895502644597 -0.6046954484932863 ]
[ -0.2477613299624998 0.4189618559140769 -0.12585421871434202 0.10532495819872488 0.47354221413859593 0.15613317416982164 0.006818360898770325 -0.07088347837714735 0.3072594970081675 0.17058157799566465 -0.18657886312874422 0.19453150337837732 -0.15609048877747847 -0.0002005644201249895 0.15430285838656738 -0.018386033760843114 ]
[ -0.36446220433966314 0.49578965643392825 -0.1690411574130535 0.1833256350809786 -0.09140515904335676 0.17623374526117608 0.03521608406804103 -0.2077082832352393 0.012640057454199247 -0.06571068702211484 0.03337388217128748 -0.2812355161616816 -0.12322107421962061 0.1440512175321681 0.26780980812523636 0.09437252825536804 ]
[ 0.2924682024574991 -0.44619079802173583 0.10969898569864993 -0.18575705713271137 0.0920725765724888 -0.24238779411880057 0.03788949605643118 -0.06466753125961125 -0.0230291968988497 0.09973737303698038 0.0768391296417953 0.0757115585597288 -0.15502784971910025 0.07361606135405505 -0.07673247482261726 0.17890580953226073 ]
[ 0.13182275051033154 -0.019979165410779105 0.07823950051227975 -0.21506369504449568 0.2365587950504092 0.012081731792648593 0.21494715489439079 -0.41615462701536426 0.14906999448246186 0.015136472268540589 -0.45276837694486816 -0.011214106378463217 0.13712961341574895 -0.10116947714201949 -0.1919601281092204 0.32688053891110475 ]
[ 0.03206588033099612 0.13621918619714563 0.274583145535004 0.13976373702410763 -0.269026387548094 0.3023342681636761 -0.19902754868457032 0.024011566433175407 0.22210555856281797 0.024364891920634988 0.195281474313427 -0.298283866871835 -0.1556235379084442 0.14382371775929467 0.23190312525434473 -0.1376682066858554 ]
[ 0.2539704055348201 -0.33105419246154133 0.31137914978712045 -0.22752310161585068 -0.028901763430718038 -0.07690872220368283 0.2034568500923365 -0.21255642530660648 0.3203357173020355 0.04066326366557486 -0.34398462624582893 0.08428513755356613 0.18597900798187328 -0.13910711244715332 0.04809007513653021 0.22655141351671726 ]
[ -0.3219722072249109 0.4906833823124459 -0.080250796362843 0.1930615211031401 0.0380388033669281 0.637177328264378 0.16886285850741267 -0.13404474591546736 0.04274416724886638 -0.13441817842397044 0.6223862885707713 -0.1923311461479985 -0.0060543368929902265 0.08058914653018572 -0.04004126952758694 -0.5516765203015437 ]
[ -0.08675488971511511 0.5391203742752974 -0.1798723274207702 0.04673598042943675 0.32011992649960425 0.3583796189451637 -0.18493977464739086 0.10007788272562736 0.008842111375630502 0.03263101566256244 0.11131883538322507 0.34133236157268687 -0.03989052248854957 -0.12744188157856098 -0.07224312469784197 -0.3096353618844124 ]
[ -0.5747059906315816 0.08198917195107287 0.04004926177134374 -0.007872508002335793 -0.2178927829263609 0.3335523795763122 -0.05394743980870941 0.02330187781700411 0.13233066795270648 -0.010454619301409167 0.14773740439063207 0.08439119181802904 -0.22649115879055898 0.23454671375000152 -0.2342019096974442 -0.03637682046603502 ]
[ 0.21349960534574416 -0.03222001693306918 0.08849815020287086 -0.06842898681715281 -0.20325344834760778 -0.24432355613317203 -0.3414587055682593 -0.10538688864461032 -0.2996333133582616 -0.17509575886455192 -0.2009299392528849 -0.04204515085666647 0.0293968587660329 -0.12365849489479497 -0.1101024523539757 -0.020510525948753182 ]
[ 0.08494263934215032 -0.051886331513987444 0.12800669737865195 0.06104482096809244 0.1534584340607329 -0.047214337284097505 -8.63591109507269e-05 0.1199358104197813 0.04877410715378383 -0.07893062464034353 -0.11824895376018944 0.17241998067054914 -0.03686427817216309 -0.12150924870153101 0.05519581820771649 0.03489517239078691 ]
[ -0.44623258439768004 0.5448092531442994 0.11911372636415374 0.20153364465729776 0.0519725125802893 0.4534671131632178 -0.22758869987808314 0.05497150872695275 0.29903574461803456 0.015176670980000804 0.3920140543742294 0.19762228379524327 -0.2701643611871969 -0.15336413117929384 -0.23157385080875986 -0.238168769250469 ]
[ 0.07038396043220321 -0.18031634279273082 -0.14771061367033433 0.09834613997064096 -0.003778124133702208 -0.18843449668138376 0.1930908058740749 0.2559319031577021 -0.2715727758447078 -0.11068606176194304 0.07825215728858272 -0.10226000955873106 -0.03055337848347939 -0.03652191976361466 0.09509514313580834 -0.0019783583221329817 ]
[ -0.25739635542100736 0.34964085819655777 -0.04043068469501662 0.11145592202835486 -0.009850570174588867 0.2820913449005217 -0.07515625415926105 0.11681530380712053 0.02673040465072067 -0.08318454516834961 0.3289842227915808 -0.06213268739740447 0.02136011819802246 0.06193913053156537 0.00040403833923374755 -0.44664590727564335 ]
layer 5 Activation
tanh
layer 6 Dense
16 1
[ -0.21135344170857473 ]
[ -0.08946731141215028 ]
[ -0.0051282125372465095 ]
[ -0.044689430820884266 ]
[ 0.012168364013695284 ]
[ 0.35837961628679865 ]
[ 0.017654300505042506 ]
[ -0.08394578422090712 ]
[ -0.11223710657561813 ]
[ 0.00031663839527226614 ]
[ -0.2633045900539042 ]
[ 0.013686586469497485 ]
[ 0.005707222230986025 ]
[ -0.007597256711804775 ]
[ 0.0002237679083044407 ]
[ 0.17762737891140082 ]
[ 0.13522646534921137 ]
