layers 7
layer 0 Dense
20 20
[ 0.20752869561487097 -0.00425196814536617 0.22355960700442418 -0.0030558500205476995 0.011879400950229343 -0.0424487349192357 0.021002256650550874 -0.016141469267345717 -0.5840010865953141 0.03949152308993156 0.37420753409141855 -0.04028004321952356 -0.3978117187558478 -0.04480511283605654 -0.32435251590049374 0.16047908266446012 -0.19769587169293665 -0.11053912190745734 0.1774989168325969 -0.3817437393485905 ]
[ -0.18240424744827982 -0.08267067176749299 -0.37062790867635365 -0.36749271199378064 -0.34583198248375235 0.04285426183214642 -0.2963995785254912 -0.17918073073074925 -0.16325951923066062 0.3643123946832073 0.015095689910911144 -0.29437145755338967 -0.33267295795759066 0.16135280077455172 0.27307267714700434 0.17017140785909307 0.10247241825756821 0.02982256091944683 0.04751292500470495 0.20001295808125918 ]
[ 0.15148386562894217 -0.03543205159409673 -0.28406810522164405 -0.01522564557332444 0.21256451135764773 -0.2894261922579069 -0.3706109574073374 -0.3797610785440871 0.23184602293808745 -0.061969549608592925 -0.2832327669434757 -0.015724222617458497 0.341076376542462 -0.25478064636948716 -0.38234162449677705 0.26831901678063497 -0.32524259416626056 -0.12802355480564354 -0.230325741726942 0.3346549370673654 ]
[ 0.18625833762975794 -0.2253956091947531 -0.27490143943357165 -0.27474732661136353 -0.2240027245904464 0.03897530305306902 0.35907995051550845 0.20524478929293744 0.07291971410014485 -0.31414798768075464 0.033429894183532344 -0.018296588889916077 -0.34214779065355266 -0.21206566029467736 0.2928942303983776 -0.030469440225998165 -0.18780252311599752 -0.4176012361311608 0.2742134879600101 -0.19746809300193155 ]
[ 0.3181892884562598 -0.34629252160259394 0.1955927093025165 -0.20745920886929983 -0.3554841747372518 0.054598730101014105 0.3408775914343864 -0.5948104602279406 -0.17517900157187014 0.10652364180439385 1.0933183386155276 0.6924661291543724 -0.2615664525807125 -0.15472131706159048 0.2348451356295206 -0.10732916669434561 0.13020863756335183 -0.5608763237311118 0.10528509634516203 -0.16988108129711355 ]
[ 0.00020685393883500754 -0.07915114794958789 0.02720792749983911 -0.12722532531767095 -0.3150986688584776 0.2676731363387519 -0.017953855731277325 -0.24159009367495357 -0.3627703841584858 -0.361240028402826 0.11430307320394728 0.28188812289774007 -0.041840893581882185 -0.09712387802728922 -0.13942871674754403 0.1564816655915519 0.15555302392688916 -0.29503569698140714 0.2863111786987026 0.07322098384240018 ]
[ 0.004240035076685181 0.07635039121700539 -0.24143568157151254 0.2429712326762627 0.32851236224974584 -0.1156441217438867 -0.07123483380319155 -0.20374495390415734 0.2280013510594682 -0.030957149659462297 0.19128023552339773 0.18236152559459642 0.09244820097290254 -0.35870041689910387 0.33697089318989365 -0.0750537855421539 -0.367584344384518 -0.37598661016137014 0.2182707999444025 -0.3472091794661814 ]
[ -0.01700134849402846 0.2530512113771524 0.22003766731281169 0.225217825951971 -0.14621883380254996 -0.3301153045765539 -0.21004359989588847 -0.07627406743400975 0.4932800244122145 -0.12242687437509599 -0.461367923349188 -0.2511897606683756 0.46197673776622056 -0.314490551126565 0.3062421796365663 -0.07074155052575506 -0.06391111050186979 0.24648741431530605 -0.3249965953668982 0.42226378904506373 ]
[ -0.07289717262471726 -0.012380615216249587 0.20469160012526752 -0.2332145314207973 0.12843982960817163 -0.541579428208392 -0.04792953877721607 -0.26898654899252084 -0.07604001370792558 -0.148987660083812 0.796174707347639 0.6747004039454796 0.050036981315769766 -0.03650156869448182 0.06860423742362397 -0.1151415238026583 0.029752883235391363 0.2244834405764535 -0.4311483738732923 -0.814174199208282 ]
[ 0.6995999327261722 0.015876045851194537 0.7512017604812362 -0.44136738530143843 0.333598891103074 0.01670312139852304 -0.9220405517683508 0.02281336137642958 -0.3963479131180445 -0.4811797128476937 0.13372563604145649 0.22891320102791857 0.45735218643365755 0.4709370068297669 0.33030202936313513 0.22892427252017772 -0.30869301237049207 0.049011326605421804 0.6733790473556872 0.1796655476847974 ]
[ 0.6689436217684928 -0.1484139975219877 0.028927894253859384 -0.6464613983873894 -0.555390006464724 1.0786297305305215 -0.020548775107921472 0.24943888167610115 -0.06452653976587952 0.4547538296069949 -0.5460745000784469 -0.2329416510732362 -0.04994402418729228 0.06745272810855298 -0.4442199999540081 -0.6107246552416454 -0.7829129214413214 0.7234628984077539 -0.28311764257100575 0.08826781010913215 ]
[ 0.04106998820835467 0.09780318928457489 0.3992335957166521 0.5903310182091176 -0.08137911145830247 1.035144661769275 0.19900712439056104 -0.35513686921922644 0.27880597526108364 0.19526841169772474 -0.23312962175131707 0.16880528486075044 0.7128334364187694 0.03614717018841319 -0.5839412314496656 -0.0020305612327017105 -0.46263657119534335 -0.5141368794573669 0.17653467544254267 -0.2118395687328683 ]
[ -0.24401994614017133 -0.22671469630200847 -0.18188702489651537 -0.4829138501917601 -0.20381545389987363 -0.10165227551413457 -0.24988889222821065 0.000472963754401339 0.06524730427995212 -0.12860188804695774 0.7905554790449474 0.328718987560713 0.11508742500042043 -0.15385624145822233 0.37597981656594587 -0.22036086703303967 0.13492100335150736 0.14405238459024058 -0.4562540179206331 -0.2777306289926343 ]
[ -0.6110772342527003 -0.3271116682451406 -0.3471369178248786 0.30370880700007796 -0.2489377268353857 0.1851582523298822 0.7547871544944718 0.05976275752875136 0.12488558658575945 1.0776393762394023 0.11607879273149656 -0.36252660956253974 0.17695019236820017 -0.27115323320300355 -0.5927758977933364 -0.13266908828467958 0.2919037633937078 0.03893279647175397 -0.6800016077601998 0.19534037768215048 ]
[ -0.5109203993227157 0.13614704181837012 0.1113920283087161 0.2122038242255966 0.7742198314071306 -0.674672267772425 0.2951050751503599 -0.4663581045296129 0.2579220909746133 -0.08321583467101715 0.061678116038594966 0.20239815822691015 0.09810418369482163 0.5179153638056491 0.3660417658660578 0.9224197890724689 0.37641449657601844 -0.8838949420048752 -0.4222912277063519 0.05971055253057536 ]
[ 0.023806445802759684 0.05168511802455658 0.4879767385870178 0.6703350684796717 -0.48197992486575364 -0.07561031222599489 0.022397320219815078 -1.0585234683297813 0.580981826873801 0.4271237037667871 -0.684214114013021 -0.08335790176542099 0.352241109221883 -0.22315819561208006 -0.038110914575496584 0.4494375783975207 0.11128509605159305 -0.4026129058012023 0.29315097891553366 0.28785035493169586 ]
[ -0.08726564563403322 0.3665568412276019 -0.6275288362628142 0.19072214825352996 0.35236691564332795 0.5240475731388133 0.38119490865489325 0.14820654019517465 -0.09493259537159127 0.11233503047497938 0.5177632505101979 0.13939448892416872 0.19896805490676314 0.5747560170847605 0.09964955804056898 -0.09221633931750892 0.3119051348457321 -0.4210843332301337 0.751973639235562 0.1259466288553893 ]
[ -0.002435482418737528 0.2700192501312934 -0.046678491538399425 -0.2067535895091663 -0.04687030291087136 0.04630816124981441 0.2796196982219197 -0.001767140288480332 0.11873378400645498 -0.4068422695981555 -0.23036265036543788 0.035976170423540385 -0.30247237313755343 0.17966824090798594 0.17756290702406227 0.14935846701078603 0.1497169022936085 0.13152504558096997 0.039026920507987096 -0.47337570699987735 ]
[ 0.4020163426801595 -0.1331053005751041 0.31049656760975386 0.25895250342470244 -0.6175873701050127 -0.07385217351990352 0.0415943921443338 0.30370578352688343 0.29544606849353505 0.018055781661948916 -0.1768110110657884 0.3186556881134224 -0.1703173940729854 0.1851875127480118 -0.05182448741480355 -0.5134684745459779 0.40102632447241376 -0.14523613557471757 -0.24301979866169757 0.20261647781210995 ]
[ -0.45637614445393415 0.39369669684253555 -0.4032418821043034 -0.6192952242601008 0.44434787965971206 -0.3337350536019264 -0.41257230486334656 0.8343933327205788 -0.13803663610025363 0.1850342294625138 0.20633753170576008 0.29023031770329266 -0.5220633862363044 0.539716948283185 -0.1397410153093367 -0.3307488626398136 0.18319176020978045 0.36256682240057947 -0.4368315571731175 0.07902449374242045 ]
[ -0.06412004234861979 -0.08406525215156528 -0.00820112289899374 0.14041400609834714 -0.013119099076762073 0.1468932349435209 0.09774520709726209 -0.037956176170797114 -0.0597253132810511 0.07861671164881898 -0.09463146963201867 -0.10042542555775193 -0.05609692718598177 -0.07479295587338067 -0.17154330358742081 -0.08456780460838906 -0.1365529971353963 -0.008934233795108791 0.004630261196210178 -0.07863898764460245 ]
layer 1 Activation
tanh
layer 2 Dense
20 40
[ 0.2753037907205294 0.18155267149551627 0.931100323204912 0.17637246626311956 -0.11739316592983391 0.1934550562629178 0.15380771615458277 0.03499608734838701 -0.23837869534202974 0.21814304033294465 0.1044027271026153 0.23919383575481581 -0.14860035649687153 -0.09396602545658388 -0.1258908251261043 0.03529372776593261 -0.12017686912795097 -0.18273098564833765 -0.3518289631628077 0.2557892163180939 -0.25421509231446054 -0.20453866267843382 0.130519324904378 -0.010934180104369178 0.0625774437526185 -0.07050601234258244 -0.2672524686028416 -0.3903493763489774 0.17607995113967442 0.25611045093158025 -0.03178833487402813 0.33533900441456477 0.21795701540760365 -0.45308383373645766 -0.09436662630462955 -0.021343792756716145 0.500899720491384 0.20215196754917414 0.224363528802279 -0.37686877455364637 ]
[ -0.170086806786365 -0.1394064404341525 -0.09425363539073284 0.10373009407075538 -0.30310390069849846 -0.10623181741755981 -0.08361094296982598 0.1429355634120731 -0.11108613112066393 -0.3389327498885759 0.010885564411180233 -0.11171965588889925 -0.13666380374964338 0.2952703385115567 0.23333703726637625 -0.0663205556616774 0.0730625924773131 0.20405023142203216 -0.09245149668609805 0.1784715073140258 0.0961373174426043 -0.09150188447292831 -0.04892013191191164 0.035533309014312356 0.1725468691371662 0.38113616131070754 -0.1564499117714319 -0.41459630158760713 0.19664602161705938 -0.09497967896277189 0.11607899574045293 -0.5277561504638163 0.12030952880133468 -0.3726807711605899 0.10071304820046914 -0.06676119178875393 -0.018072011433087103 -0.05911965283706458 0.13634706111741812 -0.15305200093431995 ]
[ 0.48128942700941185 0.2045399491467575 0.17500695302109087 0.37380949748970044 -0.3072371095842605 -0.05733066731913336 0.037574131412672566 0.16495294507707867 -0.08191169317089936 0.1748730184291615 -0.2582937590709742 -0.03494662795172731 -0.018622072256355038 0.3778299317467651 -0.03501039548287063 -0.0427078266355478 0.1436277717586718 0.27313388670370736 -0.5283634287326489 0.23767028659118605 -0.03703921122293715 0.199575788644703 0.014147133335441344 -0.0677660212520038 0.2907247716790711 -0.08442129953193658 0.14372274695830106 -0.2468405456766457 0.32453284273061833 -0.028184754920717352 -0.8295596672737299 0.3057970039637738 0.07251434781315434 0.3583498635747979 -0.2779580649146219 0.15674578269414174 0.732694716752712 -0.02846110879062446 0.7090377807723248 0.14241232729497558 ]
[ -0.27852022570548884 -0.21222761675814927 -0.18311217990287804 0.06829821285439497 -0.1522576815721848 -0.11823064909353376 0.4633009493114002 0.09368251323714773 -0.16946146153217317 -0.20489518375936247 -0.11743281879722983 0.09336970638836062 -0.354457262560317 0.4435366638214704 0.23818660027863978 -0.23055415041540006 0.33135396886343593 -0.35244777520652315 0.3505061723364791 0.17083144226810937 0.039961789022067214 -0.4956391547810084 0.2463548520532085 0.12069607246508088 -0.08283730202309138 0.17899716891119496 0.29783715223618007 -0.2967909533193683 -0.06256408828064644 -0.2822743543880662 0.15207386787848468 -0.22892489173516786 -0.3790844928621879 0.5663539162883048 -0.3071185209216141 -0.090019001435972 -0.10440710102437809 -0.07678868263538523 -0.520496884889467 0.18136510054342073 ]
[ 0.11355600244907298 0.15689411261308933 -0.14939370002504293 0.09377631015566902 -0.12816677104157406 -0.26526402412846256 0.012158758843364243 -0.34734181060316827 0.07301939200854841 -0.19764320868832316 -0.4661499347971096 -0.016781793881986976 0.552393749006831 0.2546508775518593 0.4112680401893177 -0.5568219851831484 0.0024835055126882174 0.5632049136937969 0.39137734158978915 0.2929107945882683 0.06353535892542396 0.07678633587322761 0.01310479023565983 -0.1249143745366754 0.06811635382138369 0.2217007128412589 0.37524361119524685 0.08991707745447043 -0.24571188192881613 0.04502162290903766 -0.3262391144884322 -0.4118616997332227 0.5472434543211865 0.1667508872267436 0.5281685188452616 0.14752843322743633 -0.23473410345244305 0.28001398334141026 -0.5192458429704592 -0.141545482027673 ]
[ -0.45931565942372027 -0.17927248721314556 0.535740994162656 0.10809379377877133 0.21780190753608225 0.18848853171167707 -0.40725453959902 -0.16773529061335804 -0.00715696380189543 -0.1305643690687399 -0.2681410903523479 -0.2701691132392627 -0.5417379030950326 0.01708476105210922 0.09068808745071313 0.14210036450143199 -0.35843638328252475 0.07999417315348636 0.34657856433751755 -0.10885835219576345 -0.36207460547460907 -0.03960092752900699 -0.07340164756054515 -0.029475502759464783 0.284097959831953 -0.4569678041084053 -0.1511918729572706 0.05919100858052147 -0.4759828826940149 -0.11575370787177686 0.4819885502726519 0.7736129369133414 -0.11745791236225306 -0.685824754326203 -0.3646811273903788 -0.1399787292744008 0.2461436017725712 -0.014686847032131006 0.1753139750952503 0.07409645073322532 ]
[ -0.23503082749853302 0.04887430375680878 -0.3097306049157444 -0.16869698293817365 0.2829047559596122 -0.27293050239765915 -0.26071183909933915 0.3967134102538756 0.36482418278177686 -0.02569851159063035 -0.23698259249103248 0.0675251185452143 -0.7534868880815544 0.02916243919093609 -0.35396498815808103 0.13850616411725053 0.16144799183469094 0.06221093727169252 0.4458799119501391 -0.03234576136596072 0.002016574075190995 -0.1086536961343113 -0.1844973046833585 0.13180852345279592 0.185850779260381 0.3358845689784271 0.3007580265581129 0.18942837307680094 -0.24577265019657707 -0.0005928688827772646 0.46162872025592006 0.20593087058287057 -0.45774033296973843 0.11828295725767142 -0.19626848785106854 0.004616198751816573 -0.415105965352093 -0.02937051083533007 -0.618835723388707 0.04673892304652307 ]
[ 0.40121613439324627 0.16076429368948258 0.02421669865384545 0.19877909660800747 -0.029778344052049894 0.22849189813358578 -0.1920291290163299 0.1529492009634916 -0.44503285878292026 -0.1972221941658727 0.2987397839683601 -0.47017454181246926 -0.1127177164975989 -0.3885092311596605 -0.22044691467540967 -0.056837993134185985 0.2317483061101621 0.01364228188105164 -0.40174736475697087 -0.06784387643744899 -0.011657720873958947 -0.09173102096685287 -0.02804688613138073 -0.2755843223161125 -0.2727771998454362 0.33545451021004613 -0.4851108130441515 -0.14926921945790744 0.07607750931034465 0.11803330286550037 0.26201511068480055 -0.10289258115405443 -0.02284439209345906 -0.14736657317774018 0.6272592122684697 -0.06084469204724914 -0.39488360047441695 -0.31110869886120607 -0.0943156639533716 0.1992382891298922 ]
[ 0.3862802168043377 0.13117462686612177 -0.3789693061088151 0.23942936920263733 -0.10019165903936202 -0.2752627486581481 0.13435277044921767 0.23623543598669858 -0.21899224492604233 -0.0214959891336041 -0.286108632747547 0.1507065709213934 0.0014432244476626586 0.26297387280656087 -0.11797068218343473 0.023595432537344 -0.09682578368670385 -0.07341541496838415 0.34876601319615386 -0.30495387672699126 0.16445790715043962 -0.28159503000757624 -0.1556313115215992 0.10272523275067408 -0.18095949658369986 0.27917628875912753 0.035110824805606455 0.4368831580194135 0.17179211663943644 -0.457911575101293 0.1543738833827525 -0.2685584547315541 -0.32141193178056876 -0.009598303569970724 0.18775897968637442 -0.2104236054945559 0.14346518904634237 0.29388081821411266 0.10670453318179028 -0.03870900379733371 ]
[ -0.35109849910487495 -0.1691591364027958 -0.48958834950075436 0.038380893316031416 0.3286535513611449 0.309075728113425 -0.13035570750632286 -0.04668477762557556 0.08645762941337769 -0.038583048849676504 -0.01716395898914164 0.27667275344134984 -0.11356607545566835 -0.22219710894236613 -0.20933297930988287 0.0026270482736941076 -0.3875603324486955 -0.2300725868837944 0.7056502286602792 0.2035976968204408 0.041572940669130594 -0.5107164551594542 0.19503492921928425 0.24112725991944597 -0.28253154063070374 0.016005617369428942 -0.12850616515232396 0.6474434496434417 -0.16751877261481354 0.0995576301230614 0.31175819908206587 0.049667627072293545 -0.1105682236742562 -0.014499072409890686 -0.13888081635397728 0.24243207949623377 0.1906054067818147 0.2750389754206146 -0.0785081640972846 0.12240230201370454 ]
[ -0.1518744386120284 -0.24736475020793078 -0.38178507349688856 -0.02799606453459712 -0.31612793513685183 -0.19356670236294246 -0.11439718402996418 -0.187911210493234 0.5532065245257605 -0.0178052822741977 0.3355742848037041 0.11533233425444185 0.3693739312663894 -0.6663275906014342 0.18243825686762985 -0.1319652427077426 0.04891094732703473 -0.2711564292383691 -0.20535402637903008 -0.06527034474026552 -0.022319213038022395 -0.017242523039986486 -0.38682153581482737 -0.11431274071297774 -0.24599154871753162 -0.1998364989915208 0.05272134248445103 0.4443973187274398 -0.34103092752405806 0.05411328680291849 -0.19548652578212405 0.3186018155850003 0.3680675052483829 0.4108395820946776 -0.4270593843838686 0.16226175858254976 -0.44596653784423623 0.09022929122960285 -0.20819247103902444 0.294297263380673 ]
[ -0.25671512433718574 -0.14960554673366674 -0.16341488124296355 -0.23811334026626166 -0.4576130202129566 0.022510318009070336 -0.09201114651995008 -0.16710722652345236 0.20246827698580028 0.04239494891926128 -0.13365598634395132 0.14356185389594722 -0.03856156357004471 -0.4600792327721495 0.20979042042351442 -0.16739722747854427 0.24234525067166643 0.3171676453991891 -0.6203217826275531 0.08836623611289718 -0.04581767922821311 0.1862316510029119 0.2799129368966754 -0.22008824139907815 0.10501014269194656 0.056511479092853686 0.04728128148056479 0.1268152106092197 -0.2225760229747406 0.20235808544220205 -0.4621070984930077 -0.31224943963966306 -0.2058254192556673 0.06957550743147459 -0.4248123186134355 0.4263181248325309 0.04791513452086852 0.030845456533910118 0.497676375472349 -0.12868324762983502 ]
[ 0.29245559461038534 0.2640243363789362 -0.12431717509187609 0.09972582073027352 -0.20409967757958078 0.11644060370623449 0.27584667852194567 0.3178370971157527 0.09043280289283748 0.14038044797532193 -0.5202213761482948 -0.24697077306035806 -0.24513505093902607 0.35466942526777984 0.3505342952671337 -0.030061202625647956 -0.03854677802871568 -0.03625846159025939 0.032420227593887 -0.13832846523870315 0.011465210697522986 -0.20847312187895384 0.020654350477445307 -0.18168813118368507 -0.04188364497555328 0.043085823362290485 0.16966831479131597 -0.0030073431603822066 0.09729989775765374 -0.20197040865047913 0.10769232446543545 0.1823316022671577 0.057798027142765024 -0.3073258596534275 -0.24005537326798349 -0.21917985830561076 0.06998160189416015 0.10888960820637261 0.023628306554235978 0.07106391791598578 ]
[ 0.0840188516397665 0.03959444468196472 0.00274814834362523 0.031168018949433433 -0.20200740932001338 -0.19531095274667085 -0.12470823237621936 0.1648096645916945 0.11565894189809012 -0.1145349608717373 0.10030091815786482 0.056211332806081024 0.39539204313858317 -0.22511813822640506 0.26562246551128954 -0.2732015002207131 0.05415378382758066 0.3362485558286351 -0.02129187062561711 -0.06808106427791044 0.004636936947005074 0.22524339966812132 -0.15151502128794925 0.06363188374307334 0.0011662520167829784 -0.025032168996186793 -0.1404622738065453 -0.3355874946966931 0.21171660325156302 -0.3198484285577762 0.024876086917245854 0.45927188382808887 -0.15092833971216305 -0.11499083773941332 0.17328110328790486 0.19453493058929872 0.11814057257719755 -0.17182179404938247 -0.23073227270866115 0.09507530651746639 ]
[ 0.33083141779762365 0.079375082475295 -0.08058032893164216 0.0577053420955317 -0.34720989484841447 -0.27616950094149684 -0.11825949331484696 0.13033784157219902 0.023007715159838016 0.025103940869320437 -0.19230540514016367 -0.2924065129915849 0.29960380716557383 0.20681888242663998 -0.1421445942576139 -0.28730191757453305 -0.09095069680872846 0.041635519618704604 -0.2999115161253214 -0.07757446164235746 0.06992162237586039 -0.04652067778693532 0.22381995275197597 -0.06386266664610077 -0.0624527528697238 0.27102522980638205 0.08709627151757647 0.12286309289137025 -0.03889959730516039 0.2055251899078097 -0.3155868053928768 -0.525550661852277 0.22598796646775426 0.196177322043714 -0.2332539614971141 0.3501629176824756 -0.16311512999755 0.0741151845785407 0.04928339078792686 -0.21786626396018718 ]
[ -0.18031902434595995 -0.15180896448406223 -0.3440779859749474 -0.03702689685145544 -0.0687078863694667 -0.04722740707574242 0.140703925097241 -0.22290733287653772 0.03377011642786465 0.2848932549272109 -0.4830155422388142 -0.1590599277231415 0.2485992772811523 0.2632499393682624 0.014483469055061851 0.02496839457041936 0.20064429040281778 0.25091306284102705 0.3705496601930242 -0.20862651219315306 -0.1596576138400161 -0.07995495488084366 0.14025018268438527 0.13407436149404622 0.1268449255478552 -0.14926628343118994 0.010443046201411113 -0.07649632000416255 0.01505627676959336 -0.19756308608783543 -0.12436839091238168 -0.06385647959726996 0.003268260020340445 -0.16455384909162615 -0.029104639969408007 0.1994144615610561 0.31825573184442035 0.09256877517758583 -0.2568600491722389 -0.27330858658507867 ]
[ -0.20931141652944069 0.16957457467689657 -0.6002780878246489 0.15419540322796818 -0.11624924779714259 0.18591837276895412 0.39647761564516365 0.15307205535041934 0.28395187632626784 -0.07098093952675767 -0.08794656654454971 -0.38783333807867776 -0.4335061385547244 0.23070183618497572 -0.2954867472081757 0.20241086301904415 -0.06819181945262881 0.0822508214635237 0.2639807459416753 0.12712478817719647 0.31463179477673514 0.1143854135889785 0.39198898061477516 0.3222868331533696 0.0989483902470834 0.1549043940909431 0.13378730914782053 -0.02153996377618364 0.20194532829638517 -0.1336215912103631 0.17416073415219605 -0.2596957247134317 -0.37503197738101174 0.40776928826806724 -0.2083681944592241 0.3597795348371268 -0.11994260868728361 0.09555988811163534 -0.4082682778056712 0.16662450931210082 ]
[ 0.2824743113727253 -0.40813999027189624 -0.2905647749877421 -0.3226813656880228 0.12435173630819835 -0.3019213258625065 -0.12221258172230846 0.1411841584186274 0.15375711295482414 0.2893321306227781 0.4121317460178176 0.2707853782672064 -0.02517468993344255 -0.1931019437265591 0.022947463031539196 -0.12547943749414384 0.017201410432954138 0.3563552351328291 -0.38420354753866776 -0.06551440066656108 -0.0654947283578281 -0.05927718684534834 -0.2171760432931553 0.2325808674067609 0.21627491367313556 -0.024235795424338555 -0.05727989314148808 0.1317830791687159 0.1843631834629505 0.3743407507834202 0.13958922218477227 -0.25809348425565665 -0.03282420262421158 0.04355248073327437 0.41159638817806365 0.1344378104741993 0.11788062318457368 -0.2132985672465758 0.5724810096744612 -0.1069736124136072 ]
[ -0.12897076630091733 0.38770799791147204 0.48019734645923123 0.17615364368200004 0.16371130571854084 -0.21418468309046412 0.075373607091108 0.40521608907813816 -0.27311651222903677 -0.1926709669926602 -0.02781365925949727 -0.41266069788625004 -0.1881837761567998 -0.0377337771226046 0.06954514707274984 0.16466517040804385 0.10929096964956977 -0.2704898844275315 0.21073656113757597 -0.1687508657451342 0.17704281987602702 -0.16719476859338167 0.2724674987170995 -0.6393525034881384 -0.006365286724149949 0.16075301758505636 -0.19495033532001513 -0.8142549850568379 -0.5161602848660911 -0.3036420210447382 0.30846975737766424 0.5918413547088502 0.012555840552177143 -0.46806745444920783 -0.2690867193324567 -0.057528153092785736 0.31537896225310896 -0.26064142304346155 -0.32311810280038744 -0.21660245194536273 ]
[ -0.26037620789294613 0.27736386640063243 -0.023704490432287693 0.03690997870271611 0.08045407328037618 -0.043573404871566496 -0.13750308798220554 0.11426228898890094 -0.1183717241894419 -0.24076029961416973 0.04974059277863098 -0.18222422476306144 0.1219198020820437 -0.3068447620095483 0.07720978986840797 0.16014184962291966 0.25948400306384317 -0.2541512432066073 0.2894889232734816 -0.2844876835170523 0.11953174242733168 0.1871846668853146 0.21408520713672935 -0.05799029337939129 0.3561338871030794 -0.1747317329473268 -0.2090510414023459 -0.3798967299350031 0.29068003250625424 -0.3465656044674765 -0.11125050394018857 -0.41028836428077975 -0.10693241638763659 -0.280613556645944 0.2658887326790324 0.3103644852936091 0.043112196853877995 -0.161517560121424 -0.026508681460636646 -0.12189708845678619 ]
[ -0.28646053495966095 -0.06386654207470044 0.09374511319363639 0.01923434801417605 0.07526138359360983 0.057298528004049804 -0.1517427685015544 -0.07080356883765665 -0.02857765766272475 0.05201543233705112 0.13798022233663254 0.003063707210129571 -0.04120830650487252 0.033094259379010185 0.0037188206409942306 0.03798510070187855 0.003476308200415489 -0.0326804696238989 0.021310804765731516 0.054586666363890174 -0.12852836214295216 0.011007136485983244 -0.009465295220304565 -0.15200059312938158 -0.03366783019464286 -0.012419211170183119 -0.20537625776884966 -0.14623861714769795 -0.14096402156910268 0.08429808259365051 0.13204476230448325 0.29956067971068717 -0.06190062494109415 0.015221780646199641 0.040838897302278965 -0.013811301138183085 0.04796536998543044 -0.030501615531310356 -0.09631702100136759 0.028596719056868395 ]
layer 3 Activation
tanh
layer 4 Dense
40 20
[ 0.09608330741420958 -0.14169328771769835 -0.14737300144073448 -0.16535448708963182 -0.16887731774456927 -0.2614365739276301 -0.10833473222327783 0.12178761022612103 -0.07595147456866755 -0.024842951794813696 0.20805202224687816 0.1706507831524176 -0.2291730995376549 -0.17661568037246209 -0.2117861619086656 -0.15650841797675338 0.04856457273345637 -0.12428837435241909 -0.22918783537300166 -0.32890785513767234 ]
[ -0.180842422628298 0.23512974347186527 -0.08289579655624524 0.16886082926186835 0.006708698329547017 0.008382498098484487 -0.2967932485678508 0.06410086324662848 0.12085172353685883 -0.050115393277922304 0.18189006916958056 -0.05171620036748374 -0.009448788116885144 0.028602682080516768 -0.2965081085997827 -0.20788203694001967 -0.17155554751331345 0.05461673909161614 0.19193227838346527 -0.09763062507608813 ]
[ 0.01210961070304052 -0.22038970496948865 -0.2110227387798472 0.12436132327901635 0.1367575782463375 0.1762442298600458 -0.20308595922708592 0.08819347335481698 0.03736530955357116 0.2875857067899272 0.03356172219005633 0.10324546203497101 0.07026282125783893 0.22322102025033855 -0.4077071638981527 0.12491674669088648 -0.0460772027453763 -0.21991758806495695 -0.28852255041248537 0.18797177984846195 ]
[ -0.14159227015521578 0.16455405164393724 0.011882422311232687 0.1187920957783921 0.2676180724571381 -0.10599851144616587 -0.0644126150363067 0.05409483925376377 0.24725122750357373 -0.012823680461605152 0.15777844646786537 0.28123555860873883 0.0790826984520405 -0.0478188658685893 -0.07641330435758246 0.12993937968799943 0.12716346029924264 -0.13985393631336746 0.22366322970397898 0.2963307992796023 ]
[ -0.06772884437506044 0.24609760102446945 0.14283793980383955 -0.07451744541077827 0.29187496493382703 0.20025204347512385 -0.18762512597629394 -0.16264947861140278 0.11939667200928875 0.18942428323623572 -0.10913900577127862 0.11818498508566753 -0.08517683962563455 -0.3044268140445085 -0.11412458588048548 0.23834646469673332 -0.22288005999273083 -0.18594598057528544 -0.10912150104121981 0.15142360881421765 ]
[ -0.05038416080735299 -0.03894077691781293 -0.04004778099876381 -0.03786393596883518 0.265511268099164 0.09284162933136476 0.22738810133525617 0.18408495660487334 -0.18998813811877846 -0.15292596684020973 0.1697822692364531 0.3258411391600771 0.009341136023023286 -0.3166954555298016 -0.05687351398706904 0.2738988927517299 -0.2677103288372805 0.20952013242102294 0.07674321157132309 -0.030389364137420542 ]
[ 0.14753470401254867 0.10283488210865148 0.1095995090911508 -0.19133001909415187 0.14908513294450237 -0.1559120874016576 -0.17552692566659014 0.008015512446902937 0.011633877517913734 0.016660524560955382 0.25490788176219675 0.1730997245795713 -0.09578110554587231 -0.2036660342752465 -0.050721562497506464 -0.2696358791633983 0.11030914208376309 0.007495837932757784 0.29348258114464176 0.11382162443362794 ]
[ -0.27281415666718123 0.0652997493019033 0.37150788228642545 0.09165254332343616 -0.1955954522964035 0.22962697724742379 -0.152988760411882 -0.14815499294874565 -0.1386208351026498 0.2815365145359781 0.20382712794438015 -0.09182032043075591 0.11193739436465046 -0.027391117184464832 -0.08016400610610097 -0.11330717529068388 -0.2198867828094303 -0.3098885183618406 0.03123084545917315 0.23814289631643432 ]
[ -0.020237750648131794 -0.0036710004062609283 0.018287201871110437 0.046130495633924525 -0.17962636307822613 0.15455085300565385 -0.06407474713980048 -0.03536186446452941 -0.14834868407774782 -0.16226868261121694 0.2566353470700021 0.2593559933401599 0.028735320502272323 0.1973195074141165 0.4397160711824142 -0.23385991754093136 0.3045339596213975 -0.15604275570164922 -0.18668144075923315 -0.08284842426580052 ]
[ -0.05422410414991561 0.2427162579580686 -0.23099170660775545 -0.4114743201333085 0.11312992849225241 -0.10171437272715445 -0.1455256613723446 -0.13901422086450382 0.006033485157910278 0.20207088730586362 0.21230720430004776 -0.03565556171596985 0.037405215786177934 0.07068512778214327 0.24727844520717882 -0.2143160433208463 -0.07367436251393938 0.0007395839361472595 -0.2061256175445289 0.06782600453282456 ]
[ -0.040375125100838204 0.023257234612478337 -0.20393803418075376 0.05419225965176648 -0.25737775724305684 -0.2256763484266801 0.30551277546632344 -0.042067226394251 0.24628778107632832 -0.1695631399787069 -0.022180992526626017 0.03691188519066682 0.17645504007920035 -0.3299950243369068 -0.1243523349103266 0.11913709031362359 -0.11253545823965136 0.16181107798227498 -0.042976772345238994 0.058697917977822214 ]
[ 0.13004736541192424 0.023991691885645944 -0.11721101997918776 -0.19763117939132796 0.19639826210174388 0.30668542517388286 -0.25537295715913433 -0.0832105532009003 0.010831040534075149 0.22564839679092957 0.2372965706546723 -0.01575922105973494 -0.046423062263014236 -0.35364250531932734 0.3308800664052436 -0.043472720141503954 0.03813448380479972 -0.04178765617174734 -0.3616106371361901 0.23728447609321043 ]
[ -0.002777769632214165 -0.10696384906856304 -0.31753531180021954 0.06820569075440533 0.25049678775824563 -0.11299348099337915 0.19840476998933668 0.052119048273322935 0.07460155234022728 -0.2741129572971767 0.3206512512640058 -0.07799653299045965 0.3113335653239108 0.08929926485220803 -0.26792707568057744 -0.14044077574825456 0.0981798986139012 -0.14415259230478034 0.07690460783872854 -0.1249616009912255 ]
[ 0.09244687222630106 -0.2687334614647114 0.33680740239293006 -0.18306728995310484 0.08750872944554962 -0.18617815223653159 -0.22325794176813718 -0.2903635033150781 -0.1038600671997738 -0.035517969849208145 -0.17191564318125144 -0.21480714291305045 0.229323400103452 0.4001254894302927 -0.22977201608371042 -0.0761784827887586 0.33442079249187506 0.22829007069922028 0.11277612973941897 -0.21537323978250494 ]
[ -0.19071379255824697 0.002358723049546335 -0.3172702072655531 -0.15259202886588477 -0.05096765885508712 -0.14178236873699038 0.21609605205654306 0.19951603679461205 0.18616925410401527 -0.22577271474601399 0.24392947082628888 -0.11139945053113846 -0.2058294219787017 0.10112552147104067 -0.21350387426519413 -0.25721081666656326 0.3590291342529637 -0.1485158912105878 -0.06986085808372439 0.20037924368570317 ]
[ -0.17916767559464628 -0.2710123827955123 0.058645046407272236 -0.16342211915014973 0.2262861467497051 0.1354100839917533 0.14571809867279023 -0.044699381014849895 -0.11672284821772703 -0.19876542188981564 -0.32660928525163574 0.15706331037944693 -0.10909610591103898 -0.06095940055631066 0.15850664523282132 0.27619805067724906 -0.27701350421240883 -0.008785867806018236 -0.00037576226045316216 0.29360620740135235 ]
[ 0.34047047548684717 -0.0762816437577908 0.3482598110710831 0.22900500092546175 0.1589227631892699 -0.12519619577510668 0.050357332619483615 0.11843691442010933 0.2549173721823046 0.1522313181676105 -0.24569850963896542 0.07699187495352938 -0.2193654436688916 0.25466659252988094 -0.07947803661801613 -0.20041722259774933 0.22932130175694498 0.06414311884985216 0.4449505120578777 -0.08687774751560295 ]
[ -0.23596767229658902 0.3255360158022115 0.256769746389777 0.24147359985374187 -0.2699026924390633 -0.19291057870109118 0.18514633961756707 0.2822065004058318 -0.09949167029915745 0.20072578708806185 0.11303838711720525 0.2797052666054316 -0.12226510546847723 0.22016597669770838 -0.18666117274663677 -0.13298103889495583 0.28429920880328446 0.3197333249764921 -0.14099229656123746 0.03720320767252101 ]
[ 0.19229390435675625 -0.0642319340365522 0.08290967628094904 -0.3094239374979046 0.35138173739529244 0.29510130343928775 0.08545859768349932 -0.4053797173781647 -0.07725477412685713 0.033036399583315744 -0.15113617847277974 0.2568996918514905 0.025298287056389052 0.3263744201605396 -0.018888674882336063 0.2652971976510594 0.026782695219060244 -0.03586286288063718 0.2930037353457671 -0.18205016890226408 ]
[ -0.22543394315348725 0.03341202040820182 0.057652882772906325 0.027750735062694588 0.22325177376405592 0.06882915464435885 -0.17577744046537425 -0.2924268936198148 0.18856153704321318 0.20371259445053394 -0.1573519685838101 -0.07937904339237797 0.0718789646860027 -0.07873545231205507 0.07563244359589338 0.07243675769331316 0.1494380313771112 -0.26801903063238414 0.1437307235756416 0.03117837512838059 ]
[ 0.04012586983892104 -0.18268103551995352 -0.07424162740263451 -0.05649942119845208 -0.20119282528571353 -0.20740046609672694 -0.035086053989717654 -0.03341341189105673 -0.27579670245473875 0.03785526348955455 0.25332746400532546 0.320716949427329 0.0375281726079941 -0.2129171413310517 -0.13478002916575954 -0.23988118308369943 -0.03527174494589071 -0.1494877001519583 0.18319942867577768 -0.07918810113925329 ]
[ 0.12889698690260412 -0.1446388952676106 -0.054968409933422495 0.23954867860778298 -0.17569474944723584 -0.25711874693072795 0.2100377037710384 -0.05102937864890011 -0.13653869927735462 0.36436231703685856 0.17530401734282972 0.10490556205248251 0.22166272668335757 0.12958885878753165 -0.1810869499310274 -0.03891799483681962 0.0852533129447311 -0.03662137402799642 -0.19605535556398343 0.2277364569035405 ]
[ -0.2905998181029913 -0.14135958224956272 0.1844505946863299 -0.2649958923523902 0.2946490140533007 -0.12877560526532464 0.07313162629109113 0.12640823847549457 -0.1510707031600216 0.21664097643922078 0.11163400169381969 0.08444681947495909 -0.004979264354310561 -0.017014796460254573 -0.20008576304193562 0.05418123485320198 -0.06029484234027075 -0.07435809315077382 0.09770971502411863 -0.188785378524119 ]
[ -0.06743510162753578 0.23978318584928826 0.3729150834375352 -0.13924496767457326 -0.1530354428754653 -0.20198552864950647 -0.32908877237652645 0.0157960457405447 0.27924980779271946 0.0712806341262332 0.002168234973453946 0.2625475590559861 -0.024461101248565608 -0.15210510611072764 0.13431158743857255 -0.0825263229888674 -0.16519567974390376 -0.22013909616978136 -0.10832614812935723 -0.264470504376671 ]
[ 0.03936874951428236 -0.023620339845104657 0.1557446916346062 0.2032953364343547 0.033545740620425715 -0.159066123522282 0.07032376081072804 0.040257982542169155 0.08925800710819481 -0.13233806116971308 0.02814392080996112 -0.1774040181672178 -0.13003083865739434 0.31391137604170316 0.014257618775805711 -0.04785965758998929 -0.2852279902601754 0.17739208065065595 -0.21074870375035662 0.30221376102630126 ]
[ 0.28943387728578324 0.0032657405673441405 0.13777777017533915 0.24900721182024127 -0.1316216609705889 0.1788306204139916 -0.07627868248348452 -0.199253773117729 -0.16687865723227827 -0.1675487753414542 -0.10061244713896995 -0.06379775698369637 -0.23009004733254965 -0.009670316292563583 -0.1542921635178945 -0.04725083826872926 0.18655445306252957 -0.18417599967841286 0.202409938188417 -0.1533559673378482 ]
[ -0.2651934498637092 0.035505474606346364 0.0071582646523525185 -0.23498013748238222 -0.1362085650830103 -0.24547201297431348 -0.1251890358956052 -0.04047353532936201 -0.23154882102332927 -0.21844109190515035 0.3942176005040435 -0.19997252226490636 0.19793779629026584 0.10833537451467995 0.15090471737899647 -0.2695129766908295 0.23265943670192857 -0.032532094469575425 -0.0649929179973246 -0.052179843545330375 ]
[ 0.1774741788753598 -0.14648534907861435 0.18182389809551816 -0.3773445777147502 -0.26345718557435926 0.2611006392062462 -0.026768429208626782 -0.18223540196372898 0.2450025034696733 0.204437992906395 -0.06822730456894273 0.06848372728969578 -0.059805221379912676 -0.3138942956925393 0.3057446796504763 -0.2009027439654574 0.1956620750991694 -0.006685429462766934 -0.5424454936422235 0.03173732677302398 ]
[ 0.0034886412272358137 -0.04762227640462248 -0.14336750189096453 0.07667790103547659 -0.262739813513103 -0.2025495012307076 -0.3160217900033154 0.03616419923434382 0.13143717006323277 0.08124672563952823 0.09474197379277731 -0.1669488030568964 0.10880637625456782 -0.15676843889423348 -0.1632027960586629 -0.10126424906272702 0.294500114294763 -0.08481895614191556 -0.2926785579319503 -0.23417910503240708 ]
[ -0.05224099301060393 -0.2048026563352567 -0.00997852827194478 0.05353366941528097 -0.26783160204176193 -0.09926566906655289 0.1052856515458131 0.11638981664441346 -0.22245733042951266 -0.11243329941478053 0.16984088443070589 -0.16179652288024832 0.01412642096427226 -0.23394861710755158 0.11802060544827787 -0.21431813152441348 -0.41446113993874395 -0.07321013962497701 -0.445786882273993 -0.06084338715890908 ]
[ 0.2545713375864954 0.11243736417939622 0.223606098927151 -0.19458469551483448 0.10930870475137595 0.26531218686724506 0.3279902161842663 -0.21101623296168015 -0.0008600105054081687 -0.005436243918743145 -0.4422210593243865 0.1542690132598923 -0.017828975727836753 -0.02572236467971411 0.01900557481436552 0.41394297792624757 -0.1367320154917423 -0.10884430510309571 -0.06302635222212652 -0.05498607253294553 ]
[ 0.17849377196440058 -0.016689261595739215 0.15870732376946456 0.2318071902647776 0.13321612304934077 0.2522222589079396 0.23020335067592038 0.2550825150340598 -0.0762139478968314 0.10058727238213361 -0.19355696243202095 -0.08964438648080682 0.23216224628805765 0.27430731407035525 -0.2904315672632794 0.2090426229386577 -0.2799291858396652 0.07458194036929676 -0.07465372330590928 0.21067387167974824 ]
[ 0.17720458906125694 -0.15285617512403335 -0.3626604654999762 0.21114560713030417 -0.09104752458919536 0.019346519071279412 -0.048086507036944025 0.15506203762548074 -0.1152206286897945 0.14151500773329712 0.22500858656033967 -0.11000410111673882 -0.18012424053304044 -0.11356794642531404 -0.12796305282817488 -0.27803300720697577 -0.20957033756141416 -0.23535791755447585 -0.24745311272615325 0.13835520336985513 ]
[ 0.17181964998952737 -0.03677400775845983 -0.10751091587801843 0.1986589248744597 0.2703778643160587 -0.13044318759339246 -0.21555879448292767 0.1712215204203263 -0.18426968154445858 -0.13354372706054782 0.30626208039332226 0.04915816810240371 0.06099977784575919 -0.12128601342946499 0.4132038819722972 -0.008594123531411606 0.13227803594560408 0.0461224882806152 0.29312449892487885 -0.5326528511838995 ]
[ -0.07596828751233398 -0.12169574702150954 0.08028468837791311 0.36340130848376634 -0.050618387438429086 -0.3670787371682957 0.3354723106901783 -0.04722367670887749 -0.21378929414363135 0.15622598779388583 0.08522064244523046 0.22708375574645664 -0.03283178358118452 -0.05841765749427323 0.51983167041212 0.05696767019679897 0.11769195339859634 0.09346747054726046 -0.37311920125219955 -0.24028864007156972 ]
[ 0.18499330385906845 0.05934022238012534 0.19287550626633992 -0.12935819416885289 -0.12561516647629112 -0.21492706595108582 0.24755850924629755 0.13795564541163205 0.1387657256107225 0.21398766109780656 0.18313493138700787 -0.11459749287460724 0.3968779974987694 0.12408828844807673 0.18441052584197848 -0.018103103357080572 0.10416593233151458 -0.21842577855797016 0.34176384206565535 -0.053596455425822365 ]
[ -0.016501127843054006 -0.025638175105013216 0.24209592837944677 -0.10915250408872242 0.4963144716746659 -0.16386182843368444 -0.3127665896482663 -0.094403256051545 -0.17975810636443607 -0.21042135652313584 0.1636129549359124 -0.07963704779484394 -0.06750838864207244 -0.07392696946334262 0.19834471629295675 -0.10797291974467547 -0.5096713290577023 -0.2451761495453415 0.07804915817995203 0.29583718224242656 ]
[ 0.028466571773572237 0.04942258755093038 -0.08733043114359935 -0.2907603631413594 -0.03346329954064646 0.08511892148224082 0.18417351250976682 -0.20093266533195767 0.15724916982088796 0.2527018575333463 0.34775003662285237 0.27984889837532884 -0.07967472071290924 0.172993186011033 0.15150805670368314 -0.22309049515991164 -0.0008492579486822358 -0.20678636983751741 -0.08179471694267673 -0.024164960901442777 ]
[ 0.16140417505675528 0.21701322592229821 0.06573971746872466 0.1422468669440162 0.16463567369944823 -0.5307343001149264 -0.12504252710890792 -0.26363496844428913 -0.2089359920105948 -0.23059850108105043 0.004232150512326343 0.131814415685774 -0.0844376179946398 -0.22949516482475013 0.2505438723720923 -0.21297485330441623 -0.30921036603274493 0.2125085532551821 -0.30204376143499695 -0.06943173088034989 ]
[ 0.09394631181624442 -0.2402858018082087 0.3613144259643835 -0.11792804960263616 0.106376162332192 -0.10290346231563494 0.040356540456562895 -0.12560390619592285 -0.1770668661882289 0.16200199628542566 -0.04071038572288342 -0.2093995508006351 -0.1874040350929116 -0.1874632042052112 0.20971379878357746 0.32769405527773926 0.13207939376298505 0.15352006651554911 -0.0022961691488170583 -0.1522624251938101 ]
[ 0.04298558934513859 -0.014598316391700733 -0.062108626291283026 0.038449185935340184 0.20589932274309486 -0.05574082612535292 0.11312317764544104 0.16423789245101575 -0.001493499673523304 -0.0011133777588306563 -0.07930306029088041 -0.024433107334874242 -0.11680551180948905 -0.058141994660751956 -0.016970969905063228 0.014925715319821824 0.014222202782052605 0.034527602861782684 -0.04047236771719813 -0.028647172203034678 ]
layer 5 Activation
tanh
layer 6 Dense
20 1
[ -0.007343491053297176 ]
[ 0.004391225808893409 ]
[ 0.03974574221470733 ]
[ -0.10800816789376536 ]
[ -0.16890955731348345 ]
[ 0.2194608515262085 ]
[ -0.10633284626987544 ]
[ -0.002043723457187607 ]
[ -0.008734785552328334 ]
[ 0.0014232156695686096 ]
[ 0.1063031844620668 ]
[ -0.008606727094504538 ]
[ 0.0011505899315046551 ]
[ 0.19942478076554196 ]
[ -0.257572880195748 ]
[ 0.2688305510320301 ]
[ -0.14521129356172216 ]
[ -0.0011498961046994712 ]
[ 0.121321131815414 ]
[ 0.09667781256558795 ]
[ -0.10342265388505521 ]
