layers 7
layer 0 Dense
20 20
[ -0.06888243939801994 -1.187370975264138 0.006705634127727289 -0.481745826075329 0.34029113539014266 0.24412956375261863 0.14052181588358434 0.5811039870318462 0.4249829639086645 -0.1123887653882307 -0.60458337950013 -0.24518004956536024 -0.06917179038240776 -0.10248941401326618 -0.3905557580717873 -0.6838701150502913 0.3685309970051494 -0.5192955811417332 0.5112475084611512 0.28204718152508723 ]
[ 0.2780737932419941 -0.3307585473864631 0.26248394957961196 -0.3835283591883022 0.31855305381026067 0.2622503383103135 -0.37584901375988544 0.31364472595956905 0.028615819700894128 0.15807470999977505 -0.3050944137191129 0.050901164579753175 0.02507267706030762 0.11539817550240279 0.1871743547890559 0.0685583620206639 -0.29153530785117143 0.2862625957140799 -0.09380138677173559 0.07561239161119669 ]
[ -0.14819734538426038 -0.14283324346876436 0.29396189087197366 0.376278921216935 0.2106878145871901 -0.07441812343230368 0.13940693431506582 -0.3758919455471892 -0.25664983196358626 -0.2552977641176317 0.27811971326416607 0.13039536141766145 -0.29743947146306204 -0.3803956729664525 0.29546748034657994 -0.08304598064097209 -0.271334940118258 -0.14689441487048405 -0.03683231903859736 -0.3612758868530222 ]
[ -0.04451009664643888 -1.2954977924202205 0.0789854835858781 -0.09496360812687354 -0.09818236814508068 0.0677143078809097 0.17833050595475392 0.08026324649038204 -0.06466405983566485 -0.48817302585149236 -0.37232007543510004 -0.0934413248936179 0.5101593741554658 0.16777075611306305 -0.4806945310383193 0.2498306646475613 0.19832937235829384 -0.672499689301169 0.33833406587717363 -0.09452677816881382 ]
[ -0.28767983965514454 0.3846415076290046 0.043652674682239406 -1.7609914587494382 0.20652160676853548 0.523200797256495 0.3894431039486357 0.41148881226891526 0.6756853315226261 0.19173412149003202 -0.24898702922194715 -0.33326725499586635 -0.5019504494733551 -0.02422446679603935 -0.3590496653819148 -0.2013461288917797 -0.2837758292258932 0.10027570203297649 0.5662066729067419 0.549157314241251 ]
[ -0.11455254713165797 0.0891168527650334 0.20563086388539384 0.008164269912352237 0.29563705488821324 0.30951181044883125 0.18581753724022596 -0.14574534976976367 0.08915073720398047 -0.04616216876473726 -0.11850047389508352 0.003121621303201698 0.1294646158677075 -0.3340775378968228 0.2004477200658287 0.03851764129854516 0.13459447192799134 0.3060269618415093 -0.028848051519669977 0.060188960524648435 ]
[ -0.23020842954024026 -0.22417660519107177 -0.1412112599922576 0.09550683129016997 0.08219347393227532 0.14789873284444988 -0.3392387687503931 -0.07431746929355643 -0.12281635957518315 0.03685103891176204 -0.37573831930028945 0.3384304706617992 0.10709435688563312 -0.08039096471798043 0.3463960655556085 0.0976539940364851 -0.20446783387036652 0.23335003379616318 -0.11286408145590955 0.29740420736396006 ]
[ -0.06310901841850441 0.26905773650498027 0.36094364850371896 0.8688591167819256 -0.33490990589356634 -0.3609202686381831 0.08908185285776489 0.11520943396786136 -0.19572937418284575 0.38494944846341256 -0.05326271616440951 0.20073638814306655 -0.12461851991434311 -0.0022204540717046277 0.5006737126941098 -0.09474544394130273 0.1703926863022707 0.3029206514744845 0.24489482231613816 0.2983187632251714 ]
[ 0.3004754679809737 -0.7164939251615762 0.02524597502251691 -0.011333420823151648 -0.061987394260416995 0.4921495219654478 -0.3518651628446954 0.3753636229455127 0.54948626037411 -0.024888642487949603 -0.5933488039887684 -0.3634757111760864 0.3787407454939055 0.3951169357305696 -0.41039548667768244 -0.5431090813789264 -0.3571456771706316 -0.19825193054644263 0.29893828615924484 0.4973765717387967 ]
[ 0.7550596909689684 -0.6236097143343644 0.06935387296414205 0.0537900374154285 0.519324599789539 0.16083180099600125 -0.16346598513450591 0.26435873543713934 0.20695930418207725 0.8397130523799372 -0.6702066646323056 0.3691377190439771 -0.2165009010640594 0.2997628739022053 -0.3940765347756083 0.816244481311688 -0.1973006331989737 0.19238429884196828 -0.6559159750177092 1.069898515926811 ]
[ 0.34471304503482914 0.6100368945162485 -0.8428810493854096 -0.21532626623889356 0.045123357001410395 0.38170752718345585 -0.25948876089102535 -0.6248745214431818 0.42745196089719417 0.020510312746362405 -0.7441181580803061 -0.232675081230065 0.021803147883730226 0.26902066926174245 -0.2247088074175931 0.022570434435591133 -0.23536738846176655 -0.07717095844611524 -0.4262071310801294 0.1337144861505997 ]
[ -1.0890112557323333 0.33192075746127025 0.09198773669182035 1.4356417123678533 -0.5439046636678693 -0.6264027504184966 0.7124684694489564 -0.8917418589630335 0.08998649827027538 1.0477855666392992 -1.6798903895646737 -0.416947327045626 0.9558446685489171 -0.10622098673129617 0.48282243020705967 -0.1603590517357052 -1.231217980046822 0.7001122899375704 -0.6429767931992184 -0.23445364266822327 ]
[ 0.8137747087092932 -0.11797339336987603 -0.3901570696543553 -0.02946609416402992 0.23405606950677407 0.47416280875210115 0.23329178967273193 0.34163017580061217 0.7154247201004599 -0.38019463181593555 0.5432814432255344 -1.1289969452294806 -0.4861378499813899 -0.009676941230296405 -0.3012187065443535 -0.4491401861170883 0.01295991240597885 0.15279562573826813 0.23720827473312722 0.14591227019191896 ]
[ 0.54043372117039 -0.10818303603622517 -0.137515764749209 -0.4540689275794186 0.6085844513161219 -0.26665334857218326 0.42085077223417283 0.00776842622222457 -0.4899010964140706 0.36881610730465025 0.38568575643438013 -0.44243171337935394 1.000294978967608 0.40177124645742973 -0.20363015530231288 -0.3035270714860531 0.15065022945858864 0.24831388857604583 -0.3169410284388121 0.4254537941514792 ]
[ -0.11328159747454071 0.04800434786479572 -0.28160889686882234 0.28141024512932405 0.35431068478188216 0.4852283524207174 0.1312297634860611 -0.43464776568415225 -0.06909169379214435 -0.04708518398759866 0.809291261671951 0.18457835244010895 0.3826591892134915 -0.16930068251107078 -0.22218032511341484 -0.5184334254704104 -0.5087178455481302 -0.1552783157965685 0.22783697339431347 -0.18697244544866057 ]
[ -0.6570906642298628 -1.3065485817392368 -1.2005807644990876 1.444537704506771 -0.5271790846097242 -1.0105329280910902 1.341390774946627 -0.3638337155319006 -0.3491680113270585 0.7189524687344353 0.08233353530819121 -1.0014379160495481 0.7515764066426406 -0.6075899860283757 1.0416568735967797 0.511189347658339 -0.8441330705336109 1.3816827562970622 -0.48878281843300564 -0.4170360057841974 ]
[ -0.9103021243546036 1.2002629196888797 -0.15260592614762628 -0.9376488551275048 0.6179527190533928 -0.5967431348668044 1.0998453932177443 -0.30897791392620144 0.8513843410970314 0.38367984511724074 -0.0688656392473739 -0.827237665278652 -0.332589480819222 -0.3994418347626365 0.19555735589695358 -1.3083213945456158 -0.7372488722119869 0.177349872986828 0.5586805802249818 0.7384641030005025 ]
[ -1.726667586150132 0.6581090650554476 -0.49497733775955205 0.3262065452809675 -1.1836862046494223 -0.26733093722723866 -1.1731416771972443 -0.5581392916430504 0.9355986031647803 -1.161263901954237 -0.7950541504882859 -0.16142823088408997 -1.6615941474156588 -0.831991951348399 0.6621209416640609 -0.7833063884649817 0.009404848973030993 0.1590107123850488 1.2527579028462685 -1.7840017311795204 ]
[ -0.6576293548503466 -1.353757463462411 1.176041245557732 -0.7137397209404388 -0.9168468167743947 -1.3328256365062592 -0.2996306831610545 1.3470772095918924 -0.3323402647537752 0.8818387157676078 -0.4962401632919714 -0.5794612937024713 -0.7530720085779997 0.05225664557843345 0.29314842991716383 0.9353331061492708 0.3922481669690591 0.17929050630747104 1.307884380495186 0.25024261723733987 ]
[ 0.5629622328006938 0.17090480451727913 0.7302513784825156 -0.30369424414586643 0.64084174780258 0.7173706915739281 -0.540920637304288 0.37798713694249064 -0.007613060766340409 -0.8724273575634155 0.18120184487002264 -0.3196490058153944 0.03406106271694369 0.4803500587728474 -0.47583384624607966 -0.5792757135169855 1.217832086022396 -0.3448458655868311 0.712494866774812 0.5260368780614016 ]
[ 0.04426450211707945 -0.38340494494076155 -0.06297447587350617 0.0252478225900482 0.01468624583458409 0.0453756792413662 -0.17646698213835113 -0.0722761260548614 -0.12960599909222562 -0.18039704864625994 0.0009289526484879155 0.2323020134249425 0.016172982591969635 -0.0727328736396689 -0.13931937323329305 0.25914141455704454 0.23686635740624915 -0.24402958664920021 -0.17568085926084842 -0.2163381630974705 ]
layer 1 Activation
tanh
layer 2 Dense
20 40
[ -0.49412562060569265 0.4506924724769785 -0.1913519540398735 -0.28412386617809615 -0.27185112953919394 0.41134935212689594 -0.1467550319585567 -0.44575739524300595 -0.19715216264303934 -0.5982892015018343 0.399794846159476 -0.34541440817314195 0.22004569509542415 0.46597577333881407 0.28252034571719475 -0.01516340691501428 -0.2880979421964458 0.13040195862818185 -0.18985932964377172 -0.2514450986621796 -0.34220957204446406 -0.31396218758424205 0.05937364211553203 0.12866256835723436 -0.26475684573455 -0.03198304291975447 0.37965132776622973 0.048418331671160275 -0.06751608858434274 -0.2758417130406701 0.20164291938442166 -0.5414416968379697 0.052334336086961135 -0.8642633078776835 0.3008266537928578 0.35662652939593054 -0.19551577149194996 0.05325883859971384 -0.3400831893489988 0.6591680482413945 ]
[ -0.3658963358542622 0.32714424033745615 0.4295743539824969 0.01456433465480016 0.239477706582254 -0.6046891554064272 -0.7459790183202107 -0.16322031109314813 0.3162251812331072 -0.538526019196309 0.08730125193880672 0.6823777989838347 -0.6678075125987997 0.7543369820619915 -0.498297259124347 -0.7264641574679697 0.37870049399251526 -0.33947641520751637 0.12813764930654245 0.2263958516533391 0.26102539034726896 0.11994646934239069 -0.01810937237868536 0.20020576390397327 -0.4664648965764155 -0.38702560851214907 0.22094067024192912 0.5099917725792192 -0.003549655352839895 0.7169159062813638 0.03369310739306645 0.3538082514666 0.02648919589378038 0.013075670224713312 -0.22310004351386878 0.9030778919034327 -0.4197927798403195 -0.25470451583534304 0.468307989175657 -0.05196235508567015 ]
[ 0.1785406017421572 0.6012843692943648 0.150886218077873 -0.07316778881035417 -0.3951363330029009 0.1336949260658538 0.6090760949286045 0.3559901653887734 -0.3081288623513803 0.49262813099004094 0.5517363047693644 0.36162034704632673 0.23844328904204504 0.0835815772636243 0.08323875626536384 0.33421876010271845 -0.1571643000481397 0.2042789994798338 -0.4524671229161986 -0.010318970385662422 -0.2179439579894388 0.48232033523699885 -0.002397122332319515 -0.5418803073512349 -0.48036800822007236 -0.09197693275714439 0.055088833858680956 0.08284594135919748 0.2897058141212063 -0.2863520230550197 -0.06940598576897113 -0.6496353874051856 0.18727033500736412 -0.10735559437389113 0.46066242099491006 -0.6351247600768324 0.4905357389929979 0.5770014690288363 -0.21511181773151386 -0.43336063408078634 ]
[ 0.04513679148249382 0.06002072394527099 0.0587813508952652 0.2434749079160322 0.582621181951281 -0.5687466418115584 -0.17182403974930693 -0.3926933841282609 0.40436115989838256 -0.5312757307608963 0.043246912642238095 -0.2606370577297159 -0.5953904640250652 0.39249463420447994 -0.784504909190367 -0.7387874437630136 0.34730477075565874 -0.36724165256851615 -0.4099552154277659 0.32226196862754136 0.21604829259318445 -0.1563572031288843 -0.2131774875276167 0.12133301177535909 -0.5173094053544622 -0.49621797517882504 0.3476958863104355 0.7654061463759315 0.0015719006318717077 0.5077828791169876 -0.4374261579417687 0.4206301176519687 -0.1055949093345893 0.3359770814507039 -0.46860849117865794 0.056322442014440983 -0.17795680519716287 -0.43346946639424994 0.24381734796346752 -0.3270657048721597 ]
[ -0.31690037483741396 0.7511158921301262 -0.1738169032731079 0.5367758444792369 -0.21125977283129788 0.15965313428554323 -0.5350309623536138 -0.5639460099898181 -0.2949071738605988 -0.24488347741964522 0.5735339743084051 0.030553540211235585 0.2989043911679422 0.1284494296072582 0.34255262776464857 -0.006078925082284626 0.12300885374282158 0.4014000340243222 -0.08679718286044462 0.039334752021585664 -0.15281465251180962 -0.5269457463302346 0.055292838146558825 0.2549943958049947 -0.24637340970310645 0.29043506530462776 0.05436750465183351 -0.3881516129928362 -0.46871735353632016 0.33427987323979874 0.3067631071599473 -0.05844455154089289 0.1871009474366314 -0.3727185563363526 0.13502512086276736 0.3305970245670743 -0.8387288851846992 -0.1668345443034306 -0.059837760743455766 0.48926954383559795 ]
[ 0.4396751129154122 -0.03879630139469781 0.13848779249471974 0.34308640041751687 0.20773005994528357 0.05507301263392039 -0.7736335172173837 -0.510878081762807 0.27695566468776267 -1.3254502270252844 0.3297935905269767 -0.13924042180533433 -0.29400055065544006 0.4132209691872263 -0.09461147487903387 -0.40532512533074166 0.0497996476799609 -0.24483616180221296 -0.14921639634276848 -0.2535475927828408 0.891076826666136 -0.09101924265687326 -0.08554897110409149 0.08493405635001684 -0.03725295663014868 0.1779251466377481 0.15564316202709436 -0.031817072348450756 -0.3362461771473587 0.7094890013755116 0.6316304383432955 -1.106911382575839 -0.04749504779784615 -1.036975473157971 -0.5648495730787858 0.1624288644470012 -1.402507220501889 -0.23256023144981897 0.1284423948837019 0.9681345984208147 ]
[ -0.6844561369870608 -0.17359175455847256 -0.08286175966471894 0.024550214543109867 -0.31214663794191677 0.5083387133470757 0.011882138987822146 0.6226653558484582 0.009389958716341311 0.09220363327240512 -0.49226206534106093 -0.23887220951818777 -0.2721754085127642 0.3349370630127234 -0.1879284846260862 0.15809068646328583 -0.04044717030462627 0.6549674380326193 0.21634014280678912 0.14870530342414542 -0.1680539464760778 -0.41319100088004235 0.09851809800546685 -0.23566054652497703 0.13086195402034048 -0.2494908744644583 -0.19385429796580028 0.14446741158527418 0.011533176637300361 0.042935125730310594 -0.18533283058683692 1.1159165597739311 -0.2675348372102212 0.2544398848739231 -0.49805796930072166 -0.17667712603250033 0.3721817591098612 -0.306238629287372 -0.059600831105740874 -0.36977028493417113 ]
[ 0.27041386249387234 0.2820554644892655 -0.3290674793347528 0.20008098133439622 -0.4668194409463556 0.24214160590552108 0.5115871840099058 0.5042997296264833 -0.39323425571037446 0.08222069286396866 0.520227613396716 -0.11524350447350924 1.0965872628588489 -0.42837480228143715 0.15390907726398045 1.1220272119896524 -0.23384278346787418 0.00960158523080164 -1.2385037592087664 -0.17788607084776828 -0.43387599412111133 1.450973441852192 -0.07771465167095938 -0.4239589999173929 0.00916891908154294 0.2517916882900657 -0.4651577425955168 -0.2225802978035865 0.35582130395538974 -0.66119426634393 0.2921063705115694 -0.5256553349411255 0.3747182148287714 -0.6367284554741434 0.9341174691576555 -0.58246481355355 0.2417830599594029 0.8662784197337376 -0.44397505844750096 -0.2282519740807722 ]
[ 0.25200014209153226 -0.2653920465135564 -0.03602817378468212 0.5861536345043276 -0.288681607667524 -0.040605471861445676 -0.3118245662465387 -0.23772096860093672 0.03219614915067256 -0.3231449590818138 -0.4711196138237543 0.2797751542344489 -0.27637984431145785 -0.2802075992669631 0.5145575566315047 0.1582351550112101 0.275613952535909 0.24461955906299918 -0.19401097502795192 0.07664803695404908 0.22192330152597817 0.6548388279889942 -0.2016006791345078 -0.030921947957371188 -0.11193351323423517 0.19196408569619333 -0.3405046564465028 0.35378652552606626 -0.05746532022205438 -0.08027365055342467 -0.017819829911460187 0.4131309769943474 -0.12925292765027716 0.16457840429493215 -0.13366877362298368 0.4478621788286509 -0.43380977865041304 0.20177870803466094 0.4997577562488246 0.6159245317415805 ]
[ -0.622660401034365 0.38127645164503093 0.03982584144838018 0.3940363348821913 -0.22393679552604617 0.787035245340307 1.0000882856461129 -0.12110447770107169 0.15796313802118883 0.09728435079737165 -0.2852478912636647 -0.7107988197575432 0.22166751377524355 -0.4802910607992629 -0.03850705390013857 0.35483034847990874 0.035960221427156595 0.39146860918592735 0.36513267398159777 0.12278170688643704 -0.26289330141719497 -0.7813022418754084 0.06324497139670726 -0.16883625105667824 -0.01754210213396178 -0.2839633298335224 0.5517090050489731 0.3254403721034052 -0.6019919625203679 0.13618072273874812 -0.1380182609003443 1.4152790900415948 -0.19610366613754585 1.6642193144730306 0.5916504308883626 0.28950392191905355 0.8805621396297767 -0.567867312580329 -0.4534610024019284 -0.3046969390777585 ]
[ -0.3652618231055151 0.23764940418672653 0.06036846528294261 -0.1892401299302349 0.11463341955323993 0.19842549271693924 -0.2790769698201392 -0.05286469430682075 0.1340406568651758 -0.12222106804115156 0.23237375291106305 -0.38591142232525066 0.4475518528646937 -0.37257661740150033 0.30224495431154347 0.23084992511435604 0.13857955654090431 0.05504389675731071 0.19390417465476054 0.10159110470001098 -0.033241342187782595 -0.44886705284369477 0.013556561832123119 0.03664776026553638 -0.3079132891173183 -0.009784501751154077 -0.2540475065452927 -0.4747030278823363 0.31914267522201695 -0.056071425189845876 -0.3660435474185227 -0.07933220615059418 0.12538379209251826 -0.37719147890978555 -0.43739686636396363 0.34104417998240405 -0.31461965348705 -0.7849584221959034 -0.42103138749074615 0.22958271361719673 ]
[ -0.15095049628217225 -0.09484150479938128 0.23571913507400763 -0.13375177248577202 0.18792205652741936 0.21256886685149184 0.18086449956146652 -0.4152219917218145 0.28396159582191893 0.43629649855775987 0.4588769382379852 0.28590460252429933 -0.5627071282065138 -0.19598348134563603 0.059385354390306316 -0.18626121651591712 0.39395591214260073 -0.4997365225451495 0.33912150006710967 0.03387946618567724 0.05065963073564158 -0.8933585206471516 -0.043073352441386464 -0.16995488564338865 0.18947059952920492 -0.06824570345185375 0.4495040887647307 -0.2361606344518318 -0.03232276942225959 0.2474741269859456 -0.2358128566726881 -0.650988745984588 -0.3185330140926183 -0.048896083692960585 -0.38319127966173727 0.12648454659313163 0.15745967594564064 -0.46875521139475423 0.2466806850107854 -0.3406217308616991 ]
[ -0.4662211713919399 0.27491975087559045 0.00496414542934964 -0.014709837820176173 0.062290885998809796 0.7629556831801461 -0.6025131196301584 -0.043565986678213445 0.10536526594123068 -0.361485562190424 -0.19710584155094768 -0.7077842228423034 -0.0403819705609913 0.31600259359850813 0.07644021475451068 -0.011553238887453047 -0.2374501984825618 -0.27159270709691324 -0.16179799285741114 -0.19839331165031726 -0.19243768767776995 -1.056173389406665 0.01784885563510562 0.2777013718931524 0.11130831689070361 0.05379216728542834 -0.5207552864590164 -0.5373919743577099 0.10988315954071666 -0.16460980474397488 0.022101839984387778 0.2533550452014433 0.18066481705929785 -0.20972039594448877 0.4527126959142317 -0.1870376696322504 -0.26838516809857466 -0.36391447948879657 -0.5430826896475601 0.1322996583891984 ]
[ -0.2951094093174377 0.6774631676828123 -0.2978511499796762 -0.18850874666403292 -0.1290226921783494 0.1661594848080491 -0.18743603257900637 0.19772560502892517 0.040004776198740384 0.033896167459151895 0.32123058973968943 -0.16049623946400426 0.07259160461045285 0.4546656399665756 -0.2842934790620897 -0.19569536032704468 -0.15075088555784757 0.14596505213120722 -0.06959727395405702 0.17479685039614573 -0.04191407434383285 0.23896817651162655 0.1694457722685769 0.07364577749372628 -0.39003052252721765 -0.37156036121230623 0.5494907474749626 -0.19186126309339327 -0.40764509364081375 0.15258425362490163 0.22829126584127324 -0.06712571594912332 -0.007697140060150896 -0.17109951449884606 0.11264172758098911 -0.11332706805235451 -0.25885176052965153 0.20874897426145364 -0.06622660602957507 0.06191690220782031 ]
[ 0.41578949306258245 0.15286224061952933 -0.26844623945760226 0.37572542591397884 0.530346762111536 -0.7627771727643717 0.061078479757149765 0.24558426216191348 -0.15955253664354294 -0.04456166863390178 0.044334315326368896 -0.20387649073904948 -0.08140943955717425 -0.4943353339831469 -0.34478605991209416 -0.03270315162172925 -0.4489427168482124 -0.03244024952616328 -0.08501451460221447 0.047999552161421516 -0.24845426600460593 0.18095486597817984 0.12373181347510223 0.22035974349743703 -0.8692156377141743 -0.19959242190051427 -0.13292667871769603 0.33414545875422735 0.8247025272581735 -0.07654667856144526 -0.10657672018870686 0.5675842787768165 0.040909267974354964 0.9187857536455896 0.1488400900848653 -0.45604644590839927 0.4692532542023941 0.5442675415124858 -0.14532741913605268 -0.7945786628540534 ]
[ -0.21810121156934742 0.14552304331194937 -0.23994124940816916 0.20460255291586513 -0.46427184991969705 0.8729889425965245 0.9639857072159009 -0.23174324830030874 -0.13242396003510398 0.3669868668889419 0.5310061771543759 -0.06060198332432136 0.5446843179351845 0.23995425178575996 -0.37826989050561904 0.5088499532447065 -0.008130441872038558 0.565651916351913 -0.31484693154099685 0.13422773365733895 0.16090109777130623 -0.09464719326999993 -0.10658950947893454 -0.42207038315748574 0.021398120962552582 -0.12217523853748244 0.16197976383151225 -0.0036145859921784935 -0.06068010305197159 -0.28022985301374925 0.3340648601606613 -0.24292047033502254 0.0410136549543049 -0.11741083662537644 0.11750170624759386 -0.07920515104237634 0.6642883939751879 -0.05714620296312246 -0.027293133043355625 -0.2209135303112375 ]
[ 0.2521493153494496 0.3063504708100041 -0.11810659644473315 -0.027429418505698966 -0.4040745531175726 -0.20541948101729635 -0.20826744368317004 0.08950043540323503 0.3214778151768538 -0.19487235046814658 0.5725701493216266 -0.4439868239970436 0.07032068416525962 0.042604050586995235 -0.655741584098246 0.562449177716469 -0.20181610473753314 0.276563607910907 -0.3960048406669177 0.2193213897862737 -0.29510081608844885 0.13241681134323463 0.041692387680842435 0.06246378168883566 0.1322401005545482 0.31480455258354895 -0.26356187630162226 -0.7650753792677933 0.2208870853201291 -0.5728360591054528 0.17174088478487037 -0.32610494872557855 -0.38753260059528877 -0.901426340892996 0.8995495828995502 -0.19700867114704534 0.2284037166413134 0.6825487175012646 0.017406703998674354 0.6120588742362773 ]
[ -0.27337072366442167 0.5253292839398839 0.03605508160288582 0.005105728858478414 0.049371456733051586 -0.05499056173420916 0.4167736154432071 -0.23731409631995354 0.06096515852907366 -0.18215501946895563 -0.10709715229026905 -0.029941223629148764 0.037794753047942595 -0.1293718903701322 -0.3666623117859589 0.47056862941468475 -0.10203620343800501 0.07287559173680379 -0.2521192171022529 -0.0629542525112899 -0.09661982545035638 0.26410852473973645 0.21588401710134897 0.0408528694780941 -0.5533012505429878 -0.3136878493640309 -0.14022321950587952 0.18050257553079296 0.35371815582021837 -0.003653647225142907 -0.33997707460871873 0.5002195666781108 0.04596655172129161 0.5211546152858633 0.01628912473342372 -0.35425427480265537 -0.04838021175682216 0.1104246855564554 -0.27381950985430514 -0.20923507475258382 ]
[ 0.6787949440691758 -0.45423111818663686 -0.5195039435764537 -0.34917121754143676 0.6481321398554678 -0.13635342787585925 -0.13087095596861298 0.4299213323295985 0.23053080699060882 -0.013253933389161993 -0.4211862273922747 0.39655189912125904 0.38304238781237837 -0.18064646387019695 0.27975013637322443 -0.12084134075219718 -0.23034121732840085 -0.21448238456349017 -0.06866660616815937 -0.17035784538853507 0.26375698251236573 0.869428452451859 -0.12898403810414513 0.037067939408898604 -0.23336115553062045 -0.08670099467816354 -0.7228712674545246 0.0037853217108453473 0.5798213286587923 -0.19277486423330187 0.3401255805876955 -0.428390428439426 -0.378823050904454 -0.12468532080165093 -0.0796542576146048 -0.1606616442389095 0.07924532160165665 0.43192600336308107 -0.033836359733184926 -0.5313103202071561 ]
[ -0.08065901218966896 0.5032609233714906 0.31634986552227146 0.10258251481350183 0.011932846839891568 0.5329877139946959 -0.41027956203949356 -0.5878993412355454 0.04761005202212378 -0.6640891313024645 0.20818848840632723 -0.1611512980810127 0.5300430601335304 -0.17649412034498807 -0.06015880469848202 0.09858990302647473 0.16654974611739704 0.39702665113960545 -0.4143316011533729 0.02361473066831255 -0.09492223761911354 0.5250559658033502 -0.14065162599148254 0.18307897503117584 -0.41736903241045153 -0.21914978079645547 -0.06503558672822062 -0.35379727177366327 -0.13504540244256222 0.0581905707272923 -0.6890834695473973 0.10031027795754732 0.04867551121202397 -0.02202812241161591 0.7435508058089674 0.44453077214725917 -0.45786763608195535 0.06772359820403995 -0.3486071182046343 1.036528809271903 ]
[ 0.1781793271514646 -0.33176918357231416 0.014057485405701437 -0.343603295432185 -0.4503571181870487 0.20118228123492496 -0.34348397583241913 0.09724043818509616 -0.27555993424935327 0.30435021077817387 0.02151755300516252 0.3842388408525191 0.12665698789061602 -0.024189928218526918 0.6785132462398951 0.18135973741488723 -0.23172144517057405 -0.18076504981141409 0.42536328176745675 -0.4907315596607526 0.21579432948585206 0.040267546882652216 -0.10965859596250652 0.20633014036551653 0.9791736722145348 0.6043408176224163 -0.18875136780237864 -0.35991591698961456 -0.2229474870976095 -0.23621070498693192 0.8529850400305906 -0.5630741508288286 0.32520419897662395 -0.6317037995734404 0.15874614115681412 -0.07283915466747003 -0.4098289222004807 0.5674035411104442 0.21514295178362325 0.24713060415649873 ]
layer 3 Activation
tanh
layer 4 Dense
40 20
[ 0.6757924670180974 -0.05200903084883215 -1.109688857810177 0.25916172625203493 0.1333627811216776 -0.06780809142322684 -0.15963986073904554 0.3958606108348386 0.11908661143172981 0.5124494524643274 -0.33551947283005557 -0.2713563841371397 -0.1279155879939331 0.22602954996944527 0.10710680040443801 -0.3863658973126512 -0.40345165850738135 0.10262435275979089 0.4256829495549171 -0.3213412846191557 ]
[ -0.47920357190524426 0.09615611023911685 0.08807600615114893 -0.1351727729931279 0.2298071218853208 -0.05405282560287518 -0.24722478468694303 -0.09452579689832376 0.10099895194600342 -0.3040905735493415 -0.18943468922137588 0.24952313594807177 -0.11978533492185668 0.29315695848725104 -0.24146159302863163 0.6649005119424143 0.3572677913817249 0.0736070266843764 0.3413451170741643 0.24648653564744322 ]
[ 0.322655508841929 -0.533047722932879 0.035169675442862675 -0.03444950064835004 0.021585104903419652 -0.09585308861345028 0.24982001874824755 0.22581090123357597 0.17323692751907332 0.2710218057199396 0.2667685234730846 0.0780404538130444 0.15018387003119152 -0.04574087486659821 -0.01427326228146542 0.03448885775712447 0.054741650885602566 0.08542969379184902 0.13019954238168055 0.28940232281110834 ]
[ -0.1784054215202444 -0.26864947753798085 -0.1281533456492137 -0.07731719552473534 -0.10545649362846808 0.1878787163578049 0.12996509407300702 -0.0093924558123015 -0.2240349324790058 0.21179827571279228 0.015082559190619476 0.2987583760921821 0.23177634415321766 -0.08344093584163861 0.017550394961609345 -0.017440943647227935 -0.16287071941626313 0.17613051396074406 0.3084676323713187 -0.38587795381413936 ]
[ 0.3392094244327424 -0.47519620181651795 -1.0271097901610897 0.6256907777134925 0.11651922735856586 -0.3037218537822499 0.2403200114985567 0.7182866997634326 0.24839405266368533 0.28526826706454406 0.17784310058791986 0.3697101926070726 -0.2507582580587595 -0.02020368945566363 -0.2392330403269283 0.37210704081697954 -0.24134980417357216 0.5533848879126315 0.004834283821574319 0.4610598171025229 ]
[ -0.5318083702732294 0.2059738884547999 0.9842456406585574 -0.4066175372722687 -0.2832418067587092 0.8874221351414587 -0.2032937301879699 0.21643202241836643 -0.4759273058525529 -0.022374219223152636 0.5928899759763281 -0.4749391092505947 0.3946739708917028 -0.4377579454146544 -0.3462387555095373 -0.5996261484195364 0.45218163106548537 -0.6472251764812621 -0.417051459316313 -0.457071202173329 ]
[ -0.15285633576583021 0.3316887057401379 0.2881538660414851 0.2633178283226814 0.13900656525685176 0.4785223584331761 -0.2200720215384959 -0.3737437511437239 -0.42889105038263425 -0.6122048027929256 -0.14553819976277677 -0.03928672226897343 0.13331064565644118 0.31940977153449296 -0.4675812201348903 -0.22878333252972174 -0.3343640458732196 -0.43870561771100813 -0.1669557970095535 -0.5071211415271987 ]
[ 0.3129708886470894 0.31941849796133637 -0.15711690107976217 0.38253190509321716 -0.22517962233649114 0.40422781386430856 -0.07867284190230531 -0.18965995173383765 0.07525122267415803 0.07836106396885081 -0.22995968323235716 0.08630535812622323 -0.30758248663560495 -0.05394326924046639 -0.11640151810271161 0.06539917662677333 -0.15280874345833037 -0.1327250220246946 -0.5154879741625976 -0.09576952024097074 ]
[ -0.14365726280846644 -0.29768904736634794 -0.14920911484338306 0.2428360683849985 0.0025211437068858745 -0.0022792969283717246 0.17373086572318736 0.4139972700330948 0.24427165051252048 0.016708210070551913 0.0888783102890516 -0.12967698535634387 -0.0059823007379832815 0.014864128996376699 -0.012317803820792905 -0.02953278022429296 0.07605921968941065 0.40044527618716724 0.09942391686286765 -0.11325383288194223 ]
[ -0.05158186075506347 0.36180476049230237 0.059306920677237404 0.6746407640938537 0.0682585098096016 0.2625383368205847 -0.1301477148329057 -0.11979522711155838 -0.01785059302171313 -0.03191793063431964 -0.31904567049768556 -0.2584987091653261 -0.3650155520453871 0.460496516351223 0.145874514158431 0.0007922341459098571 -0.19598305929284654 -0.29046099267782494 -0.46266293620429483 -0.31743034647502566 ]
[ -0.40247081350478386 0.325776355909625 0.032910891853668245 -0.4410906856879911 0.4346991066205673 -0.12514406991748325 -0.16213888538301388 -0.2656030179958187 -0.3906708306697654 -0.21049815881528366 0.03387497253143307 -0.12247705766327353 -0.3888227424889763 0.26511552982805836 0.4414188978358595 0.3035251436253978 0.24883029571468918 0.15375816505138104 0.03431422643502533 -0.08636586179239898 ]
[ 0.2693635434457948 -0.35805276134683106 -0.4424221146573966 0.34644058577213444 0.17700815280963395 -0.13982330085796932 0.1632896828653351 0.2027218440969808 0.24628892400210284 0.4082193860798887 -0.3361065463462599 -0.008642154491529126 0.3429007253537699 0.07275678169698441 0.10220304184898064 -0.10319681870482424 -0.12631083205146068 -0.07999342633149184 -0.28735663503233005 0.4895070817904233 ]
[ -0.03452029010086781 0.3329420486984976 0.04580710356285035 -0.5324889034335272 0.07515871000511813 0.3798529202137531 -0.29872360481318416 -0.4403300962486797 0.011045178586201385 -0.20797472243729637 0.023783511393048268 0.37106539429358976 -0.02994196926874952 0.06740376484248065 0.13278177567601712 -0.22539264141879695 0.5431206334247568 -0.4186505973928607 0.11605524194626696 0.10765867863221337 ]
[ -0.3279806798681451 -0.33107146099711765 0.3885888781162576 0.36228607386290773 -0.07005865796569861 -0.04533950392608054 0.17950188972746134 0.5358607429681509 -0.1210393466641625 -0.2668417894997636 0.13991660348780083 -0.03535343732074473 0.1859038293910466 0.10669317423768683 0.012159264950916297 0.283102636951225 0.2361512321276314 -0.08946540754990824 -0.09913925686680237 -0.25098676503181994 ]
[ 0.2567241457903956 0.5152194160430478 -0.046374297306296865 -0.04426143635733636 0.19052367294247555 0.1467758101810268 0.21359062993769254 -0.2523899931257227 0.014000122374073578 0.032479578946649185 0.3068835808191843 0.3133283554510942 0.04637799828322617 -0.030239692215836448 0.43276170136885056 -0.4062549332571065 -0.15583434950831393 -0.35818525072872176 -0.14848897504695466 0.09287089211969282 ]
[ -0.12384029127487056 0.6589639033780728 0.018551511401735492 -0.6241706103961733 -0.062348845161458194 0.3278696290171279 -0.8446929369094145 -0.6410168919278034 0.03861533139371956 -0.5457084615261377 -0.2326131592493559 -0.058538933965502755 -0.4215620192333733 0.20228369527753304 0.11192643644401226 -0.4722721967704916 0.5713952511224027 -0.23806537033049788 -0.15394716332045344 -0.17971463648425892 ]
[ 0.05232983665287082 -0.3491678846154149 -0.28378600599315706 0.05828769379250669 0.10217393316055462 -0.1080889257644382 0.14459567736043016 0.05893513698573794 0.3421420121590968 0.09475255241787503 0.18785609448233345 -0.15881582387475882 0.33565550675766975 -0.17994313210834478 -0.007285325059309352 0.06155684821274526 0.04102687605162452 0.4170427535408957 0.24720970673374518 -0.04626235306281876 ]
[ -0.6422828347409999 0.2806516880865472 0.4520649483383763 -0.05564730593757071 -0.13632212748176156 0.10813860152989051 -0.23758367439723946 -0.4117926138053527 -0.3048263747242338 -0.11155010954307681 -0.1350613472342064 0.35856699985440277 0.13164573044170969 0.20127922111972 0.013743280299753677 -0.1403291006115385 0.3287532048007656 -0.09384029626742456 0.1552631775283717 -0.4166945728006063 ]
[ -0.31439436571760954 -0.16313186737530952 0.16684165445679963 0.39820592128113413 -0.3267481638792476 -0.2881563309484103 0.039702214973886533 0.3038876411319883 0.016340152681406685 0.43460571925082353 0.19391106554098517 0.24608004040910805 0.0514554496463171 -0.16952917348625213 0.254052588546735 -0.03393384889297022 -0.2262304219093168 -0.0779465469475401 0.22177865100278693 0.1607483390033919 ]
[ -0.35417567263427907 -0.09336978325468547 -0.12696878346523668 0.24711985873113781 0.2227994136178911 0.040047612369421115 0.29704311932005706 0.20520052883134782 0.11193086291534099 -0.37135994066930367 0.14128075899550946 -0.16792110773109076 -0.13418532379108236 0.02291137884878822 -0.06152624726908442 -0.044975404290447406 0.05768960366146719 -0.16572277965162804 0.1249439479522765 0.21065197100734123 ]
[ 0.1007844185224504 -0.045924196231757364 -0.5284853709279059 0.005325757324477541 -0.22690872273671725 -0.1488146880730581 0.37844308553143624 0.24972807345907436 0.29225518041175513 0.039672944471562326 -0.18062267865097334 -0.19783428506281878 0.34814367124113427 -0.06538279042108747 0.09437896361757896 -0.04447151553203871 -0.10087204198529233 0.2852913363243237 -0.007595575042830775 -0.03105891658306319 ]
[ 0.4339004056091862 0.07262476445243725 -0.6707947611790823 0.20790788245265399 0.6156374538890856 -0.14675957981633658 -0.19360285949094133 -0.5548649717095321 0.20415916856353858 -0.6914733676499005 -0.5586469145968697 0.49164641241515816 -0.1412294715527122 0.578256757423808 0.6245463679914645 -0.7091868398614759 -0.2793635513811689 -0.281198386579898 -0.04416842147182239 0.5578856271661411 ]
[ -0.2520009309887649 -0.2450016957820688 0.45588236306307817 -0.02107926389822323 -0.08814720123187986 0.06220821946284627 0.3654812624171658 0.10948686637628667 -0.2942228300453453 -0.1693450792272595 0.11843298192699615 0.0637537748658589 -0.13505826985238187 0.15258341696257408 -0.031308315876327285 -0.039465847098640934 0.08208107940497644 0.20394875744641242 -0.08901144522763747 0.09384627612918334 ]
[ -0.009055538169774663 -0.260337740641232 0.2126250086139773 -0.06482043918324493 -0.0838621639884781 -0.2454600107756136 0.5448323513375039 0.4921422824972018 -0.010063083088771085 0.23293041911750118 -0.16856483884135154 -0.06199629323839633 0.07901457986547329 -0.33939954372452635 0.12864674394137507 0.09291933554067082 0.10026959830014315 0.14115434949041192 0.1776468404020114 0.11929007705949797 ]
[ 0.22916262405903914 -0.20537009422024496 0.264156290602752 -0.21467907081228269 -0.04558629619077477 0.31101758757209225 0.1471019627547489 -0.22983973040917968 -0.09645907814027423 0.29646925194551754 -0.3070567531736399 -0.30006399575853443 -0.02534560767973579 -0.3595524025303674 0.7681241920547149 0.15261617318209295 -0.42771363834880377 -0.0691413573610329 -0.2055613916138296 -0.4076139258152036 ]
[ 0.33027333709220724 0.24635463876772704 -0.006435564799562506 -0.4385485994255774 -0.42598237948892165 -0.045853213521961006 0.1838970504448377 -0.2603659307041759 0.0937801088527658 -0.07625479855279084 -0.4061066659590621 -0.2445458043560685 -0.2842525986709378 -0.1323481074513878 0.38329468734034855 0.018721339397010227 -0.5956880518717776 -0.12257898976437408 -0.192103525195843 -0.6477536988246811 ]
[ -0.4710101646561207 -0.18210760161142459 0.5797246066028234 0.20821387249690138 -0.06099638683107407 0.19255666822445727 0.11255557227164004 0.3289774319433605 -0.14137088933573075 0.41955769022943923 -0.06603292506500359 -0.07594765860061144 0.6045835750635817 -0.23509314674209825 -0.2889258640278618 0.10435850056286086 -0.13300048845176674 0.3312671468298474 0.06418782000736463 -0.03651040276065589 ]
[ -0.07456194233051006 -0.21979880371167043 0.00588345565944428 0.1518490649838795 0.31157931672222233 -0.2242209727169636 0.28458121127968145 0.5705894796089882 0.09739563783071618 -0.18353155454638595 0.36711802679853267 0.20953670658350806 0.42499006127936634 -0.09687277546619769 -0.15603171985271483 -0.18776861733337763 -0.547271469088698 -0.11810124847723047 0.003145036252289973 0.41653873364503485 ]
[ 0.32393799453256505 0.21629459582515084 -0.26573349364121984 0.2532765088521065 0.13485846415645944 -0.29612561607315574 -0.2938367611670797 -0.03427630385589904 0.1613513758265935 -0.04068252612112955 0.06471751461833598 0.24281052639245088 -0.4671156347702905 0.2189811019480392 -0.12048135091728145 -0.13667960370520926 -0.2535329474212738 -0.1338108621856517 -0.09416078986378856 0.23800076472490542 ]
[ -0.21131079788195134 -0.5119541883732858 0.42561762802179737 0.2551583881302439 0.21899508956200014 -0.3734603775458012 0.9019283689720461 0.6192621451229918 0.41994572476918574 0.21778000857532387 0.37079531909639607 0.2633293643277067 0.42566588773979175 -0.3019859597871274 -0.1414717157816734 0.035513460195255225 0.05476672531890745 0.4141281282329846 0.28200760892249027 0.1861929663321387 ]
[ 0.20188688926953752 0.15275634210417993 0.16970400135513197 -0.22980131600044612 -0.16372529264860494 0.13508193189751652 -0.2565420178108887 -0.08303415616742967 0.03425964020547601 0.08085616731605513 -0.08199942222681356 -0.42496833664182343 0.1679861062320251 0.16308318747954187 0.20768185627757374 -0.0755657712343505 -0.060588003727004944 -0.050484589541808636 -0.3161797570752751 -0.07655097154099466 ]
[ -0.6859452396941019 -0.8075611502896632 0.4888290307247024 0.651746491424444 -0.26956174002013705 0.4896106105752951 0.3724224071051933 -0.22389572732818086 0.2944751239129835 0.45893625877714705 0.6013773785281284 0.48968044965939983 0.049412829235940856 -0.3690807211876941 -0.7202969736781514 0.057047155935713294 -0.01971079368188701 -0.058508068948844 -0.37456569184184024 0.5671093051348806 ]
[ 0.05253936224646885 0.06650272312167953 0.015802325257080245 -0.10106137166176249 -0.09958341516916822 -0.07638080888443213 -0.14535787975145173 0.054379650745560934 -0.22999444617444886 0.030189753960448366 -0.07719288624941874 0.027474280466552172 -0.1874879763122388 -0.17831988432165544 0.01242676929132487 0.08662865911890374 0.08138912129886326 -0.22978008099132508 -0.1720523276981426 -0.0049020820675128194 ]
[ 0.011892189554544214 -0.2972892562613536 -0.1162250518208017 0.4442386937587931 0.23526849606667868 0.3255360722233635 0.19168772858272365 0.08517596065309407 -0.0019999975799382588 0.43711065105192753 0.5549484793930658 0.27951967423635676 0.0019465677143471432 -0.7064962998736393 -0.4099773311332108 -0.24954208079509216 -0.5010318740072759 -0.09088424853894297 0.10343064525474167 0.4240273218676223 ]
[ -0.2399049512900637 0.3057407239803556 0.08339756333480933 -0.6616871587835677 0.39092330300240047 0.24298658223435973 -0.4296617522442047 -0.877863968793277 -0.09903849698224543 -0.10395362532239304 -0.4496797545209887 0.438265363766572 0.15796848490695017 -0.05793380524687578 0.513550081902114 0.13928238385578776 0.5041972843365425 -0.34577916626097055 0.23184025981176126 -0.3546473613943072 ]
[ -0.15777676295224924 -0.12451040002172395 -0.006148088426333539 -0.06797658436895919 0.0446212545978769 -0.06886683526261449 0.4049126874392294 0.29060521960519775 0.14552315382534803 0.027834028633346736 -0.021442635214527574 0.23521145663091575 0.513602890460753 -0.36894760874122434 -0.028369932592626018 0.0302550339610141 0.5194861515657675 0.23157949134500447 0.15284753287545216 0.07928454137301275 ]
[ -0.2743181344342197 0.1001690462656368 0.01959887685396692 0.2462994019015062 0.5463216541601682 0.4918993606891619 0.04522093390001214 -0.30112196253531504 -0.6165317409058927 -0.39734996402973843 -0.01780982091186124 -0.25284142853928326 0.12226192959985686 0.2791003660738671 -0.3752137099751587 -0.1535449759732678 0.22502350554747647 -0.39304258963372235 -0.30944723654975065 -0.27189125581137347 ]
[ 0.031087094240527174 0.377907031162227 -0.5276697027169822 0.017589788898758882 0.3219172756672166 0.11366566306727878 -0.4077437421716889 -0.42757709071021854 -0.015573086182213525 -0.22787315700302088 -0.4984639277352675 -0.020237831115467102 -0.039776341799221654 0.10976057577163043 0.36018248472115116 0.09101235496642938 -0.3195178751586149 -0.2964748265836428 -0.3489335536464433 0.1348231175274999 ]
[ 0.06420935955683982 -0.41964285133239393 -0.37082518207891474 0.13799799123128378 0.22731978152807258 -0.26416304307836325 0.29948965557101553 0.48876547639692136 0.40035980548094857 0.4117581067332998 -0.12984100454379066 -0.2811516703257943 -0.07280208335840718 0.11700983334429926 0.07362405365862532 -0.13718085643823671 -0.4743419739698639 0.025641780036311578 0.08917124464084122 -0.05075081153082843 ]
[ 0.13678806399658278 -0.09613235229291696 -0.20036635659304283 -0.4572836372400695 -0.4141997758696278 -0.21188293415591727 0.049910921514838606 -0.08257166920132121 0.20934529662309115 -0.17592286922482597 0.11186714894370835 0.28361468991249006 0.13411208452105183 -0.11872565012426535 0.5393448693021248 0.35549560505104527 0.5330050127381184 -0.06659156208353796 0.6024228206892887 -0.05143922949841568 ]
[ 0.16441493689963121 0.0126701153695255 0.09378624289173784 -0.13891342133567738 -0.07702350804525765 0.0442740873464882 0.1776957865590407 -0.08612976848094835 -0.09477924926234918 0.10133008923388642 -0.18891861760283687 -0.012942059946270259 -0.07220273929386904 -0.05542795679586035 0.7076424070435852 -0.03727436964108879 -0.1022316871297261 -0.10182536195321519 -0.12599057307484576 -0.025769601091736788 ]
layer 5 Activation
tanh
layer 6 Dense
20 1
[ -0.06737437558728278 ]
[ -0.02052205026603301 ]
[ 0.06407439131578493 ]
[ 0.13454089461826557 ]
[ -0.1417889476545147 ]
[ 0.23846639976917344 ]
[ 0.018289887635998668 ]
[ 0.11465390837630066 ]
[ 0.0019829041763607708 ]
[ 0.09894190193039201 ]
[ 0.06964059461668534 ]
[ -0.19885591761915947 ]
[ 0.10400860935709161 ]
[ -0.1395036982737868 ]
[ -0.6291697945652622 ]
[ -0.17298821526717445 ]
[ -0.119833503824032 ]
[ -0.11051078991309578 ]
[ -0.2026796856376395 ]
[ -0.11894462933486166 ]
[ 0.24956912515069501 ]
