layers 7
layer 0 Dense
20 20
[ -0.06856860445323922 0.037403998750312466 0.1774890990232105 -0.14342731203734316 -0.2036394220371398 -0.16442479273829624 0.5019428500915161 0.17912948838535667 -0.36561573203175446 0.4302473491246036 -0.001528252964823715 -0.028678976952746345 -0.13204409497705177 -0.1256522328348052 0.05684460066992654 -0.24306456180224686 0.7528841122801045 -0.3046321277928407 -0.5438328022531634 -0.18356785184547356 ]
[ -0.03458389302562256 -0.021617808967472812 0.2718269772780927 -0.1234736050838674 0.1441346719398754 0.15657875466413085 -0.3062492757068344 -0.36007264663621286 -0.34314329270656757 0.05404516830187481 -0.04355045312721472 -0.3121329666958949 0.08319890839893607 0.2719517437402774 -0.09451149860235507 -0.33067297713201543 -0.2263539323039782 0.07197114618680185 0.36489370417956757 -0.3398877247094254 ]
[ -0.1821947751279871 0.2609303556469151 -0.08195367418645551 0.12759151891811846 0.0666467980309746 0.20140854327304097 0.18261380534639848 -0.12310366236767573 -0.31150421030053055 0.38017149937877015 -0.05499203490653637 0.26344176961694066 0.3329758600281497 -0.03610094689224877 -0.12223723483583715 0.062354310805505846 -0.21108695280907744 -0.09054958174235149 0.2556793370475429 0.19052736160652173 ]
[ -0.006789611722792555 -0.12926408527440703 -0.4004514655656707 0.03275872804175139 -0.5222796619032216 -0.3475443701912649 -0.10703638595180483 0.8213332576102308 0.08169706997868173 0.00721018829042345 -0.2912654933724039 0.4058824554079954 -0.27739466449952643 -0.386534885532844 0.03698219207311212 0.21312170429760932 0.719593888457304 -0.09658951102480513 -0.9082602018271851 -0.4949779225143107 ]
[ 0.2105684541746392 0.22447736827758974 -0.18970290517388533 0.18660134763926953 0.6584013935280568 -0.40356444159203325 -0.2613292434085749 0.15837681156020122 0.18914152284255903 -0.2559857253851421 -0.510515324786346 0.21159800128228687 -0.06474862778585257 -0.01344395851641248 0.10222751645318136 -0.08287238543660255 -0.24629764960693426 0.40071372190564813 0.4909188606788797 -0.35807813847522546 ]
[ -0.33787056782674185 -0.11562954343681138 0.05035754693773591 -0.06015091867646558 -0.07749778290683516 0.030529656728692206 -0.10430465689127923 -0.0012017394234865942 -0.05005906987760236 0.005095821884688079 0.1535202672792873 0.09896019868438324 0.2123865721285457 -0.32295509847028386 -0.05606037595189768 -0.07988626982752631 0.1856832702158975 0.3250768646577092 0.0073387366137716535 0.12327762797973521 ]
[ 0.21165648807078882 -0.008770596452938652 -0.38602426437251264 0.27787926594186324 -0.38726103754276164 0.25836579852270597 0.0007918664604367228 -0.11924232041126553 0.1820164848592146 0.07908718949956135 0.0734582126952645 -0.03166482957784353 0.24276724759760304 -0.194312034546773 -0.27766402592500194 0.06645651318358235 0.34242250364545385 -0.10571695241411304 -0.3658704695091065 -0.08994186479452866 ]
[ 0.143676800005333 -0.2763326088628271 -0.3246262398228968 0.341882132176588 -0.3827692289386171 0.5749226002002631 -0.5246664577099494 -1.0150081865759626 0.4820052970425315 -0.09325043177014622 0.5925714842352252 -0.8006863336489919 0.34046450194672045 0.3310249761881214 1.124700674119654 -0.47191384832940114 -0.44117449034603373 -0.04400714864699944 1.3416670725530178 1.1511225332442119 ]
[ 0.032793041456367106 -0.4675825954354408 -0.10856770943911984 0.15151237956896094 -0.09610416898253592 -0.27865553364050055 0.03503489796824985 0.6801800643921352 -0.06424242524160856 -0.07718596025337104 -0.5692544834266997 -0.9431886787105312 0.031822468735399845 -0.21479001369050346 -0.0004651809318565801 0.1557906290452676 -0.6175201622745747 -0.11301058558692062 0.46007523531293465 -0.8015712404094998 ]
[ 0.4093405463552482 2.1861303088486 0.2411851148264611 0.9574330805844266 -0.8257821051546245 -0.14416989043429268 0.04394720370979817 -0.9128852355039864 -0.33939559983708134 -0.5136207769873371 -1.0860293513110593 0.6159531410240279 -0.24160639683817695 -0.09768329510401702 0.1395153283392959 -0.007248210495647614 0.0991352200332706 -0.00588382378381177 0.20764562731594094 0.7021739007570251 ]
[ -0.08799765249755892 -0.3757572641621935 -0.16537956854923902 -0.33082399036527765 0.0659649137504636 0.87464906501682 0.07098880630448878 0.4109987921222233 -0.07125300018249701 0.15747121335063125 -0.15812427000942295 -1.0180335466236694 0.20094223279505974 -0.8794991189656826 -0.9656521605506642 1.1924654025428494 0.5702013565339682 0.8214023680918396 0.3668006453684084 -0.5338989037728793 ]
[ -0.026813045772265967 -0.8698977293694732 1.7842134583687292 0.49585268870501487 0.8016902638171085 -1.446362117017645 1.049651674112369 2.633062768685176 -1.4230746780730332 -0.9588955404635117 1.3477986906059627 -0.4799810571122917 0.3770750765511095 0.2583681738621429 0.1873900608575226 1.5876690859278677 0.10149346248005077 0.6225461691577674 -1.2418692963190032 0.14731868568022932 ]
[ -0.49497309999860606 -0.7722950745229508 -0.18032656271509603 1.0407652547840747 -0.1294761935018468 -1.01646298809344 0.21540979883146133 0.9473507748404484 -0.12504378325641927 -0.4397757094049191 0.03795390943398599 -0.6169331345913641 -0.19022774711219625 0.08569227579062551 -0.01986176020780973 0.7377486413813116 -0.5973312878294422 0.16754279777990336 0.26855094067069685 -0.6865114676295747 ]
[ 0.8245475585754714 -0.9005087034035889 0.2579377863023939 -0.20255911236415017 -0.5436599409713347 0.6696827866853355 0.06778023475174069 0.7373043808478615 -0.44500896814284024 -0.7285969698095174 0.04644816396762083 -0.9914518270723566 -0.3911766106475671 -0.17192857874051565 0.13629430675131018 1.0889494218530862 0.03495073503889619 -0.24892032918808144 -0.13314031031806325 0.3355260283910825 ]
[ 0.4138709818869425 -0.09517741688808205 -0.6569479749677483 -0.8718957027078902 0.28783537889497796 0.0044106292438162555 0.25698383526365864 0.2220306526790188 -1.07600982760399 -0.06694983271894746 0.09978642161137538 0.47362182734165836 0.14533918912633884 -0.1440995738001406 0.20383785959689632 -0.021427477928557162 -0.2276487007531642 0.6633049147451641 -0.35181567173244915 -0.705606234704339 ]
[ -0.8568719900189459 -1.1331699366751653 1.661836052482225 0.786876392578732 -0.39330248073726864 -2.8564057504237317 1.0210409504467166 0.30329913858836405 -0.47478216985882676 -0.1033860070455608 0.48837034502785653 0.26596640123806065 0.3653428364437001 0.8044592519773932 0.7042896756053861 0.8394722927522527 0.2572880428757074 0.6111124258998717 -0.009415277053189262 -0.5798985955914979 ]
[ -0.08870862615844269 0.14247326141678704 -0.2888265495741824 -0.2832491848640496 0.20635633485830474 0.5154972263872049 0.1557622719678601 -0.609167168601427 0.6896787998955486 0.22270600912111435 0.004506309871584993 0.24280310671780167 -0.009117921911676319 0.04307784824483917 0.34978875377536967 -0.5257278027525799 1.068274525660893 -0.08114149967401427 0.39898937255035977 0.24473924050461918 ]
[ -2.4671526441398703 -1.8606598990504875 -2.1037502335110245 -1.4835572515400426 2.582386068503571 -0.9575219440128719 1.4715722289392998 1.4148402600205154 0.6356228853663005 2.337928907808418 1.9755705771993493 0.6403352318470196 2.132353753946743 0.8051066367806414 -1.2069819563826711 -1.6544349216399044 0.2624096668992542 0.37832965814051295 -0.26099928556634044 -0.5442541254992405 ]
[ -0.5172866905422933 1.2932678489248748 1.007460594353773 2.328148067307107 0.6865798399773939 -1.5793477777878098 0.8964252026377459 -1.4582706248277315 1.879280948757352 -0.6095400442157913 0.5393522215802656 0.8494840775486325 -1.1810414075108566 2.4059087996883 1.119705353289863 -1.2871459581642042 -0.42135231137955137 -2.395213399075323 0.2070602882106796 1.2940386306161553 ]
[ 0.2735363310467702 -0.06590468724371264 -1.1242268602544128 -0.2449431315323636 -0.48982155066114946 0.7508059311327654 -0.49248967492263634 -0.8803503281486456 0.6578472118784224 -0.04933229054884018 -0.18133806415957673 -0.24878103415146566 -0.4665538673452317 -0.005556296791836686 0.4514146289701893 -0.5310435685722094 0.508282978772139 -0.7697380966363483 0.9654093411001048 0.4292688236013462 ]
[ -0.09214935228166447 0.052412932361920815 0.13743902817963932 0.013730720695518606 -0.032087634371007506 -0.13407375309939068 0.12462613975181237 0.5239207506378892 -0.34793801317765394 0.17911676089584386 -0.14297740409227208 0.4620907144979845 -0.06361172876921187 -0.20864116577580857 -0.6001746081012056 0.23240616351525628 0.2253943749116737 0.012772518399451253 -0.9120873570547159 -0.30418889687246253 ]
layer 1 Activation
tanh
layer 2 Dense
20 40
[ -0.3326272901134169 -0.20368014491817704 -0.82444600087745 -0.0163914023403474 -0.0699144061137735 0.288937871437896 -0.19040130198689798 -0.1878427696941165 -0.2439950655484607 0.23322739414994584 -0.2819011884810146 0.3104687232922788 -0.33139793050740407 -0.025098335398421562 -0.49535917766065723 0.668519853814787 -0.750858178699094 0.24780744290678128 -0.26898844797936233 -0.2670191797793982 -0.4705412652633586 -0.4407056107250081 0.2798353852549847 0.22359780022778392 -0.15990725119344038 -0.06228213110775503 -0.38238609125579553 -0.4671441156826631 0.14366929380884672 -0.1805647750438164 0.5238191989838584 -0.13834765699983922 -0.3251697521386197 -0.7566726009878413 0.18720626170148205 -0.13536622380235278 -0.5394926979338499 0.9506032778180766 -0.18847462247066027 0.12800540173616703 ]
[ -0.2952669784968916 -0.531230703453724 -0.2481530319017965 -0.4143007154676333 0.028342365070071686 0.13870730327291708 -0.25988044813927647 -0.3365426106382423 -0.7000053131854537 -0.09602987793792928 -0.035524546007163635 0.6608966791819566 0.054746727523237594 -0.16850562521825602 -0.5312050852804071 0.22922047465719428 -0.25200668107184543 0.2378091022003613 0.24122337073297456 0.03998261801584027 0.2539427868194568 -0.21644466617876212 0.7287294354208207 -0.4772016249032204 -0.44260428132198776 -0.730989272853675 -0.28851674622434753 -0.3496569699622606 -0.3223022147369631 -0.42974665620752744 1.153981372611054 -0.044919111491454985 -0.7024105708188505 -0.6846862070445711 0.12677008897300326 -0.4099244303478271 -0.3312460643534663 0.26000021862973377 0.07863248516763852 0.9461821562456264 ]
[ -0.18988221774135033 -0.894432396648935 0.9450869169273929 -1.4158228984464072 0.03861177624292534 0.03817189818694283 -0.17136737440980468 0.7068364139646066 0.4365122629547853 -0.6062801725857441 1.2370483572690907 -0.06624792991490616 -0.5339690120112902 -0.14856591917543702 0.8153284584379382 0.5795284567183142 0.3781001214732487 -0.028295420549832306 0.7499238544816726 -0.6637448089952236 -1.112315662949632 -0.24296191918906598 -0.4702613188604444 -0.38542667198619446 0.3853431706784527 0.04804309129316764 0.7001754351913424 0.4635355674173075 -0.9020352452159357 -1.2893491867994638 -0.043576155844311786 -0.25299953693433325 -1.5042597601308199 -0.5425586939472727 0.3138477171335527 0.43017983856821507 -0.8187999865273388 -1.574462492596147 0.08506119014806564 1.047138420610845 ]
[ 0.283711781332856 -0.2558325059436984 0.42198364573476044 -0.2126495457963606 0.280727374069883 -0.20734387682970484 0.35229432703333907 0.378636912790724 -0.5807477984400446 -0.12661176914001382 0.3796439812982558 0.1431541679033144 -0.13601844248079448 0.30256630557862063 0.6214706312767412 0.16385933928732632 0.4054814578043649 -0.3931329542955582 0.4028850253111797 0.0484395305089959 -0.1404673557913456 -0.42612625288652767 -0.7679537843217639 -0.45077994962437457 -0.09632392655612451 -0.16242102856825066 0.6110363002294067 0.25892945871718775 -0.6460738085083766 -0.8501086165082657 -0.1594565582454195 0.5616771920928779 -0.666704839757799 0.3273796079751082 -0.4010364599803179 0.8096433626580628 -0.6153798537106934 -0.5236995838350691 0.11453003215853118 0.5523961465530123 ]
[ -0.008555903443593919 1.1477158423722278 0.539627454328571 -0.4984623948838394 -0.6826087503099909 -0.40639808368945546 -0.04848190525591117 0.4501866050624193 1.0172432311029034 -0.1631443264996618 0.5427382914696373 -0.20541752038089864 -0.5083485780029319 -0.049183876553221345 0.7050076552709358 -0.4082587817712445 0.18909761432002117 0.21462934070951412 -0.23063875142757873 0.4416050968078701 0.3306680145847942 0.7459577059813668 -0.36547821978330086 -0.31064789645672264 0.33330727809600313 0.6648306365781157 0.6462351774817192 0.42848127038539385 0.35355741120587375 -0.07009168806547252 0.11253557545330539 -0.1404482880219635 -0.11787356090858622 0.20741706871101528 0.16785397893364123 -1.0781028554987144 0.6248496973594782 -1.2433926729895441 0.22826063942232447 -0.48822835266242565 ]
[ 0.00607677799732113 -0.009673924448834168 -0.5952163722013586 -0.11081629704194217 -0.8248656406020161 0.10013249525110905 -0.024406584885575587 -0.9497686129786039 -0.21227081548811094 -0.010279648397533835 -0.4645121331933957 1.1387331620614383 -0.8634344723580878 0.21625337529727895 -2.02511318530366 -0.31395144561175364 -0.8860657754852168 -0.3432309835553714 -0.34716862444051516 0.4886559909415012 -0.3326521108409953 0.5503842683311856 1.1490742855605713 1.635982315312441 -0.13703954321418532 -0.2953202339493652 -1.0126732291712508 -1.115800566505964 1.1979472334151462 0.07047993245650976 0.7751237009128856 -0.48845506564583674 0.3192413477179887 -0.6898026212270264 0.04291631774339584 -1.0231356624113068 0.3673758597616321 -0.033635755535277104 -0.02297282683266273 -0.10643392618994649 ]
[ -0.4344531661334632 -0.3068248892726867 -0.09115984103171686 0.10195425818094837 0.2838782747471119 0.1045802402079989 -0.2591990569432103 -0.14402136024101472 0.1071690445081055 6.155504940819068e-05 0.18157697974436277 -0.12540342227860676 0.1724191880787923 -0.41335460845157823 0.4885347095840726 -0.4226770496137766 -0.11804894775419775 0.20129806217970517 -0.05653514323398599 -0.2273125589835276 0.3737195113749796 -0.15924078202223704 0.25404119301091665 0.0665745084063826 0.01645733593748554 -0.15679224132150585 0.1951029513533845 0.09332295837690657 -0.23829362495386247 0.16621199652178048 -0.5125956285058536 -0.37252848928418075 0.05362087136961726 -0.040192379116371815 0.2969174914065306 0.4392470816962895 0.5230283136558058 -0.2218110263957393 -0.10267095108571594 0.12670269381098132 ]
[ -0.24319314218055998 0.5006734758195646 -0.061095122702194846 0.07489340291005467 0.24455509005240503 0.7084665236904482 -0.2692506962430542 0.7812509276234152 0.9680468485405297 -0.016690408425855927 0.8392900186173273 -0.8686263423504571 -0.331489688488327 -0.16528151243268108 0.13533709966340637 -0.08661639528508401 -0.16023655989208524 0.16988610300203152 -0.14428079755284537 -0.13415101659758968 -0.8908051709352767 -0.20608331024113807 -0.6120074892568571 -0.47919154352562005 -0.4040999107544548 -0.19338227763504018 0.6878537110381947 0.6524790385118194 -0.6564650910479906 0.03280750490800856 -1.377614315627299 0.3153689345398909 -0.02211853496546022 1.049906546071555 0.4213295804766852 0.07890749966523247 0.26695302597231385 -0.06048625380181425 0.2779942221054513 -0.9113580596927273 ]
[ 0.11825357035772259 -0.7947721330639054 0.5074695366400819 -0.0917730397761092 0.2203516907423609 -0.12570279896350364 0.041839748564395596 0.09163615833860378 -0.32761605519771086 -0.4459337888772522 -0.47650538247520635 0.7227189158692229 1.091981852477321 -0.21818256031622227 0.3097661912092488 0.45990661546965056 0.5327915707865633 -0.06913415501439982 -0.042354010561905894 -0.02702831894613317 0.8081853399168619 -0.3676129367497234 0.3949950700041053 0.8007630527118459 0.5366123919575092 -0.3820903153021362 -0.02166286479002 -0.030327580753167493 0.8243237542221163 -0.47857358933404476 0.8493006432208914 -1.2688085745315978 -0.18971244720806402 -0.5269753864646717 0.5355520550148396 -0.16008923200285194 0.2350522255869663 -0.39986989199051753 -0.08595515819964118 0.5709851367525085 ]
[ -0.5566398033543711 0.2961796496353871 -0.384105300333979 1.0756929114924438 -0.3775251825190587 0.30259177855230385 -0.5133713373176325 -0.21189190408761366 0.28482057340027744 -0.8367852715799461 -0.17014917492178278 -0.280577458828347 0.5901979098116211 0.018153561485035774 0.11246062059676773 -0.8421942940579851 -0.4426998822199069 0.575889982840513 0.01041994413576865 0.15871505889857768 1.1065368499617392 1.0035730300053156 -0.22096297172042179 0.605603139093713 -0.12935710520329427 0.7161957405215129 -0.44824264774376593 -0.3197244006792553 0.26695681749197897 0.6719007476174731 -0.20093993496056553 -0.1874753647158635 1.5145531239998347 0.5192382557288583 0.3638992241460217 -0.5307168750953412 1.075404544878479 -0.024733050656500277 -0.013971082317088204 -0.46903479158243594 ]
[ 0.1695017467713484 0.6892399387253059 0.19839903723125799 0.2754155873346955 -0.09277837628464228 -0.08613051255423834 0.23941142693670137 -0.08748872039650105 0.6454734862759864 -0.4751870041873425 0.31487107911640005 -0.01966521203224401 0.42248772190502093 0.08085934505223956 0.3186892258929064 -0.19872524281586115 -0.05126916644094006 -0.07377212809700277 0.2989156561301563 0.42873221382578675 0.4124137854625657 0.5319657437019316 -0.10507587700092211 0.6722596328412375 0.32267022702804227 0.33883817427374346 0.2091109792662917 -0.25259558603212057 0.4862559060399509 -0.17467155970064707 -0.3850204063816109 -0.7483141718423963 -0.24927166231867695 0.03634223933925022 -0.07702859342999836 0.10661297984206386 0.3111578547196377 -0.7205594541808333 -0.09751070931115528 -0.6392424648657061 ]
[ -0.27052791779258795 -0.36613267490928436 0.04659259691446715 0.4447787918281482 -0.20112048855975714 0.4109937657590298 -0.3324225299794257 0.15689302563556953 0.4638245812886423 -0.0061148873752514075 0.2557053897578091 -0.215898803521477 0.30770042570676825 -0.21353869592921693 0.5335158268348927 -0.33636544150444886 0.19837021486007733 0.6259092734979244 -0.2291152185802918 0.026261956019580576 0.4991697858636148 -0.1783915327850629 0.2185251374045499 -0.49410481621422214 -0.1973724426761206 0.6186837135597627 -0.004787713042286898 0.32073636281624657 -0.04137858830952242 0.25487244783125806 0.35232654524723256 -0.516600438737194 -0.10905214423900246 -0.7533040204821466 0.17654134227095397 -0.23946880686155564 0.2850477093444234 -0.438061453429387 0.4902790442309647 0.456621548183217 ]
[ 0.11754821088365104 0.25892957406060424 0.3995190407871851 0.5091023461470956 -0.18621868292090935 -0.012504096558863292 0.15623079891544994 0.11523899420128939 -0.07174442547598886 0.27963898706601575 0.37501623012660606 0.27460913714824814 0.011758230214569024 0.23825419902150863 0.08055183449397675 -0.3917989774807454 0.18864317798940747 -0.056419040007827416 -0.2911100273489155 0.38916881657200814 0.3971122939015317 1.03067831919825 0.3554283317226639 -0.06939212358155278 -0.20472281639147125 0.438421107740139 -0.09896791032183104 -0.3584397629642235 0.13030957712271407 0.15695274552472652 0.08827760769143057 0.3549672176533063 0.5624463084075593 0.14015937525676547 -0.3941512389208271 -0.8538302577560342 -0.10268564958066535 -0.38795387186223435 0.15248757423141776 -0.19065361137335415 ]
[ 0.3099392594312019 -0.0329078037376433 0.4939203337346964 -0.25374696866937535 -0.2600215321828999 -0.12229268051812256 -0.10869115144285586 -0.250029637335017 0.1216949604352629 -0.1577311046569129 -0.06514817703116638 -0.09348571014183762 0.42100657210286535 0.48700853444030456 0.5489053258512051 -0.345759396332413 -0.09259636367655709 -0.7748570902828834 0.09771697003845883 0.37370341424619724 0.22673614996862881 0.23828130138969758 -0.16073074385309827 -0.15582205670985286 0.46867868499420395 0.3398995784172356 -0.3547122935156976 -0.3107513752879338 -0.17607910232568375 -0.5363880812460975 0.20698368998596528 -0.7271176177375952 -0.42909610515594077 0.25478692928195723 -0.14128311522952353 0.06572438275830474 -0.20868948304335652 -0.5992222677712665 -0.18847018058079554 0.1932759221223561 ]
[ 0.07846832578549848 -0.06471638934401301 0.09586881695996338 0.12809666539582237 0.29402027528665625 0.07460062302729775 0.08297876819112876 -0.022934441711237135 -0.5039598412454699 0.3739878205593947 -0.38838780990323324 0.15331289834615647 0.38985344816711703 -0.055232348077930246 -0.005948519751906174 -0.2633835997992864 0.06541697169639683 -0.002109051887541049 -0.40353197831669213 -0.29845069423020176 -0.3487664094382586 -0.0937108646211729 -0.22756954061005663 -0.5934333196035575 -0.19024493822717473 -0.09997201808321035 0.22361115566306367 -0.5285947598881753 0.034370311590918384 0.10822423031339293 0.2957821467805392 -0.7431620982634964 0.29820323689714046 0.3814455873023127 0.26419963298517196 0.28110235469198036 -0.172865909515591 -0.3322742965676978 0.0568288621434229 0.14219406663474662 ]
[ -0.1069906484854676 0.5406395523945855 -0.3057317015929823 -0.2806066180263003 -0.3516816787686694 -0.10883516515288272 -0.3353665144383212 -0.05229686157384355 0.18834843125802275 0.45759603696467577 0.43496515223022064 -0.44912352951207446 -1.6032570242892947 0.01155937574660994 -0.2505921998433283 0.32859395825888554 -0.5976131917868002 -0.02940113899870153 0.27287469759149646 -0.3005428338902191 -1.4666169888319618 0.004285846345337453 -0.004783070283457889 -0.41559802891630054 -0.20520645881643565 -0.6647291650926846 0.05184822507134044 0.25995668295212165 -0.6225870398285049 0.01705456887401055 -0.30069402296504666 1.4830006194460224 -0.41046708681453153 -0.05591593310982391 -0.06916793348817407 0.20779812767562175 -0.5833185475238668 0.6474982871179905 -0.2154335804306614 -0.1509146566936428 ]
[ -0.9465149605562811 0.15485152436564317 -0.3044568690645554 0.6917930529535514 -0.483985354362652 0.8074823208604857 -0.7137730807041046 0.7202412016479889 0.2741683363312897 -0.4744415966664409 0.24634596943497244 -0.5243496174712361 -0.0789337320577405 -0.8551679310726945 -0.15795487429388677 -0.15670967425082022 -0.4123874634281735 1.1306751105830006 0.07057399785324785 -0.5619788971541947 -0.0029684822565288604 -0.34492481413405424 -0.4259808793846301 -0.3861843264243751 -0.6400959930760645 -0.4591426517143359 0.5172522873214889 0.7872348687887012 -0.6185609176588526 0.22194638383629042 -0.45677635428888 -0.040071649647520295 0.2754849140827256 -0.06219759694034315 0.633264800686775 0.13075230906767296 0.4017302514063833 0.1443721788198173 0.6505207046202847 -0.2873369659108027 ]
[ 0.17469423031543502 1.3015505793821354 -0.5743445497407222 -0.23926862417123654 -0.34774252072439116 -0.2679905818326495 0.2540307804299699 0.13073379658545012 0.9424640663823353 1.0000318010408826 -0.04723243294367183 -0.323013922808527 -1.2407340990764812 0.3182288948611007 0.27911458186860844 -0.6039792894249757 -0.39067479761899393 -0.24114327503168909 -0.43126082071081884 0.25770175366800113 -0.7402378657740766 1.0547295231910678 -0.15387061351296433 -0.7372678909809713 -0.23207105110658494 1.341844185062275 -0.29100805970793925 -0.21428068686749246 -0.17674870442602422 0.28884488694308413 -0.4705445725159989 1.398046588224114 -0.7089528917080973 0.2788334552645426 -0.35918754086140375 -0.4996351173387902 -0.8603359637519961 -0.209509988908787 -0.27707138814538185 -0.6467198768153247 ]
[ 1.2275637556478531 -0.0729793559064731 0.448351836579886 0.18598821716178932 0.436972169780074 -0.8901808588500851 0.8867678428966576 -0.9149986985173846 -0.5815089164588418 0.3693334235885785 -0.9096578382611803 0.15379591008543586 0.5688120919920847 0.9771415745285154 0.023962883832370312 0.3176606963595979 0.3627456665665258 -1.0734087391382459 -0.14955422800596405 0.6284595842542274 0.6474871467204655 0.2109849531485743 0.7165700291253826 1.0255656293219992 0.96908684680445 -0.06178173808176156 -0.628596262582821 -0.8901602749985364 0.6829287548070919 -0.47993479997130317 0.5015120768544906 -0.17401125759766808 0.023403653476513225 0.04246308190959895 -1.0675352678730874 0.14683629380938118 0.025871199628910584 0.2791929624976274 -0.5106102942336369 0.015237786992266807 ]
[ 0.3978334274238363 -0.22310752211552104 0.36215925054314624 -0.5568351913194893 -0.3862254497947538 -0.2825161391017296 -0.143358768516666 0.1436335283988708 0.08274159028685613 -0.18141885356525905 -0.2586202270593558 0.17663198822179452 0.0745817912622683 0.30590220940361 -0.338014237614204 -0.05577294100940947 0.36934438231394395 0.2399789317047205 0.02504793505959926 -0.05246451867656303 0.09516797338191046 -0.19694930131983082 0.12724824445801944 0.15139471604632349 0.5374452233207099 0.2596959143483236 0.47444617360106023 -0.41738667629361975 -0.17197370159763836 0.05087830608838717 0.778442438230865 -0.6487209718700252 -0.6881338492064866 -0.26670093484887025 -0.18804782388184976 -0.13918930196362952 -0.7303412231326597 -0.2906888404742516 0.007467963811725935 0.43631590092644945 ]
[ -0.9723712796884469 0.32639581177621363 -0.12837850670330128 0.09812704323830433 -0.3053128151426502 0.7793674632708902 -0.7752597290909116 0.6781698725855104 0.6812111970108325 -0.10805924554709252 0.6402058217642183 -0.4754877753795901 -0.568342438824876 -1.0759406868834496 0.36152271271153874 -0.19784554884930663 -0.07346202723185548 1.241275695930321 0.3480252657491092 -0.6008117747667595 -0.3366057597770664 -0.22708481866230984 -0.4819430483228616 -0.8364694597104573 -0.5277548264434031 -0.09116173949404113 0.7449934980714653 0.7283217631896278 -0.5610915955612629 0.16054980744470923 -0.5493423625735658 0.2220621046344982 -0.1450459761011236 -0.11806661797958243 0.8670401895376423 -0.24330501177774838 0.11680714210978589 -0.25785702883697675 0.6805924336987742 -0.23910686194792505 ]
layer 3 Activation
tanh
layer 4 Dense
40 20
[ 0.37842824391981433 -0.7114984031920318 -0.057059211089630815 0.5840448740299533 0.28505307541919933 -0.24931546466080232 0.5965706150946645 -0.32916067200160276 0.9039866058661046 0.9014832046395921 -0.48871769065037995 0.48345184485218295 0.39933704522744806 -0.0866436423621429 -0.13239788084822854 -0.568512867870019 0.808094746991514 0.15007279293469813 -0.16959048067843366 -0.8603044275521471 ]
[ -0.4298751231511212 0.8010814422437812 0.6434311032092994 0.07079145547892196 -0.1935710003704365 0.19148743567316454 -0.3036229465616724 0.29776288152229935 0.04265413092284384 0.2010842888172659 -0.4952704784245646 0.2660660871874062 0.02293977110120691 -0.23575642891030246 -0.4210400489177386 0.2156430235395477 -0.24082163445844748 0.5034986247983286 -0.49894410280649737 0.5880122333919925 ]
[ 0.3321902367189688 0.5253081963519234 0.3896207451727036 0.4230374084142161 -0.21396025380365524 0.570722787300778 -0.15480593485221691 0.20544955500229573 0.5768626492394884 0.46808929967175217 -0.42606503544984264 0.3414420184401311 -0.2128555783472239 -0.35742669953750744 0.27299933149200384 0.06547908881773268 -0.04771986565376505 0.32557279447209564 -0.03576700675366704 0.03498020851420374 ]
[ -0.20676760931255284 -0.12917669335978071 -0.9490718167425221 -0.2374696731310753 0.5099456294104819 -0.703628116704102 0.1723214256477094 -0.2200813556209525 0.32604688997096776 0.09757014925333281 -0.09983859826700157 -0.3147417084169255 -0.27278400431561395 -0.1327681077352902 0.1505686124338442 -0.2458533249400105 0.3641360447960078 0.19779589048468554 -0.35959250135748905 -0.19328403314685308 ]
[ 0.0015446173575693616 -0.04344791499861067 -0.27293700759675293 0.12711560956513643 -0.1510505661519499 0.056197835376586854 0.27226464407391293 0.001969386194958569 0.26295708714476446 0.09910578769908346 0.06317250346344228 -0.05233101641929743 0.11677595505439171 -0.2569202245637728 0.08139257543304297 -0.3574834047740388 0.06926257712127358 -0.4432304695414839 0.500110921194636 0.27590294530874726 ]
[ -0.5169521643596902 0.5781100552392255 0.055231636304010935 -0.24142690686529722 -0.08580736551663559 0.3792393001799678 -0.39271469938460163 0.2700859941512811 -0.6571836216401367 -0.5912114667696964 0.3499284319233774 -0.15952362886212104 -0.25747478019681835 0.2355881087661278 -0.0012458862719063144 0.4336921260233259 -0.883278170971819 -0.40984654184443514 -0.37329529669601874 0.628056101208115 ]
[ 0.2965560798666549 -0.37222861456204626 -0.4501933074682825 -0.0573018426702987 0.19598817861638917 0.03581483632301091 0.36084662967539916 -0.4313712231974148 0.6349908212100189 0.799425105288852 -0.4217194351234476 0.6153032292666337 0.37818498855869687 0.11878482921694951 -0.36750191219507095 -0.40146516645823566 0.7894428264388001 0.04100697949611906 -0.06930886595537326 -0.4047581525048026 ]
[ 0.14222853280312783 -0.010471631090483694 0.11278350448916412 -0.074380049540201 -1.441411720325341 0.1717211894801147 -0.5696490847445262 0.18079486395435387 -0.06684258582016804 -0.4326378973649929 0.2309334464307674 -0.31631575065046486 0.029673809141227327 -0.2578888867166001 -0.21344614123070674 0.3288286702768753 -0.2155874327531785 -0.23583292945040965 0.2147804492192176 0.25632411271021077 ]
[ 0.34240231068177396 0.158905729366475 0.605574970103547 -0.2836448266133622 -0.7495779220189346 0.6410009420636089 -0.9092592079260348 0.17476795183772917 -0.04971963737417124 0.13193456496024553 0.12809292386284976 -0.3566817387380957 -0.35783441686959155 -0.4646563912112162 0.037301046723288 0.8436110808374849 -0.5932985290220646 0.15762560355876004 0.140843607907855 0.5841943629428824 ]
[ -0.11343537747134645 0.26611258055963927 0.4515855650881974 0.27762235115168055 0.42104556418769307 0.2228612252162263 0.24242519796721135 -0.3283039931248 0.28844895997563885 0.4659051736479665 -0.523443384347013 0.6310330917800432 0.28819330559550216 0.01815411659373496 -0.1306752630294943 0.0015605482237556739 0.2290599517184169 0.2283576010325153 0.33734312188454574 0.2748807319210645 ]
[ 0.029036716063781418 0.06047627499133446 0.4492039323215798 0.08195829485525212 -1.492399585189545 0.4200694204761159 -0.30014806201805894 0.3501891313324604 -0.5221861220977855 -0.4668480447877157 0.5264978641793383 -0.006198877527323816 0.13714275813458982 0.22352057290872812 -0.1520651892969265 0.25439556988172163 -0.2566931834732523 -0.1770785237769447 0.16596051776600668 0.1752214007447543 ]
[ -0.07269019837508262 -0.5394749590863701 0.0974400731261605 0.12502326774004727 0.9915221116537882 -0.837037171773013 0.2918088686889473 -0.766022640035687 0.009809095449456922 0.28206688763794757 0.18745039034209618 -0.2280578358683961 0.1366031072350447 0.009806238900620799 0.0007869400861935734 -0.49756165424602594 0.17304527194503677 -0.21277743439742022 -0.38768175677415695 -0.8008344686458514 ]
[ 0.8069332330505646 -1.1223409685113273 -0.6202714732203293 0.2794013801057113 0.2620292712326835 -0.5368339879428211 0.6562964926088525 -0.2651972826793899 -0.38181596113823985 -0.0724668735646942 0.28395111736016065 -0.5352721999935898 -0.9814200562839815 0.1649931908331474 0.7141801016608192 -0.6846433181712163 0.18392529563807317 -0.31651948231194427 0.2629014139444277 -0.47891499060509357 ]
[ 0.18866772816588467 -0.6542987864564893 -0.44418174401934585 0.5940797661358148 0.17918211002445428 -0.403711575098077 0.9301098637947649 -0.32527587314224843 0.8069434542339855 0.658924799394549 -0.451187977849651 0.3320999832838327 0.1395501831996113 -0.3221776136017238 -0.20024027238144715 -0.35595183758525395 0.7006713529505414 0.35106962115348644 0.07297291068416491 -0.8047513850772887 ]
[ 0.7020983445484738 1.4263348035978227 0.36839768653035265 -0.24110099599786303 -0.36035520316751735 0.5178319317904992 -0.9175017412078389 0.5332735090734921 0.6602892489165157 0.1809206813155799 -0.07484966388889366 -0.24724321582884345 -0.7423773543860692 -0.3935655150036532 -0.31572364842857537 0.545509236143757 -0.10643550017169319 -0.02638963315235846 0.3401542087015093 0.7950241445806835 ]
[ 0.12135639575167792 -0.04504072344785002 -0.3542827609992824 0.33669011028286705 0.9408205663660977 -0.1645002415173371 0.3786762225052797 0.10996823982680912 0.2629221577190692 0.10333964252437026 0.15619714363874093 0.0317232232973784 0.3231395441366409 0.4037518568830045 0.07707169971689835 -0.25720800867115473 -0.35324163786509827 -0.1626322292933482 0.035015247202528174 0.23840909432974927 ]
[ 0.35297473447795985 0.5113197454960783 0.05293644277634392 0.05352051368821753 -0.21487887132194017 0.1477385205408595 -0.329326610583281 -0.09874630844735363 0.678146883587571 0.8236845219505748 -0.02970407525264549 0.21025838715583192 -0.13474188293963169 -0.13794949286511102 0.32309936324846045 0.11290856231337516 -0.11739075283843418 0.1627132994841749 0.23176664638234978 0.5077507870708936 ]
[ 0.08475810334600604 0.4823504472966047 0.27979239051252786 -0.30889831923664923 -0.8985656644916387 0.44073301871465204 -0.5695094667736256 0.20422891615416938 -0.975894267631828 -0.8814727925024719 0.24293621785982397 -0.501696833669738 -0.26434821906491623 0.3546288417808944 -0.13209432552317737 0.32134727226153487 -0.652411805927534 -0.002908670587863979 -0.2797429551385861 0.7047857086544238 ]
[ 0.25782322919568956 0.0027458941156822993 -0.11913046367454327 0.3747264292843425 -0.5998998238103793 -0.03991317671075644 -0.3433153940986338 -0.03518273031742449 0.2527773082255592 0.472057794955656 0.29963909460092686 0.2636458277448622 0.11219562361739853 0.11161640381171559 0.18031454408971023 -0.19790710970731104 -0.07050063272029382 -0.009592479946697574 -0.016763705361064828 0.11314160197054071 ]
[ 0.2501370686990746 0.06284086095227194 -0.10749519631772592 0.23485351155448939 0.8486353493435362 -0.1323447687044939 0.45433251630960886 -0.3543636182633006 0.15734769940919666 -0.06484024381908632 -0.19001644689735817 0.07993144674249679 -0.19692420217847556 -0.21080158324944417 -0.12140392156277625 -0.4990588117682359 0.18638967213012203 0.24343003881384503 -0.07038346876225576 -0.3196167110929469 ]
[ 0.06916562205980956 -1.1305317186436263 -0.20904139804616323 -0.2802412681220256 0.025563788488394648 -0.9472083943323909 1.0780538303523481 -0.45620787636445964 0.102996248342701 -0.513980660975656 -0.09335417802220833 -0.5817011152213035 -0.5469912134471764 -0.01769157671836659 0.4569466276784678 -0.8526644361450638 0.10739877547325417 -0.002475422598219752 -0.2092108962460681 -0.7217538193529881 ]
[ 0.07489444279932658 -0.25116885924813975 0.25702572625264986 -0.2857320266019966 -0.3210650158609692 -0.09911072698339986 0.3634367184266238 -0.5629965625080583 0.1909945006623716 -0.18590396376361876 -0.10512398684900714 -0.0627300249570993 -0.4138091281450933 -0.4408918930454202 -0.02245407158549675 -0.4792455120102654 0.07319570154537167 0.7766141315409153 -0.7123258899174201 -0.6476916779679559 ]
[ -0.25486464985471263 -0.16868216726345828 0.15041584791853416 0.053535223919878146 1.1239368104769296 -0.6198176373527987 0.09370830511885436 -0.46801618094574843 -0.11522529088371085 0.19010400020252768 0.04563990966581962 0.1424360278868546 0.5642579975560822 0.5463455227228384 0.002910677905744184 -0.2199108049313821 -0.2280489579358849 0.08137632796876604 -0.11237541380051362 -0.29808251214651305 ]
[ 0.00011353294196153531 -0.729901647782146 -1.0798640971420725 0.1465846894039037 1.2578604088734178 -0.48334225839226796 0.3209626767635889 -0.5429310762684235 -0.29607199173315324 0.4200106486296889 -0.23318639085339773 0.656538900507201 0.3868389454217721 0.20521508054410414 0.24500852854340258 -0.7637500297384434 0.3006383802435918 -0.49669328437207827 -1.053178709164922 -0.8761440406401453 ]
[ 0.3269989192525255 -0.1064716184220324 0.11698419057274383 0.23890120597405495 0.5795000096549027 -0.05652890585753794 0.3282247454385292 0.1704100171253004 0.18682390530573043 0.4244728127920573 -0.38409470310023225 -0.16986312245196133 0.031257941067811344 -0.07326116577402442 0.4312982576260346 -0.1555016155337523 0.03086829463795137 0.11764181673833271 0.04257009680389062 0.08333748855228185 ]
[ 0.33229983327738527 0.448025434591051 0.6903007833965966 -0.3705105537726317 -0.3788445010423322 0.3197515202335987 -0.005103792921657177 0.23949916547989908 -0.103255972100006 0.4912285778012655 -0.29139611752646455 0.028786417730605737 -0.4733858586704357 -0.5732228475347905 0.09535402556669138 0.0008592662134288096 -0.4556123118080837 0.4153013873802764 -0.3517020233146471 -0.057736904590548914 ]
[ 0.30498092691424905 0.3461622546208294 0.2454301344332372 0.21045788205478602 -1.399409468964056 0.9708665013611322 -0.7601724124156857 0.21305173479929795 -0.16158283822320002 -0.5789765650369164 0.07971760048847987 -0.17281551114842766 0.05641517012960706 0.2037769223994027 -0.17971329515069898 0.1625007236262781 0.3670516299554782 -0.43743572322096347 0.22524129929043724 0.6494674504852254 ]
[ -0.030027241188560122 -0.09874671766685249 -0.08520571378128075 -0.15771854784330452 -1.0854115387011436 0.2746181890009035 -0.942936066540193 0.6547174129358249 -0.1796765425702761 -0.6497684958627191 0.345080358879915 -0.2644696106845174 -0.23432567065847124 0.20797362671181463 0.182069286392224 0.3771018989509539 -0.3153296276491324 -0.18943145116509502 0.3299169016379165 0.48150339744186643 ]
[ 0.09765785552330666 -0.5864779640335946 -0.3046879771961633 -0.2746986043527361 1.5956914287479038 -0.787248284549529 0.6624624042471557 -0.2765816883763795 0.3899035100924018 -0.019417024370206565 -0.096306959947499 -0.021144205496311297 -0.09933125109934338 0.3674748962360457 -0.04054518604936329 -0.857446316341526 -0.3905943858754227 0.04226713951411769 -0.3900570168713502 -0.8046384698163916 ]
[ -0.27910158233017596 -0.22446658436875402 -0.492726313641041 -0.3448331168103415 0.4020749005743126 -0.13902191508917308 0.09796402220623782 -0.008587196740651318 -0.35973849163669097 -0.6013616282179135 -0.0454964058208698 -0.2865598610680355 0.082005012563413 0.19286669828713357 -0.06593449682907913 0.35760065570801025 -0.22641727331886477 0.3199299083482763 -0.3013774667447793 -0.13834088724877713 ]
[ 0.3433556983247484 -0.48600916458406834 0.060799904469066586 -0.06844968345576358 1.1148195082116437 -1.0796381694814459 0.29133733400422107 -0.6599658988830687 0.3042976044690165 0.8236219517333715 0.2078138267757142 -0.19694698942350383 -0.37235847795414195 0.15633363218803356 -0.010071908638920242 -0.5612847978938059 -0.251202758228049 -0.024485674959527984 -0.019765080388558856 -0.8238779486978592 ]
[ -0.7564426359889701 0.5478811972242512 0.22701058952939202 -0.7871193404049842 -0.8131658114702106 0.3097392971933654 -0.1627561580483282 0.12954559433662186 0.3884023396121683 -0.34225072843463417 -0.23563700186638245 0.044467879446156974 0.592434374502688 -0.31666956212071823 -1.0681597235029623 0.09670777644165061 0.5695770845860296 0.25127632497176394 -0.08563488321958242 0.34390780876563065 ]
[ -0.12141703124848217 -0.5349425865018459 -0.7725298671227147 -0.28452271010946245 0.45829191382364637 -0.2842028784483742 -0.066750899428449 -0.2785940107199512 0.38502832188941793 -0.2543820861899995 -0.19429341997810745 -0.018147988254879316 -0.43944435173672447 -0.19493276648951355 -0.07062250294207344 0.0620303018367693 0.17653556273637824 0.7036599264390775 -0.5379552666995814 -0.07401935753848866 ]
[ 0.10687279211402846 0.07915916812559348 0.08950188404047829 -0.29381450781475116 -1.0066906840369145 0.8159482159476988 0.2623903135723486 0.02198855126339225 0.5808806543420042 -0.1280353396722607 -0.28667921985498007 0.05059202282638901 -0.07526311427531271 -0.24706042645073015 -0.03564175834276762 0.3263707530797123 0.3917365345814538 0.30548819947723294 -0.27678278196642486 0.3117678161166764 ]
[ -0.33198405797396413 0.41679760083349093 0.24001552517160263 -0.0895720161297442 -0.037485749433406795 0.40658599795868844 -0.5433761659899861 0.47255482908998786 -0.5945439738466496 -0.9311079430802478 0.32015478056315494 -0.31366491691958337 -0.3285284194472153 0.029365231141689277 0.23800503720973304 0.37120293138824983 -0.7850182832741658 -0.27249072493248044 0.041839578995664276 0.6156919904321498 ]
[ 0.047630406253792786 0.20480821495832796 -0.437686164405986 -0.0912501817981909 -0.37442190105940665 0.1061596905492519 -0.02751823492352056 -0.17114597875887372 -0.17977002457489477 -0.22021541105530845 0.016372075180130737 -0.013969129045090652 0.28171729330209766 0.09550306417771563 -0.13008496877445774 0.11774875243768702 0.5147525944379895 -0.4896224890344136 0.4826414010371047 0.1131381999437252 ]
[ -0.2905272059709944 -0.4781980616877641 -0.6732311644147551 -0.5271812924206993 0.22108967764082307 -0.7581241159839511 0.45529349496258575 -0.10675678919649971 -0.15798080318156035 -0.32176155659235195 0.26411346189161855 -0.2463343997157216 -0.5866618863916537 -0.8583024775051256 0.3474779424640376 -0.09321102271595468 0.4058746347033195 0.22900972720881657 -0.6595304422627178 -0.36683109448605195 ]
[ -0.6845108392590344 -0.27303595193582847 -1.2472573531779094 -0.5053487344621749 0.21518066864458618 -0.46731213175652536 0.6066410618022923 0.0007484651035547742 -0.08832008516625811 -0.15160412666688264 0.1719704806036342 -0.3411977995640807 0.851310449408975 0.7313529176962588 0.09629391669821172 -0.3146028234391365 0.6234624644606204 -0.20705507934810694 0.013345065265358566 -0.18896319801922476 ]
[ -0.17609473409742418 -0.2806082601850713 0.18234137137282652 -0.08989653286595509 -0.6159319038946158 0.13027993240301314 -0.328227623226719 0.2679025898919645 -0.3365026001701227 0.0976213347835949 -0.0004766056507144919 -0.2539025375682824 -0.14786758439966102 -0.10257014802746124 -0.025044583407438446 0.4215554681637743 -0.5360386903710271 -0.1119396717078123 -0.10568895765195055 0.4819774077589031 ]
[ -0.00802423032210984 -0.33667636233604115 -0.343139595172543 -0.03406702449283525 0.1871342838711324 -1.0874938014238391 0.7896602822227315 -0.2031270224382718 0.24723527193764752 -0.29848099151023755 0.43674009882235776 -0.3478484614669045 0.04134472985681305 0.033651477402524194 0.28540678904694133 -0.9307740502216955 0.30160102764075747 -0.5139662726021577 0.6303516957627451 -0.8528728894640059 ]
[ -0.18952148674306282 0.3951630042068446 0.20006182990909777 -0.2736927289340119 0.10811836882541906 0.24886327082202012 -0.608891569440739 0.35862953535160286 -0.4308515537365321 -0.4028638262450553 0.22616445054399031 -0.3867473801984046 -0.17513708970828681 0.09645512705890769 0.042993800342079544 0.4594962821786677 -0.6344127428429231 -0.1606349802453434 -0.09101342642689841 0.6187152328177374 ]
layer 5 Activation
tanh
layer 6 Dense
20 1
[ -0.6325723652858386 ]
[ -0.9953571778760728 ]
[ -1.4817023187367027 ]
[ -0.569476911793717 ]
[ -0.7687005337795829 ]
[ -0.5500135078518784 ]
[ 0.722592356121743 ]
[ -0.19202695704922335 ]
[ -1.0040922469430995 ]
[ -0.8472847114243873 ]
[ 1.1412054884735037 ]
[ -1.3089451086750747 ]
[ -0.5695965642925085 ]
[ 0.5191033257386378 ]
[ 0.5519085510091115 ]
[ -0.7607626124029662 ]
[ 0.7985151068472369 ]
[ -0.8514772897309997 ]
[ -0.8258137960109672 ]
[ -1.0980377166070538 ]
[ 0.9305305591598007 ]
