layers 7
layer 0 Dense
20 20
[ 0.017737738502349273 -0.11682849472914596 0.016751388576691888 -0.4909366899679994 0.6892840486095109 0.6621795941887468 -0.21459494353602807 -0.12234117532100018 0.20565693359395906 -0.049893491089646205 -0.293552633933508 -0.1493546572173109 0.215252953802705 -0.009823527700113374 -0.0904060518916148 0.2787387479748378 0.05582900523966261 -0.19612900088659863 -0.04612514788102125 -0.051140292757039685 ]
[ -0.3817943949049949 0.3175242782166169 0.07960742062486457 -0.20205223628297883 0.32565006971220417 -0.06045037940195489 0.29047150040508113 -0.26621632800360967 -0.26483138058095934 -0.06622427063150707 0.16715305234257996 0.3446785300589559 0.3640092740713723 0.13282880390566623 -0.14499124389171283 0.22025566465404925 0.25680862122577797 -0.13544848138349988 -0.10892015051480795 -0.2614433650406641 ]
[ 0.11638962856627083 -0.35816736804664734 -0.1523639772402574 0.173420282215236 0.22723287395774758 -0.375104980033359 -0.08369650951751192 -0.2717316713139466 -0.29314465617969016 -0.34796645516315505 -0.24551757928520765 -0.2967738305768302 0.2416644520884261 0.3698484080707528 -0.04437463068771871 0.22393307665452797 0.27963177249844096 0.38539207693183286 -0.3129506140259322 -0.18252550752223032 ]
[ -0.2357342631644936 -0.15298355819789136 -0.5160038714651067 0.20315132784825815 0.22161061036933635 0.4003085764173586 -0.027458888246310258 -0.5889095045152054 -0.2730352640901876 0.718399924524311 -0.4626301921357585 -0.6938859434454883 -0.06399229332651465 -0.04858996520232888 -0.2620292225120767 0.6132843631502336 -0.04172612331958477 -0.5705436842023767 -0.15356478607244892 -0.3298929071895323 ]
[ -0.32700076596743205 -0.22630263740217302 -0.15538726194768568 0.5069330228127482 0.24843997006770818 -0.06666699719925202 0.2028980881671586 -0.22635850251531145 -0.5265486372885546 0.32223563309574627 -0.01476492522692615 0.3286943347459563 0.48161572080342757 -0.5263391092851191 -0.5115600331181708 -0.19492216934746914 0.20560081330172325 -0.06330330020859187 0.4146130410167926 -0.575457012519562 ]
[ 0.3850526524206873 0.04551499356835492 -0.14267411854873158 -0.049469111057745735 0.2939731728001957 0.13231661774944886 0.06456406301127109 -0.3346685046972707 -0.11000599291337665 -0.30093167076681554 0.20971877469774572 -0.16327146794235825 -0.007806142537580353 -0.20021775258652225 -0.06024958895099125 -0.2418006382407922 -0.25040136758455067 -0.35399832523397934 -0.26329577396984216 -0.3677816017862881 ]
[ 0.0486478615186845 -0.3630050309651495 -0.3404950358523835 0.1793475288040404 0.3085423997351297 -0.16871463207053256 -0.1959345597899169 0.317007863506113 0.3368123057669641 -0.24873451283490716 0.12985183923856805 0.0794991933405076 -0.3135203835585562 0.14495369642243788 -0.35423176507780507 0.20757761725827736 0.21291615000021522 -0.1504239818094751 0.04238934800765726 0.005215954053833085 ]
[ 0.5755972105936984 0.36502784201226984 0.6591554566498458 0.37620647058175216 -0.4608014992507454 -0.7803705753965735 0.2344499043887252 0.564168983193113 -0.7873419941319478 -1.2917374439698335 0.04494089289110516 1.0108638077859702 -0.13135948695949007 0.20802161540171532 -0.07124308571251922 -0.8586960215147632 0.35627429052831416 0.5588988913631685 0.24963764841058506 0.13058692480546555 ]
[ -0.3909701742762915 -0.28285087561733385 -0.1775043165303954 0.3221978753472457 0.4969846022858504 -0.2942318645020923 0.03933589362873816 0.04934524298931422 0.24801711536443724 0.2604309270391863 0.16713596405385409 0.047270582311602374 0.16850643817813338 -0.17927229765577052 -0.2634945774945902 -0.29160491840434777 -0.3703738880902648 -0.6305489827656819 0.09818407018158111 0.12835238642409005 ]
[ -0.47419583728387954 0.3757204529670948 1.019510001544543 0.495246800321998 -0.7885385567972872 0.15843586752189148 -0.038060945315793786 0.23152309956169434 0.651930597505758 -0.12379565384706767 -0.6774294215080743 -0.04141466173723428 0.230104994621701 0.5151383366860354 0.47275374763153083 -0.08138262082791425 0.3813095842240459 -0.29868473088361375 0.020738398343130883 -0.05287232455092188 ]
[ -0.8025656473050319 0.0867881458184961 -0.1577637626995119 0.10815741997608615 -0.28553302943643455 -0.1316851194008996 0.637739485106211 0.1697608007756511 0.2680294864265486 0.2207158489570282 -0.161036529497981 0.22028055272789665 -0.7491409081704041 -0.35848143767973034 -0.38751260714374025 -0.1770476253644054 -0.11124432793461574 0.0072893282812228856 0.6569785585459381 -0.03136747713529859 ]
[ -0.679582618683699 -0.06806949791502116 -0.6927968407260948 0.2604556583204991 0.3178287919910081 1.6439255719523727 0.7253936823913659 -2.1993364377369913 0.32696309248779265 0.8693230780211609 1.119908151803954 -0.568127155163289 0.4846107197993538 1.9713329219258913 1.90738995142152 1.5754713246373298 0.2551462953821753 -1.3596841295752693 1.1596265193077582 -0.17065524819700853 ]
[ 0.2997898332941909 -0.9808200693674638 -0.6150853254130025 -0.1951137834183773 0.6491831321891831 -0.1781704147755928 0.1990247164655152 -0.21810584972031244 -0.04072305715465826 0.9842069592347344 0.27291936629820723 0.07921153730819581 0.5146387934559655 0.08434346541276237 0.11689480700417877 -0.30429797125124824 -0.044359559235901624 -0.5154624564184797 0.6336920614996853 0.19999964906711618 ]
[ -0.14472321896369844 0.3774458100983058 -0.18532804614514778 0.5431063553860446 0.05763533914234878 0.4832537226684642 -0.07120080611488157 -0.6334028058410432 -0.03650177606431465 -0.2803842727199346 -0.6723076133549609 0.16618055920550553 -0.4282882022884692 0.689756677679056 0.32306934367157797 0.0671945624763697 0.5465859579336677 -0.47792360014041524 0.7856596754295615 -0.03282884439997504 ]
[ -0.2940899935055314 -1.0419602756838098 -0.026941214656733006 0.2327804558512893 -0.03599316612531305 0.07094760251990019 0.41928206704344023 0.3682522359291203 0.3195821899933527 0.27423046180599425 -0.03178137169508965 0.26160486304110014 -0.7528292409758746 -0.0943845386215373 -0.6932090303166641 -0.11245784323694215 0.21096414364804317 0.14730191400904488 0.10414809202724482 0.28633615571895965 ]
[ 1.2433621932064822 -1.2325683351713754 -0.7321417319078728 0.07170183010253174 1.008589986005004 0.664129479178641 0.5477824148324191 -0.693995409024186 -0.33766833607419255 1.2113948272230546 0.1257438437540741 0.1809171122819917 0.6078771476475738 0.7112869374426642 1.369808744826103 0.004624681142017697 -0.06893135258369061 -0.40828770409750365 0.5176036914466321 -0.26070425530345814 ]
[ 0.0590163152132936 0.30679299449045533 -0.005089487727788192 -0.2868164270812055 -0.20396782225064455 -0.46716558765949934 -0.599238546929323 0.28624010357457813 -0.35885079776758627 -0.34091940171385365 -0.13295076406107414 0.3621160841934563 -0.44561294420145664 -0.18888902291374707 -0.39742606785783446 -0.5408029673735648 -0.03059682813459672 0.6519835476334855 -0.2660356576111928 -0.10611717863033114 ]
[ 1.2676502692895923 -1.0793391569805646 -1.6790015126118807 -1.9815129314089315 2.2267749421601457 0.3516498361145815 0.6109074914234455 -0.06642819953202476 -1.9087368929576212 -0.0652363841219232 2.3570588125287775 0.1695792628170218 0.5542045660516925 -1.177400217456761 -0.9032211277950744 0.04453812530385675 -1.9646641013945616 1.7209463572783055 -1.7367079966337304 -0.01862619430632006 ]
[ 2.12764394512086 0.8104792722285968 0.8104333692949431 -0.852029165867772 -0.7335671872728862 0.0028474019987172073 -2.535674719347766 0.01625009567034957 -0.21948951163734362 -0.5337539226428684 0.5792853115192603 0.22412597870646395 2.2366964267508744 0.574098762931482 1.6382277192245847 -0.1878699975845137 1.262996856221261 -0.5924482845691971 -1.9010822301506494 0.6521172132874378 ]
[ 0.30697871060521115 0.6057531139725613 0.6110554923467459 -0.2086971106445209 -0.6575589799393198 -0.6672485719130135 -0.339863653217265 0.4577912471598139 -0.18383214285226002 -0.8468176146962408 -0.3786880293421437 0.44009146202219834 -0.5805052317913945 -0.33105551302214187 -0.7595354494063633 -0.14185231774345644 -0.34734534045926635 0.5769152091087746 0.007021363636015599 0.5514031464511735 ]
[ -0.34753589453109107 -0.09385668555841077 -0.15863586317067588 -0.08165466952653724 0.2078259753226798 0.4897882604908731 -0.04789828788071553 -0.20534595078856593 0.3266973538998356 0.4831463601162972 -0.11742752763894257 -0.455399195457203 -0.07519698590808536 0.06452283626995137 0.09331057663018459 0.45213543797280564 -0.011212717334370719 -0.3245878292746223 -0.0021803446887446536 -0.1732047705203116 ]
layer 1 Activation
tanh
layer 2 Dense
20 40
[ -0.2058308996367333 0.45856914073499616 -0.4825491254470471 -0.1097941020547252 -0.2793903840891026 0.17766541734891203 0.22818769387321183 -0.14324656677419095 0.3492761797621912 -0.2754928871905115 0.032093586728641196 -0.34781929798697986 -0.1418865319801498 0.7414269362584921 -0.3109169027915237 -0.33899664926240697 0.02646307345297559 -0.03147455592949925 -0.08089981312997563 0.10526632308793973 -0.16724759935113345 -0.35304679720374027 -0.8632237323013954 -0.70509327021034 0.27848105564274095 0.7948426290687967 -0.2873889493893468 -0.1707703890691364 0.2989869777898486 -0.06471569892000835 0.21917630816039843 -0.24598036746551935 0.31999501316202966 0.09752581328593907 0.41954921157894376 0.11478070487585541 0.5475374400552201 -0.1500448911107452 -0.7979961060474786 0.5049617121371334 ]
[ 0.5368594539493425 -0.7247782971107736 -0.21717783928989395 -0.16178191783722948 0.186627920843534 0.29072468724911715 -0.06790740462109535 -0.10720257114469872 0.19771801934502206 0.43219931605139394 0.07103008237331167 -0.08900086379748733 0.10369325798819186 0.7556488892551764 -0.08538607570273835 0.3555310244531895 0.025089892328119357 -0.4374887113453847 0.1698787547529909 0.29237664690622206 -0.4233650703768939 -0.4435185483931521 0.15259725996043688 0.9637791398061416 -0.6097793373732728 -0.287445767025041 -0.36166240166502917 0.8489515165679438 -0.5069210500465585 -0.7311766362276703 -0.4220284849699378 -0.013922935786601469 0.2638170170538566 -0.34738927686594717 0.27692830721929523 -0.8507301489733343 0.4514033362849294 -0.028981384653335145 0.4356906406523605 0.16221735193176418 ]
[ 0.07892201308839629 -0.5653992799256864 -0.34350131243916165 -0.4177688336033262 0.2270485673258497 0.509842308194529 -0.4901331188008678 -0.08103906815367282 0.0828237387191137 -0.114695207090495 0.4158811993564538 -0.235753713724863 0.2226416481361767 0.36830888072102136 0.22821767808691518 0.5074561460034814 0.18804411196795923 -0.5965030074917103 -0.22221069964301457 -0.03860753118193887 -0.3355470217431098 -0.54899263544477 0.26000469028551043 0.2839220339280556 -1.0003349424284569 -0.3700186235102827 -0.32503526664632454 0.45891576548400115 -0.962695103891475 -0.34546123540373475 -0.13119215943089138 -0.11813697084152411 -0.4503941217450208 -0.0003311123795580236 0.5147328964300438 -0.4777319156394731 -0.03355087293955279 0.5536389255436162 0.22039084665079153 -0.08916450659174897 ]
[ 0.047752166858198206 -0.3659090871310601 -0.431949405433536 -0.46082774376069274 -0.4750856394347526 0.70268611876257 -0.38521887743973066 0.05111359954564002 -0.8474500190443046 1.01278235125243 0.22575163033599163 0.1552236438868772 0.9611784314134253 -0.9255097798683527 0.2613902953398932 0.851520327205648 0.38660379626189967 -0.524418525164674 -0.9069823430452455 0.2862847805837213 -0.4026903533966351 -0.4795631648542805 0.164693625822443 -0.08244785225271566 -0.2836417791011892 -0.2021525027308023 0.5654287374595439 -0.17197935047822635 -0.19797167267043642 0.016902143997544743 0.07276452592436111 0.002236272652303302 0.34366867191922396 -0.009565426864936496 -0.077108650632154 -0.0016988048764301367 -0.47468060896034153 -0.44346120956076807 0.6294276590322403 0.12715519103197626 ]
[ -0.11647469521655501 1.0714415344271455 0.594138453561213 0.06175566303804007 0.10522708784289989 -0.41867134201977707 -0.009186966635572336 -0.5423519379394115 0.26515368347671325 -0.5696499090007799 0.17735555871111183 -0.24333873730679248 -0.35004521436163005 0.23971876528610064 0.4318041469003619 -0.2508639127992013 0.0036722557807052185 0.3920057182928867 0.6758734033837402 -0.11230970042337367 0.3882520449209144 0.1415889993388589 0.223059460204196 -0.8144821695342223 0.8459437740955736 0.2978114248487331 -0.2220323373863889 -1.4826564291154265 0.8062272478015026 0.20156459173746155 0.23292134156105235 -0.3210369379009808 0.0017049645146711549 0.32130173180238125 -0.6391434596717543 0.6078380952899021 -0.23274115478129978 -0.12987365871066464 -0.7423226990573935 -0.09897883069199687 ]
[ -0.35882294779951174 0.32715489718293206 0.11559281747360244 -0.2801616729627652 -0.4168150965416671 -0.05103603664794776 -0.26414738755243444 0.3247179337386032 0.26503057444828476 0.018896363045362546 -0.13343038137280747 0.19234561963289948 0.07837801550840134 -0.13203146229850166 0.09382752621168301 -0.0842192077347188 -0.03658337822980206 0.5048963034146011 0.21318636483239073 -0.6053592285376003 -0.0037105503885145807 -0.1327408730903083 0.4153758237459402 -0.4925114100100287 0.19979983775473653 -0.26774731264649726 -0.5077581952086582 -0.2216906326152136 0.03457967807405658 0.7114716972094978 -0.2547905329220891 -0.11834595908672017 0.01338006162485487 -0.397656154717739 -0.7025715315907518 0.12460771395300915 -0.318173592163837 -0.6382462588219471 -0.1416776951596125 -0.397611493527557 ]
[ -0.3652620686275969 0.4999293808815132 -0.36980363139092065 0.5979762223452543 -0.12562484695084938 -0.21125478616750895 0.164226387573199 0.24609583107152314 -0.8724758099022475 0.6470466244316155 0.057297410114707785 0.6479413822212713 0.7573985615267668 -1.3918530527055057 -0.014324993428431148 0.0888777946308815 -0.3654430758888286 0.13756558717008346 -0.703768375765452 0.6419865584075111 0.6223459232717219 -0.43610410607551986 -1.0777948990426474 -0.7800068227561132 0.4187238592634511 0.8477832363127051 -0.2746796107849811 -0.6781344218185485 0.35521933175880666 0.7592984606043085 0.458918175622892 -0.23266988648149553 -0.8600306080340915 -0.22244375839656982 -0.45562906193818276 0.8380153369783031 -0.8206224560193681 -0.8005712999570866 -0.11454305785326505 -0.4348828362798277 ]
[ -0.0342213033739782 -0.11277457292850634 -0.46521336940189 0.35523146415298495 0.24410281044570886 0.1032396759194473 0.05894031203469519 -0.21823104663164872 -0.05751572173707151 -0.5530468101599176 0.095753570544805 -0.2352004913719931 -0.0698812077088217 -0.04838215155635172 -0.12464151806546958 -0.13479029299780798 -0.09078969109443054 0.14133534632475173 0.0449393779770501 -0.046527926867641504 -0.2201412167518521 0.17726463018655986 0.1705088314369513 -0.015492278889554682 -0.4777005287140088 0.2524431673523189 -0.05336077646339055 0.23949951123957386 -0.12919171576817684 -0.3519400481703029 0.15477710979492681 0.08075522306886311 0.14728201246444173 0.5100899276731613 0.4724864373709175 0.397522933185395 0.3053603427873006 0.28000189201442566 0.07932584466701521 0.5267183226656431 ]
[ -0.16819734645806028 -0.13452921227511713 0.005634896598190281 -0.18682802728101916 0.31952095627667426 0.280406373065924 0.4245601966081651 -0.46429664783288815 0.039475483213198374 0.5170259627840096 0.06784712435789331 0.3158207035134844 0.38690680851066617 -0.7557626161489879 0.43341096266396983 -0.23392122425757375 0.053143759906602646 0.09553496012632805 -0.45333096129481043 -0.0175428507780285 -0.19211610092818654 0.14242054176018754 -0.45804360093015056 0.21296172808697467 -0.29496964758954486 -0.5749208594255867 -0.6845851657705098 0.21046762358737112 -0.7920471116594303 0.5455080745350134 0.33082421659118183 0.24552711739707755 -0.21479793466191488 -0.14779739545278012 0.05758295047836719 -0.6066834428295761 -0.7150024830202497 0.12337930506147111 0.10991434587113139 -0.996376249709795 ]
[ -0.6997506436821781 0.23602595946940289 -0.1034386443995006 -0.10410076482767512 -0.08500291887799365 -0.10958814363554585 -0.5718202033439412 -0.17849910695378923 -0.04867368449377479 0.058268317419439254 -0.32973291590139037 0.13648192186291072 -0.538426101914841 -0.3405104357575891 -0.058088579404635104 -0.0028589339671280392 0.1283003055124709 0.08196756795405573 0.15670345973921027 -0.29685843449496085 -0.22154957457195548 0.4892763948273268 0.47739320893441156 -0.524244327500393 0.3143940965698485 -0.3962721238644577 -0.16748764284944884 -0.40880401077375667 -0.4795265289738165 0.8435348418005281 -0.3537488967744885 -0.27224100416142105 -0.2781904427971653 0.04180395297698653 -0.3282277048296614 -0.131041691814453 -0.7065602246414681 0.26507527413003 -0.061084975212385165 -0.6149443876879873 ]
[ -0.5912992545216945 0.35972036256593487 0.5955544764361215 0.5417951889900332 -0.5594996568540302 -0.2557503882507539 0.46602572164428185 0.4106473897252609 0.09121115913732386 -0.4386331617289781 0.21084344445673314 0.8476379631867473 -0.5671285027852254 0.3056059098316613 -0.6396689013940027 -0.5023531374137288 0.2754861977896079 -0.1693659201211442 0.7477659604092571 0.17669876650176056 0.44303054126570945 -0.15761405654974317 -0.02582788045713485 -0.36915187493973584 0.7169981098200892 0.7494418728862773 0.17841770628180503 -0.28404033074408735 1.867320433424421 0.05472801496676733 0.7382307189846166 -0.030844469139388615 0.8159230350265664 -0.06149904025678269 -0.2013127986498352 1.375453276845415 0.6018599542640108 -0.6675649640167395 -0.7925626738479636 0.7041835708765051 ]
[ 0.6443460555036958 0.06274402189820917 0.02084276782416779 0.04887550929141497 0.35344612634013217 -0.10129713295255663 0.20671713512061554 -0.30252371047075444 -0.16774484282393914 0.027475250038023185 -0.2751763343494206 -0.3924355897855423 -0.276910516663918 0.02310243504363764 0.16703975611008462 0.3557149138842421 -0.10577782062023056 -0.43245307407373323 0.11345973002105326 0.6386708607514938 0.35174618238272826 -0.07616302281291115 -0.37979047018249384 0.31584262495438153 0.04364246115074869 0.5515354985152755 0.4943300418871081 -0.04692113865945077 0.363507186111253 -0.5703917461442257 0.04591415810930841 0.09956234181251539 -0.0497849548682162 0.4838727765830867 0.6272334677221677 0.23218902830690144 0.37781135998628806 0.5999955379462047 0.408675865202314 0.39430259284180563 ]
[ -0.6687622212083304 0.576257208181923 0.1967024525239607 0.17563344692239827 0.1934287546623283 0.9581867187436099 -0.5511307773832528 -0.05622224425476222 0.35368704693559405 -0.0014372276622216388 0.0480121514731727 0.4467881041418042 0.1443314721971513 0.8085980572357738 -0.8110676662130035 0.5081930473042617 0.02842048973947174 -0.34461366464380633 -0.9105388769504777 0.2506253782706329 -0.5349239305367446 -0.033783328356692316 0.7834513243586682 -0.653980465602748 0.35397910976384694 -0.3387814900169171 0.3234908710165263 -0.13229359043468367 0.06786047868524524 0.7107844622930326 -0.4066003486623467 0.16646056876322274 0.7265060004586661 -0.11699880477854434 -0.7546121615258038 -0.2651459003392915 -0.3847916052654712 -0.3179544404323246 -0.7717655892324063 0.4783386991605657 ]
[ -0.021446961439930554 -0.3220237528348934 0.1032961624195289 -0.24135587448153487 -0.11424424849271674 0.24093909848082007 0.40354584928764453 -0.010851456615890554 0.2616048048414257 0.10787600982968024 0.17836370575355495 0.31101966988528407 -0.15868848416773007 -0.04494307800302772 0.13069471499072574 0.2732592755548544 0.015610012776559653 -0.0920262263935397 0.04383797825575044 -0.3587261421708753 0.026296971336297097 -0.13075065765894553 -0.575864630996464 0.2609188564654013 -0.5610946167316991 -0.40388174687684203 -0.34443953466843785 0.650075758887141 -0.4182376407700008 0.16929221773290895 -0.041097571594694154 0.018570544489161022 -0.1773248932240047 0.08393544643124075 -0.13032266131981893 -0.07091381539371182 -0.15613721440237333 -0.2765125260207118 -0.09309557314413335 -0.22659821148592468 ]
[ -0.43282554884509006 0.09649873465847998 -0.7992590115112979 -0.09429005441730705 0.29138786673315836 0.9850751311060871 -0.16892455898258285 -0.2573844318013461 0.1573964903152345 0.5728868764013071 0.03548871989942978 0.6693198963687493 0.8960003101662947 0.6254883990683864 -0.7462056285392554 0.6645129995498481 -0.2885645573918779 -0.16203913113002386 -0.8232115637055584 -0.0191203803707598 -0.3356629056466048 -0.7855286376267421 0.33782248710756535 -0.44274504194657444 -0.036244766506146886 0.21914393663864623 -0.3976309937274136 -0.04565306073359903 0.8469160444521837 0.6739687677444347 -0.3385280278906556 0.2098237157929807 0.9779764427388898 -0.24081479517556148 -0.6169899116136989 0.40966733204769695 -1.1022931731095262 -0.49962300511567503 -0.5491949131474476 0.5233165947866611 ]
[ -0.4214406087169508 0.34086558516901366 0.09284574412040242 0.15771306772523747 -0.19895819890781924 -0.20527640184188198 0.2427671100582088 0.1070386458480186 0.2783777729039401 0.3354967342049955 0.21003739063454543 0.5273400061740015 -0.06852334703675529 0.05849175935829453 0.1538769277942371 -0.13646996918172577 0.19537481601428852 0.649533528638635 0.0756701351155563 -0.6708520419410263 -0.013515531944490816 0.02438892488964754 0.07666497819218047 -0.3408411317041442 0.33797693852805993 -0.23473511095485466 -0.2727786986667895 -0.19664882883039053 -0.08853322358476264 0.5606147367566797 0.011258575065407471 -0.05813136799402862 -0.34257734852576294 -0.32209457025694155 -0.7504232630208465 0.053568160221948255 -0.34983785933027345 -0.7254945040727391 0.07489301677130097 -0.35297865496978237 ]
[ 0.08207874515066273 -0.42652796812895016 -0.11237366923423243 -0.8125483492546591 -0.07529074838493785 0.8936361464276034 -0.1300186689134464 0.04234266735897375 -0.14460192127671123 0.4897743641242683 -0.2335905760067413 -0.06379902899879937 0.5324907903442675 -0.33546681023158353 0.0923711243410869 0.6842449543110171 0.05292400152519498 -0.6774954569725158 -0.43562837989378944 -0.18750548499928546 -0.37405063893625057 -0.2783821692692716 0.22178231373782026 0.639046830485028 -0.3311338432485807 0.09847267270412832 -0.11747092263348496 0.6347580504513093 -0.15382990343240782 0.10152780299612864 -0.8662763530270862 -0.27923334924099374 0.3949939742137975 0.7202933791857156 0.30776494164021956 -0.2924573646204831 -0.088349710781856 -0.028090362256296145 0.40483185611710626 -0.5961016994023489 ]
[ 0.06596037970046927 0.2295228178915614 -0.06839549999311301 0.6804560273505817 0.5202194852242971 -0.5060282536739419 0.13068331415844642 -0.0657612578239103 -0.3391815443843841 -0.5868256721673758 -0.03921234455562692 0.09826398712922511 -0.20456525673888284 0.6451591047846155 0.1906746200311753 -0.004687651947268265 0.28155637399992994 -0.09676916977908226 0.39602961073982884 0.09848570142594626 0.033232083520219106 0.27677494230646066 -0.41999754473001444 -0.016559450799687736 0.12851815441069234 0.7434644150424063 0.008093313753441822 -0.32873748722884905 0.8111863419015448 -0.8518620592657411 0.575804326566412 -0.31307303980834783 -0.031336473419454315 -0.16564127326124736 0.8329549867164799 0.7405782437844308 1.0976118186343367 0.43978697252318305 -0.15082841148679405 0.4711539867830504 ]
[ 0.14953656597107357 -0.06803722600065955 -0.06136140934535148 -0.04688995209496076 -0.6361193470225571 0.485025829216735 -0.3573383579469206 0.2263856445878323 -0.4141487806690241 0.9825906823388095 0.292507848914886 0.6507206676101273 0.35178060661721133 -0.9759491867211544 0.4036492181956156 0.28642951148609674 0.05491766889852183 -0.8236729967464411 -0.5089222288950364 0.23210132551522214 -0.3378247840381349 -0.3576621078579918 0.12834244061303252 0.3907662925713025 0.2426444999351381 -0.07060668210617142 -0.2099245579763328 -0.12154884577212012 -0.778316849371116 0.4125265477717259 -0.3537333324532247 -0.25365113341474377 0.008574795005084353 0.3816442544129629 -0.495361695498558 -0.1532869225242127 -0.6464951743619838 -0.838332244515293 0.4640780652559478 0.1933658397736116 ]
[ 0.16308543826574204 0.14190734119022616 -0.32072964406777305 -0.029979734697523734 -0.3777271772103601 -0.055419888162540544 -0.4627556701966265 0.16742491770970547 0.04157414694692705 -0.07290960824802269 0.09215617545451366 -0.2605035247248644 -0.2213588576319065 -0.10057490003292002 0.13189177340270683 -0.021436679681734468 -0.3131456247054077 0.14285636954645523 0.11409405971330405 0.12307104569253992 0.19358616636317505 -0.08740286833817992 -0.3180850263118467 0.2670003500634267 0.06903641350775505 0.043899928095338374 -0.0868511428247849 -0.5653505466122957 -0.10988742369270978 -0.0724332327242542 -0.7514458998305459 -0.44204604961861654 -0.30023582036073815 -0.3375996724662237 -0.017847221511752623 -0.16613168943945422 -0.17297984800372412 0.062173604910009894 -0.05873584435993509 0.17807324543543085 ]
[ -0.28694155077611766 0.2159812431582368 0.2539077046635301 0.05366524761093376 -0.23365030648072108 -0.1306761640571097 0.0339376043089311 0.26585552884858815 0.1873082419302255 0.13942986420025782 0.030326907533090378 0.41949341411523555 0.11040637474888519 0.053682237523790116 -0.07925530680328909 -0.2229986487741423 -0.04214317260616917 0.4959124753940826 -0.008894754299838247 -0.33948144529717833 -0.023368146823836294 0.1250553800346236 0.2845733143138942 -0.297055888272006 0.10630724596531647 -0.23165616506607015 -0.192369561982452 -0.05568742028551262 -0.10944574176374687 0.6209994978183422 0.025151531210087556 -0.14764742187243632 -0.08721495578174152 -0.5784467585710074 -0.7380633092427988 0.05686992419293981 -0.3322078138868711 -0.5600183289441361 -0.10186151480336708 -0.4184904547924202 ]
layer 3 Activation
tanh
layer 4 Dense
40 20
[ 0.3526242684408484 0.44001823117186656 -0.5606557475886185 0.9671827027590633 -0.23970821053837477 -0.14168483743181143 0.44980555192234173 -0.5613703790278047 0.3412299578905032 0.027603959437908266 -0.01554329584200495 -0.27870887413515294 -0.14937108521785752 -0.44811494968336685 -0.07937534350623764 0.01271207338823976 0.22187117315774832 -0.40619194789370344 0.36435831617361747 -0.3346002183955152 ]
[ -0.00405997478212556 0.08474853144371658 0.08979001120860061 -0.549321423731027 0.2943045785528449 0.14164945441847268 -0.2150294287732578 0.4444508377621779 0.4073937515846721 0.13263095404612443 0.46406548346059123 -0.25576177823350155 -0.06609497640512924 -0.10841673555561444 -0.041860318020885724 -0.17945466189174747 0.16909228062208012 0.014463798513332411 -0.06420035710256108 0.20286523966792494 ]
[ -0.3303525317876355 -0.12488381181270039 0.15463223345964341 -0.1862012625681735 -0.34830888660090387 -0.06011685643179606 -0.3167481261817718 0.023237910455260816 0.1477967194273168 0.12214974046464157 0.2714505378432942 -0.2682515674934092 -0.34780037038422756 -0.20174764442716803 -0.17359341043971266 0.02549728671512287 0.007777322326895334 0.15354481039459825 -0.06305194779571573 0.09869532637699414 ]
[ 0.11523063498586124 -0.15489875380971638 0.0009601389737139449 0.040984049162327875 0.060361334231833375 0.08540212897291927 -0.21467269974777764 0.22757714767238124 -0.49268354232029543 -0.21327759874647698 0.09339081501665891 -0.31515080563266085 -0.20009340927082905 -0.24098624877696817 -0.28328399443751895 -0.198672585930686 0.31348996421004344 0.32150059455432406 -0.16285060285279243 -0.19551527326921134 ]
[ 0.21237246067017332 0.6450671506755743 -0.36123636300303713 0.056604688865506195 0.03944482025567095 0.1028853507023598 -0.28897085685060997 0.4592824822163784 -0.07356014274609193 0.20550205916617378 -0.14318254809013528 -0.10197670153834278 -0.04261096920182768 0.1729952292777886 0.27178900806496437 0.04585889945165652 -0.2426223259399018 0.07558941204791167 -0.10742925251651286 0.10186760124464787 ]
[ 0.7164008440986163 -0.4082126635815176 0.11710503540673042 -0.0725225625837149 0.0709040018827166 -0.3352724394058706 0.4416385533429002 0.28296616750591536 -0.3616259805601809 -0.2086097691489014 -0.2963662851665936 0.6777281159839441 0.45246094631681155 0.5970037300748283 0.19620024363286132 0.8995241874732263 -0.08089369394489042 -0.5944551497870445 -0.3263600449321026 -0.0005302981590599137 ]
[ 0.036981397948065965 -0.12370307900410324 -0.15444924520395828 0.2620260351603716 -0.03985592559750296 0.15465312591007366 -0.14120930362809525 -0.05982953499746995 0.13064434703641212 -0.1739435123550889 0.20150215498586496 -0.17588169330836748 -0.12504149772391138 -0.27395968566083095 -0.07719189303745132 -0.26648325003805745 -0.19122273002269516 0.04533875491246735 -0.04931477484106455 0.030999908519055253 ]
[ -0.5553618377338085 -0.39240516052718233 0.19238925995257047 0.01041272393743381 0.16675264223692282 -0.04054495811450203 0.031674931759406645 -0.047486936745397175 0.11370117221242586 0.2216620177021332 0.011943537967901017 0.13010165625866063 -0.06341020484579378 -0.10073931134366602 -0.0024811726361684597 -0.07619276413304327 -0.364141085119188 -0.1882738030963257 0.05509662904633869 -0.03672422948962153 ]
[ -0.37385823518820066 -0.07146474468319489 0.03338723769502649 0.04682342642390758 -0.823676667369534 -0.0011520423363367749 -0.004734118721827833 0.413058284692947 0.23521629904900898 0.028586423754347477 -0.23784498022458408 -0.23871717358695527 -0.4710798765331556 -0.1726069005198612 0.13434347808797992 0.5633697647184064 -0.09382394751371596 -0.3240845618418848 0.20153680012583136 0.5488631444688911 ]
[ 0.2756146401911743 -0.4180248973642527 0.4350291738917678 -0.15889734295780333 0.32150399982716266 -0.32132881117380213 0.46311942756192687 -0.5753142206694178 -0.12972787613750766 -0.04377391247182445 0.10528024054619614 0.3778443555158109 0.4159260483631366 -0.06979751727779548 -0.24433453751367068 -0.26131814634631784 0.2261660368437614 -0.42240182741205307 0.4005695894648225 -0.586810852663554 ]
[ 0.10518479586469288 0.06397151744965673 -0.14153569801342947 -0.07447469155260523 -0.05627852196479822 0.0014574644790845035 -0.61720218455736 -0.004183413967511528 -0.11769282906995814 -0.13874315160019454 -0.09932251419455813 0.1943458056203558 0.032687140475514485 -0.053937403883773785 0.11553038703418844 -0.06913861307534384 0.21703061777314386 -0.02429706617402555 -0.008150961662354465 0.11578852807819486 ]
[ -0.6594055140607736 -0.8506393850098388 0.22254359498862125 -0.8078576716485165 0.21448013899637727 0.25983151573252705 -0.17419158467032292 0.11905567731161575 0.038073012063958286 0.7806847050573833 -0.06704862923105863 0.16421309860682984 -0.11170672519102202 0.3734701442136998 -0.05061215149902305 -0.37249212911836593 -0.21784198083437245 0.10186304722525014 -0.47612475744607313 -0.11565530437067507 ]
[ 0.6014854764744196 -0.4033796823928009 0.257200878160013 0.06566228087935419 0.562286709665597 -0.3846946339806902 0.04908474099681466 -0.6240968697982823 -0.19120010889912 -0.4939731394741814 -0.23957191129476457 0.06003102143184521 0.5556893633875262 -0.14586538140431304 0.012799748526985072 -0.2963290604615217 0.24032249746313017 -0.6678398742867135 0.23963723494528993 -0.3914486321496911 ]
[ -0.33056890086606533 0.6448430888192911 -0.5699205751025694 0.34500890194720524 -0.16430422878884038 -0.4056323172647834 -0.013569860146329021 0.37461242189780214 -0.03526358152493788 0.007596705862037187 -0.47152747792288385 -0.7018196610784314 -0.23602128838851033 0.2876247869461629 0.6968207429539278 0.42895880138160875 0.0060833389122442435 -0.12097104783536826 -0.48691874301369925 0.7243849953722965 ]
[ -0.3839949645465473 0.255695933264136 -0.15508722906740274 -0.0015244059926402642 -0.0907600721762565 -0.2788877074891111 -0.18250371967970666 -0.3508440754579355 0.09860063092955346 -0.21853458737711973 0.2893227799283956 -0.25365882573900395 -0.15011587199494494 -0.4369570717117493 -0.46707166635028524 0.009734703800097605 -0.029524239252048997 -0.5111671500518574 0.2899386164642471 -0.044710796345229196 ]
[ 0.3421378404799722 -0.001574260753097489 0.14523023611011696 0.0443562427583064 0.36611615723548513 0.19675280603203735 0.3321058149923833 -0.2657505276745961 -0.3838710995994654 -0.20868369111041732 -0.7430733340383603 0.018926108210189658 0.3229738083769825 0.512312053943599 -0.009171077543739704 0.6105225681065362 0.36644445015631727 -0.18821095644811195 -0.1303101268222455 -0.400923371723824 ]
[ -0.07846248000454424 -0.11041131507345135 -0.16291979325032274 -0.25322560402856703 -0.13787414406606024 0.0065804860923103295 -0.12602898859540093 -0.030390745922326195 -0.06930509778258954 -0.21617250259062906 -0.145848743021007 -0.13361604115217549 0.017979918237567984 0.11070704281536278 -0.09648553317911913 0.03332623976076674 0.18215238762132452 -0.04549502886117412 -0.07228701208724213 0.05467894246829132 ]
[ -0.941573505934043 -0.34741422638683694 0.3604615330811288 -0.23007762678586494 -0.3014701060518814 -0.4664579859084994 -0.4569668860277518 -0.24128103836138323 0.5538806645731449 0.47692107762238933 0.4865423340040386 0.08043516825756203 -0.3591420652540614 -0.27124152607957397 0.42962070998741814 -0.1707241129903665 -0.30462485502988995 -0.5213763164216361 0.30865860177412247 0.47048834381326227 ]
[ -0.6128796651833918 0.30802973683535817 0.028061784613937057 0.5829467406471354 -0.6393613662303491 0.6689645927891775 -0.21595126232230746 0.26039031813920105 0.2446463446015313 0.6303270819513928 0.12376167013239 -0.47825512406741727 -0.8238457560186173 -0.5352332431783333 0.12973175339019954 0.2057433132731599 -0.07601770670947353 0.6370228386473559 -0.3053935628103086 0.48849882281167917 ]
[ 0.5520799757530699 0.5086329517500591 -0.4347743168319579 0.5518949050677192 0.2166748612131974 0.24649935292277433 0.5941178306828535 0.22220559164730116 -0.31606856789223825 -0.316160637463051 -0.19201282779730544 0.16583640767573612 0.32208156071365973 0.42217594356969645 -0.3786968465059181 -0.22162496054935682 0.6803225422458746 0.04080969531442824 -0.03151192453141945 -0.11056126412911498 ]
[ 0.07842148078498948 0.08643137766816564 0.1862420062088612 0.135299689938624 0.22688376162695237 0.3248152957192756 0.27595860406559297 0.05902769350125297 0.03946513644717589 0.2942075727319462 0.16927139883591777 -0.3442889041224387 -0.1822890676921983 -0.41176647214980444 -0.026180466170034996 -0.4394398140887668 -0.22803597499717743 0.19762959302998928 0.23679812309722237 -0.03440531997107939 ]
[ -0.45886312612487423 0.5249204850266128 0.21092566720187456 0.07841751338107494 -0.5904415401011217 0.1688256072582279 -0.009730579114562179 0.1129933246510077 0.44026704942848555 0.5369985105422942 0.5519238619138339 -0.18656911928248981 -0.16894558498788861 -0.2405815183829752 -0.32860177406312086 -0.23580745685543172 -0.12357833425777971 0.05573766579808381 -0.06792346893257398 0.3767389963822917 ]
[ -0.32132386553691555 0.004371287624413809 0.6371056716184774 -0.7559904540285511 -0.36794941245857765 -0.01662520650122159 -0.3638722337537935 0.14952856525885233 -0.23653351875252612 0.09145902036011352 -0.11103027585258812 0.07834873450923321 0.19878098354923707 0.4163785933486943 0.2644274218489897 0.640970205525522 -0.6117884128614245 -0.466151846629329 0.02837603822501337 -0.0005985097543177071 ]
[ 0.1575342112182843 0.05359407004970716 -0.3919813310442396 0.7562696967624337 -0.49635154313629626 -0.37973883873432324 0.04344384997738873 -0.42695773800135595 -0.2774992228107208 -0.017107806202866376 -0.19323356332186523 -0.0001703995479900612 -0.3566145090698002 0.10089108880248181 0.2323609773766163 0.22483275474266531 0.04988263209131983 -0.6744602621908925 0.026044642127748516 -0.5363214134343482 ]
[ -0.19929759305948788 0.08034350771477997 0.41766213816825876 -0.22938573680426963 0.36198184355674684 0.29096330038565354 -0.15728758914003732 0.33583785820343603 0.8091805710076899 -0.020071991230372076 0.7007712553287878 -0.4055343774568374 -0.011296729952982584 -0.1806699470022 -0.42488026227517117 -0.05263424283941847 0.04594861883993353 0.3717538213691842 -0.24075839684608213 -0.1940796349260493 ]
[ 0.629800212637097 -0.42968286180080145 0.03297723516805158 0.04378429341659449 -0.13625165573879106 0.3479765793570898 0.49080329272657486 0.1612315332502575 -0.2330287537827115 -0.3923564342529107 -0.09114059771413942 -0.34809938829231346 -0.1298977039014841 -0.17845518211880704 -0.09084272814314169 -0.4554920160454102 0.5470622768260609 0.6166255843838222 -0.2923515183230596 -0.23551686223190227 ]
[ 0.7672741720477465 -0.08339707929332976 -0.24525867850924493 0.3225671727872925 0.015294603617539735 0.3467041349288232 0.6034461875753431 0.2135840340582309 -0.17732839993731714 -0.3146508471205586 0.06849418502681634 -0.10902633447885735 0.16598012899531545 0.28545822489621636 -0.43447016564529106 -0.2917629015238693 0.7044362670286088 0.2644984267466216 -0.10737600164397118 -0.4956288882554113 ]
[ -0.36355664097335166 -0.10652746043330479 -0.25575317095360744 0.1176429447062856 -0.11768146923138134 -0.17777179610228258 -0.02685904932640309 -0.11619385852138907 -0.3939619849397887 0.2824959928755075 -0.645214698333907 -0.02628235505160102 0.019350346217521578 0.2049604557362362 0.13353542014463932 0.26212135305690903 -0.21876989120617976 -0.21733040354858213 -0.030953427274384042 -0.14838438165220616 ]
[ 0.4941100021138079 -0.4051488373334884 0.17169869843564067 0.16114501692637623 -1.0566735954824635 0.6315869475503432 0.17359393830408298 0.7428280627633889 0.32623512134410426 -0.19924090789973298 0.6528281997813042 -0.14138317544404405 -0.3297140343377703 0.06126190898743434 0.294944882594814 -0.3420843092286466 0.2660814247779363 0.6049566148096119 -0.6171084632004479 1.0406612183431359 ]
[ -0.28185339520522623 -0.568419093439727 1.4163487777145625 -1.2812952570373777 0.2687352262086848 -0.17701340222224546 -0.1374077058183045 0.2647236219810705 -0.20643730591904647 0.6422323785406595 0.41660255724670087 0.6253598285135861 0.09223413538161447 -0.09407029981265963 0.022529715640236224 -0.12943312988136105 -0.49660267561471766 0.3072874606269787 0.12433453551836295 -0.4988125520520112 ]
[ -0.15202307046300054 0.27461773124116773 -0.1379621394478601 -0.21222786482452646 0.17898486389969467 0.0166788185357398 -0.4720040325720071 0.03450573836396327 -0.1833787963193908 -0.007281425375292511 -0.15845575733306538 -0.014054234744462185 -0.15234232993277966 -0.3288346576983376 -0.2863835027966717 -0.2858849812323899 0.40905756022046685 0.26343743634197786 0.06684219299191625 0.3866437159272862 ]
[ 0.6159921243972668 0.08151170633016992 -0.18620758056326192 -0.17844031335476057 -0.0757144787723956 0.06451754260197608 -0.07415842562631819 0.021754828977916488 -0.011573111988296633 -0.04596344846100692 -0.25301277939965705 -0.02173222933399761 -0.049772035022486505 0.04882808708609318 0.06010347358850587 0.04210048869999026 0.11912713052074587 -0.11911843220839137 -0.1897275360234093 -0.028387874873734065 ]
[ 0.32447487492047783 0.026388594306000837 -0.07824517806514829 -0.26231919320347097 0.5758046274823408 -0.04857418642995642 0.19621260464828172 0.361000542427869 -0.3092296750768975 -0.33272467709859704 0.11130839950821651 -0.2214722160053823 0.28750540364096655 0.35403967479682025 0.13046904585301208 -0.267781198077194 0.1371089396069011 0.3055980947614357 -0.39661187617614013 0.18245061997453263 ]
[ 0.6514482671668612 0.3619036464477407 -0.5039551683267621 0.14289497112611405 0.41685005565558303 0.13031569430544215 0.5742269252864943 0.06622679160799538 -0.11663945415241811 -0.2806117970592988 -0.06832784372555055 0.06917805669922439 0.21222049104708313 0.07189723856647968 -0.2643858503707642 -0.08694165788346067 0.6853791752868221 -0.04591637436383263 -0.1239610133986106 -0.00557894812553818 ]
[ 0.32867976265291104 0.8613661169124698 -0.7170354125468792 1.003390586543078 -0.14396552599562565 0.05791331839276428 0.38632055185899117 -0.06417434221329081 -0.008523263093903763 -0.0229597717326091 -0.4512001060674462 -0.18675793078577632 -0.5577075169094678 -0.08656955345951249 -0.22801818910987012 -0.14121785795556516 0.49767599751114144 -0.49769354829811857 -0.11135225306967503 0.469101585146269 ]
[ 0.35193994648387483 -0.3923094138397082 0.11446073020696115 -0.23528858999309693 -0.23015747899816852 0.09658370478203852 0.1233189069441222 0.12374988165951875 0.10217831390296411 -0.0430165865504057 0.0800991146529272 -0.09556073918058232 -0.8600163521077924 -0.6130311292093679 0.006093775803978484 -0.4930870516836383 0.35185774459938307 0.437685596429127 -0.2127105891066345 0.15923241081079897 ]
[ -0.354837502068595 0.7376410136432516 -1.3774303207691998 0.9238053897766322 0.13028304907715982 0.4065376556119407 0.7073938026015132 0.13239913934618638 -0.09073615522088582 -0.17835101821987362 -0.550989641839957 -0.6148429751480724 -0.474847881669693 -0.25333314434466736 0.2507944426561051 0.10454533877841751 0.009038273274874236 -0.3527157671299285 0.07975869442077513 0.684082469272439 ]
[ 0.05717627181788126 1.0822740570951455 -1.0279432337225884 0.6829761676338969 -0.17364025013897455 0.33157446552852904 0.4938861017627875 0.13512836312949478 -0.0075100032478323635 -0.07316645148857782 -0.5195538000881575 -0.25428217519854096 -0.1963840657760634 -0.42438491442151377 -0.11821278022187709 0.39407007915963954 0.3945333977374176 0.1353095984237552 -0.24438300719825976 0.2948074697208863 ]
[ -0.3597902400594381 0.018767140026862156 -0.2421956697185938 0.5864505446686737 -0.36673958516801675 -0.4209769731196755 0.404052860492141 -0.4999784971653018 0.3328780625353392 0.23779389068289086 -0.33541780365304846 -0.19080103037744237 0.13853787206830237 -0.2970867384078773 0.12398403584545076 -0.05700740740737919 0.06325519983901058 -0.4054445465227773 0.18912711902734142 -0.5771583594264915 ]
[ 0.4271287078316276 -0.3134172008112588 0.1666604043596752 0.11759128046354556 -0.2519082282821598 0.014778745528648506 0.4178137614367303 0.4378215796436732 -0.3170683968751272 -0.6474592434023418 0.05941520058656533 -0.38795759848224837 0.2409306383386458 0.1357212930985363 -0.020375632452031778 -0.29788576905363157 0.6941701560061514 0.46102625306651546 -0.5098815806943588 0.14609402488577547 ]
[ -0.5539803450657415 -0.3748042582898095 0.22997140450534953 -0.44335383058897115 -0.23664375535482124 -0.20347479466168583 -0.5092165878378729 -0.07281851703313624 0.20083452747068847 0.23765776657246715 0.0687769197135481 -0.12964849847263327 -0.17261756825785876 -0.1699104971317932 0.20295097729141168 0.17997598308469948 -0.44439904250768125 -0.22766880974151005 0.22741396165134567 0.23622088195097737 ]
layer 5 Activation
tanh
layer 6 Dense
20 1
[ -0.6868208620496993 ]
[ 1.1500397412783712 ]
[ -0.6428700892976726 ]
[ 0.7371700336200195 ]
[ -0.7869962304449163 ]
[ -0.8072153000015421 ]
[ 0.4781365555992991 ]
[ -0.5388432495008849 ]
[ 0.8845770503409321 ]
[ 0.8978905846485757 ]
[ -0.6508750057866861 ]
[ -0.4467230937785661 ]
[ -0.49429760120881283 ]
[ -0.9608368481114443 ]
[ 0.42040965961367704 ]
[ 0.7884647141985089 ]
[ -0.4348898248217468 ]
[ -0.5402765850439164 ]
[ 0.7173333883809342 ]
[ 0.48816126782394187 ]
[ 0.5538253937439022 ]
