layers 7
layer 0 Dense
20 20
[ 0.2090022232990226 -0.3067084752869366 -0.21656916149178643 -0.11016230581774993 0.5046429447846454 0.0536761052579337 0.26587973251383307 -0.1660200876917762 -0.016089583561186636 -0.03990605598480289 0.021756089786873052 0.050456964388875314 0.49788674480347755 0.02740296843262165 0.5170997232645984 -0.3498994815718235 0.0991174609684584 -0.08093459883694147 0.04299909432429234 0.15951696090230497 ]
[ 0.33948317114738036 -0.29887004284630564 0.0939279787561169 0.37130532432143104 0.24885663515994752 0.22092251814981007 -0.1211696718141815 0.20156065195115241 0.05989325656802734 0.34772923139299433 0.2097059714487226 -0.12303084284119475 -0.11518814020605013 -0.12752419335001172 0.04175650776922722 -0.2277558224024824 0.37780645158475185 -0.23473895280902868 -0.19932085989661733 0.3329458401829448 ]
[ -0.37734923730802544 0.1575214263460071 -0.07167165502268738 0.2157977524754811 -0.15170952956356998 0.00859145549575657 -0.19377411524512336 0.2784169897023058 -0.10626261971921319 -0.05394156947571178 0.2717424223878236 0.3366142881073945 -0.16055661070737226 -0.21817501444337153 0.38284507386386957 -0.31483316235014597 -0.14859462556811073 0.01887594527138131 -0.35792446847217335 -0.2080138173330897 ]
[ 0.42019607115040714 0.29179512153768616 -0.25934604668461847 -0.13745214576901818 0.5568322879140655 0.8493488053755299 0.40269962627673017 -0.3548740746977211 -0.6506036493957609 -0.1519741117400166 -0.490530896613248 -0.09397539780983 0.2225106165186102 -0.25372904109820127 0.738691902783586 -0.389788690878371 0.015471853474916784 0.41957922895155664 -0.3966334553001993 0.33560183274127803 ]
[ -0.02693720069334928 0.05843164292556782 -0.13005579263168834 -0.5356007323025855 0.1572204606863367 -0.052952038345993706 0.4250202516664095 0.7196624457577151 -0.281326110438388 -0.7570308017948609 -0.04650694644072299 0.0008042973559139584 -0.3607531480855758 0.14679066645277697 0.18773134504629344 -0.20926125462600256 -0.1876131657561939 -0.6460540943691121 -0.3612669894245114 -0.21013605612992559 ]
[ 0.1897887362120455 -0.29485272103150534 -0.25304597078589885 0.35775448077865446 -0.17926689537318868 -0.34995139227827476 0.1604299972643533 0.20825706641239045 -0.09150464057098393 -0.16743702982580497 -0.3581153453383262 -0.24975173178714632 -0.06419570230306089 0.32666419242963746 0.13411617963527253 0.09316045797318348 0.09436412074077492 -0.012413545995060341 -0.07315395772663932 0.34929208890970587 ]
[ -0.28981330520689175 -0.03688397541786473 0.10697057488528736 0.3282554254276273 0.18921740898544953 -0.02565511131280793 0.03679512368349114 0.29662437751205994 0.21779332243540162 -0.2560131560129542 -0.1612241610412052 0.044420186799913775 0.06410725032572 0.08867098784044682 -0.3108055277056193 0.11861676772308788 -0.25288979800858047 0.3365192671056797 0.008290174753624617 -0.00960464977264684 ]
[ 0.13354021489530957 0.610161366232418 0.9734048509112287 0.6030376710917515 -0.5901993047505834 -1.0611644049263618 -0.022968966454582313 -0.5902036311793574 0.2356196702185937 -0.733123633105077 1.3909926140147875 -0.7887360937497142 0.080528190427842 0.29898856811112373 -1.0487354512200198 0.8543329450304693 0.27603012951112404 0.40055718727159584 1.118366436299419 -0.33659190791048177 ]
[ 0.5381558680067009 -0.15326735081740067 0.06485797013871597 0.4583122441196196 0.8147183339478431 -0.35543736413102966 0.4187203649014547 -0.3228750651859507 -0.44018702606130194 -0.5601617258467942 -0.25411612021566204 -0.6701203360269119 0.19764136417563655 0.847843525948117 -0.4675781698857641 0.1078310285124997 -0.4222519325799789 0.07045723415084293 -0.428379395263443 0.35387910764138486 ]
[ 0.7099680964684453 -0.22308084602280448 0.209956675955607 0.06437382691847716 -0.480542369491772 -0.09769031379909482 -0.784223080152252 0.23738925693627477 0.10153715850954681 -0.5342091945074634 0.37189402137241084 0.6864271623566426 -0.3974264533590237 -0.042633850592233014 0.013098047631612209 0.8459602286644461 1.5924225234207523 0.445265358072028 0.5629307629813096 0.5454616396800495 ]
[ 0.9258658377493707 -1.0524362432233139 0.4490609430736661 -0.460616674492341 -0.41074547033801273 -0.011010855390869396 0.46370528240221465 0.543256364592353 1.4602594488539729 -0.3314136188109201 -0.29856830342555213 -0.059381995598238986 0.5954560892222938 0.08247896896062056 0.025924130370358053 -0.46760251064872244 0.12183993932202922 0.04221199294163637 -0.032433986859906325 -0.20194145807659336 ]
[ -0.6035549560123228 -1.8903400015881455 -0.21010027299522685 0.9676666793828226 2.058781857216723 1.6187465370152494 -1.8270548324960223 1.4652460772064444 -0.47500715754121026 -0.26613504750553474 -0.13088970550561288 0.47847429850667633 -1.0758284771970579 0.5178654399991082 0.6782051018662596 -0.8485068646335867 -0.5555219745277795 2.1306940330074933 -1.2506951304656129 -0.5069489556723549 ]
[ -0.4225858200074096 -0.7760715547569296 -0.41147597436450817 0.1534235480282721 0.7108563219012404 -0.4201450382411922 0.1157765589881864 -0.282692939758072 -1.5359878080383083 -0.9762442659017085 -0.9539940738503184 -0.5591548710043848 -0.02884864576861351 0.3277808090312871 -0.7441569479764197 0.10470753118211154 -0.725976640383116 0.1606494577058334 0.5391262605028349 0.4218996116572731 ]
[ 0.8020312986689951 -0.7022390954862945 0.028897161939441467 0.7927652183922224 0.5666686769395344 0.28843426370723196 -0.3694183223461342 0.09870540796764962 0.6301072770649047 -0.4177256920716586 -0.3292346538238787 -0.4744214331579338 -0.5831822508132946 1.6692184069382616 0.041167416571869044 -0.07735161314092237 -0.029481630435464267 0.26970057902193106 -0.768736294934242 0.6120629046065709 ]
[ -0.01654897833886144 0.1656725688838595 -0.5317599780471141 0.5393123853179915 0.17503322522952988 0.36378628837979193 0.8428887397437969 0.3370202221352357 -0.2644980811028718 -0.7188395881681501 -0.8038284810245416 0.2182518284759914 0.08144248936119443 -0.12227532946356237 0.07442279790218527 -0.3468638983637613 0.4597361364889928 -1.5823654181304123 -0.05977080473670177 -0.2133447531986694 ]
[ -0.8211002453964716 -0.3063389333366817 -0.9235596871818825 0.036603134668826996 1.35588549604702 0.3487723227504977 -1.442027421148281 0.6322409198376734 -2.856146736602042 -0.39977624841143117 -0.8231473768719657 0.4229958244218252 -1.5302514392054096 -1.188676202694879 -0.43595442706264603 -0.11060679460695297 -0.6941217321888714 1.3463447656504999 0.35678834382126673 0.07386881766137111 ]
[ -0.5134639219243661 0.37155708765103246 0.281923894324652 -0.044775949113863206 -0.1061377235792968 -0.2837384580370709 0.383296015495047 0.2667623128179983 0.3665673604586474 -0.4048840797886372 1.134059367494431 -0.2262822594264637 -0.2900090459801132 -0.2377435417057871 -0.6836377673555663 0.19637583376708104 0.24584273002013574 -0.3361801868128175 0.10112428379472377 0.10675524851880328 ]
[ -2.766455345193114 2.2391783853955753 -0.3300463424486323 -2.135647995277555 0.025167957577671835 0.11158952809154378 2.131115111926291 0.21535088440690128 -1.853590130688006 0.8734202430726175 1.0106587949469554 -1.1166085117533495 1.7389442230766765 -2.0215251528500864 0.13524611868248895 -0.7700136071779935 -1.8655882232426086 0.14673863641544532 -0.5621177549959496 -2.900573262404849 ]
[ -0.5226528942143361 1.6956513289860748 -0.13535752530846384 0.3792307733155258 2.0589394100012135 0.4586839946818617 -1.586225056333167 -2.124250481232446 -1.8195235071250284 1.582573696482642 1.632785579133017 -0.33929954975131504 -1.378506531347627 -0.015476903035901515 0.21770907036441695 1.460591985055422 -0.4110545773215063 1.493995388166878 0.12169673993921616 0.4778050638487685 ]
[ 0.44702005865007916 0.6353506893658819 0.6449690542069758 0.2671656361000302 -0.8276537321979685 -0.5526592452716839 0.6073126670750276 -1.3238223183204778 0.5465533624568066 0.1381785326028041 0.7707179275594479 -0.49761798739974733 0.875807502877262 0.40236541102405465 -0.26618303569105184 0.780856298859152 -0.15064295815721981 -0.5320938324992724 0.4851094715619564 0.5638632565593503 ]
[ 0.21513444913009175 -0.14598612729104832 -0.3856674405006163 -0.16609159266580184 0.14195323462834902 0.6547561637778734 0.06265577839421273 -0.09891560698133475 -0.16635713582420694 0.43280257487405904 -0.45017616231993285 0.4513459154947224 0.12388256724772673 -0.3244815575322893 0.6254669169048891 -0.5239728125935977 0.09595586161769123 0.16912371732130385 -0.3828025524301006 0.026705003566919485 ]
layer 1 Activation
tanh
layer 2 Dense
20 40
[ 0.17155201531932993 0.0984863805834632 -0.5117046718236545 -0.523020618683223 0.07288347346096473 0.3489320261606004 0.06723113481103253 -1.1612602523065005 -0.12829040139114525 0.2532290243156402 -0.2577256961539656 0.05088718135827253 0.09492899059568485 0.25176385256087674 0.8606832726203884 1.2374589815140262 -0.29774716612871827 1.1554196180011953 0.46725541779542046 -0.11265285090606515 -0.156606758011223 0.014380795065017122 0.9158939489493501 0.7909894884803437 -0.3082881915059799 0.06098915920045625 0.015523455915002093 0.559470073273115 -0.35639896647765357 0.3120407599550201 0.4132114745711178 0.023513805035533533 -0.7443707037907824 -1.0286888185117002 -0.07797911168443858 -0.24831043567767716 -0.2884444409673434 0.14923174140495912 0.44432934309079347 -0.17998199315729024 ]
[ -0.03385123483632395 0.06422815970838013 -0.43214751890897674 0.2117175890595099 0.13614904134058894 0.13679408998514755 1.5148067206669125 0.404722012264206 -0.02037565748541548 0.4447864202431985 -0.4133357600248154 0.766346581931007 -0.6669058800672361 0.3974872598398805 0.5359238927425611 0.37091134045812 0.4183924721368973 1.1878407704716543 -1.6502876639711876 -0.060038064069406524 -0.3481829359858137 0.07846518414457003 0.2182759947254243 -0.9730780214716772 1.440984037151058 0.2822169201652599 -0.5862727471886177 0.06866837324589681 0.028896726594629617 0.5177213757582868 -0.07889061546948785 0.6922923460949163 -0.6811459645393249 0.3418598519789962 -0.1595043167845364 0.1875578909761851 -0.4383822538186761 0.6366354634123293 0.7461613393634983 0.23718999729545553 ]
[ -0.13707090087440513 -0.045360129743374014 -0.0578519644583015 0.2490196637211636 0.009863136756143835 -0.02982843380485357 0.4332146795162866 -0.5354429396035708 0.24207349794037822 -0.041544363179463965 0.14967905092878028 -0.3227930103687459 0.1691266251681012 -0.03308284899345568 0.6932212107338719 0.6487363999871568 0.37473108703153285 0.7215389326298071 0.10771190336673861 -0.04335309425996787 -0.15372589846781015 -0.0162279690378709 -0.10621575080792216 -0.44859604074393983 0.05130763516306178 0.1723880909124946 0.25003408554264805 -0.14022034612653145 0.4713559077969419 -0.06055680308382095 -0.05311177923220299 0.06037325155452729 -0.10151225896765782 0.4704969053286209 -0.20397725046218557 0.1444135247753724 -0.20911653698007132 0.21624096959037226 -0.08966991193348965 -0.10829216005603676 ]
[ -0.25946052701479183 0.7889343562141341 0.038803133634609 0.012426911216188104 -0.10260105273114127 -0.30696438951774613 -0.22483308810949135 -0.417988538621491 0.025915634223990503 0.23998342677819445 0.15740818964626102 0.08401958008418624 -0.004453209412522696 0.7276347691775594 -0.4367500945798142 0.0004208086357354603 -0.32634761291437087 0.18718753325413282 0.19369350065018237 0.115253857908399 -0.39252918837891937 0.35028031689467914 0.022243070005645665 0.4987194527735027 -0.33869290553446824 0.6318819392364552 0.6532590478788971 0.095655219265845 0.4616021658965937 0.061872346303670916 0.6010183839887718 0.21472612561567847 0.4153596299961398 0.06401858565231612 -0.0677764052790224 -1.1008301499783564 -0.3218644303795058 0.6057856951684285 0.0395837270039108 0.20302244472297593 ]
[ 0.18141277588550517 -0.6625470046011445 0.25993150438736695 0.27400265015849945 0.18599020980153627 0.5977007900269574 0.286649855837018 0.6172428428042652 -0.5461121903746673 -0.37725553477594775 -0.27052191674070636 -0.6987385756961632 1.080259084721027 0.09908123607299513 -0.286718494386897 0.1535462615846837 -0.029785735663556277 0.2619095199752712 0.161248735519448 0.2505480410278761 -0.4620041155020829 -0.5690722839512513 -0.4094885472246982 -0.4682478820828118 -0.16626773308865217 -0.5266892669989561 -0.38777832746321833 -0.7603551788050346 -0.31482226996744267 0.2745298744583584 0.7322047820528121 -0.6942616160379185 0.958423687678109 0.17667858851900073 0.36345526632252884 0.24826087013521617 0.5782070302390435 -0.6023619527261156 -0.8520122267459358 -0.7056271704511656 ]
[ 1.0498970556226577 -0.4527299670624643 0.8042484593787531 0.214496041952881 0.048838961429717886 1.0859511710694172 -0.47347447287483657 0.09587983065746977 -0.8429483414080422 -0.9826342277384181 -0.904783729641213 -0.6555144482605757 0.618054048506272 -0.29863314391493495 -0.5133634853512076 -0.8578302253350962 -0.5309620389690027 -0.003494612033833446 0.40311585379104165 0.9540850154976362 -0.4285491462149748 -0.6550113993138214 -0.5498175504270697 0.07248344539584138 -0.3686849238533476 -1.0106645523339726 -0.11573093718868196 -1.0361487130889977 -0.9460804162039033 0.23201309853503324 -0.2693594207354517 -0.9055133435754459 0.6233128583357267 0.16066710113659743 0.8272163632317022 0.1987256502444396 0.5189891794419415 -0.7276719154814957 -0.36346017358486216 -0.6582796170246282 ]
[ 0.08612597111923798 -0.4423092637904847 -0.6596942902865379 -0.8519338157413286 0.28202058145282455 -0.19404012109496296 0.20738380717616492 -0.3380167231198272 -0.2717309675651546 0.3883850075834071 0.22686478549753322 0.27022346826763644 -0.039937058382445496 0.6226625091338918 0.2697098436037247 1.4541462923891904 -0.30572425199948045 -0.11689239618309069 -1.487599964144292 -0.17073239991339165 0.26315054856403675 0.39530502969537434 0.9802422543364151 1.2181246400248442 1.055852432599726 0.4241229067482473 -0.5278031587876854 0.4529364920205195 -0.07474002691032872 -0.22660179283134793 -0.8006728275608826 0.7815191641903506 -1.2151957314220418 -0.9637557660180001 -0.6250060463911596 -0.11945453897399422 -0.4162409265136745 -0.0900931149251133 0.05072964174412839 0.02168328741577858 ]
[ 0.094164162244442 0.058259593620157035 0.5796150146417123 0.8024311949259698 0.16001628287408082 -0.3389316576416423 -0.6661963989620504 -0.2735447986446016 -0.14846304451989956 -0.1932451302554013 -0.18144065052711186 -0.21098909755333772 0.3919561035526884 -0.5159046638213443 -0.6197034625450053 -1.499518729573836 0.2029126608317818 -0.9254443510195121 0.8081885441618873 0.7444812344026125 1.088322039935278 0.6934090114851569 0.3735980486455011 -0.4498935241593556 -0.674789562122684 0.1795630724190704 0.4386206616851056 -0.4476735684690277 0.038217321098065866 -0.21033089713779296 -0.009691654762980163 -0.05928035751017544 -0.12803176469699015 -0.20983078242214165 0.3441069520295885 -0.018422071007307975 -0.13552459653712645 0.11847902190223615 0.10883836677374248 -0.33863641854113424 ]
[ 0.06303224182402375 0.1172528572854755 -1.3194590071273724 -0.5332916800002139 0.3694658440915567 0.09177993344293398 -0.6279292978506854 -1.997850505111564 0.20477780530987244 0.993185076227341 0.18611482333767437 0.6296485966850313 -0.8131380911961744 0.06072720925367854 0.7824243770391031 -0.11523152702204696 -0.5344624849061503 0.07940534205817648 0.017232853952917532 -0.24409885317130653 0.20451679094992417 0.9901131614733527 1.3991192650414859 0.8166852196926802 -0.5078171479716805 0.5694003105428241 0.49638246440202405 0.8315410873113281 -0.23247841541233027 0.12164990214883177 -1.276043218313322 1.2210954524298374 -1.9024761171088402 -0.6863232308048185 -0.36110824988109563 -0.8403746337816639 -0.7812581172154374 0.8479738586691288 1.1636343158962281 0.40609467322263837 ]
[ 0.07221865867408687 -0.2297730379118457 -0.5850832658676951 0.7990689271002438 0.2683135585429947 0.003758638280189797 0.18581539734113695 0.2581729813631888 -0.07874818369101387 0.16302422753572368 0.05245460330135009 0.3411941281333792 0.14369776804150697 0.14399584528473733 0.38920988281218843 0.41907968768181514 -0.1598573753921229 -0.061561373238480405 0.027912632460238736 0.06342138764544125 -1.0183949068099452 -0.3405829878693496 -0.5291353585765805 -0.8449273484347796 0.4223019836038774 0.34167401692857363 -0.5931016390352765 0.389417361117287 -0.18410498714548718 0.4964243127594773 -0.7174867855296084 0.18150683000709578 0.00451139031027995 0.13156255609561016 -0.2906934382526066 0.07283750312436389 0.048556519940732 0.14563453984891594 0.4779977334712643 0.20438750918091783 ]
[ -0.08732991284828993 0.6418783111505567 -0.5387429649662602 0.33299540427800517 -0.058007222696326285 -0.2904842805347048 1.3132973037870108 -0.5479291583150576 0.6886559825074716 0.6639601027180357 0.17328932828387034 0.7547422229273016 -0.5772006981614084 -0.10822247031854797 1.49429064912065 -0.12693656115129975 0.41991216718108476 0.5903014863465278 -0.7457466811357093 -0.003257151192559898 0.09609565985680704 0.39230795601350504 -0.5107724395606761 -0.6085574442852972 1.5117809732908116 0.4500016024606676 -0.33532825725045057 0.3164971034455332 0.14914197192330078 -0.1331659564463968 0.34570723418276084 0.5985669256065601 0.15904849605249274 0.825598571976401 -0.5359717587605326 -0.040087967412563506 -0.6132785800068559 1.1879624989792492 0.6010759469406172 0.4585110583833189 ]
[ 0.4064838709456049 0.09135267818083229 0.4830028766764736 -0.06641877162590654 -0.43661097909484636 0.006589089012207119 -0.3845942691751901 -0.44444299628411643 -0.3518065058524714 0.05106398816687738 -0.11325606701443938 -0.13762624847642504 -0.13772030566224136 -0.3916020967258768 0.011687862994008305 -0.18748726292003015 -0.9052807386625739 0.23223998161566967 0.3920563987491959 0.18736811848398924 -0.2218808356118573 -0.1956161172033495 -0.3379288899635434 0.4437475721427262 -0.05168672321329484 -0.01282163354728534 -0.06761938896830585 0.48267878207882065 -0.13891589545110852 -0.23479982234974836 0.26117316274892194 0.2915943050200241 0.34856171218121323 -0.1576274986125469 -0.04210972748581685 -1.2052675237202544 0.33861126082772236 0.06593553707194344 0.39693571399328015 -0.05178093929693956 ]
[ 0.07461980126517967 -0.46619662670345313 0.010785491558521666 -0.840269283818261 0.4709562426790687 0.1788166162448603 0.5877582137726574 0.10073603821735327 0.6253827553080876 0.006768083935910995 0.08810722540361203 -0.46159262137031487 0.11362717566395444 -0.19926158646107603 -0.07789722097311934 1.1009882580937453 -0.16523477601545772 -0.11386119335565864 -0.23389771545251178 0.03744460269471132 0.020945059533691156 0.10692705278411505 0.4027813597600377 0.301621420430644 0.7773914193538664 0.04419632061532027 -0.16296553402202824 -0.004779493323959421 -0.16528735212748882 -0.12657262071551498 -0.38444659927000857 -0.2425987123766783 -0.16699249537003602 -0.7638658612717125 0.20475386882569063 0.6847900921679286 0.20311253258780182 0.0577658434133068 -0.22645581060153375 -0.0629309533527945 ]
[ -0.5086763941794148 1.2152795618998626 -0.3688711955211553 -0.6581572920210125 -1.4449336855031285 -0.2888712198092255 -0.8073800278501272 -0.6770970613221994 0.5664266404952172 0.02482706225974239 0.4493634139333556 0.6038097926255696 -0.25114440783527614 0.3843482868407466 -0.29445411883938294 0.540504036949851 -0.4687184434320141 -0.2899537348095644 0.09998766417901285 -0.7103598565640347 0.24062430849896327 -0.13737133378346128 0.44548215180276535 0.3083158760333461 -1.1298316220060272 -0.001404555896005093 0.6647508945336734 -0.6994770977881071 0.1788862062627473 -0.48944028444295307 -0.054305873249927146 0.14516326033842536 -0.1026282251355965 0.5117258428943455 -0.5528828921202077 -0.530470641700712 -0.3562047072064968 0.3773049648768319 -0.04632432265223065 0.5259623458130389 ]
[ 1.2115317557927305 -0.2813464161115393 0.8254234568572122 0.4223433681871336 0.16080884578589316 1.1708232493431658 -0.09317554536863691 0.2514849081635481 -0.9547690206730317 -1.0684797089377849 -0.7422361668336008 -0.6837684001126888 0.4553811035967231 -0.45599811759403436 -0.680458541362043 -0.536123463614515 -0.4531249291615532 0.09209421474391867 0.6628236154778006 0.6268165957138816 -0.17783927088941662 -0.5007517682644388 -0.5678777997223807 0.2604315424032956 -0.4359089943133189 -1.0439361447039335 -0.8599398474504154 -0.7169801666885751 -0.9492188948688887 0.7772155391262988 0.09283348252914594 -0.6321953935270433 0.4165280865191941 -0.27765587115255386 0.7386929509383007 0.3010710260252746 0.8162050780798211 -0.8872052995163547 -0.7018859442757241 -1.1578891574612888 ]
[ 0.016890720962109272 0.23539919071872545 0.17986935005910756 -0.16143845199362064 -0.5140003453220093 -0.2408341004304819 0.8773494367906456 -0.02310042095051549 0.46703709377808367 0.19448943800815788 0.07141671147596955 -0.364790727033122 0.1467282143837957 -0.20445685784511702 0.32688886902218567 0.3555719715875168 0.19768450813016494 0.9412234132350632 -0.30557935646591067 -0.503466295969806 -0.3280737492289687 -0.07564483640069854 -0.2863352553974382 -0.11983175132306373 0.8257731349228995 0.4416697099304607 0.24137604024507273 0.33210411122644934 -0.2434775443128438 -0.2632668251447521 1.0990168711737756 0.3365357226312615 0.5103010659100412 0.9105475548940996 -0.004338329984579245 -0.8099410661127203 -0.2539691628154267 0.6247994753261894 0.14085368157921102 0.1852189047018138 ]
[ -0.12177871317969548 0.5094702794058225 0.6080474410003066 -0.5968857941168443 -0.33085336600571574 0.3099753420749228 -0.4535623183399841 -0.6852455186076837 -0.06575457072926054 0.024997485212561007 -0.3174835115592744 0.17557058425504207 -0.34268277501095085 -0.3460448040349935 0.13267845140806914 -0.03858465318914078 -0.9666072255679194 0.4998637298302485 0.10620565727655266 0.6362947308710725 -0.09226889976930341 0.5377070686294112 0.3627331171535543 0.43942232681106463 -0.02842278520944615 -0.3417452565216875 0.8710662110812499 0.19255052370942266 -0.12235973086453363 0.29866717239662843 0.1611086080906294 0.055897944612966925 0.35435511567484357 -0.5995812216579464 -0.06563434948890201 -0.9232611778211866 -0.025067486440615114 0.21596327006045218 0.48121726257284914 -0.23787523290106377 ]
[ -0.06652881083743913 -0.46532617150020256 0.2880298418093498 0.8037124446293094 -0.7490179461128438 0.06406411188485199 0.6428205576037989 0.4386071051098988 -0.44589111858845937 -0.40603073206455653 0.29772278825426846 -0.35262156720410925 -0.0883067583353432 -0.22037015809791705 0.7806218778174826 -0.3917713543377589 0.6727791745015141 0.5294797873182554 0.6417996196726172 0.32365078758241056 -0.6468887707875342 -0.362839792319892 -0.43120150952405695 -0.8693993268399122 -0.3522668706042902 -0.5096729355130712 -0.059446249668399904 -0.9422411388692834 0.1137519247433326 0.12978046371416777 1.052817165216054 -0.47207533045133254 0.3002605965496589 0.5281056751543917 0.44252811598867603 0.44024922932212435 0.34499299362304253 0.06522941599709735 -0.8389168344470064 -0.9085597800380943 ]
[ -0.15355995254522084 -0.10836900227906819 0.27028983103877025 -0.4067095004512876 -0.24971607003512367 -0.21573841944636377 0.2970706088579632 -0.08602725390466968 0.308943911816986 -0.1066859946985641 -0.03079706743964778 0.485643798432965 0.2448222869011781 -0.15177573937696853 0.6587296714362376 0.7094001471035856 -0.3936904446427687 0.3289124274765045 0.3637866665199008 -0.3476770989621162 0.11184924964031664 -0.1124667120901937 -0.2703687437902742 0.19287747502077035 0.5916859948779362 -0.20032046419111896 0.3286527276152899 0.347024316431882 0.3587800313236082 -0.10433899308784113 0.7348797966317172 -0.14589404455478686 0.3432024779117098 0.26736073305247215 -0.18419682486134464 -0.3718191554207791 0.04473418740216988 0.24777288502156983 0.10015222698021271 0.3682883066541346 ]
[ 0.16485788848832136 -0.2218729246173853 -0.010074611551213464 -0.37806336948333985 0.18263082187172103 0.03544284079792644 0.5513296459263947 -0.020527233995284905 -0.4046867343515931 -0.2402015000357723 -0.2591330434866834 -0.19197752218093347 0.3446310302317787 -0.1867584099419307 0.3213601142078677 1.1567069747998147 -0.5583701963172919 0.9175227476911135 0.20302194736857576 0.013110152318341122 -0.5754630650291097 -0.4452725747766311 0.21920627115113933 0.12052915762982792 0.3117817482477366 0.06964612876999213 0.02014782983994989 -0.05718067985219053 -0.4558155590246891 0.40254101679963383 0.4149492215131293 -0.3659425889595269 0.025759073361179954 -0.25215403544017395 -0.05652118817512773 -0.0697578480066816 0.7130784721607549 -0.08348755636347371 -0.3317426160265014 -0.6712706876294975 ]
[ 0.8672949370378188 -0.3208673398508543 0.5323890432436733 0.35696671232811855 0.22520336468219268 0.999787201832095 -0.32167416756116196 0.1151174130121997 -0.6618495915935138 -0.7680882620750614 -0.6848034177516786 -0.6919897266621181 0.46350014904818077 -0.6586253685454817 -0.550706700256767 -0.6857318816175941 -0.41089945173404097 -0.17637731724650818 0.40090350428227867 0.8383986393348066 -0.2298235640319533 -0.40240877508445017 -0.3636455604369547 -0.030673580719513722 -0.33510141299193896 -0.7840826820692147 -0.5272491476522706 -0.8025056007686189 -0.7871137178750959 0.44178719023190316 -0.06713234913435175 -0.7236095468094573 0.3877134822556358 -0.31137997955733804 0.6712015005539688 0.3140602925746299 0.734829566664441 -0.6642345006026864 -0.4169271457625648 -0.8064373657259345 ]
layer 3 Activation
tanh
layer 4 Dense
40 20
[ 0.5910144102531625 -0.22252190283067955 0.22034407465415654 0.12736663274986512 0.6321668111109241 -0.22761323651774212 0.5436968086230349 -0.3911857590199175 0.6337467097090212 0.7442707732323433 -0.45196585619336704 -0.24004978517740327 -0.6140628849703537 0.5529440308625237 -0.43526655674773157 0.6879470394064392 0.4199012950364149 -0.47150206034633574 0.07461901128510653 0.1835684255729935 ]
[ 0.4434277079321983 0.19709287015146917 -0.05120443190342964 -0.08034856864983857 -0.27030367103725467 0.47808484241667465 0.06442269250487628 0.6282171511834735 0.020631095762744057 -0.4380402534437269 0.10947635388214956 0.4352283071587664 0.10018403931336194 0.21193644132193767 0.40291202355042754 0.18708493004349866 -0.7963757746649196 -0.15774382271793147 -0.2540627379257605 0.6501083862766216 ]
[ 0.6323191633559527 -0.023167850354490253 0.365898127840333 -0.3490346827671741 -0.1345952768103114 0.27731753519441144 0.4745849922669013 -0.17024696080235696 0.03497964776606241 0.15087253721378316 -0.6583690561169273 -0.4981691710234844 -0.6934342336710827 0.41346008773635523 0.12411355236862476 0.4701072507501072 0.3731480532924535 -0.17164396739127483 -0.15101927416215918 0.174271658527877 ]
[ 0.3328681396543641 0.3549382682393762 -0.008795657876974027 -0.3747132704895836 -0.15766668589998 -0.6082351505942815 0.5836079748416371 -0.37706164246367196 -0.2606136027110131 0.08510930195605274 0.09680148161584164 -0.6389942072424415 -0.3184225474073715 0.28585475424899404 0.08901006404345786 0.3259113391735676 0.6969924250374153 -0.5290932509734734 -0.09946220289465503 -0.07773463485482245 ]
[ -0.08046286499431256 -0.09193329542258333 -0.38268125052365914 0.05691416220909169 -0.07081197942168098 0.010625151359693389 -0.5145009404312337 -0.43672372420138866 0.264684101539506 -0.08313786088292728 -0.2992223550099643 -0.14324453854596278 0.11800771077464746 0.04010315527504066 0.06518612589512882 0.12070701922855755 0.296033663120143 -0.23029500249510357 0.27523517600498093 -0.21788305978908662 ]
[ 0.538223741966862 -0.7143257477548548 0.3420807409611106 -0.06674421277273006 0.3150683162393437 -0.24835235601744388 0.3333279388927978 -0.2963607491949121 0.42414488696686603 0.9247020917264066 -0.3964251972596435 -0.5316074482638345 -0.36046469732762315 0.41726704784863794 -0.4510490352133678 0.7166934231112806 0.21461018640170307 -0.308494266410749 0.3973929746463347 -0.00877820732760006 ]
[ -0.42998785635605274 -0.01091178016887535 0.3570537831567169 0.6522560318867932 -0.02165849147324965 0.5473931621894719 -0.8192259199010887 0.14946324383605825 -0.13081059730623446 -0.38530896606187076 1.015893011703084 0.4241949518310172 -0.35126846829113983 -1.0470637432479626 0.025586596507848083 -0.2510333065455203 -0.17590598019151335 -0.27827376716417107 -0.07443216697727231 -0.35915340061963247 ]
[ -0.1696293185223704 0.39952057747672304 -0.16808526814698885 0.34151690938917073 -0.10255444490614038 0.3178070527367111 0.8994173868011762 -0.14721479479478558 -0.4736946836718759 1.076878824712916 -0.452865706170415 -0.6615862888054446 0.31012075624186375 -0.057262475378247614 0.2460530202419171 0.7763619606387033 0.24511725682807672 0.1512201561954469 -0.3302382156146538 -0.1505784241607323 ]
[ -0.1465211102556253 0.14063014045683897 0.282238975798311 -0.02435418694783788 0.16276407616099214 0.8104580540097224 -0.024176919055973026 0.2572141714680153 -0.28820952557217006 -0.09604902304406865 0.5113700793681566 0.8695761619898186 0.7419931382616862 -0.0708636013238658 0.19862872238851964 -0.0059169370425109 -1.1166065605419981 0.5346902150589864 -0.06661746112301065 -0.027688807965578086 ]
[ -0.2724056583804099 0.15508815641683013 -0.4525957656702626 -0.10433607588255697 -0.22903759560784268 0.7621196507550069 -0.28097620194325146 0.12740326439303046 -0.20998812540335202 -0.3172831208394982 0.23739357052191384 0.4956708454505732 0.748165554369161 -0.5795048557806536 0.06429034329538807 -0.01726294078555641 -0.5315017004047414 -0.0685556849296506 -0.6208421481459686 0.144300758227231 ]
[ -0.4900975511590593 0.28291162018136523 -0.5074249017435163 0.3018783084380966 -0.5355016143642889 0.48733103580425496 -0.528675561700663 0.3129073775770319 -0.2797949502193046 -0.8072860533339651 0.5068614450856109 0.3217791192684198 0.49896091359563916 -0.22154597100491727 0.2649540977396516 -0.3624777023068563 -0.3312948499837752 0.23501589240396217 -0.27817314027235923 -0.13242441793813925 ]
[ -0.03415851301082069 0.33713587264895806 0.20433053123050768 0.4518744907652824 -0.14701208010717626 0.24059320286473154 -0.21374362957512483 0.9590237145935179 0.032257884533886796 -0.5513316934365317 0.2529541126842109 0.7168774030009142 -0.034397214762775664 0.03763002616805111 0.9028765721318188 -0.4450411757424397 -0.6975877005377967 0.25988779856887245 -0.16305520284755465 -0.25226823270506993 ]
[ -0.0764120561478185 -0.2944415076547151 0.7409508841969799 0.1707631530143846 0.253655295598777 0.04178592767587722 0.23417850751361027 -0.2923924878658861 0.22545147846307179 0.5884219621327748 -0.16223939022774503 -0.07471849616401816 0.09415197310729889 0.023713216736841815 -0.014784199357004838 0.37727089241866457 0.06763999798885019 -0.054253911217897854 0.27543026738558896 0.08142766168104629 ]
[ -0.2802728923356857 0.04539964808255161 0.09110558490346206 0.21202077762631172 0.08178630107649731 -0.059549664125516 -0.02434827694969695 0.4796179908101545 0.039349498886550094 -0.14833975672117 -0.06873063737822686 0.08697461200671232 -0.10685572982877038 -0.06761063835836875 0.33258322852715727 -0.09667627394916452 -0.36263248291488076 0.3831077143575883 -0.019615717633924893 -0.5849058146522594 ]
[ -0.10426203699751804 0.1234709877311747 0.6384824426577269 0.11035330323912686 0.1004378266726407 0.4701502716121312 -1.0442700966878449 0.1983650373607827 0.16376793369257597 -0.8821153191354444 1.0856608086820667 1.3176538462905998 -0.2979050705876004 -0.2869406696256762 0.06790855790085455 -0.37684556803555597 -0.02981600344452997 0.03460880139295769 -0.01582540976839745 -0.12409426637430196 ]
[ -1.5840839077438467 0.27633629491561146 0.1322446301987845 1.3706673826299292 0.30793598489455254 0.5909195320831301 -0.1887499082263416 -0.1866542460606019 -0.5327083545326964 -0.460528523374646 0.4759343275631168 0.5316123745227019 0.2794476638442442 -1.1783259124807914 0.9228746763205984 -0.5438664072289184 -0.08960036635665182 0.35448484398154606 0.36659118907843075 -0.44868070520259706 ]
[ 0.6182974099641766 0.4230004719758301 -1.0588774136896517 -0.21871319591167956 -0.41922043428428585 -0.5243241132668919 0.09374208666561396 -0.05175706972219623 -0.7367862665804776 0.3521179808219216 0.015009559737366016 -0.09276117448956471 0.5775228628507613 0.20864553894661386 0.3260687818416005 0.221952963414085 -0.21506466254331982 0.3761839712403276 0.1253710561987178 0.12798956474873832 ]
[ -0.7389586967083378 -0.01884602722992017 0.35357617496538707 0.6847526724531875 0.4461756844137893 0.43111696229381663 -0.2805477737196617 -0.27653055999430715 0.47898232698992926 -0.18391790421965915 0.3012104402925693 0.7596911856414068 -0.05953658896063023 -1.0478976934453512 -0.04085407925402939 -0.5360691566277481 -0.07224550069725416 0.20946953574690472 0.1788385822036909 0.044288810593741325 ]
[ 0.7020692288070696 0.13539317725521036 -0.1289547452423654 -0.06814036914978971 0.1753037245287548 -0.1964063200902777 0.9180798049054433 -0.45793226690150185 0.2793879080985572 0.3495064458824682 -0.6103443241331731 -0.4898580512427345 0.6622628949033008 0.6916998942827378 0.13390509628938577 0.9154727455279713 -0.23872800929942967 0.4320596903569558 0.10137043880454531 -0.1448788466788712 ]
[ 0.37600901040547385 0.03182109699936548 -0.2719071074488328 -0.24096853305537955 -0.3956691195130811 -0.2105643900272592 0.03980546542215074 -0.6379934517215499 0.0771253824755331 0.33713542227214843 -0.11611393905126158 -0.6028756860612391 0.2203546737139857 0.21063722097987123 -0.0901049104795347 0.13904777786412362 1.053695537979138 -0.7873432010596123 -0.2424898210104198 -0.18156143530845634 ]
[ 0.5566658917192617 0.05253001726079149 -0.755387854129493 -0.6932931894561127 -0.12860941805886025 -0.2752241477791623 -0.06304458994620891 0.3782205363369697 -0.20068019848013371 -0.0145590347898274 -0.249918835672352 -0.20230982767069727 0.49248869758003666 0.42464424071303986 0.13045679295685916 0.11346275721489163 0.021990853960487406 0.13737732298518696 -0.38959958852057164 1.3092249379263021 ]
[ 0.3031386412281329 -0.26989736733180547 -0.20454640479358183 -0.24101358246462903 0.23550970487560227 0.7958184345022074 0.07015660806530213 0.06257313385738102 -0.08671673400259435 -0.4804310523861568 0.24469699359304 0.4136462548440177 0.5545750112967065 -0.33071960814618323 0.2928226936259719 0.1906847571035169 -0.35069522013120863 0.005676120638078016 0.12276600450100592 0.09211767631072984 ]
[ -0.46512096734502817 -0.49574256799366806 0.35061394592071843 0.13959778950368376 -0.06354718348143368 0.42498200273987974 -0.46910149768579923 0.13628333301107187 0.08350971048162646 -0.6936786759730058 0.5118763317828835 0.7964678414181864 0.07240386076643829 -0.24390810161545048 -0.4083467091370331 -0.3191017315579779 -0.29156973852637025 -0.05289678762166834 0.3145651995493817 0.058104744120282874 ]
[ -0.6149035605207335 -0.45838023175338466 0.3417538333860073 0.6406348597271633 0.21563431533881533 0.2063807794624876 -0.677798310195174 0.5166606085641186 0.5786285000058445 -1.025309180949478 0.5408838057999371 0.836246636204658 -0.6273460590564933 -0.9816549412148445 -0.5606022946666553 -0.32586497636942785 -0.18142576163570848 -0.1627882419908425 0.28479358116452724 -0.2172934775423646 ]
[ -0.45685928218353794 0.11886558610772108 0.539575026530529 0.4190751735001971 -0.18489849067993305 1.1047739834637862 -1.1689439753317068 0.2914759107056856 -0.11716184143489074 -0.9371402150850785 0.9412318214648457 0.8705303546011037 -0.6765830750062839 -1.0766565549954614 0.10721615447024452 -1.092512032106894 0.1658636687466455 -0.5293121641394377 -0.3321936743687403 -0.2808522280631313 ]
[ -0.25694173286767263 -0.03448419102065945 -0.42046306113192683 -0.011568720781669801 -0.3445928630114825 0.16632209052630947 -0.14434070942093205 0.40741728502344926 -0.3101884701453298 -0.632775886671496 0.22539606248050678 0.7179065693321032 0.12759394669571097 -0.30337453437091094 0.5162961037379474 -0.14824052666263848 -0.9193375012745334 0.0006608060981398836 -0.3787020325349461 -0.34464522671699 ]
[ 0.7251694945433529 0.40632459619243555 -0.08730583814708859 -0.22557648158302446 -0.11709194857593293 0.25332702255464046 0.34930514225871034 0.47627135389651226 -0.41461638053051303 -0.007994927142740894 0.29822066990407087 0.5023618198349429 0.289110624750555 0.4788273178641184 0.6599519427268337 0.15774415117265972 -0.34711547871182347 0.1664816094936577 -0.015726017584381982 0.45778168833142263 ]
[ -0.17646681484060997 0.25955837134703846 -0.43122528175287583 0.37322112881725095 -0.08570970264757893 0.35195330562880406 -0.6221544086621377 0.601789924016938 -0.3340195720823226 -0.6828082568870626 0.15463937945665562 0.5129325394832182 0.1527171497340532 -0.6152995847559741 0.23313690905075798 -0.3153996630367076 -0.40930795320172314 0.2347447140922413 -0.18521526384675183 0.04710953752491265 ]
[ -0.5302791652504123 0.5633626938135459 -0.697847354889575 0.1472954991771201 -0.39215561744379956 0.012138993944925555 -0.5219948557674532 0.23792595643759604 -0.22183311673702974 -0.8516640632250517 0.06768065023414563 0.39555239987255436 0.13992454950716748 -0.7784911129723104 0.23756148896501011 -0.14576616051510857 -0.18002267570336883 0.31861764663900066 -0.5296635970078084 0.19043578697027752 ]
[ -0.011138201895451142 -0.3574204322089582 0.3652380968892643 0.0260163511104725 0.17519023095722472 -0.03555827013334221 -0.24888979117689392 -0.5304432779883792 0.15003506637722963 0.23096259886491735 -0.4465709677362885 -0.18785414325708263 -0.5502992925591957 0.1867276431458722 -0.28209639617076443 0.31320270003477146 0.0027050816846172724 -0.10802152152864346 0.28711851584575576 -0.3364317258782322 ]
[ 1.098567931761285 0.26556829367873913 -0.12999853769679728 0.035709149878005095 -0.07476969080308586 -0.039430490871660194 0.35055404132293244 0.05456478599061829 -0.05425717109984418 0.3564144509841286 -0.06208311578804387 -0.5477902836826739 0.8650318910303553 0.38152180421902726 0.35507768265563733 0.5490519539085593 -0.29868248494332417 0.3419440603449068 -0.2788511566218232 0.48148293033320716 ]
[ -0.03668261933031207 -0.30609881651571 -0.80797573873838 -0.1371812752259019 -0.2872525016162818 0.6223830634648383 -0.4258105434063539 0.6097660529010062 -0.3227822928329846 -0.6196036126488005 0.4724667306643173 0.5502165672216994 0.11556604897892078 -0.3542228263087741 0.44543843268696415 -0.29571050590144937 -0.6310552652849747 0.1844619472809434 -0.22485641879906554 -0.20937515538154286 ]
[ 0.43934592094804115 0.5296286795584031 -0.06225232259193714 -0.28691575405755004 0.11605547206742856 -0.19962049627316306 0.8789452747341255 -0.22907228922101197 -0.3778959023930966 0.7307712341218416 -0.7380885340161992 -0.8651924077621196 -0.15825350341697542 0.460416421836354 0.5700276922584447 1.0591933742530846 -0.22639765672061993 0.08330076465259928 -0.2783359545843328 -0.0810183602499132 ]
[ 0.7958462719486141 0.32624854278302107 -0.24504428590065225 -0.68577353501519 -0.23016686456986646 -0.39997303381653654 0.29226743145843714 0.17456055446555785 -0.04283820727994919 0.28404896012530184 0.2576998282321268 -0.19986603798935196 0.3496490195305391 0.25484830611137876 0.6846404127350366 0.36992088330839495 -0.4702053789379276 0.4502066774826478 -0.2614042254664403 0.20663671583904122 ]
[ 0.3564972715610212 -0.047667296668262325 0.2090028004145663 -0.0938970295261544 0.14812750541796546 -0.5199299977763729 0.1576230618475157 -0.18025050844648932 0.0009613788234320192 0.022077900440795994 -0.3223907671174433 -0.7072811613938832 -0.3753684677836136 0.2708589825031282 -0.05220577922607758 0.11543109430195976 0.6295852674249764 0.1400846260305993 -0.03307424902595443 -0.06688622981329821 ]
[ 0.03669861680791849 0.03952441604497796 -0.9214574124637636 0.4008485982879671 -0.08590458312341788 0.060108478125463854 0.14299229702351243 0.026031245342385337 -0.5445907188437432 0.9633859483248873 0.003067217228105043 -0.2593756007614216 0.841616906700542 0.648801753220364 -0.37178169169788516 0.3538876775163245 0.054340315274233345 0.3999998258831624 -0.09514113576322042 0.2435066018711499 ]
[ -0.10862239902298468 -0.567275938665778 1.1059188117013863 0.07203414730025197 -0.04603858559508382 0.2985328996730094 0.15826346507061662 -0.3172529413343057 0.34207256561130417 0.5059856497526383 -0.11480301531254233 -0.45731444117832964 -0.5901484025278237 0.19488302957808407 -0.6135440229363569 0.18422905569999726 0.36956472989338596 -0.1899985971832455 0.35514017137595955 0.170298523031871 ]
[ 0.39792593719227826 0.026964840006646718 -0.25905179367089654 0.06329921400444125 0.36399608836602554 0.7192359386926379 -0.5710165801705793 0.4613716825348185 -0.08167982329015391 -0.40535193839955264 0.6164884798941392 0.738284883310089 0.12926308172247955 -0.04659420014017831 0.3134304771644145 0.069896688254122 -0.41566286129793 -0.015533616686413709 0.1025325575966546 -0.09402038365851771 ]
[ 0.0034012229662143704 -0.24788957815411136 -0.6147351186067034 -0.1254038189659862 -0.031154864607202834 0.9098209967478822 -0.8581566579061461 0.395982830453541 -0.13059182908325564 -0.5806424187229171 0.1765534193344142 0.3109922095527149 0.5697823743467582 0.12309147576008667 0.033376000144756474 -0.472756888858043 -0.550946838127091 0.10624500163379909 0.03470620483469665 -0.0417314475896656 ]
[ -0.2890993499012957 0.3208282300292047 0.03380898106492552 0.3216157300603763 -0.32939708082056157 0.9707916031057108 -0.2021713005416708 0.7762978350561984 -0.18262185318076954 -0.3081558479429112 0.16921536867864045 0.41790881836630583 0.10555146733639224 0.03842568389472719 0.7497333386277315 -0.16733216032142204 -1.0178031986918676 0.3607629231806359 -0.08786647648066168 0.2073077281201283 ]
[ 0.43415165560608565 -0.3235235126508549 0.42321094144178106 -0.08881845819217961 0.34470763449598907 0.06492360138768014 0.30624513225608835 -0.2569462574636392 0.31577621923730487 0.6100280129830677 -0.32444672121398854 -0.41060655378469957 -0.4313496156878889 0.39497924329435175 -0.3724444603218079 0.35951385275340964 0.19371476157591438 -0.35960803019663096 0.30824920448455406 -0.08947847902501294 ]
layer 5 Activation
tanh
layer 6 Dense
20 1
[ -1.152457264665646 ]
[ -1.1809906587220365 ]
[ 0.5483035102787683 ]
[ 1.1103079249897685 ]
[ 0.901614045052596 ]
[ 0.061621117569086586 ]
[ -0.9810714593317172 ]
[ 0.6776201582652001 ]
[ 1.270401480809537 ]
[ -0.943715885980286 ]
[ 0.7864813074736569 ]
[ 0.7897222305736328 ]
[ -0.6667623662268906 ]
[ -1.2171569623122016 ]
[ -0.5831419205295282 ]
[ -1.0197345969587879 ]
[ 0.6048718805059473 ]
[ -0.8729368021761572 ]
[ 1.1903831974590537 ]
[ -0.11429566884871747 ]
[ 0.8776496764954548 ]
