layers 7
layer 0 Dense
20 20
[ -0.29818404633050977 1.265377619502686 -0.2324678129104021 -0.9151838324517173 0.6791402237397192 -0.9983476530941829 0.17307308455269316 -0.22391313000356333 0.6494901886028 -0.6694754660864198 0.5862415521178533 0.2625919130432347 0.21781277166139734 -0.1781383060288709 -0.36563383523271487 0.1639883078332709 0.2524968402486053 1.2692454614617308 0.25632226151728255 0.4012979193582739 ]
[ -0.14262106047597164 0.3048708828987176 0.060777088103562964 0.14327986861517458 0.1367372947074192 0.054879594520050756 0.04852426398087417 0.16989239246263652 0.15224190825019238 0.18075766475011878 0.2583539414291788 0.00029651237414866086 -0.19302568192806097 -0.2749403952667533 -0.23719688356868776 0.22320967029970498 -0.10444397335543437 0.29021675720478735 -0.3840578888476387 0.21564030348525262 ]
[ -0.35559766194881337 0.26230734020824337 -0.17544936840558276 0.1986696673255806 0.3293166235782646 -0.048111242056091096 -0.17417576278800295 0.08796090214609473 0.3738990921258732 -0.3200297302005292 0.2720711440906282 -0.32516462541473923 -0.18473503121050167 0.23207176399124999 0.13477509687273595 0.11231794098800452 -0.14441959938601018 -0.324670197644798 0.21031330916243274 -0.11271759209958765 ]
[ -0.017835550622243672 0.44056735040029654 0.21929037384005337 -0.6974114222806171 -0.027039210865964284 -0.386495972332541 0.07299009512894067 -0.17084029725092115 0.009244693100447048 -0.45870092878837215 0.5238868114814068 -0.24755939292313386 0.30816601015811973 -0.44994844457465866 -0.6759690340286654 0.40037914048551104 0.8083255153924908 0.6016671196908608 0.2343568485501087 -0.08353636247110374 ]
[ -0.8185655897689265 -0.3307685995574292 0.05685951768147793 -0.27049543249476354 -0.7378528464083596 -0.6354965223384543 -0.18611303083321604 -0.9176669678570759 0.47129743986238715 -0.2099635474847788 0.06508397459976437 0.03836000496646278 0.251883918542561 0.15089877961801335 -0.13949595066393206 0.08724854750982904 -0.25047623104664346 0.6243158475983384 -0.06777690311028367 -0.0009752383656055341 ]
[ -0.017559698870281654 -0.36653464553299975 0.011331569418369646 -0.16714044809954523 0.2013375850027997 0.38232943911914313 0.02913072360588455 -0.16379725557143887 -0.2221802184366704 0.13227664985621534 -0.034437493839905686 0.3700577910524678 0.23177845971618197 -0.34630358324862004 -0.2732857711302155 0.26022136266007584 -0.28192936572320954 0.12412101103523206 -0.22586843471451826 0.37035690338494764 ]
[ 0.2757537036124798 0.3576350351831254 -0.24016931514525547 0.2010432770005775 -0.05542510931186626 -0.060373550354928994 0.29593933514998144 -0.11559896996926519 -0.20984767233459592 -0.33563235340904257 -0.20316787980454193 0.053500514355805474 -0.27550437441469516 -0.19836058368742668 0.04091826193552864 -0.19413036926343302 0.10167396877817839 0.1907715919491925 0.16285798747512414 -0.24716764774165315 ]
[ 0.8852177687659262 -0.058478702794404404 0.08167885104632036 0.7051661471138654 0.41759384775510416 0.9676567003880727 -0.2652981767534478 0.7786183448451676 -1.0532600218574983 0.863114643788615 -0.240756100293714 -0.23043067852970803 -0.41558109375900815 0.1728767691850492 0.6560538955445573 0.10970063460233875 -0.30496312332610565 -1.0714303786391146 0.010783278946736865 0.3418004777250098 ]
[ 0.18426381984411583 0.61826964744982 -0.3236765401413652 -0.21046063765930337 0.18422424790099587 -0.389303910185397 -0.3720610420421082 0.38426739442286306 -0.5180547857010882 -0.06069684873593588 0.012910243144275949 -0.12587956153467417 0.5196049094196717 -0.2798031149015319 0.003163498166756387 -0.7363277908311021 -0.10923126683168774 0.11828632001135951 -0.285445256306573 0.31877720582943864 ]
[ 0.32182681059808543 -0.5483516268956116 0.9823455479559987 0.4778821736384818 -0.5381508050462985 0.3475121419496462 -0.3044511139203521 -0.7282248900189245 0.14635497874322254 0.04195226157423403 0.059947577025024054 -0.5651700575167546 0.30641936967761835 -0.7703626633025745 0.015340103134892737 1.1311856462087573 0.4345858161430948 -0.02593937626132837 -1.1637196200029072 1.7033516664295796 ]
[ 0.7915391754698731 0.922305026017649 -1.1480082644146643 0.9560079455532597 -0.46249474107888616 0.5548862736992223 -1.0713262714580223 -0.877642730752767 -0.019502339294226845 -0.3810570083554508 -0.1169870731343897 0.8870680391583077 -0.19619556544831984 0.7996335036516649 0.3648620278619555 0.65964094386439 -0.22436104870532025 0.3011132159105257 1.4125046620617818 -0.021032128322452662 ]
[ 1.3791286434043366 0.5149868916664858 0.40734882330253036 -0.03922040230461829 1.128177091948406 -0.31678290653366115 -0.10091201703043237 2.1150112080874712 -0.05748392015650152 0.011148941921743257 0.908302575800593 0.6399535150576825 0.1580510397908576 -0.9783355339931281 -0.13365829481940342 -0.20205016256555838 0.018051835463707634 0.9975314770001016 -0.46631204936958986 -0.500717302306137 ]
[ 0.04625215420319753 -0.3888995369714504 0.7277004475627816 -0.4176450135411022 -0.6083446999821717 0.11795474374507317 1.2475334108633869 -0.29210218188482245 0.9726981751470519 1.4188616103191283 -1.2385995133228251 -0.3232818934969219 -1.78093829056943 0.45657894817122285 1.1734675056533823 0.9606100028756263 -0.6488386707001036 0.16814514544790096 0.2755965012457102 0.38203774680555125 ]
[ 0.05820017082982389 0.05222885253136882 0.12971150916828872 -0.04205096735488925 -0.41511091185737875 -0.4954880859177011 -0.006417923355739316 0.026680882597108102 0.23883512249135952 -0.238006968213977 -0.05487552119833639 -0.29762529528483345 0.34600349716939943 0.11405097198937858 -0.8068837403138333 0.10614181982221557 -0.5108012445237224 0.3161799373732252 0.2792389343056757 -0.7656021980631383 ]
[ 0.2702602070020795 -0.11676707498276064 0.0961233244240858 -0.33430815652590545 -0.4647702118786353 0.008988200427703019 -0.18800478427785694 -0.5164013576512956 0.004285226023175815 0.6980383692149241 -0.1617452236570402 0.18415073474935403 -0.15835145839659603 -0.05393916416413143 -0.5732695719062344 0.01738883831447545 0.48661289353601056 0.1601890427036471 -0.10972004289532948 -0.19676496612495656 ]
[ -0.8893433705065873 -0.2934635334119204 -0.37961793918129216 1.2293531553582773 0.1830917706327427 0.09846603009515557 -1.0698898641164722 -0.421852843177219 -2.329164247273806 0.2984784782289864 -0.1689218311978152 0.2928711950849092 0.7936015146656915 3.1407749180248765 -0.8932528556689882 -0.8696841898336772 0.6012547254702889 -2.142298710078295 -0.5281853315990463 0.3298090798080974 ]
[ -1.0147629067139927 0.3850065643661801 0.09846584476454893 0.07751659273116963 0.1943084633444841 -0.4579344058870503 -0.7413759996309292 -0.7761231026430319 0.5194611733470034 -0.7319120394057829 0.8094786786384117 0.3411259816878129 0.8783521445380196 -0.12803029792447707 -0.2829005516190004 -0.9079188489343284 -0.1969702818860801 0.24594866359749562 -0.03209852158088501 0.545692378041158 ]
[ -0.6440847838046575 0.4348005027617336 -0.7305210534236899 -0.40777922612402084 1.417142687443117 -0.03097680433407291 0.2816992788426974 1.0805165585752925 -0.1019830981242198 0.5530318444565049 -0.8041328015927787 2.1007069783751477 0.26574628876290207 1.1767036916717901 1.203738949068009 -0.7098840124349998 0.7193103378371152 -0.05606890755212682 0.7760744237722401 -0.5616149015817391 ]
[ -1.0397308453551752 -0.7909139895579244 0.5297042937001469 -0.9559903225510565 1.1653708888751986 0.41500605853719025 0.8104337569255254 1.41571529511893 -0.18231235101630416 -0.5116973262732633 -0.08927896260765605 -0.7610668415908338 -0.6546692198495269 -0.05765890435540151 0.5146423655738489 -0.6036670860956369 -0.7405590319846679 -0.27338060558827515 -0.4601883706269056 0.4230737147161509 ]
[ 0.7725009922944995 0.5255093798178502 0.5548249756869535 -1.2559818536497127 1.2374514975435469 0.4377068239911738 1.0044578226365037 0.8202378226533763 1.5087729954127898 0.597425661086458 -0.4230403193924111 0.7090349405193452 -0.7547646728366011 -1.0235950645833083 0.936709385093322 0.38230314329901116 0.15854254264225295 0.523852499129423 0.5752676114160569 -0.21109242891524374 ]
[ -0.08995722170318006 0.133529891790657 -0.12709885857085093 -0.18897550305952582 -0.03636304530066784 -0.24561012534953575 0.22198307428211694 0.0460675407463612 0.2193866040361796 -0.17434538752440742 0.1444872350819045 -0.04576234716108205 0.08402727388483805 -0.2653957121172395 -0.22826466581299332 0.14137401416831932 0.36457631528804785 0.2554478950527202 -0.04300183019146881 -0.1266542529155704 ]
layer 1 Activation
tanh
layer 2 Dense
20 40
[ -0.3890653002353109 0.23143080454415976 0.7062657081227323 -0.0799854608474262 -0.32166181640082425 0.015384844070095263 0.19073053547095797 0.9718262892272284 0.4552054812077973 -0.12032339413772382 0.8870014302098944 -1.0800795980185642 -0.12464670759035043 -0.5710888814108808 -0.5398833216165593 0.21299377178127352 -0.5636352285645537 -0.4282054880097167 0.05056310393556044 0.17663020685188846 -0.4805087852890857 0.4819475686112279 -0.05402701736973451 0.21225997719326256 -0.6581489160380828 -0.32892185269857466 -0.45375066497755423 0.4166448769039106 -0.10213877108894324 0.8023226721188348 0.25445460107758255 -0.3064923785727613 0.0034674121978771465 0.567515066181538 -0.2621713053815067 -0.14365832425681171 0.11386890151537142 0.7825904857288682 0.7117770810637982 0.11816906835586494 ]
[ 0.1738524651721018 -0.08140474075860538 0.30063133550595894 0.29897314902512845 0.13746440307938015 -0.08352046529774508 -0.44663793556810844 -0.29826502475628935 -0.03306116798186046 -0.0596421643970729 -0.17866609664530284 0.1932192157461778 0.6356042683306735 -0.4431709199228498 -0.3012454011204441 -0.4329907245624226 -0.6757694002711191 -0.38150941449351505 0.2576882419245736 -0.6926493239237643 0.13755274009986818 0.35294061300233265 -0.18708109966125233 0.33402353931284695 0.18586652898871903 -0.43381551125501844 -0.23827226066701795 0.48005593541214003 -0.41031699181383474 -0.24184200551164733 0.03289237408936038 0.023390532260036897 -0.27107808611824546 0.8070205091960951 -0.20475729547694907 -0.41383346605874555 -0.2978316788500341 0.5239274543076081 0.30257951534846717 0.5295363954176247 ]
[ 0.03445786665001166 0.5435661087801561 -0.5923597516746469 -0.5705219441437778 -0.0034448866864968653 0.3464484157945553 0.37657483831212335 0.618634616824676 0.22468903104866297 0.29939364287514436 0.26324033796017865 0.09150345120801283 0.009520258304295363 -0.23970078515725415 0.187062725466805 0.2083017402285767 -0.182369060990743 -0.7909651889196373 0.30598392373281846 0.10603553308632828 -0.2496326800472413 -0.234566072781118 0.3561033042044089 -0.22125642791965672 0.08988417642912312 0.8462672167691337 0.01454157176619703 -0.05302249412105051 0.4164641837965802 0.5531039929238473 -0.11723340863610963 0.29935281018973436 0.5549103431615299 0.07925456480988369 0.0051047443763437075 0.10140332539392448 0.2641263368747999 -0.14851498910173216 -0.6193034893215307 -0.23952109629679702 ]
[ 0.05985054654435556 0.620511542107589 0.5009528221955102 0.09941422185930623 -0.06719833659023135 0.01190125056496296 -0.18213725631511107 -0.06458705679030124 0.1694123845984601 -0.1968170386840578 0.10459143576435254 -0.10515022488576804 -0.2824363362598119 -0.007233817127910896 0.03132522892788958 -0.1485091802222494 0.06089573053854579 -0.07595620946747719 -0.35093279503747166 0.6971836467377723 -0.4559710638242697 -0.15823057492251272 0.1952977562503944 0.21082983645924178 0.08099947829185453 -1.0016876654930704 0.290504261898529 0.4352299708352464 0.6608404238216431 -0.1758324033441496 -0.1924646907394803 -0.08377461024643613 -0.29984875998187854 0.044233060292443505 0.10217351076361623 -0.40462835028302147 -0.16188078677979711 -0.7578363473304721 -0.7214147704076396 -0.1594110465200215 ]
[ -0.12488156179631553 -0.5200665629303197 0.10586357336262056 -0.1193267440759359 0.278574230129106 -0.1563901030848211 -0.0816890599239124 -0.7225697473301713 0.22504936057244795 0.3106589610671357 0.11762327535599518 0.5258332217553695 0.19571627279396428 0.060350641919758384 -0.006820471988476267 0.12556661374255532 -0.0966085311309199 -0.8946853079754761 -0.402791446137248 -0.5018835422374461 0.26983622400125024 0.28380073432375186 -0.6546251378755755 -0.5316060963125361 -0.16233612959309782 -0.3518672836452165 -0.39379969756952043 -0.3096689524326338 -0.17070128839159787 -0.7376524517855738 0.3280134314485017 -0.22749521681661614 -0.34737095815408214 -0.11029148330552699 -0.10448932272999209 -0.07920869288446084 0.538722083507708 0.5278110993634105 -0.2889405450522624 0.16412950114752337 ]
[ -0.06367970261521418 1.060147867122867 0.2981915455623297 -0.15328622601420322 -0.12152109815286621 -0.30636635326599165 0.09876396573704478 -0.6475537287439233 0.4755492633343898 0.3488056119999195 0.3875947432433536 -0.3768214997437374 0.24498521968158718 0.47649346502226386 -0.15210665355269046 0.6490989159152712 0.5260376091886192 -0.12676476652159097 -0.46592386240925854 0.499241195833306 -0.3167281266006819 0.1466943667252716 -0.3745514698434055 -0.4942282430224976 -0.6601237011893778 -0.36286669020354106 -0.08624850064706092 0.28209495196740336 0.22957691952736445 -0.24642554024334376 0.4771010404869845 0.0871791618028568 -0.10450475359946104 -0.11125719920582923 0.04764399122144128 0.32856878059645594 0.3662049957594795 -0.0993805295564365 -0.02166203742938912 -0.26491156780762787 ]
[ -0.09061573201137893 -0.7012183172767341 -0.5793035825698287 -0.11441239284006438 -0.09681060088867625 -0.2693079077503307 0.11440384957868273 0.31660198323782796 0.0256906443143937 -0.2053616705270032 0.5181836604195649 0.1811008142562421 0.35835592713757336 0.19975671962697403 0.4376222887259399 0.04830180797232992 -0.10706700178531979 0.670499133866895 0.26773020797624025 0.16934322228770016 0.42307123643954203 -0.16823117859567696 -0.45405437330971593 0.14453619158955175 -0.43655888053320246 0.4714758516541115 -0.4189272851265678 -0.42278051691564733 -0.5823246212295938 0.6535394796621663 0.3918261056379341 -0.05905593194102546 1.2256378023199836 0.015021810896259421 -0.19962893369194534 0.788191196846386 0.23157677820267414 0.3320304089844917 0.6688210445356471 0.053262924218326506 ]
[ 0.19602843759609276 -0.3647352427453501 0.40411198062621484 -0.3107335993410285 -0.029199981640151522 -0.038171950353228026 -0.39439267749377477 -0.4111217530553362 0.012252793009066463 0.2877329457907152 0.9845908208384553 -0.0427308602095997 0.6439272512479507 0.10339470269189782 0.10423437466621915 0.6920141012275034 -0.02334671411318915 -0.4039379100331857 0.2025432658039424 0.793919966422351 0.2991590874493973 0.7347009112462085 -1.0130371198415187 -0.5954819541365464 -0.16683202873539502 -0.47433601015575294 -0.09754778855470063 -0.5700810132478982 -0.3594818924003637 0.23739964118511703 0.7746915197771015 0.2233932464503169 0.3274890385929812 -0.3743962079731787 0.13021063998213644 0.7682368652886143 0.3581974505770542 0.12116900835281542 0.09594948619441923 0.6906399961396827 ]
[ 0.23298398629787617 0.5989315192769227 0.3499410189474832 0.1951653592477969 0.04832440652821315 0.0968539441646012 0.6695289524446836 -0.2764277373765432 -0.14158219969267857 -0.010654453668437673 0.3354771425964517 0.11862067856983322 -0.3004105687922015 0.300408757877267 0.3384911691544439 0.16567869047627318 -0.30913014779744735 0.17550601573185243 0.16595661779841916 -0.8546004648413917 0.4149844947502353 0.07038051389064735 -0.5077107290782041 0.8347385094497015 0.07276032938890376 0.1965801771972967 -0.006132388192148147 0.08629233637106988 -0.1358179272792228 0.44952662292248174 0.42255638603316115 0.37667502789766094 0.1292096885917076 0.7578742633023919 -0.09477806019565009 0.3989683701390329 -0.4211433458535862 1.0572814005834679 0.5155887324421702 -0.6551318432152976 ]
[ -0.23404775993681637 -0.06925410709431967 0.12213180778550327 -0.3520246427864031 0.3748288057838422 -0.11764522934178663 0.09799980341699377 -0.2011176901250754 0.1987777622532469 -0.14029497342639372 0.8878429366477402 -0.6441722274517636 -0.054857917351627025 0.5208982870194672 -0.028339405974174357 0.620376953945234 0.7279094998528924 0.5647147962447977 -0.4296449084232717 0.4387837759239111 0.34758441282952823 -0.6225154067210613 0.3593694281422375 -0.23632506964253347 -0.5866056873331826 0.3977551346940247 -0.20843739112723125 -0.5009241307759911 0.08051874661198691 -0.265613418692099 0.12555596958258952 -0.03540700385721893 0.2395708663962083 0.0345525773552822 -0.3615941399949615 0.19262334784947416 0.1269892222106421 -0.02588073333779086 0.45448249961098297 -0.5428999171260693 ]
[ 0.17020239588813568 0.3190284115548355 -0.34204569765686005 0.06371336183652883 -0.3156042808059393 -0.12962780716853808 -0.03837034836800673 1.0751208032533148 -0.38093853574190933 0.07589562077888246 -0.4237561665295012 0.10727190628813221 -0.16446391573708802 -1.0556350504014738 -0.013712007171464799 -0.39944311430518703 -1.2244118037867935 -0.5840375178565437 0.694309243816774 0.3060191305832178 0.30042412616026976 0.41305823474774267 0.160391533526718 0.5611537491491544 0.24420296814360543 -0.03636676112054548 0.3210855442496261 0.11766497786840815 0.39538773093743745 0.462046030620375 -0.24564874289473818 -0.2483682941498593 -0.46264539564217666 -0.15216659362513316 0.24133256538417955 0.09131944478912568 0.06771733920226877 0.6493436163370824 -0.8250778497537447 0.3795000319659177 ]
[ -0.07778403552297161 -0.141405444363534 0.11985183903109327 0.6035513503292248 0.33065429975451893 0.47635067066187586 -0.22561571654585402 -1.120898560060469 0.12786640111347353 -0.33907244873163034 -0.31087154284540536 0.17334695192187904 -0.14038793551879186 0.18962372366428742 0.02116746449206056 -0.26111015639982604 1.1279394636102924 -0.19000181644993608 -0.3293555625519609 -0.8086574841459554 0.1448892779180516 0.006134359808775004 -0.2171059129751295 0.45608162348235154 0.20440237980721376 -1.1450914764860618 -0.3935776358523444 0.06641847223396495 -0.3416263025600674 -1.0356746062952813 0.2721529802528213 -0.6071570627806187 -0.48253231201631075 -0.30200375509848304 0.0872933986801898 -0.09094206683890321 -0.3912958461951157 0.43512462682083536 0.8784953669560384 -0.20902276586545313 ]
[ 0.5246138637231578 -0.7756102868738254 -0.5849440107018309 -0.082294466667975 -0.31487554777003773 0.0792322540849909 -0.8432888351566076 0.5091539419096548 -0.8268656065387485 0.177104805408532 -0.2613889327822839 0.3810193196996121 -1.5835713958347801 -1.1730219923293896 -0.6196002623510759 -0.6001536014934656 -0.6424827674268014 0.1402091412769034 0.5644255780628056 0.33956808081390916 -0.3483332566282162 0.11645414001842654 0.6787978802913033 0.054695445131847736 0.4845979180406721 -0.812648647710563 0.37053162702575115 -0.38498118334149556 0.2637722994943526 -0.22716366534001356 -0.6689614154070229 -0.14051981426874502 -0.9898633585365114 -0.06769312486506374 0.6301078947260477 -0.7617759887565528 -0.15863460874497606 1.135345310903826 -0.9990622521190707 0.8874453906020282 ]
[ 0.21557020768940247 -0.8651260253261055 -0.1613916274753113 0.36974927986362127 -0.08219275730119203 -0.20777003451783366 -0.8821424294430721 -0.9167126639437906 0.3055076903124135 0.0988559710509692 -0.47204749871823587 0.33850326276013937 0.221894602732633 0.02944507773071223 -0.45208882324333816 -1.230009400842646 0.5667601091327538 0.3111202088593531 -0.541483527741455 -0.20284153773414026 0.2004122559065953 -0.3515770900346137 -0.39815209029224646 -0.33131997592467766 0.2022381429073051 -0.5566963972252824 -0.9606331423469567 -0.023001553745884265 -0.08395449887350584 -1.1448406871586485 -0.9079445408505319 -0.23295780779021505 0.09538957999356242 -0.4437026774253087 0.28935068493129257 -0.7844879087657208 -0.12461768966719268 -1.3302804774884665 0.11540744941200343 0.016917766465335365 ]
[ -0.4362745752999942 0.502140940270331 0.3707366893207256 -0.2229157758025949 0.21660260942784423 0.2473712302384931 0.16832914436206717 -0.6019806886137122 0.3473396066743281 0.24763383710288087 -0.046026030428560114 -0.08580982408222278 0.41714996855199277 1.1965892559240046 -0.06844813025356847 0.022802172375330748 0.6753179368756038 0.19677419774160018 -0.748018123021725 -0.6993490787342689 -0.13344547178514635 0.3206366691784323 -0.5995680855755897 0.36379140250743286 -0.2413568581153687 -0.29993001570549865 -0.23608707391797082 0.2991113322116117 0.20311073158199638 -0.48394798433869957 -0.20526823285675921 0.2336710510347016 0.31142536606156185 -0.012889237866173355 -0.46115232545269974 0.2970787338895235 -0.013075817987922077 -0.2893678717552994 -0.036425939830576355 -0.9764186796989096 ]
[ -0.20112026474527386 0.3547922558736669 0.8124411494195882 0.11071953464974493 0.37644551557088024 0.37158393203638096 0.5083242602603468 0.846019852222598 0.13218124710432405 0.073549206478033 0.1298765293320744 -0.6529747080451612 0.6716657274104773 0.4774112178360912 -0.4711976635026967 0.0838423137842279 -0.22788618889198098 0.14102042987638735 -0.06848567097205475 -0.028494772127011465 -0.7899146664630211 -0.3497519676657042 0.10501562167593473 0.9790217728023571 -0.1734071392891972 0.3598892469618396 -0.2372394259490039 0.31858620509600544 0.37214824269180063 0.6290525426757727 0.157791410738654 -0.23406581782296046 1.188285222969561 0.5670946324998237 -0.16146449674316554 -0.15019014799302882 -0.47417715625028267 0.04245959112717341 1.0122015534108224 -0.6710797757680738 ]
[ 0.23062904441859913 0.08799035523257379 -0.051332008294404985 -0.2507453899034463 0.0328221427927373 -0.1368960540324523 -0.6953809241272423 -0.3422747403927348 -0.06894973007818356 0.15066044523023697 0.15391533153920636 0.21901797173002654 -0.9025710854542921 -0.31716776564534255 0.26370619606811446 -0.2386352698480994 -0.17078389901118768 -0.6078620475061198 0.6257642051281991 0.12089760888709146 -0.1956382457210322 0.41601507496154155 -0.078278090073405 -0.004682447093989296 0.4413646939119562 -0.08975556735064733 0.4296647816653409 -0.0013631321835543958 -0.4419672776602736 -0.533681438352498 0.1785551512012374 -0.0036746805073360005 0.22942140896326405 -0.49565887708380857 0.15165523159143435 -0.18841396214838 0.2754045397997192 0.6507748463789008 -0.038681476923380066 0.37550679183424956 ]
[ -0.0761659796899575 -0.4073827346315879 -0.07183629892065245 0.37257163678021554 -0.29776582068157886 -0.056720469584418926 0.19813363207047832 0.517829242586089 -0.5226856447961884 0.07747624755489627 -0.2729337027248715 0.399343347419452 0.25539237132137893 -0.17619341765081234 -0.12429862679255874 -0.23437100350801496 -0.7406443334552143 -0.2904694437634511 0.4271605243988841 -0.6961351294177726 0.19278357207210697 -0.08140213102306622 0.1870953108395079 0.5989861295550785 -0.08186933215201422 -0.24261264595331955 0.10209678641562579 0.3727340434038122 -0.5261226756637757 0.40306528850894563 -0.03624243798296738 0.08297965034820964 0.4781676403311124 0.43852547883209153 0.20332443608602693 0.20558017120223424 -0.20567097860581054 0.7778887606501255 0.488827313128822 0.1354709044813223 ]
[ 0.2595431026046073 -0.22731493482668744 0.34176154105510087 0.15296895894015664 0.20480389409780356 -0.29521193504679116 -0.15503470384082638 -0.06496586423033389 -0.2889920968035227 -0.223512137480177 -0.19729501433412233 0.002969696137297888 0.3539270729752596 0.10445660160910426 -0.04739326750495593 -0.4193458925336837 -0.2612137515776713 0.13333071334779123 0.29570982023997744 -0.7451198400202931 0.38527300467035125 0.47375162637872675 -0.48651770135956557 1.0916890625910327 0.02133348427700543 -0.600998410216454 -0.10790872907495104 0.039339290252935505 -0.10765037765976804 -0.40933921068392576 0.4058018765599528 0.08189691426603105 0.07260599775429845 0.007220818280395499 0.06918542151028576 -0.19086985911633383 -0.123033675732944 -0.1476622734645492 0.805954582700799 -0.0277591469114194 ]
[ -0.18650340488144543 1.0185085457585237 -0.3659499844793283 -0.28949316080775 0.23326856209629182 -0.09210368741474434 0.3965332840063696 0.24982661153566446 -0.45412889873179096 -0.39877919080716506 -0.3051472418634155 -0.24866363727450855 0.3729918647126299 0.8921701367425867 0.15386987034695382 0.7458740417423491 1.2115788254110071 -0.2510024518984304 -0.3558999440131699 -0.20387856307780647 0.15948157398614968 -0.06799666263413001 0.13784260897823464 -0.7736223718933719 0.08591771862366354 0.4516561174396645 0.010759883521982634 0.6668023326878825 0.15347121130642316 0.35178977272179546 -0.291675643238235 0.2011731948635663 0.24624621713357212 0.23527579345210503 0.09087998759377286 -0.3460410075512383 -0.10600439732416989 0.5482890444787051 -0.9530714071441462 -0.40943859160457374 ]
[ 0.4160960261820133 -0.1346790787205463 0.08933549278137203 0.0506168246961326 -0.17204074422945104 0.030705101700676956 -0.33226486594719207 0.2897357103593841 -0.19485165398675264 0.07819891812031639 -0.30265690533697287 -0.019494151956071407 -0.28115107445611837 -0.6047611566600858 0.006331078430273904 -0.060312025030745384 -0.6783154083529841 -0.2297869834409063 0.6935274328734856 0.40369535605550794 -0.1912463857492557 0.050197730202600384 0.010251983053701487 0.2268801709391901 0.1437826062314995 -0.2887953253778975 -0.0004603485017367306 0.03968901987986128 -0.030283542079162732 0.04408348364190881 0.14517381722216083 -0.0616781778241607 0.37762423511611304 -0.12359113197924389 0.24969895355859956 0.01640504804622679 -0.04973963703660739 0.32350161665951843 0.5707950700348502 0.2452947864338129 ]
layer 3 Activation
tanh
layer 4 Dense
40 20
[ 0.04389881233290767 0.034960144790696084 0.30156364042521 -0.06918635411228355 0.3330714338000907 0.35879761284971246 0.06992320907356875 0.24607233102641288 -0.14402799393365603 -0.2112698820063377 0.19144517708612538 0.052415754172408575 0.3440598560568378 0.4861033203999473 -0.2457725367242845 -0.2620901433278527 -0.0038464791020163236 -0.4881933750263591 -0.05064467933589875 0.012142407398669319 ]
[ -0.17732201862394195 0.21883209249861035 -0.41341768238089255 0.13907445019819184 -0.39303781280671607 -0.14788385520273384 0.33099562309602587 0.019032092353027934 0.11047691230089005 0.1326277754200168 -0.20912652274937044 0.19324321018261925 -0.3324326381473617 -0.2567201042263941 -0.006314315898433783 0.025771557059386222 0.07097261027962369 -0.22335736327072558 -0.03565760441694983 -0.5767051164934709 ]
[ 0.26361083531253043 -0.16925923831422282 -0.0888964959641452 -0.16034231955429745 0.06448314389436813 -0.1078569765446136 -0.5193131460712008 0.23716352885791628 -0.33100476585148303 -0.5774643236222887 0.3830234574051184 0.11543390801804396 0.3687736965829133 -0.05969900580806884 -0.14622062143643408 -0.173577561584535 0.2685004134113141 -0.2547115220268244 0.18341691619954137 -0.5640564618578253 ]
[ 0.03220917762426137 0.13200140854782705 0.5926941942899028 0.13261204391838965 -0.004345097768625682 0.2012594270107888 -0.011048028487356068 0.31037540460458923 -0.35161453887830657 -0.6088621570690071 0.39981013893549583 0.19453150981633638 0.5747199893724514 0.14346291258132135 -0.23001011042616326 -0.09396133620227531 0.11753741635488205 0.19767073817197953 -0.1502755843364344 0.017504561249769065 ]
[ -0.22507888505169765 0.05289617823306303 0.07789606692779458 -0.18042748050767984 -0.1641622877401954 -0.13463269342680553 0.021415347358976763 -0.15451792279772653 0.13925252789654757 -0.2499489528238163 -0.14116970689593913 -0.008889195373175791 0.4093432137931394 -0.21913900735894826 0.21052324833696326 0.228400076816018 -0.16207271581371122 0.3785767564321547 0.1239270200409624 -0.027636448409496302 ]
[ -0.337083220817709 0.026120689923073495 0.0018414002522621246 0.041867466675688886 0.19534039608248702 -0.22878822887244415 -0.04591857421592176 0.21897021402829245 -0.04431701503411169 0.18417477187464792 -0.2045579417349825 -0.044204038166022544 0.2093935087455243 -0.06903160629090473 0.2509986048023236 0.4651693706366256 0.09172143571932603 0.241933880957695 0.11319065782607565 -0.2251511617453114 ]
[ -0.10536365652375021 0.05457043044816586 -0.4194894103044713 0.3996016299409644 -0.059400273345583246 -0.4714236814188527 -0.17482190081998134 -0.06370282889231794 0.26883346196096464 0.48750066515442714 -0.5641209815251728 0.2760137649602666 -0.6404830605416708 -0.3077149808104187 0.2941864153732315 0.434780876103642 -0.41953330434890884 0.33642754355888477 0.00935479261843826 -0.3345260952386436 ]
[ -0.018449135010315778 -0.15034079709037693 -0.2869923783316439 0.39673742675604473 0.6068669613551203 0.10958265846049009 -0.5249467377624844 -0.0815964109814868 -0.27792693379259 -0.027627773145223695 0.1252834009497811 -0.048174477230625984 -0.5911636537537188 0.02187904317146095 -0.2022946248762278 -0.015342049869037793 0.12059374928825597 0.09464036975845515 0.4309242418974485 -0.19087703449708274 ]
[ -0.09456535303070565 0.43063805363061686 -0.17224066266777907 -0.25013565078026684 0.2366703408738694 -0.25355729274608346 -0.38135333870455407 -0.2639889018487099 0.06260517039241868 -0.1371592197233502 -0.346244270115228 -0.15446293613546294 -0.08293037144284443 0.15138194492330279 0.24592302711183292 -0.09016797097065071 0.30685827205794547 0.41718586488322223 0.0004774974513468414 -0.10838852409894083 ]
[ -0.12660384715265005 -0.023736466940321204 -0.3922968193541525 -0.18056171352833272 0.2694950749268445 -0.048113683288519685 0.08491365117255088 -0.11900303293308453 -0.1048786321836808 0.09567240895432397 -0.35895086559210404 -0.009807829316300419 -0.05782483795212023 0.0980333597699855 0.047475056946537385 -0.03182064958104287 -0.03221319888725383 -0.049574839841561386 -0.0164614468308569 0.19270425466239272 ]
[ -0.671711777721611 -0.20567810840905262 -0.3648757430644395 -0.0117701850712112 0.17589518852001346 -0.5349635365140576 -0.8686768433564562 -0.03834595791931987 0.5971212911738543 0.6492303589686524 -0.29510337289396177 -0.24673836292592286 0.05257596703279527 -0.20009455820905628 0.43233209372206843 -0.018491047469513466 -0.2860256531108174 0.129494992197039 0.18400207416179024 0.28311937840718465 ]
[ 0.04387582507470299 -0.15180273884926845 0.0682765444894815 0.016568064854819965 0.14409934577485348 0.27575111111810735 0.1057868064849131 -0.1632742506849087 -0.4582817613061913 -0.08562549129550305 -0.155643272512878 -0.025843876241269548 0.3027660986628066 0.4368079524855126 0.09049317623505573 -0.17736331018942916 -0.24801332548504773 0.04435569918572976 -0.3496793964111773 0.39671759423529807 ]
[ -0.1574860477707817 -0.0723615252301513 0.1404075335931654 -0.03440836013895523 -0.2399169229942184 -0.23721310793046424 -0.6689310591728681 -0.18612300135718612 -0.030702910200903797 -0.17586487124576317 0.07411919170170887 0.08406133013178062 -0.1146965329882924 -0.20562462419934785 0.2520402805462302 0.18075762410123042 -0.3180325512517319 0.37242502492452795 -0.6083518795168338 0.2940349787935069 ]
[ -0.16908501386107364 0.6107402273460631 -0.15271355496069672 -0.0851972798746438 -0.28664312635242845 -0.18168629059547994 -0.2459715319060404 0.26119038992071447 0.2667314137603647 -0.2110310023842861 -0.12296955218098544 0.04574228820519415 -0.07482365335075158 -0.11199067646037236 0.5240229830780844 0.09183300362811515 -0.5114569438205848 -0.07230189466460954 -0.5178465029252604 -0.6396405832225901 ]
[ -0.08919565098067957 -0.15992730011986359 -0.4295515624518098 -0.13344208789773554 -0.20190787252432785 0.07803632823971196 0.1417271045433625 -0.029260995865078812 0.13530717761993855 0.0850507602220848 -0.09031925544199902 -0.3238672892093342 0.06344081516882764 -0.17557153559084965 0.0180667824345266 0.14028966678952307 -0.30090113415032627 0.10891255796029034 -0.3170796864546073 -0.09318519351328332 ]
[ -0.28205861242919567 -0.09992062985963418 -0.49192841287053735 0.5342082020338738 -0.41307318246875085 -0.23670157442381523 0.13435146991516808 -0.1756825797547947 0.3925945938090503 0.5328880113706104 -0.39034726094052885 -0.0717033562632309 -0.28983061256616544 -0.4152693065990254 0.1883592662402967 0.2230221810863619 -0.022809155862678517 0.36330256037577263 0.14675678865967634 -0.1145477569671498 ]
[ -0.24167109479366453 0.5253100545392125 -0.19186916293979064 0.47811272371617003 -0.1766098671007289 -0.14367457631821756 -0.2143917533923935 0.0476261206435322 0.5380839387027476 -0.07609439013976282 0.11621950750631022 -0.2970560373662129 0.33333913077961164 -0.403349171685177 0.06520856071808938 0.2738152492963613 -0.5597874690546035 0.38988300063011383 -0.32214009886829553 -0.6255153735934837 ]
[ -0.17784510183726726 0.2498765508912434 -0.28212429692885815 0.08132287433695118 0.023850577724601554 -0.1115945987821538 -0.3432659071712331 -0.00039883196698665415 0.1825881270158988 -0.48189986059198375 -0.03165721747517715 -0.0519924123463108 -0.6705967804978938 -0.14301584068855602 -0.10268038446914421 -0.16180805700040246 -0.09965137755195548 0.5757367190857876 0.0806772500170622 -0.010648525952835308 ]
[ 0.07347409801463714 -0.45722710511555703 0.17418036573725035 -0.2426296742524013 0.16007389275185907 0.0428246360441546 0.36303053118903283 -0.17467464957798515 -0.27047572575913864 0.2993582768621264 0.27673878443585315 0.26579200806663233 0.10239555864849124 0.10500820830639343 -0.3881952932641913 -0.1603512770420688 0.08150395677830906 -0.33186877894329575 0.1966158860725231 0.1078745361448703 ]
[ -0.21432909564160194 -0.11042639847562545 -0.48631649553601997 -0.07695892330639867 0.2944524784296579 -0.3258306071955196 0.13055703067139662 0.14313919173247314 -0.07732556295750873 0.5186981150912392 -0.3334474352818065 -0.37260523871461937 -0.6115179251466719 0.48203425990413046 -0.19394576163149774 0.11202779884364575 0.06042050145333424 0.1736353920969811 0.226179701298511 0.32623905220874055 ]
[ 0.30404270003027356 -0.027546006429629663 0.335674715226995 0.07455447055243522 -0.35839290545165176 0.170791871852368 -0.07080715829039963 0.14371544399515165 -0.020123300147593857 -0.20362209420523858 -0.16338662545055724 -0.009529949069333495 0.08207224649442015 -0.3028678791235749 -0.2119256134339612 -0.08965497137238827 -0.4054271728638909 0.07723778768648223 -0.352488941150769 0.28826569094798676 ]
[ 0.059663588013258384 -0.44365788392511946 0.2946134199768574 -0.0869992621011056 -0.12162598864442425 0.4372178576619165 0.3520248290195997 -0.005292059322847495 0.16200020980959873 -0.21212628251346632 0.06493495173596876 0.4658460140153256 0.5207011836279959 0.1671642194386323 -0.06582713557543828 0.06549870936422218 0.007479997554076771 -0.4045562460819488 -0.48092867839550324 0.3287948776051004 ]
[ 0.45017035544806416 0.1049069795165958 0.08504893090600006 0.44616319829383505 0.2835939527092857 0.018132969610025224 0.3730610795586221 -0.030949941349887274 0.09264713546271973 0.1384559695007214 -0.4119422302700908 0.2865006223258679 -0.5294787359430358 -0.20631194632261865 -0.07592796036739216 -0.08466316818777005 -0.2021945578234524 -0.14310185653145197 0.5524844374353278 -0.44589065435438574 ]
[ 0.19070630966528423 -0.11750410254668306 -0.11055986081062848 -0.3476364398530544 -0.09918603294768873 0.014647843175257904 -0.5303398475366704 0.31893213938418113 -0.3460261029067543 -0.24301780378428114 0.43862202976904613 0.492712546653177 0.16610369922031107 0.20293764413896542 -0.18424857122886376 0.36280985839240604 0.5846503792214589 -0.06749011010209625 0.01151221115859378 0.04347516711589148 ]
[ 0.14661384932061883 0.033568826330527796 0.03724687991557629 -0.13178479675746704 0.08554212105306534 -0.03996577236108407 0.16556576499879394 0.162706594738352 -0.37799635813266425 -0.3564741227661149 0.17011383020609214 -0.049663880238416946 0.4363773371798894 0.3984475776742485 -0.3243641387618569 0.02792941914322868 0.0733816190698474 -0.21530368110156597 -0.05555600715264302 -0.2979998423968696 ]
[ -0.07004159474016072 0.0870982890670341 -0.3160294241424597 0.33826927604714124 0.404994990845956 -0.26926521182933455 -0.12150724670204645 -0.0013917645211531599 0.3864573587108921 0.42802978214155646 -0.4230512727781873 -0.06135284574207196 -1.2523024130271705 0.11654569931161622 0.24023294956499253 0.033329340796372224 -0.7006908506956893 0.23468385231785224 0.07698693599559372 -0.09694206143221244 ]
[ 0.029945445751290937 -0.07645363288130284 -0.49292665816126513 0.2713946470118912 0.46239475641406325 0.24019301423928038 0.23195690094565763 -0.0991709120120124 0.3073253599888682 0.6374581923639049 -0.23901773290395606 -0.08061003224110914 -0.12241560020449523 0.12484845762433168 -0.10269405887665006 0.1218976956231981 -0.005085168979538685 -0.498165166954311 0.07544450316420154 0.08792922914441315 ]
[ -0.08333679857487082 0.01481825699789845 0.37847812912752965 0.2772179330725639 -0.2963248107116992 0.01932608420372124 0.15006277939836535 0.2692046579262449 0.11488732398958391 -0.09681270443758945 -0.15350578309324447 0.10420600886767054 0.06746973740410683 0.06265323434717485 0.0070259613914517086 -0.1287615222514267 0.1999016724327853 0.19883897089553473 -0.15373747443273234 -0.492619503660071 ]
[ -0.18621995853781917 0.18392044336083435 -0.3664222002629355 -0.09970916971671223 0.06436995687409106 -0.4583290541497116 0.11639429884016585 0.012103678760228286 0.009524177854909437 0.1380249924252785 -0.42649078311229127 -0.056223386051604096 0.14527966020753755 0.02414902128808656 0.049800083274528964 0.29859566314014246 0.18463749353505987 -0.05386659906777997 0.17517506923625897 -0.2222493274076999 ]
[ -0.003912719529107157 -0.19612941627097263 0.02663497230182549 0.34007869342767144 0.1877918809696692 0.042236548692667214 -0.5212943935884959 0.3056654339971564 -0.0015734439671610725 0.6879294134550693 0.06297847892433273 -0.0815741534933912 -1.0129405675977086 0.13832152287818972 0.16832929093450305 0.10141424560684119 0.08350008136629465 -0.4566939621274728 0.3871322767349579 0.015330444778244004 ]
[ -0.08217370095705831 -0.38916770999723954 -0.22585421478760803 0.12475563249567437 -0.1717524695211032 0.2997226736494567 0.05681215479565957 -0.12233003700141598 0.23465637200209558 0.19203505753544675 0.08814474540049984 0.015973001023836947 -0.3118487195739031 -0.0836394477578292 0.06948253732405191 0.025073390123914036 -0.48008572996979043 -0.07128676957400187 -0.14380646873903102 0.07215141335242607 ]
[ -0.18626625100414426 -0.1705640337532113 -0.20083315632912835 -0.16022458439362391 -0.15594958459405686 -0.04430723358820221 0.09989519745682293 0.1582403082348224 0.10567450728136718 0.26799444887115376 -0.0977719039885562 0.017914470355314457 -0.3378570363183047 -0.06604799471019443 -0.2817285890261715 -0.08232266966555744 -0.06731867376962697 -0.41275092541136565 -0.2827240884148625 -0.10612680581868364 ]
[ -0.48010954055940464 0.012819876031249964 -0.4689559032773419 -0.13968640368625027 -0.2685230658983333 -0.014520729507305935 -1.322107017816589 -0.16002047059538205 -0.02059798485071629 0.3205634435540616 -0.05913667723536186 -0.5381466712286312 -0.6404312321851261 -0.16952763284348044 0.10802082436573138 -0.22859120930596646 -0.4167230069328629 -0.07826737007305859 0.6964496652026503 0.045755033801903745 ]
[ 0.4806723975454158 -0.19252894830400213 0.3614379447751543 0.34393218629213745 0.07823064060400195 0.0022784607742864626 -0.19322127354436522 -0.016884886212701497 -0.3476869744766445 0.10376191315274941 0.1364266706056893 0.2546241394146083 -0.585021131272477 -0.035570320547362894 -0.011644780348711352 0.11435789931135075 0.20412277297483375 -0.1963083191234766 0.0588905862162873 -0.3889491032266029 ]
[ 0.3638416263432821 -0.051408150613739115 -0.22364034923158696 0.08246324215521975 -0.0801173689341967 0.20815576401786132 0.10630581597802759 0.31523724882673276 -0.2006616190564419 -0.25979277118846617 0.168756474629496 0.04999995542754985 0.13045089325366913 0.4458436388528435 -0.27847624229251616 -0.074788681256945 0.07268076233752557 -0.31841750751343956 0.052775446034095674 0.024320715453378338 ]
[ -0.5266575226153363 -0.3375703303571683 -0.558275205980173 -0.009024414252238929 -0.2774917093639184 0.1869997102381382 -0.022185265573606228 -0.3295133722442196 0.3565640731374769 0.3934562892963522 -0.21847954118751658 -0.30846987764461614 -0.10469923259415419 -0.18972728622617854 0.16461291653313498 -0.013324377674767136 -0.47168253286697415 0.09646676551041025 -0.07325535961296625 0.38157591690908504 ]
[ 0.09610209313706589 -0.09216019979882697 -0.5479098521348923 -0.30072769506273495 -0.22795531582038134 -0.04531713256825619 0.07670393523257531 -0.3629187297800289 0.313421309605315 0.4775817328779133 -0.27142289407920134 -0.03988717134736636 -0.48222965946341434 -0.17661916070403447 0.035009407421910624 -0.12032911581611894 -0.012468037651775411 -0.05122881938049348 0.019241336744954103 0.19468343843869357 ]
[ -0.007643345362800473 -0.7607063435096487 0.3894779060271851 0.8925902834089949 -0.024356082176539465 0.4765464891724519 0.12648054704372844 -0.2829619133299658 0.022506740898272683 0.3459652893132622 0.2965591031994355 0.6999622171093599 -0.36085528054909716 0.07813449683317522 -0.41020018526200136 -0.15910904527744402 -0.8430693090916557 -0.5252121888153444 -0.37104552780951333 -0.5126386584607407 ]
[ -0.022523514673497308 -0.07972610953506007 -0.01310085340972584 -0.08201525569148425 0.05961295356706519 0.2866498832265694 -1.1489572238045989 0.1391245629077704 -0.2711301392102392 -0.2627344731437696 0.6634692448372408 0.16879276300775464 0.17730956005132673 0.0020504080984646003 0.07300989739393975 -0.3842579596424039 0.13832784255400782 -0.5981232465594474 -0.19193644596291815 -0.4165132259210447 ]
[ 0.4317592668668426 -0.32392950941262455 0.15012851443949526 -0.07595575641822853 -0.03602329221873791 0.6643275246926027 0.09758704472021945 0.08487733341216984 -0.001703919972375086 0.10514068621793754 0.2914405801565907 -0.22297949044783483 0.24128427064505878 0.32040139290707664 -0.009927801389786878 -0.5366549470202353 0.09460843717390888 -0.5018598237468141 0.1540747668135048 0.2610029683657699 ]
[ -0.05594807392967489 -0.12452647369414688 -0.1578420447390055 -0.3148546157806442 -0.001832407789166174 0.17036091747071647 0.11194192944646832 0.03651632825525473 -0.151715959202763 -0.10254580427471809 0.1906642849942608 -0.18795302970694233 0.13001183637131733 0.11489168827156546 -0.12420931163080724 -0.1929573146671646 0.12600665481196197 -0.21823807369149112 0.1778836744495626 -0.0035497908243291272 ]
layer 5 Activation
tanh
layer 6 Dense
20 1
[ 0.007336057714447343 ]
[ 0.08217429466276714 ]
[ 0.0064740029613993355 ]
[ -0.03171336191389396 ]
[ -0.015535200223344998 ]
[ -0.003944066756568931 ]
[ -0.28731380505943777 ]
[ 0.002363545400554722 ]
[ -0.0286065191764494 ]
[ 0.02641442680739675 ]
[ -0.02525006917410928 ]
[ -0.05179491450986985 ]
[ 0.02859834974938041 ]
[ 0.011178082332426367 ]
[ 0.0009400964498910227 ]
[ 0.0005329337627926874 ]
[ 0.07642983812978066 ]
[ -0.0014871837854480512 ]
[ 0.055605517237951575 ]
[ 0.027316997535204484 ]
[ 0.17186061133914182 ]
