layers 7
layer 0 Dense
20 20
[ 0.16618764025178315 -1.263122240914259 0.6026296400453625 -0.19287056819461482 -1.0807895801216678 -0.14488803542005044 -0.29190202601504067 -0.24357310931621523 0.02272273739249434 -0.05455182931630203 -0.07793719117598327 -0.2153947314274112 -0.5427885576772972 0.09740643016071157 -0.3064815426443402 -0.24878013526297807 -0.4589158628369085 -0.25474330789201316 0.3536169651720784 0.19220013439099498 ]
[ 0.2673049226568604 0.282917292741907 0.1159870147932106 -0.15602181438528753 0.3388266845263607 -0.054622220852316335 -0.06447246222843735 -0.2706733141207142 -0.005505826282081004 -0.025739342419708468 0.15044004582142614 -0.01549324716628548 -0.05141349609857566 -0.13858688530312266 0.22650284345584643 0.20354524599814774 0.2098533139907706 -0.12028696402923823 0.16830747552201114 0.187046409714333 ]
[ 0.01806119058547075 0.150687245691139 0.09799805151742767 0.077672527541329 -0.27989349578485107 -0.10022880657180464 0.36639880125248847 -0.3678492459883885 -0.17803366886099292 -0.19741896206870232 0.2003170264678238 0.10947840961230314 -0.02860216324334637 0.1401365958038361 0.2970520241862232 0.02438041494485407 -0.32462305215548276 -0.24924112411667246 -0.011326953236359712 0.13790029051293418 ]
[ -0.31898831171212577 -0.7295791636828729 0.339294031836184 0.05103025333426989 -0.698801493893552 0.08639827391621704 -0.41060727644785544 -0.21968000099284193 0.32883313242276424 0.014237439449916813 -0.021480763982415732 0.20254152280443163 -0.23608438363164555 0.0742553557431992 -0.4581105082933755 -0.04367512458009353 -0.274079672288161 0.17967577747583963 -0.043024909975592635 0.3794702879078644 ]
[ -0.6201324149593543 0.01566933311214927 0.7006905322146832 0.19933691091324504 0.20968821822453326 -0.07603468503906287 0.07834815016258138 -0.30823210095744796 -0.6303698414941249 -0.41522280040020865 0.04630005625357832 -0.2757192835704502 -0.46256504954542865 -0.6460568125297865 -0.1815882938781808 0.5630647929246538 0.0478062713911055 0.5165367089930356 -0.33007776696918273 -0.25060909551635085 ]
[ -0.2572717672998165 -0.33781459625677224 -0.30375115851724244 0.263786973970241 -0.1488941798933599 0.3200914466846506 0.16816558150997343 0.025765587646431415 -0.06266412342177818 0.08161928755451386 0.1590766332303092 -0.014243976682984112 -0.19166278821020175 0.24939292094553606 0.06986702839571675 -0.06736491737509484 -0.2813669494322912 0.3357961582172111 -0.2494941071040702 -0.17778339811143515 ]
[ 0.25685738612094977 -0.3446505372269296 -0.3498505343776756 0.12062884557633688 0.10368548754899115 0.3101765876209574 -0.2915724102753253 0.04801766215438105 -0.16869736492120307 -0.017456348551394017 -0.3258958835214866 -0.06624722591912803 -0.25108408211745764 -0.18802386657620626 0.37441700831373875 0.3470927765788121 -0.1603289584063388 -0.010914483631154066 -0.2888868477681803 0.04352302462450956 ]
[ 0.8295317064760428 0.5090538751079344 -0.7090122192835275 0.20752318204200174 0.11263658912161591 -0.06903467121232387 -0.21182761267081895 0.3840979570294312 -0.19968433014243397 1.044217430212975 -0.7677722116550227 0.13081232059273812 0.8553809941500792 0.4100353078954698 1.0275140449260751 -0.3242156520597515 0.645473072661352 -0.29645228602498114 0.5241580527991722 -0.18048706358018243 ]
[ -0.09759015886029841 -0.791344148231447 0.5950650793692158 -0.295854940672076 -0.37642476612356507 0.055512129968219096 0.049708614871116955 -0.2357481899518787 -0.47171588525374214 -0.14323777354933287 -0.026947264598049962 -0.1397068795725269 0.1534095235210497 -0.7174334162948774 -0.6039379580585363 -0.2412107156645253 0.6420156246758989 -0.3384244345744394 0.24105239839507994 -0.1421513117798525 ]
[ 0.5082731197995798 0.2800703205531638 0.4669341591348384 0.2856005083329176 -0.16874519843329436 -0.2752109985153241 -0.8574486272111081 -0.464932007229178 0.7301539271482885 -0.3259278098272819 0.5531092799085722 2.3977797294782532 0.0890429338390315 0.6938146793728509 0.33634575753957036 0.7296151044347244 1.1985655237537347 0.06023237817931377 -0.9095083872103535 -0.9058249865946831 ]
[ -0.9589506912996474 0.047907119219160854 0.7395440335852085 1.1958641551510738 0.20731626542506218 0.6027716396936483 -0.9676325995578456 0.01888118026345577 0.47950161478731584 1.5100914022667915 0.8396027152775821 -0.11885855315805892 0.9528678327850977 -0.6756612268389713 0.23221936428284737 0.09555444910749686 -0.5399255215656171 -0.43644944560238713 1.563798708321802 -0.47657212102398006 ]
[ -0.3589914591267404 -1.17594394309156 -0.7083774206768111 0.23408420003155103 -1.8778461890974911 -0.592071086895669 -0.8108131786526981 0.4905076135772427 -0.5868999654692297 -0.656210388653979 2.0853461384725502 -0.21034795535069917 -0.6564027570058134 0.3231713275036564 -1.756831487117182 -1.012806128196463 0.8659801576810797 0.2563312583025684 -0.014815988785493197 -0.5130937872349426 ]
[ 0.1133542507898891 1.210701978245257 0.12687602366484033 -1.0520562955812713 1.729255009335362 0.0855157110159743 -1.1994696283577142 1.3810578985133684 0.49147855436823346 -0.11455534577582882 0.4716649827292654 0.12022509872485992 -0.6692752479480525 0.10034302210314881 1.5930573279486338 0.7517412099622114 -0.755014139180659 -0.31667543504121953 -0.321770509913293 -0.511128787385719 ]
[ 0.25831469264010415 0.6854007216284896 0.2156675911750459 -0.11738684646166633 -0.4147723382436831 0.13972393385098694 0.21961373391928918 -0.2713660991799487 0.01664672974276482 -0.18452484651967918 0.15339940665980895 -1.0494056492744852 -0.1737985675230485 0.2858994935504964 0.04435212617211981 0.1214762212871727 -0.1460886358603456 0.4026455562837604 0.6090205781351307 -0.7854339509445378 ]
[ 0.19539195386600203 0.012845170161739996 -0.29456282003555795 0.1781995695433877 0.22942960400669168 0.07265033734167052 0.34235215795191715 -0.2248324189804999 0.02857961105784742 -0.0850033041001412 0.22232067327654573 -0.21165666917682827 -0.309953547822902 0.43072469196119145 -0.20515069249020915 0.6449452834533801 0.0850083756850407 -0.2650944979163851 -0.5494655084257971 -0.11480616899182508 ]
[ 1.5260713643795214 0.1701336067814275 0.7766960106189784 0.6314509327147556 0.516042713889652 -1.3258004713384959 -0.5666389255988658 -0.44534343136430143 -1.9233167791300352 1.0063941833177357 -0.20945987177336495 -0.6405295022690087 2.1887608378776946 -0.9387298509088686 0.5553304861354292 0.3586127871290855 0.5702750825018251 0.2993175170794763 0.7491582495016642 0.910609246248488 ]
[ 0.5152873020649514 -0.013390861664231367 0.9459623540433345 0.7347571722558564 -0.6522605194467345 -0.7226147338878648 0.4497608193721959 -0.8881601767688111 -0.3142722441827106 -0.06683292548925214 -0.8213323130169056 0.20633315365633678 -0.06620075073088924 -0.27917969341284804 -0.45766399591130036 0.31196068015240014 0.013246347761133712 0.7559683514208827 0.07353172224983967 0.3764181218195169 ]
[ -0.5007548661610288 -0.30429887176459486 -1.1635095482109046 -0.07564728550228564 -0.2222693971989727 0.6987646722266115 0.9962031521443502 1.1423451239438267 -1.0993062910812614 0.3188061053498919 -0.8348413135381222 -0.9336406890246862 -0.2724718452341132 -1.3910401758621749 -0.3420721616007407 -0.6792985421631477 -1.0926122624649188 -0.5067369799769402 0.08270940328249465 2.357937091634996 ]
[ 0.6884087722657224 0.26621828830118993 0.6381057291855075 -0.6670857882399945 0.3898809080684912 -0.8306045766722775 0.021752198207227822 0.38905882607226294 -0.022951529973771093 -0.973067292093189 -0.960638594351355 0.3817372604269823 -0.7216373076256825 0.4688921623546253 0.07895336536617598 -1.575864708533654 0.455638551447888 1.9078733266455805 -1.052125831188313 -0.4343951452069914 ]
[ 0.09784671563220253 -0.40986105593351546 -1.3381731376131594 -0.7613400893759885 0.1743077822855574 1.38769283765475 0.08938923968837485 1.2072153669507737 2.8181186884367704 0.6828061163895983 -2.0636723442485922 0.6400166378239343 -0.5927558653644537 0.6061121310613693 0.4448064523327141 -1.5025102419045209 -0.9184534651319931 -2.5830040823730096 0.4031533352480154 -1.448379504268947 ]
[ -0.2168589501607267 -0.10384171229114054 0.05566372915087227 -0.09082233967797099 -0.10702559822835349 0.0662732192566304 -0.06827284756403948 -0.25130577666220544 0.3128090409252423 -0.23678680575848687 0.30110766986084364 -0.029537758035121296 -0.26867898626147324 0.16073251996777096 -0.36244093036929026 -0.03982129138844106 -0.22764316607744325 0.15375960082703302 0.03651752474499628 0.2989596164452326 ]
layer 1 Activation
tanh
layer 2 Dense
20 40
[ 0.14385221943558538 -0.23064253032207657 -0.7632008415402848 0.08147111210840398 0.9887957848200714 0.5354200697885255 -0.19309694237012862 -0.13088080744895528 0.9108698505404818 0.27952121367439514 0.3843950628501926 -0.3776302572448632 -0.796286116476243 -0.7201922851672032 -0.09416052436471749 0.0621671392642681 -0.1906364593443236 0.0634328217626382 0.17475214669086603 0.2620755514948991 -0.02049893269317996 0.11947172227402761 0.4288893985472868 -0.22504745167655313 -0.25360343267914304 -0.4532403289552573 -0.16939648693939052 0.2380851891200443 -0.3091953990923879 0.20757221613872834 -0.1542659795950087 0.49042302301615315 0.07878676852293903 0.21323345651121664 0.6513695365576818 0.0227402497187969 0.06254413063227628 0.02308605719915479 0.045180051689281825 0.1288641630132871 ]
[ 0.03156935355992301 0.06683911207603488 -0.46957291903638115 -0.18834025341834806 -0.20402384394684128 0.05371530387531265 -0.4936384787138383 -0.3573771037453639 0.2953188203997378 -0.3984296519733115 0.5883569430977281 0.1861614691989485 -0.4820500348073237 -0.8808109205114167 0.29801225223618605 -0.018812822723538368 0.1071699873410832 -0.01599573657517796 -0.18538085491269812 0.111284691278551 0.19809506115091424 -0.13905044476783907 -0.2759623622808012 -0.27569222982289276 -0.11097013189658404 0.06814884437983697 0.6229150693024839 -0.03480258199792086 0.024249975209080586 0.1803816401320992 -0.24891680150757703 0.5100179210925381 0.1229284191432859 0.32838713028213296 -0.49980706056213536 0.48878514894904934 0.5208227121557016 -0.09338634298908248 -0.1118726935205605 0.47947506403807205 ]
[ 0.49581660988550313 -0.053968125526462636 -1.064558162315341 -1.1097216798221365 -0.850148350730178 0.18162427962000663 0.2753036010608404 -0.3908869264570584 0.03809628143555964 0.6697885945057551 -0.6601403289658212 0.3235858523585564 0.3828063046909854 0.2752999180365465 0.3015627617944734 0.6862008094230595 0.14027094533049414 -0.20274434557760548 -0.2705657016041692 -0.21927216797129884 -0.20466551187534424 -0.04312194400594055 0.025922169719449696 0.5192369911484745 -0.12413602701092527 -0.14374093121735393 0.38914612873925636 0.3314980101275025 -0.0007872475825261865 0.03903508384824416 -0.0963736486508786 0.11267669171329547 0.9827088692244456 0.22279622810573887 0.15125155623490735 -0.6229003217128555 1.306424872457627 -0.19722111767580908 0.0557512837772509 0.5428890770638378 ]
[ 0.8087443610108916 -0.5861768209264615 -0.06893872620960606 -0.10223182820387984 0.43419186116813896 0.5790515143616729 0.49465275568164735 -0.2518343860661828 -0.3715900981842287 -0.0641966568671136 0.35683030638575103 -0.607377325278716 0.5633280544826302 0.38406613475054385 -0.12130091123335776 -0.8696206516689925 0.4562546997791258 -0.09457406672770818 0.320464014011658 0.053351790466162376 0.17360500190171527 -0.10925951742192068 0.10385516185385227 0.6082055377933283 0.10503149215165879 0.13912988068115997 -0.09533450154588277 -0.12929015809293049 -0.005278008522168708 -0.08390682381738804 -0.02588441208564794 0.1257616194731856 -0.18153556002497404 -0.1012599169565731 -0.5281007888372228 -0.19448226764095758 0.6264113060771127 0.1721871431740679 0.22475468788723374 0.41282064300600496 ]
[ -0.6040128797676753 0.28990338293041834 -0.09827496108488891 0.22568421650820017 -0.7504636641396064 -0.04295003365130161 -0.18575865003646616 -0.3437367931275762 0.557288422057095 -0.33370176512582167 0.2143624253210529 0.36485869573141927 -0.3348905180227978 0.29577762193216584 -0.05088358107544163 -0.11799802461938146 -0.06278541015018577 0.023323486665634736 -0.35533588069122585 0.058533737695525126 0.007565987353436403 -0.1413027732793343 -0.2719271554660657 -0.7764882450056368 0.004858632283425585 0.02406127146246103 0.33786295713348163 -0.1540749392816768 0.1802490603858127 0.04147605474683169 -0.36113263507320414 0.7527665208257689 0.8012704564534071 -0.3667215472160261 -0.7565860539386549 0.7269637943842683 0.028243064172495124 -0.13478584009580352 -0.004069090350948028 0.3709613602363785 ]
[ -0.42972784928788815 0.43888269963753884 0.24321068752925804 0.14090564110809214 -0.17806633621200713 -0.08362142036580106 -0.012832945543708089 0.21846202329471529 -0.8314934518080411 -0.34145678320579487 -0.059725910865064256 0.3252201600715405 -0.22843309245327206 0.01870121259378708 0.03796208403613574 -0.7453803577232293 -0.07025542188862373 -0.1533747113769377 -0.3328318329030641 0.2708636045007488 -0.2813091918190818 -0.20989717676338768 -0.09211668920860017 -0.7198548779661564 -0.026814253300153544 0.4010299157959031 -0.05235952124423182 0.19628955765566025 0.23178404359362548 0.023563766184182582 -0.15457039746458112 -0.39566065546637685 -0.9238199493108263 0.17051125667592182 -0.10325950872801318 -0.25005978966348286 0.07319268044150412 0.22928824135969111 0.062140735478395506 -0.21315290973336362 ]
[ -0.7252304506304122 0.2492291980990594 -0.26904273620944563 0.6354605657477873 0.47860479508179965 -0.3577962672719382 0.3980230256723219 0.06288800683541161 0.20300357381537584 0.12783139766984533 0.4068997634658301 -0.742943909217503 -0.006112879920197633 -1.4235339350099638 0.16655492787203932 -0.4663099888303128 -0.11247634398597668 -0.4376021343734763 -0.5372789478972043 -0.6306142473984807 0.10032139126180248 0.08608402637537317 -0.17369993021982222 -0.17255472181951192 0.31885188335679876 -0.08834618864942854 0.014106326427675231 0.2902844666082982 -0.13909651176924803 -0.15057414452331475 -1.064120928043606 0.4990441926683592 -1.0608546149542086 -0.42687349051173606 0.25672573904298407 0.4664056947775021 0.6621073167399083 -0.009751170191951446 -0.04980323597630538 -0.40011030418208576 ]
[ -1.1317484038946501 0.10444194206968682 0.7459345408250961 0.7424740530004988 0.33802131617258024 -0.1098680216383284 -0.7274631055681661 0.029721341697789408 0.21448851088160953 -0.527650564813932 -0.20602452760987888 0.3808102138463786 -0.10829088731857643 0.5140337997850776 0.20115633138580555 0.14544734932611186 -0.2771815975272389 0.02355921503743511 0.3142803184792843 0.2880784757058499 -0.16830715598962956 -0.053458390998441255 0.01916625721734149 -0.10271634399307507 0.015552159318851623 0.10713472472723845 -0.5449692464413436 -0.28876976026170115 0.19555317372750222 -0.10737432140288551 0.1571709930379105 -0.0665753425991071 0.04431123097305256 -0.05576292229386264 -0.24866387320576644 0.2358850121842919 -0.8226635615071936 0.10772312488983947 0.0789682195064006 0.04627064236393528 ]
[ -1.7666041235067294 -0.12074013972784238 1.090799966643973 0.18366381577886365 0.4170625250251726 -0.38441005632732783 -0.2364470706763796 0.41253548994729455 -0.8439438118770075 0.6996584561991103 -0.18626818684567614 0.5671114414903126 -0.06666452407835327 -0.44644762792144327 0.09727192416058754 -0.3500509000838335 0.5041793500564 0.025098049887964304 -0.3966851477222033 0.04572432035380883 0.12096027713463021 -0.17318478075585172 0.39217851579452906 -0.3048467928026329 -0.19588262144508622 0.0799350100483158 0.43412801934573 -0.4769337721770174 -0.44310415746748405 0.2618983381426235 -0.30392716226954075 -0.40378197660800597 -0.23129510977367224 0.279510635925039 -1.2748435291337568 -0.8879865822972407 0.8720480330126557 0.06609363352485129 0.06748273168934005 -0.13058306318390772 ]
[ 0.35242943492969836 0.41385135953443397 -0.08227472965454463 -0.4757521266245077 -0.05142514471258421 -0.10699398034146461 -0.28904532861154036 0.39817716538236075 -0.23074478491932562 -0.2929588802972314 0.24718644102676957 -0.43813830197484327 0.16757814569968701 0.27096162639765203 -0.0658187755758667 -1.2898337112166165 0.3485984421242109 0.3505341425286087 0.3901204002442376 0.7448882308833024 0.01249827187543469 0.1371366450744328 1.1331801298582245 -0.7422385217968871 0.012201578773773317 0.7408830943010528 -0.41272990937209486 -0.7995854992112456 0.06001988819653587 0.2112171954780193 -0.3235548669691098 0.18422905581744484 0.03306777359470205 0.12351701623327453 0.888354859775351 -0.061685585596029116 -0.15981120174146657 0.2847911785869632 0.14664864864241944 1.0293935918530752 ]
[ 0.054264569345687005 0.12263344227852871 -0.04535895193808216 0.27232740215239787 -0.7623538554230926 -0.018324271974212034 0.406710916321666 0.25904347777714715 -0.24302171052713795 0.4164128182792669 -0.19497776717635132 0.9816061641996542 -0.06010536254343938 1.6674044188036015 -0.14294202877274867 0.6804682805740159 1.2341028603177073 -0.15917513793024285 -0.24593945728944414 -0.8805344290200103 0.13126779963883153 0.0034202061408552245 -0.3909010834335059 -1.0301025368179542 -0.03152704762414744 -0.6779247236621595 0.17333322975438273 -0.5637089369744828 -0.10952009485172812 0.455609272143877 -0.6693216237057621 -0.580902354804465 0.8145457844702728 0.07462264360745363 -0.47857401788634624 -0.4373518062847429 -0.6148094029275677 -0.09971104834999897 -0.2362231257950837 0.8325071905087524 ]
[ 0.30254238175290504 0.019246238415318834 0.3552198273295213 -0.4337464228259288 0.4273441658100806 -0.3610696180977992 0.024606084001351777 -0.2178382454483835 -0.4550231502020083 -0.059292897660129615 -0.2512005007832965 1.2625838664775946 0.9118102584969595 0.17475772816043178 0.3529936879452013 -0.3784438645730967 0.17780167958386725 -0.48811258770536303 -1.0088525388053238 -0.6402075718372762 0.09606235966121796 -0.0862568671782175 -0.030424573988403775 1.2284344156550213 0.012225920494467964 0.23320628918420186 1.1664014634877493 0.5636721848264588 0.17428861523797928 -0.18455459100511548 -0.33905010350130343 0.18907002717258556 -0.2706350274727209 0.1307815554755037 -1.0547163642826023 -0.9763922531790069 0.9871678779247799 -0.2578519179888315 -0.004176553842866069 -0.6534233868807304 ]
[ 0.713685430343695 -0.22051760961028335 0.34227339498778203 -0.7266511058696371 0.061197479025279417 0.36026084536472586 0.4109984359511413 -0.9590556028370896 0.07481832312255088 -0.18433400423671256 0.4160458997769945 -0.021194063999431717 0.3674581958100635 0.32118070368208385 -0.32683146912924044 -0.4968030551357043 0.8388858704991609 0.05652203580833569 0.2267565075053393 0.6919132733709871 0.2865277536922108 0.0808230043060292 0.03041081845804024 0.11740457066687765 0.045372957211434695 0.7239079821991076 -0.09527191491627149 -0.351596656575438 0.020474657608971693 -0.0022883384116469223 0.07214867663855384 0.5487088177182864 0.7647028226036938 0.02444704355414914 0.7043167726419209 0.46023621574887574 -0.1392572953777134 0.31238701707337974 0.19573175465368747 1.740482362031616 ]
[ -0.20541945812575663 -0.24143155616371645 -0.7597813005296854 0.1152714007932052 0.9302249567977876 -0.22558214952952696 0.7627363254216971 -0.044039249397926764 -0.08060714040684952 0.785532060969021 -0.4390592072102639 0.9764249700554031 -0.6042686732285506 -0.1487274424784707 0.18583301934873933 0.0882301275955198 1.1515541578075132 -0.39399093911189803 -0.8888309147426752 -0.09591867173895695 0.3662460521156222 0.0652785690876842 0.17592142587637055 -0.7207235103889221 -0.06483004580750655 -0.5617077726170752 0.19861835479280512 -0.06252706653556742 0.10911216347969611 -0.43559005688341124 -0.14991327997462386 -0.30095634010451044 -0.004215602844777585 0.261324590732781 -0.6628109485487937 -0.25521089149836024 0.6997812960754514 -0.8254915551733166 -0.5769428320670712 -0.45601258262474315 ]
[ -0.021732531070094936 0.35266128885920833 0.17918483498148774 -0.6435497436583373 -0.017941311314632422 0.26741277248707374 -0.8639716171878398 -0.6091663489911527 0.32915983042542063 0.08571414073705093 0.5937081450515028 0.11983399598850211 -0.8701324588312142 0.26306217164253953 0.19536629231383357 0.12231641947354722 -0.05569131571287134 -0.090033348667063 0.13911139720032642 0.012495999807151124 -0.3043162013883759 -0.006247769621089893 0.6188178465641154 -0.03194329086750257 0.0795672263486134 0.1614437438284875 0.23279144501962148 -0.9181531107864408 0.04274928996428827 -0.11784276916562308 0.15817790175617832 0.8653108595634249 0.5849981847636596 0.10715474908867312 -0.21444489856059248 0.4284994108003407 -0.08041381633793462 0.020393963327249263 0.1549753505852793 0.4392619613199357 ]
[ 0.2720613965075619 0.1045110404344429 0.041109604001618304 -0.6735248347701296 -1.123059816840652 -0.12096528404363362 -0.2860238006990225 -0.1714647362087315 0.12523647143545377 0.44020063899393175 -0.2797689230512542 0.29866482619288104 -0.07965919467162115 0.8200732546500559 0.4082189513518921 -0.04618274793489553 0.4666201661117083 0.08498620967661913 0.21927438781790223 0.36198458330041616 -0.5844481013639312 -0.12368209720585205 -0.0947643409098922 -0.12102589992446468 0.10501586516810262 0.4853462797750985 1.0897910447352273 0.6235059200041371 0.15804064018151232 -0.35299760644712136 0.21483147723830984 0.07877835523819653 0.20325529296908013 0.1966730057384546 -0.1123411933490822 -0.05320267506307701 0.23278059091416067 -0.06195218339697327 0.023271284260189165 0.00018725069817964842 ]
[ 0.865046120294712 -0.007418468794676185 -0.46775187293265136 -0.7443015069854423 0.352017781596156 0.011380391576976547 0.036584667052162616 -0.03396284335925029 -0.22860288122057984 0.10729298693066078 0.0626137548789676 -0.198515772360103 0.26820046708227047 -1.030182306766814 -0.552232307205004 0.04258869826704388 0.04093928655163128 -0.0014919596024252592 -0.018276090299656038 0.03149937553997423 0.5580993235110047 -0.1004936465616441 -0.24202677783096038 0.19330440533611212 -0.13370910171244757 -0.02187913862889815 0.5456580598477997 -0.05650063657297321 0.22108588610550342 0.29529565999486984 0.29183093682669164 0.2620391578232014 0.16126741559935379 0.03790510507830469 -0.05289903843950042 -0.5019375702892435 0.18535139730589484 -0.2745092662957217 -0.1074348656074332 -0.5506477582509212 ]
[ 0.12471582849549748 -0.008043102798675554 -0.7627929291865244 -0.2170876003305258 -0.42839633706176833 -0.224346007632443 0.10580218971587724 0.42576967230058105 -0.22096434030614495 -0.022865236205242754 0.053175258682674975 0.06328346532498785 0.015589511038376252 0.37197014856355076 0.1097720602001596 0.9880330210978949 -0.2798416446399206 -0.06448643837829222 0.17010079116972524 -1.0684149976461597 -0.4281165907646235 -0.016281060317891345 -0.7626996645034528 1.572392286438462 0.14601996657304261 -1.0365820646439465 -0.5479930437860395 1.232431133623704 0.060025206148401955 -0.06743132283164681 0.9361015005968352 -0.0708801083205956 0.8414340497971078 0.2044466960065085 0.06047491310066498 -0.31896040475725235 0.6986385143234131 0.051138954488205296 -0.7462235850827891 -0.6008879346604646 ]
[ 0.009287770355722296 0.08669579226837994 0.12214406350030106 -0.7917446952481196 -0.17724984933943175 -0.025080310980459566 0.6310370550759495 0.42164042542122127 -0.5049234886562555 -0.22251586257710596 0.009103213869667294 -0.07993445113026834 -0.01891635554021442 0.8782193294972909 -0.12327682668321462 -0.07411744486895779 0.3910187935220552 -0.34489491622577567 -0.4903624568257903 0.17828663271923056 0.07344094579850455 -0.08562917107928687 0.5022360790515789 -0.8595543317909744 -0.08257770601129523 0.09430542655697298 0.06522037353929509 -0.707141875042151 -0.04023809531381073 -0.1685359618025485 -0.5303907094075713 -0.31224840829274064 -0.30888639423222525 -0.28422850196064064 0.575765133166909 -0.15094849213839645 0.08344881625258253 -0.039198155957645114 0.42730139828178915 0.7730549619865872 ]
[ -0.5873708798818977 -0.4161420976853636 0.956930087054076 1.2799957422448645 -0.3125304783119807 0.7450569850651213 0.05824970487429729 -0.06023732858074061 0.9430010520673485 -0.28765057568743646 -0.07839200365268296 -0.6194981060306437 1.1924601770368202 0.6856660727621869 -0.2614128622623236 -0.37839882382533674 -0.794805744749596 0.29834352903197964 0.794068257835155 0.16558056098073462 0.029278103188222025 0.28850419779095715 -0.08666996194291224 0.894762984873986 -0.07987392001692001 -0.10541591038262337 -0.7871492798230063 0.3235676465294827 -0.42673972274224864 0.11308115169502676 0.2425803137359448 -0.2775496644256364 -0.3740313477621865 -0.8117717341765949 1.0921857248811278 0.7223039087684421 -1.0594255776530317 0.15910916990785506 -0.11332422399600241 -0.17713230167202074 ]
[ -0.5361560861636916 0.00697369467887483 0.18702381344624525 0.6766701591025144 0.07916764316677273 -0.21823704169077687 0.41472634340723236 0.17673367938503087 -0.02445967215848188 0.3597968955929933 -0.26512114738331555 0.331226879162449 0.6346228645836579 0.8047647624549256 -0.0046071613765749754 0.40029571706786865 0.6505316893521572 -0.11638788870244163 0.1012808191999059 -0.05086222335859381 0.01769531653306545 -0.02125754036759946 -0.11176031409502715 -0.31189869568036166 0.02098889646060492 -0.2974149511323234 -0.37721135582599674 -0.1308407998980316 0.04939097326164039 -0.12797216308217457 -0.2056036274078295 -0.7252054425736123 -0.05641888332920531 -0.2705304514270637 -0.2838611085928855 -0.005630829217359395 -0.4164970885917565 -0.10498813707183781 0.06438101848478985 0.142743586723355 ]
layer 3 Activation
tanh
layer 4 Dense
40 20
[ 0.30152526793554096 -0.2671282471999941 0.21642624716335673 -0.2422001460445049 0.28861056524132706 -0.11753540015016645 -0.1782675562288509 0.24836663618037327 0.6208875638672304 -0.5917561207850033 0.2272997295540274 -0.4829621760703589 0.14776777895207766 -0.22314617462007047 -0.16077525240666785 0.16635491952994083 0.1823266728320016 -0.3438115635529187 -0.09591350836517772 0.07453493609279063 ]
[ 0.12170304072583939 -0.024060292101644266 0.001341131661175639 -0.0002970949086970118 -0.04320051348377427 0.3738022342334026 0.1998739049314477 -0.3201116770394663 -0.11273404348769597 -0.32001300062318033 0.22742009105187613 -0.12113747499171876 -0.4512526046045644 -0.00961950015300899 -0.11999590478297598 0.1565884311032975 0.24280735842241308 0.008845518811628214 -0.0029305914311039388 0.12280823249688108 ]
[ -0.25275054070897146 0.22906558763015597 0.10335902126928857 0.07194145233265833 0.22342675585232544 -0.08612686458166875 0.33097838530476653 -0.5450355568446799 -0.3276768156927055 0.19541771127904217 -0.5870270195724201 0.5747167018579143 0.1290944414535524 0.3273039256502543 -0.3282467951856845 -0.2623690053707838 0.16089031726910613 -0.18450951077931096 -0.11237818995857998 -0.14095176942067472 ]
[ -0.7645488291791909 -0.38697269787091415 -0.3108963060112249 0.2740488337781887 0.06825383082289774 -0.06792002456503182 -0.1454230665355058 -0.20093631838531675 -0.19129909384551602 0.3844077031221798 -0.03710599982239559 0.9286770087266766 0.17133184548707184 -0.4315539666238813 0.48247004511755326 -0.06875607094313098 -0.2422438846922222 0.24994552420023006 0.2636781949202496 -0.08437615864914945 ]
[ -0.42802425241090514 0.13321263876132242 0.06728039633787525 -0.4393084346111301 -0.07504946746751966 -0.10429512158645148 -0.2855454756315362 -0.07104336100564747 -0.008328550529811898 0.14523550342546013 0.007839515067547858 -0.1179758419345102 -0.2167726378293217 0.3420921028119775 0.04263184755718296 -0.18685191907968038 0.12046049613935164 0.13184763221188459 -0.17457798622964488 0.03011941522238825 ]
[ -0.17491521836515106 -0.12781681770607362 0.010143753565273188 -0.30003320129476746 0.22064653882972649 0.06859932594169618 0.4918639642187252 -0.03497087395934798 0.0909795990241314 0.5826600732229253 -0.026385138340016174 0.17065455818078468 0.2208759277926023 -0.08574174774439827 -0.026076909407307412 -0.14908126492434237 0.3473798055687291 0.061576341530838824 0.05530980948498779 -0.42482575325263067 ]
[ 0.09248666697081426 -0.09818508823566328 -0.10222823430677289 0.5541423010455178 0.041802596678881025 0.25539025637462937 0.00300515036181486 -0.05447725701463921 -0.0022984734901340285 -0.3059296624118489 0.5189826858349027 0.44029040022212607 0.10221982080720454 0.525059089192676 -0.2327396420421196 0.13040622165792046 -0.23974583866365337 -0.1982739310720122 -0.27574936792300486 0.3107509435819828 ]
[ 0.2582245532784528 -0.14433013360350724 0.03817426174440595 0.4133212767399816 -0.3293369061796901 0.3001670749828227 -0.21972782294033566 0.0508833336795025 -0.04634753285223653 0.1602939261507184 -0.05478503926508376 -0.14190097248426334 0.07561119637761651 0.45393017874462127 0.2977492147949337 0.03894637974107365 -0.04652308872752369 -0.47789819431173597 0.5184413186440023 -0.04972351977097903 ]
[ -0.47793370352565945 0.07150897993126996 -0.07658936349079555 0.05662920207732941 0.4024989335712623 -0.1562693436865631 -0.3416626378727698 -0.79376634120233 0.10512562195027808 0.4059665631266932 -0.2232957604866219 0.4655627580790729 0.034869285524330974 -0.6986882604568551 -0.0015335283100901512 -0.0003770516810727727 -0.26412648750812606 0.17868700112811672 -0.12126753621084793 -0.04450976366703884 ]
[ 0.15640998188812433 -0.062153255625924934 0.21248365948033848 0.21497738331073474 -0.20237948399679553 -0.03990741380321153 -0.2421818237163019 0.11256282841343317 -0.159043134487909 -0.3300512971684997 0.5404544762603215 -0.3570905326606756 -0.06149817104299401 0.42846552422768586 0.25855795441620066 0.005714507860723887 -0.30801171411956774 -0.25718261215179833 0.06205352015326165 0.1861704476519989 ]
[ -0.0587033661541725 -0.2640685149817664 0.21797423006715907 -0.5457377028120419 0.03299706567564499 0.25296627235832964 -0.14844452414300374 0.27115239732580876 -0.20041583325120982 0.0499573213201943 -0.2911678317862554 0.1927693211285935 0.08859812877143496 -0.18907124339599513 -0.07900289273053811 0.08400544103406773 0.34048270171041495 0.27114955801126334 0.10649552721277404 -0.09400183352961979 ]
[ 0.6478908729952312 0.5014177319229708 -0.18655769303875644 0.6685728973897201 -0.5636303720698457 0.32984920480008173 -0.2616113633958906 0.05289552853709346 -0.5106690101993271 -0.6367824444773866 -0.07904519557236867 -0.13231379812642116 -0.284744284378314 -0.22306542091494763 0.5109938890951584 0.16897001419577368 -0.12141036197448762 -0.09276843579799135 -0.6519419497201064 0.34927525183940306 ]
[ -0.08718407258156803 -0.05904848477727564 0.19241419138499713 0.8498067201306618 0.21152357750783204 -0.00199564640116027 0.27365776310498624 -0.4219206269091448 0.4646194001056452 -0.10818445691369806 0.07283196165535316 0.5253986567754774 -0.043427999505034745 0.41513696068429307 -0.5501416869388469 -0.020652906393100412 0.057557015756219056 -0.12970432743680796 -0.4829715557369162 -0.007821106489223758 ]
[ -0.509290296073735 -0.1786830988854612 0.08178395016118402 0.4035618025347114 0.1548494096586385 -0.2963026878025122 0.12197199462282089 0.2525090949350184 -0.4576886877575935 -0.23590802241602132 0.1363684248220745 0.5692189585725729 0.11793919068439002 0.012589973181334757 -0.0725937271114273 0.11600126950945118 0.2509534494196193 -0.07720813748916427 -0.40748426400048393 0.07219933414321977 ]
[ 0.27163061222763096 -0.018353253010324207 0.09074654946334001 -0.07714919628382623 -0.39886223017274913 0.03636697667245882 -0.31008400161740596 0.3084683210095401 -0.016384305226018737 -0.33717915647177266 0.16848278337704922 -0.146545771070578 0.004895182027120894 0.0016097169704507035 0.0723120758042544 0.0952601474408073 0.04327803701905271 -0.2537666091714823 -0.023497742916062592 0.18125599742442053 ]
[ -0.22990220095246205 -0.036824152837045675 -0.05856219218556479 0.41366067724068334 -0.3430472417224832 0.23066758677545485 -0.04329396328227612 0.35994673559514223 0.37446173394792726 -0.48348067999268957 0.8185887476770363 0.3749502665640243 -0.11530628207972611 -0.09775615925346827 0.2874476917293843 0.14158686565747008 -0.3199391278641381 -0.8454225202179562 0.13206653581557834 0.3615685778022951 ]
[ 0.10280689184035592 0.3779938828236021 0.13234030098820118 0.4285037713183559 -0.16610584920416185 0.27445050917717273 -0.2763091563030896 0.25718658074299255 -0.2835247529144725 -0.345681889476331 0.09274414882123308 0.37886824888656184 -0.31229663809571606 0.12560426484307374 0.7198515952337711 0.14585773524938506 -0.0187445211405391 0.04049533520268194 -0.3132732041826049 0.2760017502651233 ]
[ -0.09252923629609525 -0.2108475726507867 0.01546070086450818 -0.12244782407811697 0.00983196430590198 0.07589824095771512 0.37019120566257196 -0.16661902823255226 -0.008491162029259652 0.6537411014438794 -0.03875105687058684 -0.045752555590943794 0.1315108823402799 -0.03842655386400175 0.07488344308814103 -0.188893686020569 0.04604317959661218 -0.011137583740845381 0.049847471300223836 0.029016093154663428 ]
[ -0.14697222627320977 -0.05099060235155778 0.06297266241235133 -0.09312387213515094 0.5592545282637522 -0.38418086071878993 0.06967510910950506 -0.5722366493022434 0.018651328324175622 0.737439779669652 -0.3386427924863938 0.12269306649221753 0.03128675175554907 -0.30676720184847955 0.35431841001175063 -0.2645293935928683 -0.02820970552135464 0.14955654668003304 0.2734856651990051 -0.2602734189967476 ]
[ -0.1708931834920971 0.048080476458563635 0.24351559067925227 -0.01577063237861721 0.21252404232812128 0.007400519583237805 -0.14705060252694305 -0.5529277341341317 -0.18530450215517996 0.9844647730006425 -0.5072717819888789 -0.3113243838970301 0.39251744010268014 -0.24182449859826638 -0.2031188654042383 -0.024548991650570232 0.2703850167463077 0.7715957466942858 0.08934022367023535 -0.3716420767874339 ]
[ -0.13766903565234848 -0.22841857232121865 0.009808054493387813 -0.09703273031808958 -0.12295122368995642 0.149427109192668 -0.11536279327919238 0.17230124184945925 0.059614329371289874 0.09484252160273002 -0.08228787438356712 -0.019135604314363806 -0.15048507732435523 0.0713366474059301 -0.09555356819331148 0.07674914590613782 0.28192583133496735 0.3981560591397835 -0.11243401888027213 -0.10289619576089017 ]
[ -0.09001108796494493 -0.19208851696797594 -0.114918886363079 -0.13947444996510705 0.050032112022780705 -0.0608648094856771 0.19102303722460648 -0.12045401871815861 -0.025228788857016956 0.17503738574338135 0.20560758510975577 -0.03496066400265311 0.2596234696690322 -0.03156514379879805 0.05860764810595331 -0.19665451673587583 -0.20713284749301641 -0.05770709640824802 0.07178883618197864 -0.13457033690473788 ]
[ -0.2192721519800446 0.011478665646076794 0.4559133933555888 -0.038730126962976806 -0.19313321643619596 -0.11498073286127139 0.08745682559827178 -0.14773315572193588 -0.17604057244503737 0.2929966852872445 -1.0864914966527452 -0.4739882614668941 -0.17046139193258122 -0.1303661585968124 -0.07405986468818454 0.013523921111038048 0.45503709742210086 0.8189279789687037 0.03401788463511172 -0.1542934048958502 ]
[ 0.02459594879257307 -0.027594897691885306 -0.48715692530926313 -0.3731301615452985 0.15024611111064554 0.1631997469084651 0.2419866595956863 -0.6558764039130979 0.7296699034201071 -0.17717777983842323 0.4454038378220573 -0.15390236753221925 0.15373159635456646 -0.1822907101286692 0.8011528519121859 -0.3243286860662693 -0.19580840411578318 -0.6360115950679565 0.06981609258650938 0.0983076267739175 ]
[ 0.009585845360922341 0.19953762507730366 0.03485984403748218 0.12673618518105925 0.133982671446136 0.005591593853378031 -0.023782160026408823 0.0419591449350126 -0.005847445847285107 -0.154683198286261 -0.0010855688689126487 -0.10961642363877583 -0.061050290052553455 -0.0014062698105861936 -0.06244610396774398 -0.10619944649603709 -0.05381925408388724 -0.22519018737317295 -0.026359993469158582 -0.00488676391727956 ]
[ 0.2900735074527173 -0.08062268726868498 0.10509091599082575 -0.32715217292736537 0.49520189116198476 0.133171905800671 -0.13434578983456902 -0.15207724159232594 -0.29819423198865797 0.6282039363831827 -0.9399313832679982 -0.3534924155438936 -0.10452073969991768 -0.23411181159149416 -0.3132137784634836 -0.08419242435343179 0.4244293772220086 0.6317231119876608 0.008280874801310997 -0.2741444077668602 ]
[ 0.29393132628952295 0.15575503458774767 0.24332987505325104 -0.0658440740853369 -0.27407719249176626 -0.08935268380336625 -0.11494483499766127 0.7028564502179143 0.27956664584701996 -0.5069360292430337 -0.08026159879534732 -0.24385171490384042 -0.37879623776098315 -0.042308866353695254 -0.768739388177686 -0.03490019033653074 -0.2540825483002131 -0.13093065445826021 -0.15925621351621716 -0.10151692560148541 ]
[ 0.6504216111662783 -0.39897287912627355 -0.10236010061694896 -0.405349504497178 0.34515199796321877 0.24179251330280827 -0.2648151986044497 -0.27787366925077756 0.47579315647224085 -0.2478161583718432 0.7321570611349318 -0.1808365989920718 0.10877426207229915 0.029761423958055394 0.42377234630447286 -0.22255114289951955 -0.4580144722127068 -0.7155626560191275 0.4040020884502916 0.10930046026121905 ]
[ 0.06443024074813702 -0.016525951633898195 0.045947565005290264 0.07403617502947822 -0.12211776521996294 0.02708139794115876 0.09900555400871079 -0.1025967623500211 0.013158935762338373 -0.3017817796448642 -0.3515925426312045 0.010832672749466771 -0.22648517393224776 -0.011048498961718386 -0.06313969895086326 0.12113293139541635 0.15315159342788132 0.030209590005366327 -0.18915617889996478 0.02830009078523396 ]
[ 0.012126463962909036 0.005165710063650786 0.022985982411180286 -0.22358397670824193 0.010649164426336684 -0.05189629229660668 0.28650598008151057 -0.06567097807557436 -0.04284869610466457 0.09225761220857778 0.006725691048372295 0.1554207757364217 -0.16816838377217616 -0.06396071508849215 0.05069193845702014 -0.014731853951598067 -0.060328241582535365 -0.00835606105733533 0.16446213227785803 -0.08939084464610587 ]
[ -0.008594789904507991 -0.2076614251559377 -0.06141332758226866 -0.11255103921510647 0.24667790709412946 -0.30552698255898403 0.2328311887918221 -0.4720419726372968 0.2847487919012003 0.23053383574326128 0.26351690034452946 -0.30108996501836716 -0.27829300387369343 -0.3975559397566973 0.3703937241141336 -0.21707560792817449 -0.6995965837724227 -0.7609857995208026 -0.034484430067802684 -0.09837102969565002 ]
[ -0.07090386786862941 0.17827797841987852 0.1550551062161211 -0.6971537200595063 0.02642583262834986 -0.0826804244386341 0.006081964814062492 -3.730608419771171e-05 0.0993633611437587 -0.3631003531342898 -0.42077716266013365 -0.1807623613601097 0.14950692832890938 -0.5365307453449638 -0.2666289345811547 0.03579097758633968 0.3932130923479142 0.0800535788166518 -0.1849014079628238 -0.05111416509447369 ]
[ -0.1150086060756326 -0.07897123001058011 -0.07119049065795265 -0.49628966629742566 -0.14459755407091926 0.278727209318244 0.09536544441204337 0.461450475982612 0.2354111973018359 -0.47642642059202217 0.49891821362251865 -0.06019676581909953 0.16426673413927698 -0.356664430917961 0.6024257582949228 -0.434483221109276 0.1375142756201796 0.2060285704261286 -0.44294007989935275 0.007220845422085915 ]
[ 0.01347455800366194 -0.117397357765328 0.4299986620125294 -0.3025412486754678 -0.24740006991736233 0.05870807647254901 -0.19322783879979846 0.04997157402914951 0.08069637655139125 -0.2103407863151625 0.3747152772820379 -0.28766817068723055 -0.15777449403137847 -0.017941510520395908 0.021526759164510332 0.3829515803294749 -0.07341370244057933 0.025748961057200953 0.06626676546402922 0.11994265397783241 ]
[ -0.4429433459057578 0.30280780895724196 0.08876068647963889 -0.29368339200078564 0.39837058337909925 -0.5996584532095737 0.3137969961715194 -0.1869299438550732 0.5905988277636594 0.7600291378260835 0.6101504077470513 0.914714601785024 -0.10233028433380036 0.6451441691621828 -0.6282278039483356 -0.24167128038453525 0.06632897867235882 0.33865499390173587 0.8523433348610457 -0.34530004732477626 ]
[ -0.029356036559751594 -0.005431335420441461 -0.09525297800613933 0.12785671447572627 0.19575274199927128 -0.07441402554495638 0.15502084063556643 -0.5534474989784264 -0.05376833305729517 0.12333954134625419 -0.2759022131937567 0.21051423198409988 0.014688277470571397 -0.358324696728605 -0.26522956644110174 0.3025545993484169 -0.03369090564318373 0.25152435209746365 -0.33568332600814066 -0.1482732379552826 ]
[ 0.27021063686850705 0.03764716994285542 -0.2269506336101043 -0.26659487969305984 0.18706301961931737 0.18024275475803048 0.1294568910831203 0.7576325075867197 0.40774574295076826 -0.5961911256517607 0.13550471990207252 -0.3400327755578699 -0.2079737322399017 -0.015852169667363237 -0.4520516975796152 0.3204640456311251 -0.0864552241040512 -0.07027382583443632 -0.4170055096580823 0.2071624333119454 ]
[ -0.014061066239700222 0.19483581292213398 0.0463006219460321 -0.16095169344758042 0.3043851900166075 0.012906383989819357 0.4914264179861744 -0.21128302217496034 -0.2336352767658201 0.5648742780096888 -0.2116527627807079 -0.07128476164501521 -0.09941117805465276 -0.03989612544132686 -0.0952435965738743 -0.26461720790014187 0.06934852735879624 0.053225463355321925 0.06467328339397403 -0.20812762404822985 ]
[ -0.036320719828688994 -0.11840935089685993 0.10994633566555148 0.07376423310694674 -0.0709736366525374 0.05516421815065054 0.01369100806866052 -0.04622947949870921 -0.0740302457755295 0.03018853124211135 -0.7264857863930583 0.01492123908166791 0.14966520542327788 -0.06665184580650386 -0.13075210036993756 -0.28730575600801683 0.25110135072566464 0.5545831009060422 -0.007573017371673778 -0.12109759387357527 ]
[ -0.5175960209707519 0.11807214543562651 -0.006323742085544277 -0.3624922720536061 -0.4275323008428942 0.14385850370177697 0.14786437195188806 0.012052076057522974 -0.1308896481079876 0.1663601285778484 -0.435988042156578 0.5857245845258693 0.17655321131710625 -0.5491612331030489 -0.22603745200613548 -0.017934828213021805 0.3654727876692495 0.7957849737317105 0.06623015049009978 0.09894475109387715 ]
[ -0.17051697005170657 0.07250494317655067 -0.06439505035804181 0.31710853879501477 -0.2111862896242439 0.03820849202596975 0.03600258875787492 -0.0979958583850849 -0.22926078757147178 -0.09631529297250198 0.21396367877618577 0.11666275171837891 -0.03030800897480495 0.3773860796419053 0.3058244621041578 0.02037540241424995 -0.10836826662722047 0.01765410616181277 -0.07458058244963861 0.1196330562103843 ]
layer 5 Activation
tanh
layer 6 Dense
20 1
[ -0.08610628021885014 ]
[ -0.029484841930009744 ]
[ 0.034118766680828805 ]
[ -0.04796667152093228 ]
[ -0.00690192456610871 ]
[ -0.01670014649265549 ]
[ -0.0035631738443893876 ]
[ 0.03944537197346122 ]
[ -0.238208668057056 ]
[ -0.03996184667881531 ]
[ 0.004583782818303491 ]
[ 0.05566206217794967 ]
[ 0.015559187357281873 ]
[ -0.15112994804641777 ]
[ 0.27339419335773985 ]
[ 0.006130902340633939 ]
[ -0.03124301158569935 ]
[ 0.05577589285569383 ]
[ -0.05565554941230441 ]
[ 0.019501925268161073 ]
[ 0.02278536426413534 ]
