layers 7
layer 0 Dense
20 20
[ -0.3564770905409447 -0.45289022667638895 -0.7389571389809849 -0.04788267147964043 -0.05634475295285593 0.3446688558435638 0.19356315952623507 0.0809545716978445 0.19331073973075247 0.146132390861028 -0.43404789678465516 0.2254709903598485 0.15869186046426528 0.26719030231798413 0.150872284172854 -0.1834851569930669 0.0667985666543826 -0.22141654271028047 -0.2909837982843161 0.2702225204579794 ]
[ 0.09698309634326129 0.00629344514739115 -0.019663402834111037 -0.1523599057303988 -0.24555459146360376 0.27935436538846026 -0.32852658784539873 0.263762247244158 -0.03442751681518698 0.35323326543867084 -0.12092847007532019 -0.1103820701509235 -0.22883504338360108 -0.2384090429350866 0.3247183301982238 -0.031324734444563636 0.3703892218482732 0.36869757723865165 0.2613479034521104 0.2777551234318422 ]
[ -0.3189644819134149 0.01490125980234752 0.08959528289055414 0.11338745600525801 -0.138153645014558 -0.040956388418722574 0.22271880231123814 0.27474594592511425 -0.05384889064199998 -0.2677028610807228 0.18729630923168492 0.22248460049806407 -0.17616248136843088 -0.14725205493327248 0.21374117166678594 0.09976327225563528 0.2694438442286217 -0.22574939186389958 -0.19199412926395604 0.3057709587700144 ]
[ 0.027605810180495235 -0.33539751718882305 -0.8463577958844856 0.4027460163621949 -0.25086372395927675 0.17132338816532156 -0.08640320641555173 -0.4924958784848293 0.2526086640221862 0.19412363658636372 -0.0690278345083019 -0.1361509542005434 0.3898474045815307 0.5299040257733393 0.2647693216151818 0.17596470844658893 -0.017856553010116585 -0.3979202496901148 -0.24401568966823564 0.8944639295495667 ]
[ -0.5286431036995851 -0.2968898508535014 -0.30603336622056615 -0.22223308012205453 0.01436962239131075 -0.5220399471497941 0.10537008232770931 0.17951916883224728 -0.0783817548419649 0.27234933637110204 -0.6890272230306429 -0.03522070044299373 0.14375049881823182 -0.32705236474705757 -0.041567725362463094 -0.07833296299444284 -0.14034993752668315 -0.2597145234409357 0.09970778735915141 -0.5610416828662518 ]
[ -0.08417303884289824 0.17699519592219196 0.05287639380972841 0.2165172796132921 0.24558699557582667 -0.1971520986296211 -0.2349889933246931 -0.3141003921573659 -0.12127280257673986 -0.3483291702843026 0.1530378333637328 -0.09657709185521479 -0.3432746710246333 0.05603277883168991 0.3687846391355839 -0.043525848260711604 -0.026335496460639696 0.26737608197698287 0.137044508579223 -0.38093470984026256 ]
[ -0.05567284782322002 0.3360092373740178 -0.30775695579815904 -0.19609007698446063 -0.11156909048273125 -0.03472406391855854 -0.03608428253041603 -0.040519239349886285 0.22212686621399544 -0.2784461329579973 0.0496903250941445 0.07352717135816207 -0.047113116505308146 0.10134539154867543 -0.15832184923561243 -0.03512587085499702 0.32389461762616606 0.007351445532037319 0.21282352666608123 0.3259126618608728 ]
[ 0.8861029007497864 0.417057504684888 1.2088124517914152 -0.03810150495914717 -0.512929181236074 0.25161380083798296 -0.5271319146121742 0.7122958521787045 -0.9853213910426125 -0.3282897065399286 0.6192644567933148 0.6656812082337185 -1.6276650003755377 -1.1556264300953794 -0.5949886339124457 -0.0858321345287402 0.14437852917906277 1.7147639964722576 0.8237742328297346 -1.3822941270844562 ]
[ -0.8509513491420262 -0.2845344026040127 -0.44936130450533784 0.1285493035795896 0.009967768232533388 -0.2779521642465458 -0.8669584329880922 0.3910985759674115 0.4809097386195265 -0.314399582841668 -0.6164133697438253 -0.11072223150138875 -0.6503456074536278 -0.20425900082375328 0.14135104730099396 0.16970541412840268 0.7288747088504188 -0.40308500692569155 -0.5062279628842671 -0.25969677277069625 ]
[ 1.5006989600346634 0.47748051620727067 0.6955169941025157 0.07173978915760401 -0.5823459545644943 -0.3593841337719306 0.09798196428590357 0.07416507240838645 0.916582758449149 -0.1190836983639066 0.8166514937712571 -0.06262831467475585 0.5329903801953382 0.403149881651185 0.8523651835511762 0.07070052091031082 -0.2730311258664596 0.9808594448039097 -0.3843412101841056 -0.16332167599089445 ]
[ -0.5543510670866476 -0.45049606962858496 0.45078256803851835 0.8651203257996073 0.006655058831246369 -0.8975027963114977 0.37026344375877496 -0.5150068519123735 0.4701110205641164 -0.03142402313098699 0.8397730816871752 -0.4657112125569391 0.07710877431289313 -0.01575107929590454 -0.5040795808418422 1.0237252300706399 0.0891329534244258 -0.024291827404207055 -0.24937869801654725 -0.31798987614376695 ]
[ -0.4464649596585696 1.0809697018411681 -2.1887673709523123 -0.9192280670915849 2.170076378635134 -0.6204563456667153 -0.5082310557919923 -1.2013904611850719 -0.1861967540404798 -0.329903929689606 0.4001408536432063 -0.774325202670507 -0.8025616700268933 0.42318106399059857 1.6377616208888035 1.1892238702543516 -1.6406109700937646 0.06380567458427484 -2.374116328809957 1.4127379376904579 ]
[ -0.8834878327253785 -0.07702644669818225 -0.6480047604704823 -0.25043929518269037 -0.5279033838783472 -0.2218757989260185 0.5101341260643468 0.47912311877880703 -0.16599608181178707 0.5549395134277008 -1.0783120439844514 0.18856514837296123 -0.13869829435845044 -0.21426543386537783 0.5533651574262369 0.9294252099244749 0.04717459694552904 -1.0562254822337727 -0.25314027923615534 -0.35813301290992106 ]
[ -0.294686188055547 0.0019731881797406424 -1.1585385192695306 0.1568707711264793 -0.3342762139594054 -0.06853644509453662 0.21222362100835046 0.11305808065553638 0.3466457620266919 -0.574457557364475 0.5725034672734546 -0.27125738138338 -1.4863162301590174 0.7557499274843549 0.11446283645592538 1.245369211185504 -0.5966890344149894 -0.19287960035617782 -0.44652085691255433 0.34025324924871775 ]
[ 0.21605870966478793 -0.6852144503900581 -0.28145890650145716 0.7943500587738165 0.08775729542553999 -0.7155632722463754 1.12497022900598 1.4315763327426299 0.29020969951726067 -0.37743278414927256 -0.7535622546817315 0.2029282178613237 0.007290634863597985 0.4676723957150629 -0.33188721512754504 0.03063985679768129 0.14992595486841906 -0.04792637026768475 -0.4165085948768602 -0.0067343964350271455 ]
[ -0.5063384953020267 0.9846122462277115 -1.307224088825775 -1.0948406454131958 0.8952052992135061 -0.29436992007185564 0.317948954121941 -0.4186532102644511 0.5458575472016682 2.4956852746002434 -2.6804168564733017 0.17765057341080986 1.5208236914914768 0.2468232679143088 1.1498706445025253 0.6056765368190025 -0.8928268104626601 -1.452685791582497 -0.9361226264726823 -0.28574922065053154 ]
[ 0.12776684014888992 -0.41253928087490405 0.40525799339466145 -0.015585765003215023 -0.523107744865253 -0.05640182462207863 -0.06455676135020127 0.17256945242340718 -0.1410284814407026 0.12851398130223113 0.7952662517538798 0.15616418979879812 -0.10377362360572025 -0.023554441095596745 -0.6032961270928334 -0.8395358338025075 0.4367196568982682 0.641186792783304 0.9181539690062223 -0.2677495138603801 ]
[ -2.470424163314279 -0.9899330647990552 0.12843863659273702 -0.6930552811280715 2.31608761327059 -0.23693906100580683 -0.9460457094396945 -0.07557559394953185 -1.898584072372697 2.5303929474163103 -2.2220970296746576 -0.3349441925466153 1.9292394862340705 -0.7897584742581896 -1.7568850650814092 -1.7942204717622474 2.461739788244027 -0.5478667144297175 1.5278767920779923 0.24528594130083048 ]
[ 1.3157250426318634 1.8250137898124172 -0.35537031589968177 -2.326808640474733 -1.2707635365778256 2.850894511301855 -1.4804903966009226 -1.2867363033137476 -0.4110911051548069 0.564976473936866 -1.0375735761992735 1.3094679800797757 0.049141259259319954 -0.5805703125668669 1.4002516719574625 -2.1944183480985857 -1.7706607229599558 0.885366933923347 0.8591885295791661 -0.39520331425502825 ]
[ 0.2029735853173042 0.03477263408745118 0.745926154487414 0.29126049971756124 -1.1529881478382544 0.6865011271490331 -0.3779682825935201 0.285643682049173 -0.732492342089765 -0.5248830916901416 0.26164114684255574 0.7370884167708552 -0.45277173373356566 -0.07137387779529188 -0.7406167955477848 -0.22436244573294142 1.0224664037733964 0.19434232904668913 0.7080462171028478 -0.6181966669511133 ]
[ -0.06612414864246245 -0.07745173393607868 -0.5875608896271156 0.0617221017414119 0.10624539178594489 -0.10084698415724963 0.4096530020326008 -0.5250096685421912 0.36269216533695225 0.1471435597484629 -0.1598065505426276 -0.3895653974704708 0.6195078777423736 0.5918190145245712 0.2838094339753127 0.0007889728128262705 -0.2504069056342374 -0.61797507051571 -0.4250634188266855 0.8372293109913823 ]
layer 1 Activation
tanh
layer 2 Dense
20 40
[ -0.32214406324345035 -0.07572325184022179 -0.5483362482547928 0.17566574242830416 -0.04338896171451931 -0.7033841787280721 1.3566125054061138 -0.12066313625157521 -0.2985707729643964 -0.47567471548391604 -0.35084604799430713 0.6038717703030078 -0.057685863319870606 -0.18266536477796877 0.16964522021461065 0.05207873005173468 0.39135535900973595 -0.8805967159299305 -0.25357509545052864 0.37896604541847534 0.16604772795486675 1.103779142986966 -0.41487484566358307 0.111832484317307 0.38338088683212596 -1.1706393363668477 0.7381763482203032 -0.5975989366047039 -0.28838415808217904 0.3150774073497586 -0.7511251415709056 0.22276839666931444 0.6979338468840877 -0.23262746037456222 1.2299905877122128 0.4768719254570343 0.47224740708664764 0.7451473733752009 -0.30965902233255577 -0.0896008410914834 ]
[ -0.32581585587611817 -0.2577737410355456 0.10277470223647221 0.39788219184830975 -0.28753670702484163 0.05936186950125477 0.7353541361716125 0.17901907519834132 0.39279912389924976 -0.4455718701741136 0.40412362604840485 -0.01751813756855887 0.04238910875138995 -0.280120078126086 0.049026196098568106 0.03773481806400473 -0.19803606407218574 -0.11723957153910086 -0.5202830236994863 0.07483438692049293 -0.24419383726386729 0.4853800795194538 -0.42628383053980723 0.12439282612582328 -0.6604888418173208 0.004565600568699862 -0.04746578583002973 -0.38177984621904826 -0.3513077071495273 -0.2299517577990249 -0.16276336069243955 0.45460521401214987 -0.44249940415835853 -0.13527825652420095 0.7349814320934223 0.33700873101478124 0.34284169901128886 -0.15688173968903113 0.657672567918209 -0.3540565847407052 ]
[ 0.34469247179349505 -0.30542751813277874 -0.17337467813267823 0.17740016501959366 -0.5722100627913396 -0.2067359617490417 -0.4318455578614597 0.3945657101509588 -0.7596733001372798 -0.9592716350788957 0.3943815523929023 0.9193121420047413 0.5063059020503612 -0.10233820051947473 0.11972585491403555 0.20203276677964815 0.8378918806499203 -0.7424324150173097 0.18134250035993374 0.25518696428171855 -0.7099374157463036 0.4978997682828074 -0.11566808869171201 0.5906256419497413 0.2715022885270873 -0.7885904663104822 0.19776276832048023 0.08502603298556877 -0.17065341665971887 0.1990838762102034 -1.0685851634560517 0.10242605667393144 0.611340551609624 0.324452286914418 0.35372454120898567 -0.031661969549209905 0.1581457989212231 -0.11119600278471499 0.5552180290107442 0.3426090608152759 ]
[ -0.1876935462942062 0.3039946050227009 -0.26554474232320435 -0.700039620978805 0.45034775891648865 -0.3639002785174696 -0.5644523160758466 -0.4859595150930236 -0.07364936976802153 0.10077500508606466 -0.5028915663506776 0.3103702144326488 -0.5055855396416534 0.6487905341556827 0.10445674156193463 0.018607603423057603 0.2956231902107885 0.5560680560645118 0.372966855668691 0.3757612723411094 0.4215212241918788 -0.11883413483439878 0.15205865917303865 -0.2614679735348812 0.27233469845803493 -0.04471419313759201 0.5295064186636774 0.5324895530760492 0.3710986785644923 0.5502611515402517 -0.3543744320483786 -0.5332581744551268 0.492132253782998 -0.15254961847575785 -0.057636511891931974 -0.44934027668292836 -0.5150035568499818 0.1830405497565797 -0.7283241002822957 0.44469322749401285 ]
[ -0.6755483519316198 -0.728217266641054 0.5956490250967993 0.09021691789696429 0.8303910480008223 1.0891679585047784 -0.4438486252716602 -0.1800181763692934 0.978334476262706 -0.2864543956909604 -0.8508061939959226 -0.9507430984156529 0.05460527338211164 -0.9867000480921368 -0.12056746639331238 -1.1032580569021972 -0.4235174708727635 0.6541251420629905 0.036720319490505055 -0.28365569691231063 0.054373140194200656 -0.5631453233533674 0.0021449577260868966 -0.6312881593486641 -0.22382472206876822 -0.10278704749163556 -0.6966759712181229 0.23326582533997567 0.5368123987498944 -0.892128225687122 1.0360434674916925 -0.7097180486406822 -0.586634577430864 -0.3597679794670349 -0.6333092501891813 -0.11002330293084743 -0.474128439493837 -0.6523657733564916 0.8708852450271852 -0.0018359906927053133 ]
[ -0.5665475983116414 0.21578857394374173 -0.20072989928849727 -1.6499673592698867 0.21980448346002518 -0.9247648014002132 -0.5402125072897239 -0.3229946521981653 -0.38621047711922873 0.47884172733581337 -0.9702805194106464 0.1958282504369797 -0.35676409918821717 -0.3879396094492589 -0.057575762630531505 0.6551717841640358 0.5073476253991457 -0.5841040184928378 0.07596996244315224 1.267214613003532 0.8823627122833877 -0.16554053244571523 0.925876664110976 -0.7478996122291319 1.083858439658182 -0.42763024391028426 0.5840727823555746 -0.6061441312877933 0.2594945608628502 0.06716520967689854 -0.4890481924785149 0.2520345925512851 0.6231228402123817 -0.3209804549787448 0.4697293658457408 0.7843181404029895 0.7216647516960326 0.8755318495746853 -0.30519760189891737 -0.20222362093839394 ]
[ -0.0597174564431363 0.5166862301688396 0.3504719162649667 0.08060062939136617 -0.35119073993302113 -0.4506345941420622 0.2029909362752876 -0.23091216123355596 0.28989136687372996 0.10953928383537605 0.048209507834536376 0.16878558547997208 -0.21231542718246713 0.5419980804441721 0.0010096337669197348 -0.5544183733573727 -0.37877289835388167 -0.2275311258273592 0.17849448855854508 -0.3991915262187998 0.1783252869652467 0.2272542786285066 -0.27667534856837495 -0.09078293758259437 0.22234429608360723 -0.18396893279096216 0.06893263738026205 0.48498860384979614 -0.29409749725079043 0.7205661308835453 0.05258934009938019 0.06589980573730503 -0.012672074523803546 -0.13532555587123862 -0.10747085847523177 -0.09944163281715965 -0.6673862721684684 -0.29212458451579815 -0.4110180429277331 0.2708717762475681 ]
[ 0.4327034535105602 0.7411110786173519 -1.1310507318131908 0.19643311122826043 -0.5831013729382815 -0.38191363874536466 0.47360895238200296 -0.6794196917211546 0.22052508042688376 -0.1357589945422974 -0.1575755205526104 -0.11612462392304984 0.4166651555670684 0.7340993392713863 0.08277000705532134 0.03193299005562524 -0.17263511777292317 0.28182978057679886 0.04969295068160815 -0.18340000114061958 0.11016049722185571 0.023696137721937433 -0.21035121166803025 0.4436925980648699 0.32298976190546186 0.3380026816808341 0.15401697944215598 0.8878937558747004 -0.4684589005887493 -0.22353924762361585 -0.17466905123319285 -0.6663622252606695 0.6889895385992577 -0.18306523379817718 -0.24014305734580751 -0.6717040911515838 -0.7059391052833337 -0.5216293617852981 -0.5144407018482934 0.0012361895251557285 ]
[ 0.44345544462334446 1.1468408759665405 0.18149178633014443 0.458041817225847 0.7198945162731634 -0.4253081783744165 0.8748061662522909 -0.441579209766932 0.19589545615350537 -0.048960450705807165 0.03144334747814596 0.09912394248592274 -0.5413414795889612 0.3984922210020567 -0.10995708890043517 -0.3857321262026954 -0.18379715006162983 -0.00014952394949882138 -0.01725452682434478 -0.22431763252359016 0.7862706022185559 0.0006086464002706988 0.10376821050313637 0.10312667257213297 -0.7403488722341601 -0.23256943722924628 -0.12423410859711548 0.042171437030177346 -0.07879689285282161 0.3082851456046665 -0.12184026446846276 -0.009895639913944815 -0.4345731139482399 0.20346882102174962 0.4381727425652047 0.278612859754223 0.47570729013448665 0.5132174564908736 -1.312069954858139 0.13983827560835027 ]
[ -0.27944383494521086 -0.4678870659679067 0.4240655404576747 0.01775184594716217 0.10950573964877477 0.6919297246268922 0.3249456080548758 0.1619827764769568 0.2086494326873773 0.3034157218300368 -0.203326349105096 -0.9156518788834873 -0.36630124691644916 -0.572156443827938 0.2642692440479567 -0.5597220268875661 -0.3606815739930766 0.9069294088409969 0.008106527331467203 0.5855659368984389 0.03319509531567031 -0.5740786880525597 0.9089375909158992 -0.973590296260027 0.1972948475335245 0.08525783029629858 -0.07126653456327013 -0.00059787181439064 0.4538405932999185 -0.6286007489740918 1.2379173207386902 -0.291971024538931 -0.7212334305164322 -0.23668123990985435 0.045537087620216014 0.38453594555047466 0.0870264398944453 -0.6452254407124152 0.977812501158625 0.3761033718612057 ]
[ -0.15099036243660244 0.030240592468528574 0.4118548153209166 0.41571788301894474 -0.07968402949420983 -0.47914549940547413 -0.3832822537021553 0.07104753019574217 -1.1023076975915054 0.15458348088916146 0.7370888131477868 0.7948369056264868 0.3059170053188469 0.425618535385438 0.21620293846086852 -0.23694532901534177 0.6168819406470092 -0.7835327652986803 -0.2840323049339739 -0.1347575339240328 -0.07997761186344886 -0.10543926223252675 -0.48158210301425475 1.2066467265555976 -0.7109040126267129 -1.2347367789352197 0.6420472369933502 0.2806954237851429 -0.1672782395452331 0.8619485542800558 -1.7726443588641732 0.24916209777632478 0.6880844993748325 -0.1539284009092086 0.9233144471624395 -0.05594512739712491 -0.02178277922752348 0.4933391520103971 -0.6356054928111867 -0.2615744794421123 ]
[ -0.016545131370659064 -0.374229174168457 -0.9086118441351463 -0.20577447862541737 -0.45716848157466966 -0.021562802747991824 -0.2212405222634363 0.4128555460800171 0.5382139065194587 -0.6140015248254036 0.36321652882678235 -0.06289751918868057 0.10647540214967231 -0.5134405922951627 -0.28333163999662364 0.47121537571075134 0.09910299146374864 -0.45228867894444036 0.08170370074528628 -0.1591167203416127 -0.21742193491461953 0.38482363205610226 -0.1239069125924826 0.1302057916880005 0.7025598699121101 0.11454793306330764 0.2999186564727286 -0.22860618837016988 0.14719501554981138 -0.1434260977524011 0.16482544802136112 0.10401172055912711 0.17796913305545753 -0.06048519124894623 0.38599975310910434 0.08560144864768993 0.14520793829119494 -0.06124330452682636 0.13158314877750776 0.24504472693664403 ]
[ 0.21621924155048225 0.03586871031435948 0.06459020968184635 -0.1028607031753266 0.7755057993961596 0.4469890436235719 0.06359593349908206 -0.15229505569739177 0.7023588136275566 0.7005472542536167 -0.593116944313636 -0.5848877419319954 -0.7908807340649292 -0.20496364224975408 -0.3058500936930743 0.1983967150217845 -0.375407894105573 -0.32429064614011416 -0.09929625411356105 0.4207975322195623 1.027059486162645 -0.0565565718609674 0.6190753772870985 0.08292397751770526 -0.4140449832243632 0.1482040863772312 -0.2825325435571094 -1.0480844310551864 0.038856487996727425 -0.4460275306249813 1.015878420673955 -0.4393480499814593 -0.5558179089581392 0.279970219257277 0.3064099772685626 0.17691538169421298 0.32737442653784654 -0.6341354462752656 -0.3106836641803253 -0.04917479198831441 ]
[ -0.027484847125280185 0.5042913680144842 -0.18109109061324627 0.19169922948657797 0.8863316587087652 0.09008638502966719 0.44456125487654113 -0.07825456549637652 0.43231024259043815 0.2340031092927506 -0.5971434618084432 -0.07342835902788591 -0.4048461637290745 0.024196599532394125 -0.16617010147629177 -0.35647419298621835 -0.30221763803199236 0.1523249454445585 -0.0068735013245691725 -0.5824013650020426 0.39558450804974676 -0.09803947384816647 0.1826165208349654 -0.6054746096555453 -0.3897569589444327 0.008129495994819465 0.1837521130563 -0.3016155443176086 0.14374662274443978 -0.08567400975088582 0.2525519311565145 0.5723982210037966 0.10938102413994012 0.10738391347779341 0.1884109530549958 -0.025971954499779296 0.209889040454102 0.3360121300841677 -0.6874057656613208 0.1911954529139883 ]
[ 0.0038466053900260283 0.2203581013555672 -0.622165497630919 0.6984673281883288 -0.07713274191536056 0.044746323223098475 1.798579712102345 0.30413229053293395 0.8036307644869424 0.4433062168092147 -1.0959501540633334 0.27552775240489213 0.02036769385454597 -0.31810823873930316 -0.03593805098652017 -0.06439585943843906 -0.3535406098808009 0.7845691889032048 0.54295437359963 -0.6740608949106913 0.1563262461111152 0.734180618567212 -0.35128479610134244 0.2888182896872894 -0.9690073292490325 0.11803169462288678 0.5275980793057019 -0.5331077752702906 -0.06526292587593165 -0.3863981592700304 -0.033974967518624825 -0.5344106277586999 -0.47193727363498544 0.07939658159123247 0.9062214249402349 1.2325068088273416 0.3944706150929283 0.4819007803266478 0.10178884705756781 -0.24924837658809507 ]
[ 0.2512125713261087 0.024493252455527397 0.6079375184423863 0.37378402217250795 -0.48092298618527435 -0.4631916194476445 -0.14759277855158295 -0.2137871472565726 -0.4796120173733518 -0.13255606594393468 1.239400878440713 -0.5976945961378614 -0.003938196803542968 0.7046155298967638 -0.24010618507254997 -1.0533463562765957 -0.153589445139277 0.7268409734624218 -0.026133424835262212 -1.533897847671828 -0.5106916339247176 0.4137833164740957 -0.8899216851458459 0.17234371168962162 -1.2348250154057965 0.6549926053987709 -0.6342582417393595 0.8785096669579822 -0.18976229215899143 0.7790618176519186 0.112309825899382 0.08331759886078659 -0.5525450737487527 -0.38665860707439415 -0.28735080702454696 -0.15828253818784274 -0.7913996037962987 -0.056723319091716295 0.018151661907351783 -0.0661638941529067 ]
[ 0.5461625876573246 -0.3367570488841189 -0.3711493736111889 -1.0205847518483837 -0.42578007797143663 -0.39967132580322023 -1.7745746148612638 -0.4273682840511028 -0.36408202516164084 -0.2514371063883735 1.3354558048853638 -0.36887979999182896 0.08292123770409818 0.5426949066964079 -0.5203344357662097 0.5745266754506987 0.23779667959555573 -0.1229579791108891 -0.4690234346173058 1.6720381734600689 -0.0965016330335182 -1.0073628621289485 0.8371591618471943 -0.16515322587518594 1.4238160730046772 0.7125974161529406 -0.02641598992021574 -0.12691938513491804 -0.37661526130849043 -0.07595173332808135 0.561156121374425 -0.3349101826684829 0.560975467931311 -0.8341984440246956 -0.7189339933427523 -0.4003212399378052 -0.10396598470951005 -0.21593506143023927 -0.00895793836817751 -0.12125226502165555 ]
[ -0.1945408271850838 -0.1070193313076732 0.016070230611195228 0.31920709881508996 -0.5297349482065878 0.13884651041118165 0.10574663961454314 0.7067481986470714 0.2732253212291678 -0.3455086489823097 -0.02298628635819609 0.2475112184539895 0.35237711568195174 -0.4877922016741394 -0.024861579487428058 0.1515937603167746 0.10253088829001523 -0.919240524771062 0.260435680403414 0.424175253670911 -0.20938821622633672 0.42793857556926773 0.23788521163154386 0.6739266296427701 0.45288641216316683 -0.6192473549020795 0.09165072694771999 -0.07015642432837539 -0.05672294061086872 -0.19953103286027574 -0.8008227203936529 0.006085926152396348 0.26936560187269565 0.1619054086549947 0.27364248108851114 0.7321362074180672 0.31968636160944053 -0.1847318616276346 0.5362958513403652 -0.2842090875944021 ]
[ -0.49277738251130454 -0.5968527291982246 0.08439769212953326 -0.08026038330950239 -0.21370821549513172 0.20233036908214397 -0.8996155285635387 0.49510173297959353 -0.5433543812100279 -0.4102212575128104 -0.13063948976107936 -0.16040718272819277 -0.0713953273230464 0.507737028788131 -0.07252694217746786 0.041674405830146324 0.8909440426616745 -1.3145286112598378 0.8219642405140215 1.2379941291756182 -0.13913001776864056 -0.4661026547171485 -0.03430385248739472 0.31410436917204937 1.5941501626546666 -0.22508434224723278 -0.07604947970612064 0.3704514598028862 0.11865620001581739 -0.4765540159691397 0.32297059165518205 0.23965468266372042 0.5828571877741237 0.3695711694903219 0.2881243829189668 -0.026306631621222785 -0.11730196045165868 -0.5575617127813849 1.196867677497263 -0.2594596844182558 ]
[ -0.3502096943300176 0.18232227369304285 0.46844890320154037 0.23473233874085042 0.9003994388128054 0.4712653573174478 0.4337452704889872 0.03549023108305698 0.4418514787545168 0.9406474068024909 -0.7760529956822902 -0.4602741530495786 -0.8875323792619444 0.051423620542398525 0.04873822994318623 0.2007948678430849 -0.831752729584486 0.3331143740689365 0.07413363040607987 -0.6351585946933025 0.6087937986255662 -0.3786523285629662 -0.04461184779429694 0.01129776799038598 -0.555931237825473 0.49161047380317624 -0.47612867208856546 -0.40410062710162303 0.19312512194655312 0.012697269908445422 0.49577230951583307 -0.4013557963352292 -0.43500634840512403 0.018968940347571493 0.23580915477587905 -0.09942286186278043 0.15602699008275592 0.17700143462627166 -0.5162706280003747 -0.10391096651986946 ]
[ -0.26454424298966644 0.42664857020072217 0.3088983058177041 0.1154350867935802 0.8494787742537405 0.16093678777945034 0.5098478709549945 -0.41975718699268505 0.7326636887948764 0.9368400768276344 -0.6793374669658453 -0.5225765299324908 -0.7215442901944714 -0.11505153306571408 -0.07949251877606552 -0.12509520827959872 -0.6527795278537365 0.5608894574888229 0.08623625306299972 -0.4206763846249371 0.8542821380410889 0.00036802608840411284 0.1242486509109859 -0.15596432192678145 -0.6569767254297317 0.2655640570582596 -0.3535490906826911 -0.28577185299050223 0.22807831626495154 -0.1438633238064771 0.5585848126123545 -0.8567204081363743 -0.6809797955681949 -0.009476948047227395 -0.14986354197051407 0.11345579048482192 0.2723294314653114 -0.08496837828524688 -0.6363071417123655 0.04823086699532129 ]
layer 3 Activation
tanh
layer 4 Dense
40 20
[ 0.12968335401758257 0.12452765133585335 -0.030634450449436083 0.4779093001494534 -0.07978893158776006 0.10267777903135684 0.1698001260810434 0.17955877932039202 0.118955622454101 -0.5365993866650014 -0.44791049781762543 0.012294429244725959 0.155689248063078 0.007872925709817862 -0.046346210868838986 0.06483625056613482 0.0934214442969163 0.16233922193945902 0.31861217655406243 0.2737781503986771 ]
[ -0.8625286067841914 0.10348658143135384 -0.15381004898646022 0.035354045620548606 0.005494559454708945 -0.22304993203708734 -0.16682475221277168 0.24966163703115588 0.6992872191961438 -0.19457214135315315 0.03634233333595879 0.4211598306279269 -0.17877643841054958 -0.17250253324187956 0.3737418906436058 0.10504840928197703 -0.18729907534833024 0.5149831381987893 0.605927188405614 -0.4309975505345693 ]
[ -0.6520380817593812 -0.20882248480447616 0.5405427654723208 -0.3046619320897264 0.7025368402311644 0.1612843517200787 -0.19894723635486627 -0.5563769673725426 -0.09823723608346277 0.4804776898246234 -0.2615465081872843 -0.06442649758166577 0.11209367640591429 0.3358415703863152 0.5243671316355624 -0.38373733524623194 0.2310284292433801 -0.14083837517087405 -0.3087955721241026 0.1985410292211054 ]
[ -0.485300142975035 0.20605399595680565 0.9064561748498899 0.08184414901236378 0.47072075415010467 -0.39639610266662595 0.008623713540790334 -1.341643497889048 0.5433748068267501 -0.5673458799695738 0.3080119968674811 0.529807400063444 0.3861108278218748 0.6271691205841485 -0.4853871642133133 -0.22439095066513845 -0.21327320786852985 0.22564381527105917 0.5070562297105614 -0.3008807844260161 ]
[ -0.646884878747424 -0.324883291671666 0.1367823528777 -0.055100876237221805 -0.4053412084927458 -0.530450658186206 -0.02029511219039874 -0.6452862498812603 -0.20603908295140919 -0.16641404528710194 0.07601086265261682 -0.020146511045631164 -0.6022972935576545 0.42196878690358525 0.6348000422731473 -0.15566912173976685 0.20883056124209454 0.4641506702518131 0.26020752817371195 -0.34996953335455444 ]
[ 0.3515197664042993 -0.352519773399137 0.2848445759576506 -0.3325540803880317 0.5587752902848481 -0.0162413202595971 0.01053011555384271 -0.7264523796554853 -0.1099200388663697 -0.49534924850209383 -0.644082001343033 0.22884986324805212 -0.11257610564303837 0.364462712903281 -0.09299808513023418 0.26955111018004807 0.3532120491668156 -0.37028721354310945 -0.17208086907622286 0.3751252643987182 ]
[ 0.05733988478186426 0.4941720187832925 0.3966380566148961 0.2519016731092528 1.7317031210126537 -0.6091635682417226 0.5099223943602349 -0.08390128862377003 0.3126027782982963 -0.759723768297488 0.3929455867874119 -0.019581548692310952 0.4370336330237009 0.6466796523554333 -0.18652276166144388 0.3211278544205716 -0.4064286117083433 -0.028473479311431012 0.32825572180420726 -1.276475227299469 ]
[ 0.46937573924668347 0.08049783319577282 -0.019611033529032363 -0.1538873500903369 0.28759113111795775 0.57275722348151 0.3059122574796858 -0.24453145244952149 0.061573967927705316 0.2728678618926934 -0.18987905663339552 -0.43902294184222196 0.3297121223957017 0.13184439177343812 -0.2562007178318055 -0.16232520864752098 -0.4267164740811559 -0.3703903655838662 -0.15578637861887962 0.06388861491725195 ]
[ -0.062392824254652104 -0.0689514302552648 0.5312576219989188 -0.6704982705862728 0.059837002878795655 -0.19524348925471105 0.1413750543482063 -0.38851311715900566 0.14201315628833133 -0.642509827513295 -0.06458362953026574 0.18353521969683045 -0.06730731977340255 0.49624844321166284 0.6057042584986543 -0.028625337877469972 0.5796482562552955 -0.1672025892878087 -0.037024462764646514 0.004985758511172036 ]
[ -0.9237183203704743 -0.217589323347873 0.4180267025544453 -0.10315761844785169 0.2126743693163983 -0.8405746300706962 -0.30978813054641824 -0.32221334467682283 0.16143885782065354 -0.6309483035784246 0.6199784518907513 -0.40171608494910155 -0.09166713717353044 0.5195522884008907 0.45373265770218624 0.39001310829138247 -0.3798487364250043 0.17710531753911354 0.3629878578267449 -0.6250667810565383 ]
[ 0.5473329411154413 0.5473819543979355 -0.2830099079871527 -0.1340641601396481 -0.5817626004672617 0.3050906489268833 0.41568638848996425 -0.1752243114999079 0.40776973381732134 0.3063371717754154 -0.37321111485507596 0.4459158739749106 0.5585388174053075 -0.07458910225115441 -0.32410979856943567 -0.13428236017912293 0.7844854669181192 0.032754302056838755 -0.3923300795342488 0.744291158835617 ]
[ 0.21011882341899032 0.27370998551005393 -0.36003375765569895 1.212291872107715 0.08118405979514787 0.3106016249344827 0.027974613225436342 0.17146065471636843 -0.031580945607619273 0.030566199719127853 0.3809694621189297 -0.028076164590342012 0.45341587704216424 -0.17050702250855043 -0.19630817523230032 -0.7007858266350439 -0.3774347125803038 -0.016430967551849782 0.5222366691958561 -0.11333228113048789 ]
[ 0.7656099523144266 0.02528740063573063 -0.24121500639157625 -0.19915650370216398 0.3660210555979848 0.8035250778360201 0.5076956940394322 -0.03535255341156357 -0.13512849241905203 0.5376212149370202 -0.08024694285139704 -0.1862454314419702 0.5650959755130069 -0.7624444451163573 -0.07171744903828922 -0.08266366388094519 -0.21097825555350025 -0.516593550172017 -0.2079419348471824 0.016910041985050993 ]
[ 0.03489051934078135 -0.36802620005835346 -0.23593584670094403 0.1527670055618029 -0.2519209565701886 -0.36722536023961994 -0.4097513764768786 0.7758945445256876 -0.04077626651059497 0.35102768626394754 0.054636901142039784 0.30336722137704036 0.003161226177487284 -0.5812097780310757 0.31912785012685774 -0.058808330121499656 -0.30337873470629256 0.5199843479338049 -0.05644827320508245 -0.27343549647262666 ]
[ -0.11069013819020815 0.15582368696800752 -0.11609873963391865 -0.21488397473627754 0.12127562706713092 0.03773859424312594 0.03172368981973694 -0.10052796030382154 -0.014047882334732939 0.3119043624625255 0.21768827993590661 0.1905165287280139 0.04858561467744863 0.06602256497187262 -0.12397346926223982 -0.3431352284523873 -0.11437089153217676 0.018284193138169768 -0.017368610176695526 -0.06769787596606455 ]
[ -0.14199083203741406 -0.23601072381342902 -0.5286640586692415 0.06532020577959897 -0.40574391194758763 -0.019417010263816148 0.27260188872005403 0.78531350424886 -0.4613791551658115 0.25097554424548485 0.08433201545258591 -0.5425026371338069 0.08288629761909135 -0.08815795781861173 -0.049846359832109284 0.003281930262236333 -0.27407283097843943 -0.582922447315898 -0.5310523809995624 -0.22575551195304977 ]
[ 0.6860675208897383 0.3267995386936256 -1.3468450089137338 0.051701334270710664 -0.4388102595094381 0.6133886370141878 -0.1439426316832189 0.4868315303814697 -0.015669266145646406 0.6049152181325596 0.3947328488993331 -0.40875580024748864 -0.05693970180338119 -0.5196247578174521 -0.07180750946026186 -0.503347808685737 0.2787196294637252 -0.028487214963036814 0.1425322030926185 -0.2611799286703966 ]
[ -0.26988829335678916 0.11865397236442926 -0.7069055189982482 -0.5402155843094936 -0.18592096792058568 -0.6047232612804264 -0.865597173152305 -0.00909931653202058 0.5017549020091145 -0.6780413710010439 -0.28528117918554124 0.7312335261727492 -0.09755925527598534 0.7590270007169916 -0.4603611592149868 0.38004351230202565 0.8048914520605714 0.35318640108759153 0.08186918676329849 0.29669376635937483 ]
[ -0.18055446483517432 -0.03632812468665937 0.3005598678408072 -0.03780460289015879 0.15926595486967346 0.14725549765331913 -0.21282859830210957 -0.01061238023608783 -0.12072520845579145 -0.073975095222687 0.0017127160049609292 -0.08551795683594363 -0.032418970375953746 -0.02447496363782654 -0.006574933331854741 0.31637430127986843 -0.024059744577935797 -0.054108371518516114 -0.2847269634382092 -0.3531890039850304 ]
[ 0.10150758404876506 -0.9374953003998772 -0.32973134221334577 0.6129963506750027 -0.211206149172458 1.032963783922052 0.16108030346331934 0.4135697501346411 -1.036280268168159 0.15247771180608705 -0.15928514972248095 -1.0726502243365101 -0.4928572794610785 -0.8739886118939362 0.4346431452868703 0.15232053854719382 -0.44060499038678524 -1.0130964318087667 -1.1930542066223802 0.33019458637633525 ]
[ -0.6410280902005668 -0.5050281700682882 0.2839223097941638 -0.052132660016354436 0.1514582948648541 -0.587639646853707 -0.6006074421654747 -0.5785726453237067 -0.38558534484766505 -0.500093241276985 0.4877323689745045 -0.37759413731567876 -0.11136509363889442 0.5153504718324159 0.5224936063770338 0.36814231023128374 -0.31088500238986666 0.27181319756883765 -0.026031774334070255 -0.4863769328966832 ]
[ 0.5247316735986326 0.8349791688809689 0.052206094761564695 -0.22529283225953461 0.14021614698312185 -0.30878598965214404 0.3141983869698104 -0.3039956018017523 0.03233674777851672 -0.24097621617898113 0.6957807298634427 0.3854019881312304 0.4576638029627982 -0.0001249895716162572 -0.22987502726996847 0.17296525675079752 -0.4562916264374484 0.28428259831379327 0.0062539935471593675 -0.1685173872342819 ]
[ 0.015359298774085574 -0.11733148933500286 -0.5264984672310016 0.15750192830297718 -0.18212710266836857 0.3279481449621895 0.04735021705433481 0.5499548328960472 -0.6397611788375576 -0.040988147883959124 -0.25559868504640576 -0.569712563898883 -0.2084048292245323 -0.6576371334943255 0.3534541865377149 0.8250647883396465 -0.15618473539687605 0.41416893943123345 -0.04569337248887488 -0.1867159986071283 ]
[ 0.31539345391033 0.5032845922107189 -0.48777305897640627 0.7067292814308855 0.3297459960500766 0.21469494430669595 0.3307506244449573 -0.21450257106039913 0.03267457141999324 -0.13365788560276418 -0.19575141029947546 -0.2809650469708469 0.304854363021042 0.19546196815931913 0.17462736261004835 -0.6939899011285934 -0.3248229381732362 0.4033463290635687 0.002626049041453135 0.11532390288577678 ]
[ -0.09035553142182187 -0.7682029527986975 -0.5898256339211054 0.5183987020388634 -0.18730265971440865 1.2751620919337687 -0.07199101547820659 0.3831509068070182 -1.0275947499797247 0.477266535257215 0.1543380836948953 -0.26450508810844087 -0.37953840146576456 -1.2638751764372316 0.04793480089972678 -0.17027683976415411 -0.4774088556126569 -0.1954352319958891 -1.0694120667474016 0.1301066958248576 ]
[ -0.019485658995817424 -0.05459887405604712 0.38312539757280745 -0.7333238747112697 -0.6242814024284687 -0.940564433956432 -0.04319867326905262 -0.021666959531630958 -0.12177165096609716 -0.33127368582329975 -0.18182869684580752 -0.059264195968821605 -0.16961450363341868 0.2126521616541038 -0.14774485214261612 0.47854291716071556 0.15490299064884674 0.008687889871517224 -0.04374598288055886 0.3494177264221084 ]
[ 0.5376149560301572 -0.22055656763952813 -0.3234705131870634 0.5474634519553613 -0.3403325239496311 0.05883041600774175 0.13796591251149512 0.08581026134930472 0.23896700735417115 -0.08393813972061145 0.5698770479322005 0.00483037179737739 0.12653579328189205 -0.11420425160666668 0.020175312475834865 0.07395554789191049 -0.22875011021106248 -0.09323284509728123 0.13728379880566013 -0.3814734636875601 ]
[ 0.46352813106740676 0.14664661082168057 -0.04694542762933966 0.2766553381990943 0.11774171291567688 0.21044674261581803 0.20059631146993034 -0.03449844703860187 0.2299206030934289 0.2817984524084605 -0.1335527682253328 0.5239668062174765 0.13437064210388844 0.2581939227290262 -0.14697490550607323 0.04900801521083037 -0.08088180315268213 0.10832095161643328 0.02923529223791348 0.0445552881699471 ]
[ -0.42442724278654015 -0.029294476346649494 0.26922552049852094 -0.3661521814815273 -0.10132232019764875 -0.24844430850532725 -0.10414205763762695 -0.0068271898585140385 0.022661378437942054 0.257188535608803 0.006237703974165068 0.002636540787761724 -0.1272824612228194 0.05094041509828453 -0.030221013017670283 -0.2719183061213667 0.1058988237598378 -0.3224296036217071 -0.37087108316921713 -0.2311998297076072 ]
[ -0.31374741778349 0.06856899385835427 -0.5284611133606046 0.17460038335913072 0.020135807738081657 0.3867583812233433 -0.5656768840260717 0.3799228736957737 -0.02704967033789594 0.6762374109878447 0.3519797100328243 0.07031021652435505 0.10534531174136978 -0.6471813950682141 0.026437976579235696 -0.1678191362533065 -0.42421176870809063 0.4270433230001376 0.2006892716137423 -0.26029136360824595 ]
[ -0.15181412635730718 -0.21389109336817863 0.4942557021160817 -1.0325051066897586 -0.11155623071564306 -0.971055238873745 -0.5341843650769167 -0.08114687123668524 0.36724372947308753 -0.7213438140658567 -0.9221390359959497 0.7743014207653397 -0.5913825030048631 0.5349420591500396 -0.13104222734988105 1.4310109721345254 0.8566017585101506 -0.39642140549262395 -0.8957070675956449 0.3980982686265722 ]
[ 0.746125953807132 0.23915836100518154 -0.8278488487620072 0.3255467483277985 -0.006398507779076265 -0.18076618873385172 0.0872180719077214 0.09611753606553453 -0.1047220789329409 0.5594892661473814 0.07783212152511423 -0.1047157512338917 0.28025412860673116 -0.14802179013820385 -0.0718177598657294 -0.3855966493740705 0.03829523763779222 -0.1715589893653128 -0.11046181264451112 0.0035550176282471914 ]
[ 0.4900862432076851 -0.16258855746331446 -1.2635968918637153 0.3035422144566225 -0.042676153371973884 0.6405244859925567 0.021173083413089468 -0.10956945536276186 -0.35595931639156975 0.037561587217770774 0.2889407779318012 -0.06147960068668351 -0.2876712233915473 -0.6352404929317912 -0.26316136283496416 -0.26645055537176376 -0.3488007007930336 0.13559799785843585 -0.31952245592829287 0.00762984314378098 ]
[ 0.021723439701721248 0.4866872936968359 0.1754150067476725 -0.30867836624720657 0.23107052025832414 0.17568338311650178 0.1506314977774012 0.005311375778108011 -0.09495427139532496 0.1648626784065406 -0.0440133763773918 0.009474547719077006 0.016391252795056196 0.08498832819991126 -0.05661691857387749 -0.41115037131513893 0.32320254029964607 0.019776683549267784 -0.08666013444207364 -0.3428431374111836 ]
[ 0.0058251921696289245 0.19027561211832877 0.38117911978420876 0.5836383695672378 0.3544420308871182 0.6078912400262337 -0.12087538938554575 0.3241989758142502 0.2694243790539457 -0.04941184251438883 0.38584238837687906 -0.2592225946945206 0.2130694610977876 -0.5820527747483961 0.037524825259709724 -0.23944287114897284 -0.41828471794873323 -0.2532850338747997 0.5280462190352221 -0.36044962358448984 ]
[ 0.43927220114728444 0.485819190445279 0.1322185917780736 -0.013278091685009865 0.5341060003150783 -0.3341272977430996 0.6704996635550219 -0.45591406147933833 0.2647502035844455 -0.3025491696039894 0.08262277060498364 -0.3692008427126645 0.13976542419628168 0.21912006269088674 -0.15019504262284233 -0.08904613114468735 0.04574211646929941 -0.34601809726711685 -0.12457008045240937 -0.30897516865935665 ]
[ -0.011456594164216367 -0.18177865180274416 0.6059361819122364 0.2988243149321373 -0.0536424980794273 -0.0516962848497291 -0.14806793747308897 0.4012427572754404 0.07112449302005806 -0.0117520324638478 0.4253869788405921 -0.20029721547307408 -0.19432014242882126 -0.3040033146718494 0.524431874563935 0.008274637730326566 -0.09678975876041945 -0.04989908093315397 0.2652083668850251 -0.5224351057382276 ]
[ 0.026321206570573356 0.5692787444442629 -0.051862266779098436 0.22086988689666337 0.1761441643366041 0.35277393814585856 0.004049798209666762 0.9363525459813689 0.3380441924479745 0.3259482900550359 0.32444629017026755 -0.027500000023554943 -0.11598885029051804 -0.47045211868667147 0.5244977482371035 -0.16221098110746765 -0.0808523830189505 0.147127882002239 0.17445429767558202 -0.22012576633957207 ]
[ 0.3143783980278568 0.028591212571712758 -0.10206494137798047 -0.42970499751959707 -0.08614114058756359 0.08200984156172973 0.29983061314499787 -0.4064877221527378 -0.7449333857363531 -0.21425313401232718 -0.24905164366205165 -0.7702452718480284 0.09735764345677929 -0.07220027833342668 -0.682460878918934 0.1965488241223991 -0.28475463783380794 -0.6490250804009422 -0.46061360079024366 0.2038004228905656 ]
[ -0.21544599089147204 -0.04827669342971849 0.31207336249151524 -0.17774405802443508 -0.08814285605629209 0.01059525589552891 -0.17371415623636616 0.09987122717766758 0.004088285035044998 -0.19724464980909817 -0.23756813324166062 0.0634941510790178 -0.04540615405291212 -0.039128812480927845 -0.14290248234044223 0.03283284046675097 -0.05886901706227023 0.03371259182064293 0.017790585560911107 -0.21613013756625768 ]
[ -0.07655250458479936 -0.18501281618302948 0.07075586863810297 0.13740786584401207 0.00902701911420685 -0.6768719520617172 -0.33940599817163225 -0.2553246478706712 -0.08536343258347263 -0.5962163641575607 0.07227038745244031 -0.17359201433034085 -0.26140198016344907 0.4754880649972738 0.4588675325650036 0.24653602504256508 -0.08346152703754159 0.5325031656120386 0.3379048724475064 -0.20382263988544644 ]
layer 5 Activation
tanh
layer 6 Dense
20 1
[ -1.302959651052765 ]
[ -0.3176941611379151 ]
[ -0.010026521017440867 ]
[ 0.11191078440245475 ]
[ -0.7283217442247171 ]
[ 1.032367366711806 ]
[ -0.8692377928245191 ]
[ 1.4072525469912815 ]
[ -0.7980885011322983 ]
[ 0.860411536595733 ]
[ 0.3206393018319807 ]
[ -0.8720618400381821 ]
[ -0.9807521660793306 ]
[ -1.2737531784324854 ]
[ 1.2562411653082948 ]
[ -0.2733227335047321 ]
[ -0.4915633197873413 ]
[ 0.940457831410499 ]
[ 0.7566379998807965 ]
[ -0.7863959813881531 ]
[ 0.970452140901494 ]
