layers 7
layer 0 Dense
20 20
[ -0.3715138176724607 -0.6016226488967799 -0.12325614744481206 -0.2568444095488133 0.12043012402480871 -0.15172473805737913 -0.3672196214599131 0.12333355366582052 -0.08086200914350229 -0.032902745794046846 0.0660525281133381 -0.11313817192649667 0.33079095520100604 -0.02615014538543367 0.0489267865749661 0.14477136728678264 -0.045130844843666675 -0.6034118532497404 0.12513366558924693 0.2534006948393354 ]
[ -0.0678276719169382 0.27414704723544536 0.29601730152023153 -0.3254595158029573 0.09363427371038585 -0.08935944442100448 0.016903476893661746 0.12761076394062718 -0.34427900189994937 0.36720382062245976 0.26151302419153893 0.33562939856807666 -0.15783342996244215 -0.10679038661491727 0.1973331006689714 0.33231931827596584 0.10302647234608793 0.10796137707329988 0.34415398692058796 0.269629652718921 ]
[ -0.228520604050072 0.3072254323919947 -0.0346394237629354 0.17495300769241642 -0.260052410427717 0.19912529221520786 -0.17488404016899764 0.28832870775479796 -0.3101728605067375 0.10194880909364445 0.15706664062452547 -0.03459479074943757 -0.1710489854573627 0.24203099833311165 -0.25179364584729597 0.3214394633293212 -0.21307034061399782 0.011439944875932044 0.21033163938305066 -0.28037323105023343 ]
[ 0.03921049466501505 -0.09452663417571437 -0.4755807725327619 0.02334058043517321 -0.33712859184670546 -0.23051418335292126 -0.3942212322012503 -0.17441917780522243 -0.01321150381213115 0.4831561316672841 -0.1308378690368858 0.32916111266622855 0.08175422907726165 0.1286224284880345 -0.007483049476435309 -0.22868891671580432 -0.002037816601676565 0.17941379839150393 -0.21043493660825388 0.1293661928310717 ]
[ -0.6525545648693282 -0.3465352051526053 -0.2947721389222433 -0.28678020041193913 0.4302844019365803 0.028869155248252395 0.0415280940076563 -0.4227788878821344 0.29321353435301356 -0.2229811437883819 0.19895875522376008 0.48833725068581707 0.10181888827229436 -0.41975744559362466 0.18860925583033775 0.25481606161585885 0.3122438529077644 -0.004612871038672914 -0.32189675999521916 0.46342118944530525 ]
[ 0.13372979278227068 0.3207905419280437 -0.20578570031761959 -0.09983709631700857 0.1618701643426522 -0.11631088193118096 -0.10935714085863395 0.05539872644087088 -0.07096076978251771 0.07868076750052455 -0.10795842251729569 -0.1338499512080472 0.28188618269063964 0.182075792983428 -0.20649226251226085 -0.26048238213282304 -0.06665413678642178 0.12799387171364274 -0.3570381245883242 0.19483119798357665 ]
[ -0.01884075161707096 0.3281313069940494 0.15816341784034785 0.2714443950865197 -0.37851905308164335 -0.2795714265426122 0.316393145728042 -0.31428703798865715 0.053223116132510996 0.18775201829654828 0.21148766698368782 0.32614278386686246 0.31249877926838754 0.29632021338209713 0.3200096505916819 0.24732912629414736 -0.19517648255723147 0.2892872138725225 0.33887395591392777 0.015573367764018695 ]
[ 0.4131043669452281 0.9184092527699811 0.42731604283755076 0.4858966685603285 -0.07168455591549007 -0.05852871178002121 0.6666012260111288 0.12012201235390958 0.29271240337892135 0.029699882583076098 0.2760707861847808 -0.18129188318731043 -0.45432491417456206 0.601150912952523 0.03832301477061945 -0.5005926743680225 -0.1637470813225437 0.22362459999312045 0.04271611958705339 -0.24916020338791994 ]
[ -0.4186357367351697 0.5468200459080966 0.06752070330692926 0.27115203717842384 -0.714853297862402 0.1963534277332648 1.1934078511683006 1.0256211450852042 -0.7379059235791919 -0.023318218915105965 0.38689680539437915 -0.3356429215427551 -0.19862239480838426 0.12755829847173245 -0.11970668936407151 0.8481103261319887 -0.06032284519654193 0.19224006615518338 0.10233094742261205 0.887818082636959 ]
[ 0.5047598914716055 -0.18846321050807768 0.1296544263934322 0.017381444447068448 -0.04878694738115236 0.41570549661653916 0.3675612195073137 -0.00857077157526595 -0.12677232166766758 0.30854919238841205 -0.16236583680247954 0.35548987666013626 -0.3294288760267848 0.05096196502857101 -0.20878196327929938 -0.3585180802527991 -0.44336970849452706 0.03162319285221999 -0.26472113003565073 0.11458980273801812 ]
[ -0.047915843784737545 0.11874198124449213 -0.16785740815863653 -0.05406296330037612 -0.06517041133185185 -0.126752469171256 -0.3529047484245366 -0.013998367851511541 0.03739799789370238 0.2242154943582959 0.16325754390170388 0.12288756125385049 0.19155644141369954 -0.5151065169002124 -0.6946918118800474 -0.08489627849777964 -0.01601089038952291 0.27633271797798287 -0.03770469041848558 0.01560947650260893 ]
[ 0.21883140432824513 0.20144719047813361 0.28275876688125967 0.04254311571269401 0.22400971493713367 -0.2529944001746855 0.16855260261387908 -0.8459531099611122 0.6783912783163729 -0.43592677141758146 0.717919610297197 0.7457953587247336 0.1081915319529613 0.3682901327715419 0.2551928162278142 0.18939526466781667 -0.45683583907941633 0.33093728038769826 0.7662783601069386 0.9712241665034363 ]
[ -0.7010285139226851 -0.18700659763872354 -0.3398396890494204 0.053808913080407535 0.013369752561266246 0.364872502995314 -0.3035574970618842 -0.4426204167534193 0.09330730482203413 0.618082222789893 0.572646629162767 -0.03625238293738095 0.4556348247159273 -0.23712136262038463 0.41914782616180096 -0.6469499226329659 0.30413314219503285 -0.9035722846076545 -0.41244129373025123 -0.4339735635390384 ]
[ -1.328710389604596 0.3265623591901812 0.3112065203289336 -0.009365308665545871 -0.8101213580540333 -1.0727761547097512 -0.1639864372683476 0.24060149544203005 0.590004265838612 -0.6116519376650514 -0.27055005769901536 0.1934661624844432 -0.43970877697311334 -0.003714254934724008 -0.4397634503201405 -0.5965472361641286 1.0715165071340704 0.4311323771567469 -0.6027027073202539 0.5241134039503287 ]
[ 0.30973558062051565 -0.15459802252517987 0.36385184688423655 -0.39101638107172637 0.20846763852933992 0.1117976191623199 0.06538743080188741 -0.4500723492040827 -0.6829550349752763 0.3419035413267083 0.49442227261237615 -0.23069653529959133 -0.35820093104899436 0.9875540539895068 -0.7588038488887648 0.13106163503577165 0.6097334664063822 0.0041532192348059825 -0.6506840027140244 -0.20240183548974053 ]
[ -0.3398296452890495 0.12910725258793337 -0.9954779610683706 0.8395021517738257 -0.1835158615921888 -0.37548613735108316 0.14047861122607244 0.022560589475375127 0.34084971306402967 0.6355580540631036 0.4385020185830947 -0.6494568367776388 -0.09473389844556376 -0.1291291890668476 0.012067893565831675 0.4246445658210715 0.21355250185473612 -0.8281220422422748 -0.5098130763525874 0.5730529792841657 ]
[ -0.31715561772740536 -0.5233140252833289 0.779174540999238 -0.38426999105325743 0.03833001789294025 -0.23797981009002048 -0.10289436195868802 -0.7118260636317375 0.8457685114989351 0.32707211833886934 -0.43653064275754294 0.09302927625387153 0.44280076736333585 0.1477991773683081 0.018682703998239302 0.031021542302235097 -0.40077462100588385 0.18313031833023108 0.11837311758565625 -0.4835199813388499 ]
[ 0.4331337899368678 0.18969472328606501 -0.4076785764042212 -0.07434562740438179 0.5833711970077238 0.666645158403952 -0.0004709933429924698 -0.5394537011490942 -0.6013054609214973 0.7895275996402703 0.5485488445188409 -0.6429927778834179 0.18982318532053585 -1.11824635546574 0.19736006026155145 1.2874419100452428 -0.26259005444964095 0.1514529220837252 0.7038240356122573 -0.4589194319833874 ]
[ 0.25992207869502065 0.4497963296747046 -0.25760676702103225 0.2661129173268783 -0.3688424690224781 -0.12818181323153144 -0.17136321056699647 0.6385399875427472 0.7956125903584177 -0.9512622437909911 -0.7973317948481125 0.5660914051141492 0.33868044932887936 -0.2810024726264153 1.897981355699675 0.3455545969350855 -0.17931550711916952 0.347151081807994 0.2794898389763639 0.530371778816488 ]
[ 0.2560669888929524 0.6445955773929947 1.4753920255433801 0.4058726094093544 -0.4037152213655988 -0.26668127086788357 0.13088809760045794 1.3360105705483798 -0.5874641671183694 -0.010759371264989239 -0.3083059310665035 -0.6466430659020729 -0.34140708352226556 -0.5142149504973479 0.5365667767235531 -0.7539461564446844 0.08990307655791016 0.6331770663661338 -0.12083926477795874 -1.0011432257280892 ]
[ -0.05207344048468229 -0.16498653241798283 -0.34211807676591527 0.2548017968062975 -0.024062929897139974 -0.08884410191870816 -0.20068103311048383 0.04935819708400291 -0.10932987598829641 0.14331061627129055 -0.12743746759259073 0.028148829635775374 0.11495197904306573 -0.16669879253971248 -0.07588542041386717 0.09136595733118116 0.027284494576285213 0.003997099932874053 -0.08375871558594078 0.050595992389897926 ]
layer 1 Activation
tanh
layer 2 Dense
20 40
[ 0.27131933432403704 -0.13899650766021165 0.05611503111420131 0.3424871093732611 -0.24432276321473892 0.3040589051128441 0.17720375853288878 0.20948692506914332 -0.34983349645065875 -0.08367561216753688 -0.364454291639576 0.24739595263397146 0.050409119028434764 -0.0569779887814681 0.12845068951524438 -0.07346228494951089 -0.0469441584024025 -0.14260728823917815 0.4062777977930611 -0.23355859678673258 -0.09467925294209907 0.33223849121643195 0.39360833745902307 -0.16499436731120665 0.2957255717271431 0.4145191453013005 0.19309382613561107 0.19841425637510227 0.21448044089920257 0.44124601827411636 0.04191438835902019 0.13182835826876949 0.3038125001879461 0.10716164563738828 -0.2579947976092817 0.1850511659026336 -0.6911267321728574 -0.3050583776345779 -0.18911109014407199 0.016969838400466102 ]
[ -0.09272356937109268 -0.05924049230918521 0.05246577928991665 0.22685651316210717 -0.12881763162048154 -0.38605192671095845 -0.37819211813483544 0.1393726896122618 -0.4637379428555059 0.1574917068409357 0.056917644844471815 0.23194609896123303 0.08521359284857749 -0.3849415754669992 0.24034616079275853 -0.4604176596863042 -0.12972422209435178 0.15578436412589208 0.07468787958724378 -0.17180203136539235 -0.29625912953325906 0.26589565044846997 0.5881980793194402 -0.15634671340535883 -0.2127315684067652 0.21691893480342936 0.049375011280797534 -0.25453288332540686 0.23807292478478437 -0.32786046803118746 -0.04879308932308089 0.25328372999545884 0.36636509455882993 0.027783241098705502 -0.13087578894966453 0.2453023246735203 -0.148867130721696 0.0751200596817817 0.20945614817360161 0.40460745568006357 ]
[ -0.1489382648186049 -0.3196113086719012 -0.30269973096432623 0.43389982833854995 -0.28862481487706965 -0.4129327349035935 -0.5005294885542361 -0.3334342857439081 0.21307251473756558 -0.09504883790796781 -0.06365543928056716 0.2738359512136749 0.16425657333787103 -0.11957453935375963 0.19669375569372655 0.07446007800649945 0.35546161159010303 -0.057682228857054714 0.0005767238592943236 0.024664282228057888 0.048938649695830436 0.38173666522155014 0.05786212340919738 -0.3715032987795148 0.05927083335690711 0.1629318698473899 0.551712573014745 0.2130300980480239 0.04242643994274387 0.23527378098968113 0.31233108350575606 -0.07782108606875425 0.007501227025030956 -0.05540903278832757 0.2616056744791079 0.3518618584336591 0.31519195608419115 0.3536337903403107 0.1940097520218381 0.09216222556650042 ]
[ 0.22356956178733559 0.12883488651665698 -0.14818572837217497 -0.009448012681723083 -0.15766086015129654 -0.10843514452974831 -0.0123474055107945 0.2783520244876981 -0.27768639989463917 0.1303950876879834 0.3995823723932441 -0.13831039048532284 -0.04237031443590693 -0.00931407749950237 0.26221240290758735 -0.008265836847486654 -0.180433105526483 -0.16891742779265337 -0.18470346063189164 0.0500968444139491 0.27746199274508854 -0.14808251145120305 0.16172847183644878 -0.005088516687054483 -0.0917774540289029 -0.36431563288846586 -0.011721981911066834 0.11976085188791817 0.223222575432266 0.19004371450035049 0.1482751263069458 -0.36196161174218294 0.009295305384314598 -0.0787508658341781 -0.31114946491951173 -0.1270811352356578 -0.135207442659021 0.5001985445895671 -0.2710100559390846 -0.20364255364108885 ]
[ -0.02610148134689618 -0.007902449558132723 -0.04718200856762361 0.3307396893090566 0.15664572165008442 0.4456822713354818 0.2976342374616226 -0.07104901194498768 -0.05596467627156405 -0.15369218592594472 0.06453393180775181 -0.12266353849144498 0.01675553492380537 0.11128326274961627 0.2692380520421985 -0.06672951024382477 0.021624966898229136 0.051678882873969205 0.08728015399904794 0.2668540711764868 0.15903395743321525 -0.20227498911972863 0.3819894342305099 0.21865011930350367 0.07072332998943417 -0.14263091544203674 0.34538966439923735 0.3344507809320501 0.21238079467182489 0.44199009557796615 0.08173274895227933 0.2722989395642016 0.07702880393705674 -0.0781662775908619 0.4370619082708314 -0.10558446292291668 -0.03409512730926104 -0.07944078312750628 0.3229447569548166 -0.07683417818967006 ]
[ -0.2968598665558771 -0.15647457639821696 -0.15020975353236415 0.45550714879604237 -0.19758621772739954 0.17682965506092482 -0.07138630484429805 0.11897799701909836 0.255265797925943 0.11834409010170202 0.050832291411716454 0.08608195326178085 0.09800912477705974 -0.2578556725969024 0.007887365927269126 -0.210698042263268 -0.4353809678975623 0.3866165372022807 -0.22231025404292476 -0.06085369580261907 0.24686399792200925 -0.03111347135110321 0.2720727906742722 0.04981088451149865 -0.07604590902088564 -0.37726550639556483 0.5028781501377664 -0.18208724878158433 0.26063236384973215 0.9629641524507856 -0.3196614208599732 0.4020467205898215 -0.22238083797305888 0.4702099647830254 0.003352340149805195 -0.04022100166554442 -0.1792366406662151 -0.23206001908181645 0.17163732787637367 0.3505707902523015 ]
[ -0.033475287088639005 -0.5646245481917976 -0.02329160458161379 -0.06664891995647489 -0.18710226827264753 0.2983081219351166 -0.08432915960953012 0.31349168817154993 -0.1063683817516741 0.21617754258176844 -0.035359432991569184 0.28450722111745347 -0.03955709027411399 0.23476013015746192 -0.02823896855267033 -0.3307655222805884 0.24091537140216232 0.12807864884407436 0.02960358302345694 -0.07418568031813208 -0.20957841769389676 0.26068707566720206 -0.11655359569884412 -0.6473604607984283 -0.33873500861107647 0.2427307348075337 0.2490010863110499 -0.6896024114289142 0.4238741532825149 0.6093250288915317 0.38321942898524974 -0.14974258811109079 0.35616935265747873 0.5159693003969743 0.07335343014174654 -0.09347803263306957 0.07832732876269587 -0.18761735719175784 -0.05931448599206031 0.3082511134538073 ]
[ -0.46251715331037163 0.31148148618578436 -0.18099217732628303 -0.2521654473969336 -0.9125849005821967 -0.08935462168435919 -0.33342376572391186 0.8725882299913984 0.4911078335434937 0.38284666780943394 0.020148505741084403 0.015131701067437366 0.1320919941193499 -0.21961528958183713 0.40113258880748737 -0.14144322042827917 -0.05614534503756968 0.42116790855615793 0.059757608060410916 -0.3273234952320444 -0.08526434475096484 -0.1387075093566831 0.10475767109764789 -0.6740333037150696 -0.6322198549528203 0.22841058564171865 -0.7896918649577074 -0.25729728430060145 0.37515329871345715 -0.5853795750764987 0.05398856535174813 -0.3006061639577257 0.7658818980710722 -0.0016671118378097176 -1.23958641778264 -0.6413836074862915 -0.08794605193511214 -0.4382625221455729 0.05991166986422105 -0.3135315148756531 ]
[ -0.015217341042685559 0.08995458358657493 0.15516451470251924 0.5337228616195626 0.6785215563622297 -0.5328495745846417 -0.5812891671239051 0.10523201812384843 -0.24735757060728067 -0.2592267459663936 0.47852497346249834 0.09661102945556481 -0.040535651246763386 -0.1420905930582778 0.11203765719414227 0.33767770895572546 0.6420045204036255 -0.1766543420703382 0.4151795295263074 -0.36443296615958937 0.39102486774159434 0.03638308941687645 -0.5961347764132451 -0.5006835347106198 -0.19279526517605042 0.20721769679775368 -0.03060874177527878 0.6306205380569916 -0.2612476547442447 -0.12724111548207767 -0.11330810003052054 -0.3785077160950728 -0.46510156722296725 -0.15863284089495533 0.5243133664755074 -0.06025735160743609 0.10481982116397577 0.5504892331746902 0.26048548409947014 -0.034301046479818666 ]
[ 0.1715729513263547 0.21715288266812352 -0.5652533371463869 0.020849201590390696 0.18574761593572162 0.3248853932623465 -0.11653590068621267 -0.24106186460218135 0.13863378300940118 0.31208857989365757 -0.06142465962373583 -0.2180904929078014 0.14894165459080672 -0.27365162350697825 0.18815935506280124 0.014672197668543122 0.18307306582577668 -0.018304821549530177 -0.352449067642167 0.40589853766098016 0.04837986928740737 -0.2804874946774538 0.6417890565081675 0.40064447214195675 -0.049116405162418865 0.04851785032919515 0.3228693721188414 -0.28494819936562027 -0.14238782073256537 0.4219097704956018 -0.057809213078277466 -0.04089245469802563 -0.3394418249842016 0.017442845901440785 0.2075291233479322 0.25325524159545937 0.10665369235145021 -0.5139745778136503 -0.12159175097306951 0.002398859275650064 ]
[ 0.061991052277982184 -0.2599814519679903 -0.22407397265393228 -0.027471312823374363 0.10463361585734295 -0.08976684624351186 0.36000637568348703 -0.16579694544415838 -0.11300651521510653 0.2537333196257613 0.01536299858741588 -0.25919044408647324 -0.16705395712593155 0.32098784793514046 -0.04596067268129761 -0.10194920766126203 0.2445197554395969 -0.131410082299429 -0.04936632777576654 0.4856898084154553 -0.19905188581858357 0.13182018611806323 0.6261671592909981 0.1278113496029926 0.5276026487959166 -0.14859039655553588 0.24700859921953983 -0.33886548201001737 0.16574279128027394 0.19437764733666488 -0.0996224164006668 0.023197105227866555 0.33456658755101093 -0.04399546852803036 0.3598958711880135 -0.22241010104838116 -0.13539136733463386 -0.25781280827687175 -0.3317042612180852 0.12283744342455755 ]
[ -0.1425029783506332 0.06117747687163488 0.5071326346935641 -0.3154461841805598 0.005745017294410526 -0.07410908123372695 0.12393458022604276 -0.329479156876683 -0.053208413425171755 -0.1910494513350051 0.1803847439573101 -0.16393161405790496 -0.10769214313746317 0.20693789880993838 -0.050662255717787784 0.2325127361218373 -0.2718637503015729 0.0010889308366215276 -0.06740445582875994 0.32132238132406904 -0.13439705284171552 0.24720163836721679 -0.5436103194890005 -0.308388913248856 0.13614120756933834 -0.03354520935742668 -0.6475884320508388 0.20349556704499006 -0.3824539047217135 0.09879031353438547 0.3748294503968874 -0.07496671329704263 -0.5903814792405759 -0.3324409710268942 -0.12169479004228662 -0.03273170649138578 -0.1754630139093316 0.6083023161851483 -0.1688411606099424 0.2066175861187484 ]
[ -0.14574040560518126 -0.2721196543225961 0.003274165646365161 -0.2507779506612317 0.3258643921922264 0.4943158552765918 -0.19090614263525824 0.038167394409872414 0.34160641882271425 -0.10356724626998554 0.22103538757095786 0.08474883242063207 -0.14609930715291 -0.10698211108812651 -0.228890219898364 0.03324266188468585 0.2879811608345586 0.40390564641141113 -0.019653849970549597 0.13503325284769985 0.1471202177496104 -0.12000741491949668 -0.6103564798007574 0.2270353249248043 0.24298162190559092 0.19494938432271322 -0.3163446062049832 -0.08397969952009539 -0.051795223489211915 0.09708255793654336 -0.1875770490681216 -0.2620576633129113 -0.16416583884980263 0.5241337740819882 0.3551715118765068 0.07628749872613758 0.032387471343084166 -0.007182854339660458 -0.12039868599800037 -0.1744244565026447 ]
[ -0.34013209073293077 -0.33922927089799165 -0.08373255202845294 -0.7322324882315948 -0.24593614677318626 -0.39235907369489303 -0.06753223287431091 -0.1914377228368744 -0.19726029204056103 0.187787372081636 -0.21185823968239864 -0.01191999036075492 -0.0362948965607378 0.2536078404429609 -0.008216417015021274 -0.3599139753587753 0.4820029071932353 -0.06409426383215577 0.3107785105661045 -0.38225507239830037 0.4116575939603916 0.5491553769068325 0.35065822601639957 0.018151832570628884 0.17221851572202576 0.17696049571150022 0.1919837056425379 -0.20552680368193152 0.028782702642838515 0.33008247185257444 0.4102430694263144 -0.11527176646865389 -0.40008741410523935 -0.14660585057805928 0.07581976687779841 0.4341063226698289 0.10315874497549785 -0.5535479696564958 0.17676289250381233 -0.03129382062419798 ]
[ 0.4351719685969871 0.5008689207885955 -0.5978520442672298 0.4073188415723534 0.4712716142875423 -0.25503939518600954 -0.11844025661741603 0.603658059236962 -0.3006087620181942 -0.23023594802662473 0.14822516205291608 -0.3639621655888748 -0.09957065077445333 -0.01618106879585466 0.5547850446289538 0.012501717407329915 -0.0272735164212719 -0.2874923531745916 0.474444064036275 -0.8325052749113797 -0.7265180167451876 -0.35097860723968327 -1.3874097347904581 -0.09299764908899172 -0.31290011780311916 0.3111558974048934 0.03862249090114978 0.7358027200753174 -0.025891525370993866 -0.09490428129595295 -0.19238318983383668 -0.32118172892515057 0.41529678660383873 0.8173750365975219 -0.1313473735942097 -0.33787326598624856 -0.2581010246935103 0.2764778131209049 0.16986412551439906 0.23012126854625783 ]
[ 0.009398894023001484 -0.33572349410654767 0.013254030723737879 0.14644692667330794 0.45874363304893684 0.06129269940945117 0.4848819474359529 0.022361886716846805 -0.035915376910164366 0.049652492861835235 -0.16737741509731907 0.34812898968787304 0.11692175266307898 -0.21271591288711927 0.21437253457792618 0.008505487956908565 -0.5645454350919075 -0.2116841721983111 -0.10486163015455995 0.6174747298148392 -0.28548183993671006 -0.30884766810107955 -0.24963475262873344 0.2819208197404685 -0.25892965699138665 0.11418553956310781 -0.11636660665895629 -0.3791985516076121 0.014837848910945356 0.5990731220292426 0.061787954874959874 0.2646743728222252 0.5252401774155769 0.20198597735382312 0.8818021606508181 0.05007484294228974 0.04710132814324523 -0.3687184830337854 -0.0763643767332625 0.2485408461742275 ]
[ -0.41729784238052836 -0.11754255683890713 0.47291412165370117 -0.6288166712854614 0.11309458696954333 -0.3643391587969722 0.12402709725355206 0.22091397146409436 0.482675190689376 0.05552045272815143 0.4534502176206152 -0.12246298761234695 0.12419821379515146 -0.052103085895779014 0.14500892403226384 0.10876949644431012 0.9458955835392633 0.2513062870892238 0.12583675838584993 -0.09418185830270558 0.4994763267948693 0.19780923328928154 0.4665892098863155 0.09626980001461918 -0.1378041004676179 0.16201206456286732 -0.34066683035046363 -0.1286417149494223 -0.07739835034215932 -0.11181156802214043 0.030982783590369233 0.007067459480941205 -0.06719272670704268 -0.41530652590030914 -0.025392565994305172 0.1079041354581924 0.9608440349772699 -0.08711395082508047 -0.16568620417151309 0.06486615160581326 ]
[ 0.10118338289062692 0.051908840814818655 0.1590008533488367 0.037722741771703455 -0.04221541991984519 -0.22134654985802382 -0.4082991516868735 -0.1780279972402921 0.1407808211741157 -0.0554280406524767 -0.29181904923712443 -0.21241671267576512 -0.3390293598232464 0.10985756519041137 0.1968314186478258 0.018018118118627604 -0.35310645703522764 -0.1572663199255072 0.3363152480026685 0.024638172012213272 0.36810809143385476 0.15697477423678202 0.1064911322547554 -0.05214731809143277 0.4509760047466712 0.05405056259283139 -0.2963361301936174 0.6107458830826052 -0.0261435691504011 -0.9714269048629355 -0.19764004495098006 0.4029346586014995 0.260269109330575 0.0202938813019081 -0.5944321554753663 0.1609522866738002 -0.1601580549018975 0.05398769938865791 0.2728271416537075 0.028423041913551928 ]
[ 0.30094154344438473 0.2796558801748037 -0.37936940223136645 0.29816923322760475 0.3027941157586684 0.34655111948027917 -0.21773193651448214 0.0023593863164372737 -0.4349134595035876 -0.14348356435209622 0.22656239315140556 -0.040731876382865045 0.11205165986824547 -0.252507488029681 -0.04340028898784467 -0.06832091486309458 -0.08875184087762801 0.0011473156324113892 -1.8553620235862056e-05 0.576744873427561 -0.30713217814123966 0.1673247968044189 -0.4543709408423597 -0.07050146791395195 0.03610600154216621 -0.17925268096753907 0.11009475454224844 0.31607838339565403 0.2066350842795494 -0.3714667820526028 0.21875499851496696 -0.04118931384199771 0.4172737618847335 0.69345560496974 0.41687198056191194 0.1142410695624155 -0.1562548390772108 -0.02787609706496625 0.1996139382107985 0.06232929724358168 ]
[ -0.18330036380751438 -0.16520838647451955 0.2753151457309566 -0.562785826360033 -0.4381848831549165 -0.40703164222759214 0.14767606514614368 -0.04079856385022566 0.24770235264652843 -0.3745854277939578 0.15292619817432565 -0.015279963835404123 0.34392212708538955 0.3192677817647375 0.1198299581472232 0.04500354343337863 -0.4129469537786461 0.021865851704697584 0.08771908963402554 -0.010307909673090056 0.14378606879057207 -0.24411244788912023 -0.3850506191550682 -0.010312664255558986 0.2540090426455116 0.31414021042001566 -0.5880951063936684 0.379213881039459 0.17922693772214743 -0.22697586858837435 0.11010224171614458 -0.11847523334569025 0.19398614903656572 0.03189226850685226 -0.30926497804094333 0.052514629885243795 -0.06410272233624707 0.1386771363941558 0.5009256616563859 0.17078300524597195 ]
[ -0.05111957296723632 0.13322475858601 0.2764243083664035 -0.20506478456043495 -0.08465122070890815 0.1543954184941915 0.2155355479246487 -0.04430828198067054 0.00037555269542653463 -0.03655118446022797 -0.06612769666747961 -0.3717172407616104 -0.2346766175340938 0.1546819047597667 -0.2722932798908858 0.187816943994472 -0.2884054376710462 0.01508055043729148 -0.03428821956308645 0.0970571620546074 -0.09033941486037458 -0.21022567876084403 0.04866267101271646 0.35625498617449425 0.044948908722995236 -0.004355170505847646 -0.19188114640967074 0.1546281016793543 -0.12179223446672141 -0.23687691296288818 -0.02364014540245652 0.09840713543824975 -0.11941196627598942 -0.1440126536274377 -0.0966086851068274 -0.02782169393359792 -0.10180087074412264 -0.290309831154123 -0.03356430991572275 -0.23229659930993662 ]
layer 3 Activation
tanh
layer 4 Dense
40 20
[ -0.018167722810229426 0.5717234733083064 0.07374972768774593 0.12795631816847522 0.1608265382207841 0.34448064367065717 0.18771186754604371 0.32449916732556006 -0.11670511035188798 -0.2629479409282251 0.017370062119467098 -0.010833410698499574 0.2220022792867166 0.10280008966617199 0.20679705810860113 0.13018484206627504 -0.055101605257984035 0.03380979268076572 -0.20867778902860515 0.2657401682096086 ]
[ 0.2188417435469783 0.4106389332792136 -0.16695628814002675 0.030246997437219435 0.03129101230091707 -0.07182220199484746 0.0936243826271873 -0.29215621603217884 -0.2820080479601517 -0.26257927897412225 0.02039342222951366 -0.31806081285079696 0.05174083369330557 -0.08231424804421353 0.11919382911527637 -0.2520512977758472 0.2341906779346884 0.2696470112094075 -0.06515531230528175 0.26574709475434904 ]
[ -0.04731295274677838 0.1439791922336611 -0.12449516390822235 -0.17728167077641885 -0.22154712651645822 -0.03306418133092508 -0.2150231133276278 0.03430044441159252 0.20136758062337348 0.13569613027813698 0.32939196368750046 0.11483049509488795 -0.2625354926047683 -0.05341764290291905 0.3781075207195993 -0.17967537687877763 -0.06728848918761736 -0.2813397944463171 0.04024691733804592 -0.11043464718615757 ]
[ 0.42873894084574754 0.24992269744262943 -0.13417827619321737 -0.018927724773252785 0.17099284193930975 0.19602305278859056 0.33668165220000956 -0.05624702248249108 -0.34081509663510556 -0.589737872050321 0.247699880344414 0.2789473635950412 -0.3009775130023511 0.25229628802717097 -0.1963668481870993 0.22644149477398656 0.10538672026409075 -0.29164033962024877 0.09477678528324517 0.36258637908751745 ]
[ -0.14021223426716573 -0.07745030731877754 0.24141149038478185 0.04855383194473912 -0.16473647618131468 0.3580237259025438 0.339820662631069 -0.08895631471276011 -0.10166669205632825 -0.27348159316330184 0.331356199381774 0.25319778885851674 0.10507097162324197 -0.05653719429008999 -0.13977570053337088 -0.06977786096043671 0.21410830696913621 -0.18551540186657559 0.03027286683797195 0.06853979929766148 ]
[ -0.2349633932455937 0.5322303220423339 -0.41994873032707614 0.15196566470109232 0.2206476751325471 0.46850143019678747 -0.09989440569976861 0.23052301891471697 0.21076562006715474 0.2057218759409467 0.1403896550551097 -0.373351046490852 -0.11134071752109448 -0.0849900963655913 -0.12290241531134741 0.10854882442721674 -0.3357698587528623 -0.22524652170239443 -0.09455194057710048 0.06500184314737772 ]
[ -0.4223993123737474 0.016193308844842373 -0.16425562024819032 0.22089665677475215 -0.13335960947232195 0.17950053063631052 -0.2697107430566483 -0.06890360864159727 0.3093672919114357 0.21837784275422345 0.07455396073709511 -0.16190707147289604 -0.20967193069310955 -0.14539703225855535 0.243170308477216 -0.17971042133857854 -0.10776178444479713 -0.30282165989698645 0.06902951754803523 0.3609419450519681 ]
[ 0.3304202940509777 0.21597102250975192 -0.1863429019410261 -0.3065865686919348 0.17415695023213068 -0.12384312389034709 0.011054526703585454 -0.3178297972794999 -0.28916262247582536 -0.12537838022801356 -0.1470987865970309 -0.34531162302954116 -0.06197095853309582 -0.2720687533133011 -0.4187769652794689 0.040346955057768474 -0.051863368071311304 0.18128188525235384 -0.37517206350741494 0.4035712338021335 ]
[ -0.2372334139613058 -0.07827483142177602 -0.0083797774003942 0.04314931542107683 0.1264553606644996 -0.45675377135263706 -0.2006996794223965 0.1649745452197656 -0.09762673282740963 0.1517112673518355 0.12135812653879191 -0.3315885498986908 -0.09530357921158235 -0.12860183320498994 -0.3838450100854874 0.112730558296688 -0.05883910227131224 0.19511652165508037 0.058690494961289315 -0.14765046084586883 ]
[ -0.08946342794659343 -0.4142754884948882 -0.027728254655432636 0.07554554911920539 -0.28290992785179053 0.00873799151838448 -0.047019208430847836 -0.060416190443061416 0.05305749541647306 -0.22618684484654294 -0.19524798348408162 -0.13330326604880635 0.20261041809140154 0.33096699895005405 -0.18194029956166546 0.08782709870532708 -0.09014844773339713 0.008515294515166532 0.15887594694106794 0.1985076834621236 ]
[ -0.09465113589693579 -0.3688962119120432 -0.05623821106667279 -0.0292847413467573 0.01199676004726696 -0.15059411442056428 0.12967001873454773 -0.02501863148775818 -0.23492910653297924 -0.08202584558822183 0.24440997518119315 0.18764620748771002 0.13416338815362025 -0.29849300666915535 -0.15950123579270611 -0.28201757822764795 -0.12794938521979207 0.040473127919384504 -0.19291729704046198 -0.20770961327427162 ]
[ 0.05018752823017417 -0.13558887690357305 0.09220835579761101 0.06739773732531651 -0.2206355470618344 -0.19039631948164246 0.05949359465056051 -0.01417471100409651 -0.0712562975054943 -0.4923987244912094 -0.014968262063026667 0.28712809255310723 -0.09870963808372069 -0.086452944472388 -0.3946892497654492 -0.2653979048050179 -0.12877155033655266 -0.04491662526658449 0.17724666634246336 0.09202827203228867 ]
[ 0.04363281439093253 -0.046342213531369525 0.041009513856304275 0.22323553455377868 -0.07894858518153307 -0.22379465200380172 0.011696877320559605 -0.2038484095026228 -0.15056174448055243 -0.21003416345910553 -0.21028352504641548 0.08190858719878784 0.04233138666002108 0.07985798430054923 -0.2773680408689709 0.020525546744845437 -0.05577151046392099 0.2509226269868896 0.09678069239333514 -0.00677921568601088 ]
[ -0.2784574502258747 -0.1466515925741987 0.20873417550704915 0.1013419049993571 0.12873954303016735 0.08645665657742395 -0.21362189690135835 -0.2654233153311766 0.1944317864734377 0.4738282024854702 -0.08073442434607414 -0.18965518566805656 0.027390753627052598 0.17149995797245188 0.2620398922189657 0.34444992941779534 0.002303799497836524 0.024298353232021945 -0.29385302486555676 -0.3109819146522706 ]
[ 0.36146930046403614 -0.1289807127955058 -0.07475303552939865 -0.207317596028078 -0.17105590488904734 -0.07966301448040485 0.13686495041068306 -0.11942351630055038 -0.1756575631330491 -0.2534993571146912 -0.2369955556769304 0.08331289163038272 0.1879923482024436 0.18376919994317548 -0.17616612565822592 -0.0381931850323544 0.0024955321780339365 0.2409856146109148 -0.3398347195655853 0.01829421201141061 ]
[ 0.0661430686030659 0.04971813637627146 -0.1838444912489826 0.1828930145218439 -0.019265610598582363 0.2088701411649368 -0.00010648543846763137 -0.012723129541335408 0.08516397083364623 0.03857260103815395 0.15215623811993176 -0.21199932316533426 0.29869708311686044 -0.11188114244360926 0.2575318824638553 0.24744929987693115 -0.00045783914959737055 0.08794316583365229 -0.4166671064442974 -0.06369397851292453 ]
[ 0.39418240151841594 -0.36188713825827445 0.08664491529444703 0.2880213860910314 -0.13184493152774276 -0.44192169044775853 -0.27964938451581073 0.08145474353005261 -0.2790309932492444 -0.017059862592725777 -0.19678104554604597 -0.25159159267132825 0.1077379094484782 -0.12096450283902573 -0.4572121159021465 -0.16328788264189256 0.06017222285460478 0.15691327291848442 0.5915031566163 -0.4845701601860262 ]
[ 0.2340888989023027 -0.028913699447912132 -0.06013515137878196 0.02087340838915766 0.29205231056455905 0.03588294498928561 -0.09354771581017168 -0.09336733474994728 0.09650083283036262 -0.15990030565179486 0.14504006153945426 -0.1746767151840219 0.14771999700137312 -0.10703783728876161 -0.2699834973108324 0.14936712121256052 0.07887409724652744 -0.06843071336721111 0.16043375649783598 -0.168027794008641 ]
[ 0.4585184225502211 0.16842452287747336 0.03296918756263678 -0.40168380457860225 -0.24879324524692367 -0.16808475763656872 -0.13024854645914852 -0.2935424080977332 -0.14420550612440877 0.13229810300342626 0.10679521436805234 0.129916655446393 -0.0892272188887467 0.12217470728612866 -0.01893594577005936 -0.09492473363778299 0.09463355992334353 0.3201898533507566 -0.19025495622857846 -0.13130968881905847 ]
[ -0.3076858154284973 0.08919650713557707 -0.13678486321465663 0.3079018792633031 -0.18418219191218302 0.3818606593379506 0.19398612446156416 0.3812237945852996 0.22756825513637863 0.06035028783699542 0.0017265968829984007 0.347567413800322 -0.20698080248453274 0.4233386938186406 0.20315907879082587 0.1308320667656516 0.027262697075120617 -0.2573642286915179 -0.3092411900504045 0.13465205883200979 ]
[ 0.3268825321086697 -0.17815007070287445 -0.042429634295314295 0.3384103478841776 -0.09310646324639898 -0.39305256534069116 -0.1965090703597281 -0.03080251163570269 0.2735576918057364 0.13933158684931457 0.17563872447869056 0.17856509191545042 -0.08437516794867489 -0.18401278972425883 -0.06453076189531974 0.1725216008018721 0.09832573824641355 -0.16110232590102957 0.06528839644547785 -0.34510156373731793 ]
[ 0.2694249512079742 -0.21246999336017888 0.06287426319318341 0.0639397588459369 -0.14326357406053122 -0.3819080101773 -0.11368015970994345 0.09312394592922696 -0.047252832202168894 -0.028898455520079015 -0.1836189170272219 0.5863431195271143 0.16720321195848 0.3491135429244036 -0.2781385860952726 -0.04813736706218106 -0.17998927309443993 -0.10358950410414382 0.2550686058722312 -0.30615068492223185 ]
[ 0.09995055935197453 -0.2741851537477922 0.2427561302309943 0.340929455343278 0.014484817044812626 0.3511039739542583 -0.5926754014145773 0.1983061730079041 0.4541805773620541 0.20536855384676497 -0.18220571558721949 0.4550113950256538 0.06752126555577426 -0.3742396520041373 -0.044064306073057107 0.23021189589202953 -0.19012902657023567 -0.06204811056000126 0.583460124419249 0.011776267790744598 ]
[ -0.1556372213617395 0.36924247561806117 0.1061209426969257 0.27794983947583435 -0.13015440355269575 0.3383536160320119 -0.04932847510644026 0.020882301339940384 0.2855996038417263 0.12650307478542963 0.04071561472394262 -0.3928112652777281 -0.023026627221486587 -0.07371898131457875 0.49113121373456564 -0.0337238909496506 0.17492686400204788 -0.020344361466308237 -0.12390975307325548 0.32503743219980347 ]
[ 0.22016359266029994 0.07215463880713026 -0.23392351952224189 0.09232735820297024 -0.25358212675228364 0.03217989083386376 -0.11100011518585001 -0.16350192622497062 0.05584310972057795 0.2554403392288279 -0.03915905848283458 0.1226818057464089 0.099219998842932 0.3908483144508118 0.42262898923676734 -0.010663117330449315 -0.07014658488388212 -0.09870025047764663 0.3263423024461857 -0.006017084974544258 ]
[ 0.3373155680249631 0.016721553345422586 -0.14710880027354614 -0.313553952565019 -0.17280901353138803 -0.4929479828239821 0.01588146632879971 -0.059330073500043136 0.14501671255866433 0.35335368004326323 0.030464127773714596 0.02250589167667303 0.003007797874575962 0.06274114487692997 -0.05190841315137201 -0.18294611649501716 -0.00023506720686152313 0.29060647294833464 -0.1437745680247391 -0.04597963613003957 ]
[ 0.005324169517550734 -0.2751810779661866 -0.20367434634045434 0.25820145424844926 0.16252338369104272 -0.3192121303443111 0.4903467610783212 0.1391051879424988 -0.05161975851182352 0.035402276027060565 0.37620758147823286 0.01464040783967689 -0.22261595406079848 0.04248196479238495 0.12273174602851403 0.04873231309442428 0.07645665666784573 -0.28053457172363055 0.5443730734915255 -0.4264833543873194 ]
[ -0.002862595366125808 0.29912316051536963 0.31766009806872275 0.10785339300287484 -0.3560347091204982 -0.41420237242389357 -0.1194789379286373 -0.09297492619744163 -0.6283191787139021 -0.05146304263283098 0.37058296833875465 0.28806701211349484 -0.18940142575089197 -0.18106772104781 0.27437251284228037 -0.01468654140000353 -0.11957714131294919 0.2671352614437083 -0.2432433208261215 -0.20193006767837784 ]
[ -0.19012378893412019 0.014979382490907169 -0.11313468097888262 -0.21043004762184664 -0.09969223805656048 0.043628024959065904 -0.14398040295385867 0.10793678975987217 -0.38479172612586077 -0.49794594668848585 -0.29135839072829967 0.3095719605236137 0.12139438638748458 0.39769425548020976 -0.297444164156796 0.2206958936287696 0.07446951087514266 -0.43920414278350856 0.3800082925856474 0.25765965445226496 ]
[ 0.05345990429640141 -0.2378269386958755 -0.02368721365247428 0.16567389359501253 -0.028255328785267937 0.18111308140559873 0.34051819195118666 0.049490926037134855 0.32065071657237854 -0.059086254220882733 0.022278507075786366 0.027505771892001755 0.0846949552393596 -0.16350649542344328 -0.41418658808095615 0.24376944893578698 0.1274566927848959 -0.10844510796282746 0.44058414155894987 -0.36196490841853923 ]
[ -0.02816344447191064 -0.0017159038916802595 -0.08903003468328641 0.06370126807740238 -0.11712788583247516 -0.4199140238521203 -0.13062651819191903 0.13098933947474123 0.12329653723825518 0.2490536043506723 -0.3135269218806327 0.4271339469190774 -0.17938447278280073 -0.15954324994660538 -0.12374372411246161 0.019289097932561252 0.20774280744263107 0.11735396908519408 0.20899767363010435 -0.5472065053492005 ]
[ -0.399985439708823 -0.11528026208603662 -0.1630730831669618 -0.3282556795107424 0.1165781424584176 0.30065368852933494 -0.2109537714453857 0.07076041329936453 -0.1948883293671797 0.08827560102661668 0.17654170434354205 -0.07504719369456628 0.16659396820568087 0.24434072789499653 0.26375884622661355 -0.10137863156784109 -0.18751568805992452 -0.43783315028989467 0.21098321894157882 0.24357518344191326 ]
[ 0.1934371184442002 0.1662627048774695 0.005082185566974166 -0.39671537124895606 0.05288927856684909 -0.1477036052491863 0.1653604613306277 -0.12135069462593087 -0.3260674763101398 -0.2841892811147919 -0.43614546420621586 0.38477600306040555 -0.1841657530856024 0.13776506960152485 -0.2568250918774822 0.32430748988367925 0.19510829089190287 -0.23326059087863568 -0.3784739017671883 0.7552384393297915 ]
[ -0.18011868846291992 0.41417427348350605 -0.16727529710918101 0.0935564832393016 -0.12557476227724154 0.3656510046706167 0.17239147792183715 -0.3357624608527661 -0.43477507578159075 -0.24642841611003155 -0.17104384501636105 -0.08332608191476047 0.04543498990556018 -0.1114542475738611 -0.1854446522995052 0.04190225373079618 -0.22422161334046534 0.4297971130923527 0.016416055734024385 0.46523444819182064 ]
[ 0.0967727404287333 -0.22877328889997145 0.06611649710071973 -0.03293026337942918 0.10295779695396595 0.4213196850894549 0.4223643296782451 -0.09121801134625503 0.22165753559049708 -0.1894394691157886 0.3929095332909356 0.1348072550440444 0.2103454947227095 -0.01398605508263668 -0.24272500473378963 -0.1142495706915354 -0.19693323577680627 0.21354246742762792 0.2945615254640394 -0.45914312216182246 ]
[ -0.24455864332786686 0.01458614231010577 0.1371063568963462 -0.053751982931823 -0.39195585914103304 -0.25198798136324 -0.04053156384337019 0.014552711552861747 0.13799813830645247 0.14483265920153943 0.07679988790837468 0.20577122766870914 -0.22495287721153767 -0.0079975389991734 0.24847221006145873 0.19553491751608504 -0.019318896874710636 -0.45972742650790144 0.11163171682699588 -0.27775690802967673 ]
[ 0.08292598858815134 -0.3528450236328885 0.21695641688879108 0.2835317673414224 0.11138954182187573 -0.2714529903840201 -0.30280349522282923 -0.14944637568800953 0.07485530716022562 0.3797468589716224 0.1584718283019529 -0.14874595575345673 -0.148697919176497 -0.19234534737959288 -0.11724826824214656 0.14169569502380258 -0.09416496446922037 0.25873386438469015 0.29027774842801457 -0.2984706764395345 ]
[ 0.3782812884992979 -0.1641470234044334 -0.09828220976556405 0.03154322897501633 -0.07518600016184775 -0.17546937863623527 0.3998294394630796 -0.056790847889083444 -0.06583976307955154 -0.23278362448973852 0.10099928444001009 0.22968334864538734 -0.08160800315630397 -0.22413610553449523 0.020350254725195006 0.06328089244585182 0.03221584231062695 -0.004238125984903939 -0.1935319335784339 -0.1857846610002084 ]
[ 0.27033903086645283 0.11092421500693399 0.10504401618255194 -0.19749599466359008 -0.016681632187293724 0.055181923642526165 -0.08545659351006327 -0.1856775378492793 -0.21898740798881347 -0.2257375941142467 0.12965358896740978 0.052340232691881504 0.1876122622231667 0.25447766620410006 -0.1412959016118172 0.04740409525828811 -0.10623213565466524 -0.018972454944045695 -0.14589090354803927 -0.0997422668569437 ]
[ -0.07847938174373802 -0.10907841042697297 0.01451991767630912 -0.04789508050519764 0.106600202640461 0.22211872573997715 0.04625026289409107 -0.02938754651620923 -0.12170969301016021 -0.16498519480682494 -0.0511533153295795 0.33744422177907485 0.03524336677244449 0.38247029467988986 -0.21442017814811973 -0.1398292630773838 0.16003817611466875 -0.4034313784792559 -0.054514662479721025 0.2233859816197436 ]
[ -0.11772960796199369 0.10911002644638804 -0.050466852157781635 -0.06402180299361747 0.04435628783216247 0.09664455584369788 -0.14568757114633424 -0.019166337892012105 0.13299405029374886 0.35543777719878394 0.051261009418239085 -0.11764591089129302 0.004248996394633591 0.06810226851586014 0.2082534111420313 -0.08441907271849244 0.056250651413651064 0.09886844769679738 -0.08825357470483687 0.11279875414367262 ]
layer 5 Activation
tanh
layer 6 Dense
20 1
[ -0.03879222436801321 ]
[ 0.07949684177039314 ]
[ 0.008003846225683502 ]
[ -0.05305364932183879 ]
[ -0.0057940550944213486 ]
[ 0.033563210158052796 ]
[ -0.26730412811678816 ]
[ 0.014697830432997067 ]
[ 0.12516066606268175 ]
[ -0.008701589330031633 ]
[ -0.055580081795702334 ]
[ 0.13135333679220024 ]
[ 0.013471607723165538 ]
[ -0.028859890665548813 ]
[ -0.16970295309563274 ]
[ 0.00018688142317099636 ]
[ -0.005666634772150218 ]
[ -0.011960832509696479 ]
[ -0.10046536324769649 ]
[ 0.17481269649606657 ]
[ 0.04869214044025471 ]
