layers 7
layer 0 Dense
20 20
[ 0.03561673808401005 -0.03382230874069008 -0.09705948237332018 0.7318933659338229 -0.128257572794164 0.026900358419064723 -0.46689804068913454 -0.018816229731771182 -0.28229831892359925 0.5322741344193842 -0.28987033520265826 0.1518579779985031 0.3715448241924342 -0.007770286310638867 -0.11748327163766031 -0.4117599081448757 0.10250280835625226 -0.42043814485949543 0.023937820754682735 0.26008981036544565 ]
[ 0.08198962699563174 -0.21316446668048766 0.3118109688832458 0.276463442770811 0.3336797960818178 -0.25105580529949006 0.2302530301012458 -0.32111081043534007 0.11434986020369851 -0.15102994932170852 -0.09668916017955305 0.14092675197683208 -0.3636437612741562 -0.16768568440392514 0.22677500942541792 -0.12556602559170618 -0.3387188729227411 -0.11274187066173724 0.08238469866583167 0.11455683787571803 ]
[ -0.12281293631687042 0.053824419593524485 -0.2880459036054077 0.31313721498366137 -0.13358908049216506 -0.08777330525710016 -0.2247546563790314 0.2308756540476968 -0.15389728696193003 -0.38247515563356116 0.3548293102790478 -0.03511968032986539 -0.0062912532670301655 -0.2717904176236097 -0.02403055763176683 0.2646689069442878 -0.21882823762003858 -0.07557733328612741 0.05434975285803088 -0.271841337220307 ]
[ 0.059560299026850956 0.10053677546157884 -0.39127014427917134 0.36194274038979374 -0.19125562697041962 0.26209626301730027 -0.37930638467518724 0.2139481620977376 -0.15341328411579502 0.6037096367041603 0.05178262278230455 0.44714338217579647 0.4601581408566705 -0.3548737575865733 -0.1189737810222872 -0.050737082592328564 0.11616903490663096 -0.18616476016533137 0.1669841691425459 -0.2342488078668648 ]
[ 0.7676557883038497 -0.21471469067463458 0.22289907943437168 0.09443911418050811 -0.43540258403447285 -0.32539253436916127 0.19697456098315083 0.412989041571687 -0.3142414179415211 0.386848090505965 -0.012277863625566097 -0.054673321665321 0.39215722412164483 -0.3342057223671384 0.3654735150247062 -0.5750926998016651 -0.24825481239897096 -0.5296255753469775 -0.31984414575466275 0.13465567193123198 ]
[ 0.25176071132409644 -0.34599514284427063 0.18335992982640004 -0.10338389502882094 0.2682107726074076 -0.08181507779686986 -0.29936660877853205 -0.16925015191742526 0.03832480357350031 -0.13632497797079243 -0.2617260345582014 0.029460728681160533 -0.1661878536232187 0.010158552191108231 0.13695326894616575 -0.04234427053991297 0.37060359564138884 -0.023211647453544426 0.244369909766655 0.1486820159336161 ]
[ -0.2505971604494363 -0.3652784263882124 -0.025547524809384877 -0.22092245773954922 0.04057743140414707 -0.3435219899043342 0.35912894395912254 -0.09270002440805984 -0.09426748474502639 -0.3674866755622185 -0.3209000952425473 0.1831235670280648 -0.2865705703138662 0.2844239574897917 0.17324474856871283 -0.30653165639637436 0.1616764566807545 -0.3428349000672123 0.15383242292206892 0.2529539086974821 ]
[ 0.2844735263460895 0.1517678943794973 0.29441744196654696 -0.4364199514829412 -0.5197963128330578 -0.11621352569049813 0.37685265538330026 -0.1960265349339424 -0.15472584525020697 -0.007307070528830568 0.20612102591953588 -0.33575047440223316 -0.6166163848860178 0.5319349484413948 0.15054425984363232 0.3886695234082814 -0.2858645836997424 0.15353387467567198 0.2919073938848319 -0.13217848024680473 ]
[ 0.2339361039158924 -0.13025801417616323 0.6544012597841138 0.3060119526831771 -0.05996949839706258 0.11878398632116126 0.5405990527976996 -0.4608074394869183 -0.7999605035125713 0.1999894340645775 -0.24220696169470102 0.3645449760097801 0.16955821951915 0.35953512623249373 -0.007870477720556724 0.10311034802458405 -0.2667320556161294 -0.5147839159341258 -0.011041140307612798 0.16171103899945763 ]
[ 0.8894400296732454 -0.4997614940534074 1.016562634720835 -0.07139922335233444 0.35235838927695207 0.5072187856419968 -0.3163311222758504 -0.2302650784752366 0.2622294557982984 0.16328066879180916 0.05254706645473768 -0.5399768029725067 -0.17383174673236707 0.018935782467090753 0.0004325553879767261 -0.07302478441582369 -0.27257584765023357 0.28557835343417937 0.48753412503832716 -0.6473042936836274 ]
[ 0.3332922052201889 0.08949266389966917 0.34482652109254563 0.016137165463206024 0.1925011558301451 -0.18358446875652945 -0.852710618946531 0.24452585778029165 -0.10186615784818744 -0.3037756087132204 -0.0858187765250548 0.5198944143207415 -0.18466561689121572 0.1094162729177951 -0.049627073334643265 0.3464886435602016 -0.6547352086042486 0.573081873650071 -0.3408210440158501 -0.19003988688237589 ]
[ 0.19732196170963962 0.12266965919130116 -0.05670167619941938 -0.22718897760740817 0.12233893518381103 -1.7503585342979782 0.17739773831318964 1.0488309436652397 0.4104592989262892 0.09296450035925263 0.2366011504705056 -1.5542284355583238 -0.9212118495181292 0.33074860949659274 -0.8100183642506524 0.2453558328333087 0.09212879667400585 0.4972992546322272 -0.24952164324820061 -0.639930743735464 ]
[ 0.5109675782305754 -0.19878263275983898 0.18701149824203017 0.31486581558026583 -0.3821016687155078 0.25498532766423343 -0.03598884285892752 0.12739719524312262 -0.27378569067404523 0.2885643368609304 -0.3245011347505339 0.2824904695803559 0.025021986367583956 -0.05452699476263764 0.3074803410531816 -0.44331775306542937 0.2413217128299892 -0.3536522120577781 0.6700278228480093 -0.3528778517185643 ]
[ 0.41249045919781 -0.7199314070283472 0.01939626803416639 0.0731569972762043 0.06722380918332367 0.012959250700753544 -0.09240572753067469 -0.17907964293958153 0.37634625135780286 0.24037471625396475 0.03088376901409485 -0.06195750128296359 -0.19012728727470682 0.14631228159190493 -0.33791504863962574 0.5368310637314413 -0.25507522568656643 -0.43194977774137877 0.611325666149386 0.07025977002207111 ]
[ 0.19435813433790736 0.29801401240051395 0.05332017120456313 0.4672582155124687 0.2922029745090813 -0.16084787511911436 -0.09147103400123954 0.5210787186950305 0.7019130294649641 0.2683086461548898 -0.2999721300606133 0.4531244312515601 -0.15338850085077385 0.018091067766827052 -0.15088336430852908 -0.14505517498825157 -0.1503567338436618 0.2367771165311438 -0.3376404794117894 0.5010617229739591 ]
[ -0.3898437760732224 -0.7791158567365573 -1.3559632059672002 -0.3914115653407945 -0.8231232133878335 -0.7438816710881625 -1.234612012490697 0.7041900761687963 0.31964388201295924 0.46752911706852746 -0.443158390943757 -0.9077044679405789 -0.7870555386383198 1.1425967380141686 -0.1859997147466493 0.49341729182727173 0.5839386676706374 -0.03573031274074639 -0.23546466332544935 -1.4850903139421139 ]
[ 0.7199551547097794 0.20857875117222283 0.30069120776561087 0.23105262645798286 -0.4807823478232209 -0.6794698036456954 -0.17571926449650668 0.8489717263026553 0.14117790064295072 0.2556846364076674 -0.4545019592442925 -0.6737541124604534 0.2447352182523366 -0.2583273762100095 -0.1546845364930973 -0.8346579423107948 0.5382858946150904 -0.8180238094626411 0.011602634209983505 -0.21995109032088042 ]
[ -0.7549011627342808 1.5390983703038958 -1.4238498426375494 -0.5496842181735356 -0.4270426107037204 -1.5479255694044158 0.12811234123257395 0.051292519251773916 -1.8171538225756934 -0.4174941941773175 -0.4591692939807039 0.07707148693292742 0.20995123348210157 0.009749712607529357 1.0276960084980338 -0.22070182840105318 0.11901300686842496 0.36988258459066303 -1.1927024204262826 1.171838437739141 ]
[ -0.6151794021590605 -0.998405107614537 -0.5807629492350386 -0.07966954957157274 -0.4468270837287494 0.4362860914999593 1.7927528957572925 -1.556947078055989 -0.774599494684775 0.3094480795768198 0.3171064999357707 -1.0557886394848177 -0.2218582233044148 0.055818762474112514 0.8345858112289699 -0.05964660375406899 0.4976968178412519 -0.07263312561342897 1.423775888089803 -0.46154097948070094 ]
[ 0.2890670215606413 0.8947872358209544 0.021669597629951777 -0.08099628160146924 0.30559002657887296 0.8040964380175262 0.23990088694671174 -0.6691599053429036 -0.5673797644692629 0.06748226918455705 -0.08083148330929027 0.9042228819575733 0.5390251120301072 -0.05362170174389008 -0.02329320431640218 -0.49269928405112534 -0.1841324770677519 -0.5732656507937675 0.4845730108748535 0.20520054896907974 ]
[ -0.226910523748336 0.03172356542791664 -0.15962894204645467 0.02498426733671833 0.2802884173146882 0.1747130019560925 -0.10844546868511652 -0.09732508523483925 0.1242612028554324 0.01949117967959291 0.010647354139954044 0.11089818369097931 0.19393514862184663 -0.22814585231878348 -0.001398640325905939 0.018471641457562898 -0.043779920706172315 0.07431999952078755 0.06353290197986648 0.0870089129279537 ]
layer 1 Activation
tanh
layer 2 Dense
20 40
[ -0.23279834267640437 0.24015901378835572 -0.15738304570637204 0.9070380870346838 0.17689498294990305 0.002159814400443205 0.6203907208184027 0.8325356121493039 -0.06924892158339692 0.5435691440309528 0.08588318090981584 0.2749555238352921 -0.3194814783378329 0.09051913319474868 0.4597422778671017 -0.049519813109840674 0.4044914702142033 0.03840566209079759 0.3073091099374716 -0.46295618805885785 0.03497726577986793 0.01028415770252964 0.09561531966047417 -0.36919099394855703 -0.11719372586435325 0.6178775116109351 -0.3261486680555222 0.12370917164368665 0.08792129992670697 -0.4628983646234857 0.3399573631451248 0.46882407320036 0.23717775729403634 -0.7781825824347687 0.10466247167604735 0.17993949811173127 0.7179769327934431 0.28094170933027074 -0.04907250411448247 0.30051793627107387 ]
[ -0.3529632504611934 -0.053907402376085406 -0.6497119369624175 0.5531645214277404 -0.21497312940729396 0.5460845842766464 -0.11631161476289575 -0.14951092156844203 0.10695026011196235 -0.14622887339332588 -0.26066897741678713 0.07065665759784567 -0.33825151025415295 -0.47762179219125894 -0.7169815266951262 -0.04278956250209316 0.2709459462392294 0.24069770299165216 0.4787299385231132 0.00044018466126881633 0.09094035265680303 -0.12163685224743773 -0.7363228409900366 -0.2591601913080327 0.2443035267822817 0.32067628576737006 0.13667918289925643 -0.26233399044473144 0.04388081152108854 0.3961568165333051 -0.43363025821520323 0.20426015111263238 0.32196550130368395 -0.1908975701066654 0.5262718921129483 -0.009418737704642832 -0.7619311801355881 0.2522234226799021 0.015985107107444108 -0.2964488881125144 ]
[ -0.7581064605705389 0.32006942842743324 0.00021205191929601886 0.4884894325720039 -0.11708193662833465 -0.561421203426259 0.031010773302420434 0.32737701721893364 0.3547768830290293 0.2850437981457436 0.5311806193888546 0.44847192317261736 0.07200837406358475 0.14340806940159173 0.1434006166589822 0.029346810075221125 0.5081180602885673 0.2940917249815721 0.5722522067347887 0.14114660689683364 0.08735937560484752 -0.13975839846196697 0.14619925988149338 -0.42050165933401223 0.7580412008828146 1.1948560449564503 -0.37086843547086 0.7375231547805248 0.21645617397626263 -0.3418504891294854 0.34601349460816433 -0.3138746785124697 -0.4204162156691813 -0.19379548231086774 0.15743998955973637 0.3673672817780354 0.41197682505243194 0.5650856472618326 -0.055132925056716416 0.08286083060692744 ]
[ 0.3054360054626759 -0.46898642167911964 -0.05585643674504337 0.5093822187150056 0.01655484830059542 -0.06624927143942272 0.2915837536726804 0.19963302937708988 -0.05234537073265472 -0.07182533491751183 0.47518965409414043 0.14212560263990473 0.06518909615733998 0.062034585349944896 0.34544619651562614 -0.2629595929441565 0.24367016876448064 0.02664018381228822 0.37821573801563085 -0.28249653836008987 0.1935169932735071 0.13997256854988102 0.13246599274481838 0.09056826549321802 -0.4051776977385888 -0.22302537682302104 -0.37135499847689657 0.14534009808935472 0.1548501813873961 -0.2379256468914081 -0.0983736562770088 0.4062219601069459 -0.16644817156199512 -0.5898955861639967 0.3388487013875799 0.07457714870492611 0.2672732346556686 -0.21754952232143962 0.22411002850105152 -0.043011018853009696 ]
[ -0.5853981828602702 0.4180861101746106 -0.02873314250444522 0.17161223416916205 -0.22125679797394665 -0.6434076241850057 -0.1950967913184975 -0.08982112368490029 -0.08631369603242563 -0.35178956034734676 0.7347855785005712 0.5570731113494886 0.24922701405579856 0.29506784889827287 0.06314082520401339 -0.07583900428228202 0.00396675437320926 -0.164815606566797 -0.14247114453823762 0.03438403637235091 0.11938771311143001 0.18385481141145657 -0.0066588975521350395 -0.0864699603816444 0.6979563703985033 -0.13265799847884235 0.25210626706991185 0.6717451611271114 0.11152237166518195 -0.1668858955515912 0.1297933487271627 -0.1124848212373778 0.17060959090419406 0.2105327016123288 -0.10463928394571743 0.2558931376676683 0.2935951135430486 0.023143774187054843 -0.22687911011494855 0.3283392165808209 ]
[ -0.27177796528240256 0.16183854001917394 0.07911190284921965 0.5144240366053164 -0.4755092658161897 -0.10169534196124051 -0.40715066556523544 0.07545995136563916 -0.09963883099437564 -0.2296685593052863 0.2445463053793245 0.6834259548266988 0.17164828381679428 0.11801176313742381 0.11623812161409522 -0.10262739888011571 0.1392803027717368 -0.06307938667096656 -0.19408481373525524 -0.5873813798818635 0.34549650515513136 -0.18487761850881498 -0.4000635894679541 -0.3084361494332411 0.7837053077380468 0.23950983816754762 -0.16083892447644532 0.78318082780066 -0.6099220069548487 -0.08865985129962652 -0.010368940878334242 -0.4200198766193862 0.05926736563058575 0.10514392251651082 0.33969639523221135 -0.18689664712727327 -0.13634258293997603 0.02287867114991541 -0.39000532020885953 0.24454280242168797 ]
[ 0.1802179408230405 -0.4379354737429447 0.20729593439281735 -0.40947566203934616 -0.3218671837005817 0.530216878046304 -0.6158171625623746 -0.05080767793213344 -0.2192829274072431 0.6978481751618153 -0.38390103667668796 -0.41503712850181185 0.3279851578137656 0.3031903865157424 0.14476904481358718 -0.16041622342230188 -0.280431968182244 0.4067673855943454 0.4657623718721371 0.040482008013525965 0.026297875754600856 0.1867283281142877 -0.00138219207389995 -0.008207521173316712 0.14357957659828624 0.17355631591668688 -0.4841868476609636 0.20942491532904564 0.08140700221279963 0.1874382203344917 0.471525392000163 -0.6209290250843694 -0.7648519184065785 0.13077426792771385 0.3665900083924529 0.37815793654341734 -0.3275108589720488 0.3170768562021316 0.5603088901330343 0.05567319646868596 ]
[ 0.337299892200498 0.04206801847719996 -0.1180782607355395 0.2420646572135628 0.12468210931523176 0.25882596059217244 0.5935958579384406 -0.212264735790382 -0.07913746997861655 -0.5284037176969385 0.7181379512730818 -0.6085137171933334 0.07178899659892946 0.38568140289259917 0.11242423408622465 0.48431351168608583 -0.12526081351795226 0.19389621605246488 0.12109160207514157 0.5869256615054628 0.035042737180526085 0.08955869451448388 0.5541498885243525 0.026674493118937236 -0.5882142280814239 -0.6881994665106208 0.27006607250270137 -0.34481976015176957 0.2511782917666537 -0.26955419049734847 -0.014224772849873711 0.4462961024214776 0.014260724825775593 -0.12811583696873502 -0.02212460289976851 -0.22462921791045443 0.3647454354885699 0.3085723626130168 -0.31216793538910803 -0.24150966189026302 ]
[ -0.265893570435886 0.24923306056255953 -0.2898890910270689 -0.5201050646669236 0.5188824513098221 -0.4372038124164402 0.16753224605438502 0.3355032029705555 0.053240130386255906 0.08534273641316859 0.8431167042824472 0.09984756218952356 -0.18727818048572253 0.6820549147268227 0.2909506418450773 0.45945224506313237 -0.13005136790741195 0.026930794440002206 -0.19760132064299196 0.013001553049308712 -0.34715673858577917 0.013404880855297405 0.8815457302266018 -0.4495221623109234 0.14345982902440305 0.2571302201550386 -0.11601963150575915 0.12205011228213158 0.1082874635657908 -0.46814302829828 0.005017701655401592 0.4224940108107744 0.3831143991838668 -0.20464400497805701 0.059644747629952484 0.2770876026535882 0.1504387287698063 -0.33499810744897196 -0.5061401347515853 0.06350511411737593 ]
[ 0.5336566863261534 -0.4534056533561588 -0.10954645389514191 -0.030946017102129745 0.42122958761132867 0.010203950780978464 0.5941287017276032 0.15908709736978305 -0.023493061611106005 0.03765957979854627 -0.09725135344518078 -0.05713424899553126 0.2779335356630886 -0.11149821363888594 0.3646077017409237 -0.26841105874344084 0.2453115689966991 0.09169338644516989 0.14757615770887608 -0.41613268460145064 0.025461328538495993 0.07134846399282788 -0.18347533588972492 -0.14759932445972876 -0.44014160967387767 0.27992649182799767 -0.23269336744564972 -0.08356611706169828 -0.12340716549307632 -0.20922853960896745 0.12446619788875946 0.3637117957794017 -0.07960568713572178 -0.08552988285354125 0.3113437365907355 0.113988504493761 0.00015380933641001668 -0.26332609628309755 0.13285290705346037 0.20380556830465835 ]
[ -0.11403221907052313 0.25932173414075455 0.1541929208775895 -0.155765331689537 -0.20519292831795552 -0.1863732386002737 0.27064775248389855 0.1103669385009798 0.43241140606985595 0.14067740002408613 -0.02631685534168533 0.011231587184499587 0.12485114329690826 0.3437597513613715 -0.10302929120422281 -0.09092955596467292 -0.3033392593896928 -0.28180529259725173 -0.5179833249939237 -0.21955867653912123 -0.051790857854363104 0.04418412238686018 0.1914849713436972 0.5523805035528999 0.17878621099317166 -0.12365650774755942 0.07570646259030042 0.2714276938385185 -0.07116775844962536 -0.03649040877701095 -0.20434191870592333 0.005748284343679704 0.1793648367553438 0.031668896121360764 0.19354369356693096 -0.310100380225533 -0.07216191651295535 -0.07758105349023167 0.1396964827688886 0.39724813769140166 ]
[ -0.19344611071416826 -0.22137994290537338 -0.4695682540678995 0.9856972449757284 -0.4780979566649922 0.19693377139163729 -0.5740544929411746 0.7187703199168236 0.20967313879003843 -0.37162463143084734 0.3818341003792308 1.1369470250318527 -0.17584446063462492 -0.450347583952571 0.2351621856502429 -0.7997114824886944 0.39217304508941886 0.010237485954825905 -0.26216726685898223 -0.47922196230833525 0.6961792112138793 0.05884751076315504 -0.3683299197299096 -0.1900037812188471 0.7035131502363975 -0.13005032592466215 -0.012298115884911792 0.9410238542098286 0.16661560929764543 0.09312964175963533 0.21915549944328358 0.19960852904880358 0.4203700419401835 -0.706284623907408 0.26690506246623624 0.1471430154050315 -0.5102228919123148 0.3676371289319616 0.6117313634385514 0.1775670311779493 ]
[ 1.0859328494145657 -0.3590377677961702 -0.08817234774277208 0.6801473712425812 -0.043065428959618596 0.5708317409049382 0.022019797260838792 0.24706951586385775 0.6133268196236067 -0.20218660435146027 -0.09899406689663753 0.21228259361586266 -0.739770423200008 -0.483234288238472 0.4783896536241292 -0.602708237360925 0.11357501775632073 -0.6906412536147486 -0.3255672352069382 0.059697600816579204 0.43041346138331915 -0.17492926996697913 -0.6433162504634156 0.47406172233285954 -0.02136607186070144 -0.2632367386692427 -0.05820076827568376 -0.1798248409799914 -0.35129619898115333 0.06302658721603699 0.06153538740795592 0.24381021073399461 0.03717169840041501 -0.06069378085552564 0.4534602177820846 -0.29573373333289105 -0.14573651657734035 -0.41533890123606054 0.10448410457286865 0.3193342859710027 ]
[ -0.5459368467478176 0.05694633215253218 -0.13350271481954454 0.18618716932757928 0.386488552682204 -0.037075893786872614 0.1472041537383711 0.14009381942428725 -0.3654523775996683 0.402691715884451 -0.17072324999890776 -0.1716126220219532 0.34001160731353514 -0.17814073653038417 -0.19897926508973257 0.5791562241911958 0.33506132096954794 0.8121563210327063 0.030529923653620606 0.17662293767379858 -0.3843680245594693 -0.020006552530175838 -0.08484859051990327 -0.3952053993577662 0.40276383887534356 0.26073630958415894 -0.10585418524099187 0.18657476564574682 0.1637952756186002 -0.09830294365486031 -0.14989241833957054 -0.12374212392907946 -0.022226145838490745 0.053167107832953885 -0.4593567348360545 -0.09424115385372966 0.119689079890228 0.3416565244161837 -0.2970874634919092 -0.08105723460738369 ]
[ -0.011502451866005396 0.2816684506909981 0.32210147441358095 -0.33515781097388175 -0.38773919393024225 0.30733261287287567 0.09691655806393754 -0.3644860571733751 0.04129070691424598 0.18862545982307252 -0.7532178195155318 -0.34622228477190586 -0.09431217334477393 0.15426398719826273 -0.5297630816166491 0.2746037016947325 -0.3511661040042227 0.4286295038187843 -0.11489537463754206 0.15466311114986198 -0.04101015756399924 -0.006297841387743538 -0.5829368646799883 0.6284724002671939 -0.4601917607176279 -0.30646630561497745 -0.07624955964827802 -0.741254448513407 -0.0759758143284208 -0.05467776574407493 -0.1903540682447452 -0.41567326773155794 -0.32006547885095005 0.3372535777386072 0.315881381236268 0.13694689122891301 -0.061543598190811934 -0.06262121710527778 0.45342778296346054 -0.0003379628061024758 ]
[ -0.45470456457625336 0.7062633429944222 -0.14524605047260294 -0.4241222769470619 0.0879253525083319 -0.4650062307886775 -0.41689748947918787 -0.2290461970133346 0.041042805958314055 -0.4778350028108501 -0.10930290220129224 0.0863966855835072 0.17960714111497927 0.18996056152959667 -0.16794573736054585 0.5499948634521048 0.1660403892838255 -0.03598521244035155 -0.17170154555699677 0.5371409077195515 -0.3810362840162232 -0.05107902136684473 0.08540959361728578 0.08910011535490403 0.33052672624323964 -0.46790307063031783 0.09227121486192086 0.7157999307769257 0.10993440198502863 -0.2644231255189278 -0.2553299014384034 -0.17019111508954363 -0.027962024705013067 -0.2280635502750488 -0.7723084834182878 -0.20853446657686084 0.016545029489764572 0.26391800073265503 -0.08864109982931286 0.09254640168413748 ]
[ 0.269406859374086 -0.34854011152513126 0.2218448668483274 -0.5438803791862242 0.26503709119653796 0.4551254420545469 0.06196130829724727 -0.26902210151551087 0.02102223934913968 0.5122331651368782 0.053447311314103914 -0.5037533544966097 -0.47145552107690714 0.25806427729234277 -0.1683758182536827 -0.10244693925681743 0.3510733397860928 -0.31597743085513 0.2666132813727494 -0.29749776275554474 0.1804498378561176 -0.32755726754042747 0.3008089952514577 -0.10955602388776868 -0.24398607751861745 -0.044202487648786454 0.014645174518872584 -0.5148520684560597 -0.06069633188885347 0.032484717577260555 -0.27529411875212284 -0.31005768987335175 -0.04397626920002903 0.06939067858410605 0.480670219589452 0.2483282584860015 -0.10836250413143167 0.004916225621946744 0.2314220008764345 -0.041369067405718524 ]
[ -0.373364586560378 0.6849626959637636 0.04072760311747906 -0.21298071696855178 -0.5202204984931738 -0.2782061397554616 0.11468667557278193 -0.2193890550567136 0.3456126175551463 -0.48508898433550357 0.5367911702747813 0.09970565801250568 -0.19490667066010595 -0.15533971040059547 -0.3551520779999549 0.27976214128649196 -0.49489299974183043 -0.006699301685311746 -0.6152910557893011 0.41950378897812174 -0.49996455696981196 -0.036782155037613604 -0.121448852276472 0.44145368194672924 0.3647597420000202 -0.3329413901058093 0.19706539442825055 -0.15049780100732413 0.17248054162203905 -0.007124598045999771 0.13028685299551315 -0.2861063614725978 0.10346834129728162 0.6328551623098363 -0.38891255203370817 -0.10674472269990583 0.33550079374262565 -0.17837819578022143 -0.11870097363766624 -0.05599747561555983 ]
[ 0.06345779577749823 -0.23823610881527074 -0.25397062101576573 -0.4048389068010153 -0.22704114232772873 -0.44728567519811413 -0.21921453362239196 0.5283724941531999 0.20292795923557946 0.3288197093553883 -0.4272572522210504 0.5154581732576636 0.2732937667792968 0.17817663425854283 -0.21760569503094204 -0.09841879790409255 0.3305472890771712 0.10853448448383786 0.237904022755233 -0.41430546128366336 0.20897690927821375 0.024916939730010197 0.13062740091325276 -0.07374211297488947 -0.008453640305857952 0.2886387538402938 -0.3077245394227281 0.46922342384842236 0.2897968731472803 -0.02087809413417725 -0.1551942936107009 -0.3101161576892339 0.09897620487060112 -0.13803010006657995 -0.0044729491030600955 -0.11499024639242451 -0.054610592727096285 0.07942944686659298 0.07599466684629158 0.09497691323831703 ]
[ 0.19995752855014326 -0.3590538287028248 0.1853391495923305 0.4286029885099057 -0.0041590289465777515 0.5339297265051102 -0.6450633128047745 -0.10217954625862985 0.07965267238006671 -0.4288721711333467 0.13323990501199612 0.16371961041091063 0.04590325164522393 0.097351269311823 -0.5207881159209479 -0.04713522293843536 0.034722552594972034 -0.0271216040162762 0.07354858008652873 0.4556927791698135 0.039996196520945666 -0.25578391404334744 0.003849167804363011 0.24101670905876924 -0.11732261229624898 -0.08986359686880054 0.42038906235542156 -0.1520093451666474 -0.19264800362115705 0.1681784775993401 -0.32934270240485763 -0.4980906807152747 -0.06583586426038136 -0.09442890680685527 0.3432883482612829 -0.5828374780071419 -0.36049993770705274 0.037555829327257664 0.27701675399608783 0.18121745470351516 ]
[ 0.14642064950827396 -0.1811748303862632 -0.03434070028681944 0.15586328553808756 -0.3322982351922642 0.20914576578448313 -0.12972222651605214 0.12215139350864156 0.5825938546471614 -0.45036327074188026 0.0813285234054763 0.2419695992332555 -0.2616121733580633 -0.20815911988039407 0.3106268468073892 -0.5867721064255887 0.07347460453181835 -0.9155823985333365 -0.36262534101053606 -0.3465683706892742 0.5945844873633104 -0.1944923008726151 -0.44991093208781774 0.18756333873994865 0.15729115786340475 -0.33512277202615864 -0.13347155939112576 0.30489397161227355 -0.11275220962003558 0.010300847638287097 -0.12127400534184009 -0.08598460558812267 -0.025628595757005674 -0.26977625463577987 0.31075694740226745 -0.09259320109431139 -0.21536342944429643 -0.33983064749315023 0.2915657515027481 0.19540557402411218 ]
layer 3 Activation
tanh
layer 4 Dense
40 20
[ 0.5558537659448374 0.32236419952031165 0.3525961693641104 -0.08818223004444407 -0.10895564789925398 0.5103071229477645 -0.41083130486196157 0.06835125750436061 0.1003242497826724 -0.1485387377559201 0.04340397581721584 0.22845432574664662 0.47456696273456883 -0.11461850809013269 -0.04171464434568816 0.12697010163584152 -0.39779145773495317 -0.0712301261081521 0.2959221971201793 0.33910078627330303 ]
[ 0.06362692220729606 -0.09804479712395227 0.06463929385395613 -0.48080311660899067 0.11024086222703239 -0.6675637395357693 -0.3149769637005877 0.26151033095541043 -0.20766082537889752 0.051490977370070176 0.2898510162356906 0.3554530665408275 0.1751094252430046 -0.004776622209649861 -0.12443809779980347 -0.530979381946842 -0.06900990387633973 -0.22476361376265286 0.1295999661067069 -0.14080929030888747 ]
[ -0.20430756629423966 0.024510411508745843 -0.12105936034798107 -0.19194075237482736 0.040608859313315905 0.2833827211898041 0.29285982826427814 -0.389733148007758 -0.3484830562475277 0.18210115963349952 0.09291840334112121 0.22599276184633613 0.15933953758497324 0.023998990232848776 -0.2995317120182059 -0.1786121931928128 -0.03896686505207417 0.08140377151886348 0.23465051317073704 0.4722000183841994 ]
[ -0.5605187971707345 -0.1144336053054989 -0.25820983891990285 0.5644946658119331 -0.2892309852663768 -0.15830776276583597 0.441596592955148 0.6572161977093585 0.025723586297720015 0.17422298158215335 0.045601930799657193 0.15038686232449527 0.07939419323434821 0.13986950033765633 0.27148581642717406 0.17594599290478505 -0.058946149378549306 0.498397712084956 -0.6039440657891813 -0.3569938253334714 ]
[ 0.3678940955658223 -0.35780924458699853 -0.23156588481923795 0.13943071818365935 -0.06439070225903823 0.18635286595273845 0.14240834164109945 -0.003039362047146497 -0.20615872811963817 -0.1693523941849165 -0.2471224499950412 0.39463619770075453 -0.045957218381319914 0.06408813833430149 -0.01807406033275237 0.06729860315618177 -0.11622700053675016 -0.35204693337522547 0.200521334299555 -0.03455666783202957 ]
[ -0.46142601336287536 0.21114079085716403 -0.18373356631623494 0.12770952598932586 -0.39739279522492216 0.09861264340540117 -0.16007577571776144 -0.15452883832538927 0.31442045612758424 -0.04527414365968682 -0.062163636149961114 -0.34766254734791613 -0.01802711829565199 -0.17498941088398032 -0.2657201216730145 0.46724711809781255 0.32666884913147387 0.04202502289730889 0.34182039715297324 0.30683442826568735 ]
[ 0.3019915516464945 -0.18676901678364646 -0.1873325444901089 0.2069947455504759 0.02499518046446714 0.39668384464457557 -0.0849176928506808 0.09216549137871612 -0.42605279320663114 0.24172605261185004 0.21904581028656073 0.20817889910940027 0.13434167586849619 0.19471215612415138 0.26895592471623453 -0.25413730674643015 -0.11810990921243653 -0.10220960316134987 -0.2798444219175257 0.134445348689495 ]
[ -0.15978793567220398 -0.43806576176318 -0.35291142900326994 -0.018040317319595926 -0.042070319382459816 -0.15530276200436766 0.21913038790356673 -0.17230978155254562 0.26232075926536763 -0.31794668016175576 0.37367108803593063 0.49550423114652536 -0.13353245448398215 0.2270197585870607 0.40552838624441573 0.05464349871077404 -0.3978094615861358 0.4549027650536499 -0.0180073873330099 -0.27266089261837123 ]
[ 0.09522140966513437 0.31944035147073435 -0.27439552721581634 -0.5604979149486029 0.012635934815469608 -0.310729513964776 -0.26249257533246756 0.2847243141570649 0.2869581020266012 0.2889783567780469 0.0789255702964791 0.3736974476908481 0.18689447733381595 -0.39895299241024085 0.22365728152066436 -0.2762213336708692 -0.15423089035330198 0.13334003861251742 -0.16946442119175212 -0.04658474264780169 ]
[ -0.20882080970240183 0.3791211101163865 0.2131192272245356 0.4117171419945724 -0.3801857493108836 -0.14072250988315996 0.04664724088987483 -0.14343633183112264 -0.0635131369626152 -0.26833190613276586 0.17172109595875568 -0.4609975544763408 -0.48011922103739785 0.029752986607678552 0.22737344010997437 -0.19867496388854897 0.31097715732408 -0.001960891233090848 0.565920772026051 -0.5459695025215545 ]
[ 0.6044805111764057 0.08268072909364903 0.21234750758829843 -0.1348886211515487 0.46612585500938425 0.21281571437790936 -0.32430395407708684 0.5576733323944744 -0.29761880920579226 -0.31442914041661113 0.3750649783093925 0.07128859318403921 -0.05806921474664001 0.16784689197961136 0.11151400723302632 -0.34421145626451244 -0.44144400725481187 -0.36470356330683174 -0.18098820522513534 0.26938139251290666 ]
[ 0.033609224914636554 -0.21124943917529104 0.1849413003915131 0.429303302044338 0.42028164537100415 -0.23759904850772257 0.04174981203042809 0.2511084643617355 0.40464498964718354 -0.44720570438514073 0.22039241726866338 -0.07525831388713285 -0.2637411434142956 -0.273514884557105 0.31775596583895765 0.1449072530416639 0.23982730046637166 0.3180491281743504 -0.050325644961283986 0.033061391761094745 ]
[ -0.25300723252153 -0.13186494534020976 0.2145070323986477 0.1130921367146262 0.25850777930491964 -0.03565006514396084 0.2288484208046155 -0.1633571852021737 -0.1981890430240271 -0.430406571890148 -0.3065806642935072 0.06150007864572124 0.2081489581791848 -0.1171292773218232 -0.07347662523685015 0.04470699581269475 -0.029906122952896314 -0.0009692040422464605 -0.07878450339784786 -0.15799174984317657 ]
[ 0.1828987236509189 -0.3838847449977665 0.045629225072065474 -0.39131889868890896 0.08019778303296594 0.2936095421458997 -0.14964419176074115 -0.1516563047413725 -0.04041500024555276 -0.07801171500487343 0.08199902881374205 0.16660449639796807 -0.028245864589799694 0.5656356657078676 0.4119261583683434 -0.13451964502032004 0.01187627528106748 -0.23067527270388272 0.21856547372947704 -0.1207934723166965 ]
[ 0.2006002417416554 -0.616332827627321 -0.22684773301312222 0.14053819567321033 -0.01860628097845237 -0.08070625892005386 -0.1847713384177196 0.0936060966389855 0.18869865468822636 0.1521203946090062 0.3015301226170461 0.12774790548974216 0.055034663237002804 0.11172423505688295 0.32779572053042294 -0.00795915553124285 -0.30509298339083457 0.06386471148406081 0.2434983715110519 0.5490657549295226 ]
[ 0.3965728372197246 0.19154294238485234 -0.20789964677290976 -0.05431250466567564 0.027589184583111503 -0.2795285244137776 0.42543684093733525 0.1299267776856928 -0.35457524447611144 0.12168811827686819 -0.07486323201277109 -0.19435826748554733 -0.04286799847660373 0.15628703481476627 0.20172804300318678 -0.08569115337291808 0.03322028730236799 -0.5142022220025696 0.014222000924187267 0.10783434566078386 ]
[ -0.10774208617288207 -0.4539634228010125 0.028645776551904145 0.24783246209378557 0.2670111605578742 -0.06706218536708926 0.12081853046963023 -0.13484305292761214 -0.13867880444648312 -0.10392169608321965 -0.08069573534689385 0.3849648567269269 -0.003092161868834449 0.2507104887948547 0.0430561304187418 -0.09259965859467714 -0.16419325880261512 0.25354215318041484 -0.22369486299397265 -0.3369351149596674 ]
[ -0.31904977417521363 -0.21920645124456817 -0.3088968063297032 0.10526695299138432 -0.18346966536905765 -0.31793846007252696 0.18086307185331876 -0.33665496246340343 -0.6337293042175528 0.20043644207746436 -0.11104900529978799 -0.014793762280230308 -0.2583518470291885 0.2685612506100885 -0.0841893509867601 0.02589261709940861 0.32394185887278515 -0.6767634606760433 -0.11808248742853614 -0.3138466174774511 ]
[ -0.3898516995897853 0.07655574836627689 -0.08474743945313859 0.45174312071567113 -0.439480344272903 0.32970284635785646 0.35588941073185365 -0.3156304145845684 0.09100726314421693 -0.09088503694467441 0.13378888134590178 0.06766893503760937 -0.08884952937518317 0.12738141251351873 -0.02174438905085022 -0.21682202490628033 -0.1703486797327414 -0.04760391024083704 -0.06345996808316612 -0.324867133500495 ]
[ 0.1606387133289949 0.1918981693635679 0.29993010836519834 -0.08106917268547251 0.12667596150868793 -0.20449219471036784 0.18099158686354264 0.20768960649079626 -0.16407119228830064 0.26333485367946063 -0.17585240004803782 -0.388191479160029 0.02790673312574894 0.20951855562731542 -0.04697694022938224 -0.29016839708469805 0.032741548490552635 -0.40293436214596945 -0.04647157185876941 0.17759565440863576 ]
[ -0.8090310827992214 0.041498631980465946 0.11632629141322758 0.49904216138659213 -0.07027148381342757 0.35360172178707994 -0.5153470297124696 0.0429539115917522 0.4749991506671988 -0.0926083492536983 -0.14033164814598945 0.6085976567125385 0.1478901851844042 -0.09224473468878978 0.3547329706991228 0.1418547241735549 0.02224882025038988 0.607502781680181 -0.15218408897962174 0.24756624919420683 ]
[ 0.09839538150570894 -0.1393400561811742 -0.2395135521988153 -0.039718030909659884 -0.12889625733776428 -0.04419142215241026 -0.1198420470275229 0.023776295740421838 -0.04585952580533941 -0.1576573905003209 -0.10525080447478109 0.0007772155045271721 -0.09277827345343138 -0.19410679351392696 0.07412360091463763 -0.01678010650944078 -0.14410841016542378 -0.029472287385999774 0.1200179878842678 0.005058163845401858 ]
[ 0.3422285311899768 -0.1625818740108033 0.19666747315533084 0.14766551606768083 0.022410437947188496 0.4588279439463879 0.04003283147048504 -0.07139792235006229 -0.3224967025521974 -0.4846050885885257 0.3126133811733447 0.043950020017298884 -0.3782589195153873 0.1378770720213103 -0.11516884978161333 -0.15490334678728723 -0.37375384488999885 -0.22495804332087752 0.0793692071203446 -0.0013338126361589493 ]
[ 0.25601201656468264 0.5167207083554173 0.044229617463893964 -0.3016284046504908 0.044165123280763066 0.05801539876208441 0.24035304633770666 0.29101699609929477 -0.1558821026276133 -0.24526743243565577 -0.02234127633551153 -0.062214919330620996 0.17467150217389435 -0.35524808291188004 -0.19937657563316447 0.24179328217144333 0.111707378908865 0.051018529926511305 0.22637722719208614 0.12167546402841495 ]
[ -0.5895671342685477 -0.07448130733537793 0.14500728176346672 -0.15205625297616093 0.21178593018310327 -0.1694738208627305 -0.17595008989592595 -0.11076910331684675 0.11596901601120042 0.04415240264894659 0.10486665033154588 0.1768550247843061 -0.284002296898457 -0.4386211057429534 0.42130943589401876 0.02185619167078107 0.3468201830691147 0.307951384156996 -0.29516141868538437 0.08319487185604822 ]
[ -0.2663316574859212 -0.18822929526956989 -0.27595521855211086 0.07460437824648625 0.24474340655177362 0.08593843404440826 0.3833435456700162 -0.45581134398697565 0.10876199213972856 0.24009790881440113 0.28355231757218696 -0.01649541689150034 -0.3946492590360567 0.11751761594300633 0.24861744824469206 -0.5586832323361639 -0.3134229896870081 -0.000834406034348241 0.03636969649279881 -0.6694953371161406 ]
[ 0.5154304919758508 0.13273988069230047 0.06905905003551498 -0.11397658371970076 -0.05372132821252739 0.0623088995838508 0.08321804031371037 0.2899172382379692 0.188786817581858 0.24942639194742283 0.3285185936482997 -0.08263684945290414 0.2629695016904977 0.027800254588657643 -0.30532787466120337 0.039481222437003895 0.21325516805497904 -0.2875350876704529 -0.28184513537977285 -0.1760864796350743 ]
[ -0.5660201722053251 0.0965892469988553 0.24541069582362518 0.159024149727656 0.3709383756269544 -0.5024690657951019 0.13626131477753145 -0.0016909189409962714 0.1430187772351698 -0.27070993943037525 0.21511979284093818 -0.009047407232059648 -0.26098812015636147 -0.14998724751199322 0.18777995105708298 0.1293224845140599 0.009174218533900453 0.6895476546189133 -0.3957443461597391 -0.16032109385291118 ]
[ 0.021548208864614563 0.0023041817182644702 -0.1526332240461851 0.06000155334629083 -0.07909555551929247 -0.3163782943247413 0.31834050880713427 0.13444575179976453 -0.10764882118713724 -0.14922046706345912 -0.35724783410251687 0.10036425062837236 -0.035466909544198386 -0.19211502267115346 0.2735393999225803 0.007069324719048943 -0.18088010508865807 0.028019174044826907 0.09532684574380254 -0.3766580891359715 ]
[ 0.1341721608346907 0.4162045206756823 -0.1589221247629388 -0.2591658734725904 -0.25789398987293133 0.2275442786022593 0.25052164710312297 -0.08048437441325139 -0.06076020294812469 0.3817190343134703 -0.39980997506709426 -0.3799375389009147 0.17806627070703362 -0.2602623594419408 -0.365054231966938 0.1878234772814317 0.03349209587540732 -0.0009408343316339061 -0.12298025951032716 -0.27423570448431117 ]
[ 0.026011146845916554 -0.14274546880994515 -0.09117850648258034 -0.23154759944362788 0.17490533268837266 -0.012154592948790288 -0.07701673708284903 -0.032859106034286927 -0.2554907534499633 -0.40820548038406873 0.3152357389634632 0.05373142431391605 -0.06615457979033111 -0.0006866687889596948 0.2970272072182778 -0.22703716282689537 -0.05754443693695337 0.2684327691292204 0.3933169412513678 -0.22919990211066132 ]
[ 0.3470808504126926 0.009713991581252376 -0.19917526810945393 0.20596469750298377 -0.2683421850950374 0.43169119208966794 -0.5043187796696631 0.45136284882929045 -0.15748273381811406 0.34823452287118956 -0.04025671457310062 0.0412695339186636 0.12305508538831933 0.36800536559934194 -0.030585513276557376 0.04014009812004197 -0.2292136682663337 -0.19487115994910434 -0.09322983293070836 0.4015113490345657 ]
[ 0.38547676009244813 -0.05175870534328304 -0.1427544680887554 0.07494298825380193 0.32007146537215836 0.017803968781470038 -0.329971301649767 0.2789702474014915 0.12387167767263875 -0.06157369510977191 -0.1545873929309231 0.2395477875730907 -0.256583351912183 -0.07835833647255919 0.07374515646961116 -0.003064503498301812 -0.12864617214028456 -0.19144252473508427 -0.2527558419571041 0.01768891507308069 ]
[ 0.2978416259740073 0.2576158282632812 0.2300737900282728 -0.4629974667498435 -0.1904487570402507 0.08843323864381221 0.20141451327616905 -0.28797024192005954 -0.19568455990822275 0.25989774955029094 -0.1085056591500679 -0.468469462720425 0.05042125143809897 -0.32991894996346316 -0.2594948036910372 -0.11004826576119131 0.276142130514343 -0.25724674144880944 -0.037309367827605695 0.09101025580115873 ]
[ -0.17385541013752182 -0.00519661642200816 -0.016896474588219478 0.1843674040063676 -0.4320674469117512 0.48465149587917156 -0.1873103657290349 -0.23242387441629075 0.2016642323258279 0.04785893378134021 0.11663663964526648 0.12601882601289002 0.061352271694412173 -0.3730400089523258 0.1167584209164614 0.2390848703634174 -0.00013247158355481525 0.5848660427301591 -0.2736352703140593 0.05668923387828977 ]
[ -0.09595824091236493 -0.20636868486803248 -0.14670927497431552 -0.21856200868442027 -0.10096721303443654 0.32322220680673597 -0.3958814566320912 -0.18603239169023794 -0.06931565827183005 0.0031746323522830727 0.045379882803475186 0.22747536306390356 -0.23922000684639405 0.1489736928339163 0.22002191628195616 -0.15211195833136315 0.1621498632519719 0.0628234268712509 0.1486875956196577 -0.1253814619839533 ]
[ 0.18229627008956034 -0.1902420910320756 0.11637946205804768 0.21453120245700055 0.1375776749369046 0.06136497661901236 -0.24001775654734453 0.09583269772532262 -0.10738716649454659 -0.20541153839751078 0.3191493997918217 0.522896116485814 -0.3536035868526073 0.4429609444830881 -0.11258378548955844 -0.4213754299571644 -0.35199349784491024 -0.2665755350068631 0.3171118079258434 -0.17805244742858176 ]
[ -0.3570615288461147 0.07769502284511258 0.0625488861671416 0.3223203065419295 -0.05223748535909126 -0.45404839773674016 0.5995166556790587 0.11832816785914355 -0.27252037526808864 -0.1917042140293602 -0.27767305486626076 -0.2143447202804722 -0.2584854264474034 0.04544279608780078 -0.26013412476999953 -0.16705884480806024 -0.01824787812401874 -0.1976573087416899 -0.13690820427010703 -0.5880786130140985 ]
[ 0.1608379470187787 0.27317707061807855 -0.14902178602579857 -0.11554596019237448 -0.05812704209965822 0.07260775411449638 -0.005954875262471062 0.043750323000734254 -0.06669973475744788 -0.0004504240145881814 -0.2079079797137247 -0.1118344034750736 0.2908749493128919 0.09746656930503053 -0.07024393424324349 0.2206756806703962 0.22998266604307285 0.24307047030796525 0.5535150539184571 -0.2924546713662048 ]
[ 0.35968648282621446 -0.19134690559668974 0.25914352837909077 0.1126718937384149 0.3970784471856368 -0.23101139496659717 0.0393656787765377 0.03816832266421789 0.033977933631450206 0.01946024109069501 0.2371349511395355 -0.09984724594827948 -0.10578121584014895 -0.03299585951716894 -0.08739261146674579 -0.06228631827922095 -0.22570749006171364 0.061189853388743665 0.031452519911755836 0.13621890368292097 ]
[ 0.05580720928082262 0.11498665561195372 0.07967865903898705 -0.028096421703880176 0.02188088314053932 0.06757562982985793 -0.21963169980218614 0.03590801382398009 0.42366762894970234 -0.023787741423965142 0.07273063968185871 0.3021380416923736 0.15252402707033982 -0.03373902848058898 0.09154285671704586 0.11504212242341703 -0.06731840326769174 0.6014705315886265 -0.04846886969491247 0.28184327184975644 ]
layer 5 Activation
tanh
layer 6 Dense
20 1
[ -0.0477698071875506 ]
[ 0.002523790679673613 ]
[ -0.006774710607981447 ]
[ -0.0872034769194266 ]
[ 0.07853232730994672 ]
[ 0.05498739781736123 ]
[ -0.12846843273469208 ]
[ 0.18207419614311374 ]
[ -0.25249235684325544 ]
[ 0.032998782336721 ]
[ 0.027968503012027492 ]
[ 0.009973411893700117 ]
[ 0.24357212364023728 ]
[ 0.08516930744595178 ]
[ -0.15175436374182208 ]
[ -0.18296504093668847 ]
[ -0.19082824928216907 ]
[ -0.4536477572338119 ]
[ 0.19123368410892763 ]
[ 0.1019232256747709 ]
[ 0.26795313810764554 ]
