layers 7
layer 0 Dense
20 16
[ 0.37862777963725286 -1.2989949564158727 0.7974309262304744 -1.1907521726362693 1.8434856543782212 0.5265690468720893 4.015648380567231 -2.589044178636297 0.1922561275337955 -2.11592952009447 -1.261504848780617 0.8213536120984652 0.3171914187046211 3.7445970292522834 2.6018347390233405 -0.2992353670714877 ]
[ 0.2570938963386884 -0.26977354229916606 -0.3263324482084471 -0.07296632320912282 0.05010129591160672 -0.7217141163879989 0.32683086699076047 0.10296237431134173 1.0215723872926368 -0.1106457839965036 -0.27119263154937245 0.9431927651323746 0.9128241185463107 0.19665361474033416 0.036034811308632925 0.022655565930261565 ]
[ 0.001882684965468153 -0.5840594444764116 -0.054804513916687635 -0.4573021588364301 0.23051595277199974 -0.6434731819939916 0.04787851199251699 -0.0394668445718328 0.6265185563440672 -0.5712429440296761 -0.6881309793265613 0.6861743123062977 0.8800794943642393 0.3918687937397902 0.6757243533793306 0.2151826330218582 ]
[ -0.4862888154995797 -0.2992507198551517 0.2477447255830304 0.38199167302700116 2.708362980991302 2.1456812484076457 2.66334422430919 -1.813832221568 -1.9087160413403987 -1.0370013942769651 -0.6536674292953731 -0.11168503475398132 -1.4240032446972155 5.570478345797546 2.4607530862213407 -2.1361050917330546 ]
[ -0.4979493000902891 -0.04549428979819685 -1.7930932909108037 -0.2012514359385558 -0.45832598802164554 -0.8165594475378624 0.20087313462338938 2.1237373553626164 0.3954288090772606 3.252361805093858 0.7515162225732421 -1.2787676892839406 0.7349335451467612 -0.4671024400538774 1.1705246778392848 1.3724113716596542 ]
[ 0.5289440949532682 0.49126099917552035 -0.005731003308721048 0.02739589409692548 -0.05897179375404565 0.9333920852981018 -0.0936641772772785 0.11807179336412689 -0.8141139585264117 0.5437531634331174 0.5135482633260383 -0.579260509927589 -2.391055896252997 -0.09437827225599887 -0.2521243238532691 -1.0381069304565198 ]
[ 0.47610081872934223 1.3428632719202018 0.5485557632708179 0.45627016971703754 -0.12292765822494697 1.772012627549649 -0.33750828067143884 -0.33034606891209256 -1.2525967962412998 0.684182807086494 0.8827781996228106 -0.30092162742865286 -2.361878403383705 -0.3529180491399657 -0.3729927017167828 -0.6320715715679351 ]
[ -0.18690019134867067 -1.1630001490774198 0.37538955162130605 -0.35790386213445324 -1.9669938646156784 -2.6246968161245356 -1.1128079151892274 0.8422118961914813 1.6955366103984624 0.7692211962803374 -0.9316419300366645 0.13261585474364251 2.5187171714538144 -1.9456618095987739 -1.836335678680861 2.1801200815279147 ]
[ 0.1578802357001957 -3.2582012469834547 1.6393748417986351 -0.34261130901257886 -1.3093133905340388 -1.5489194163193833 -0.7866899477474334 -0.22067368392417508 0.8046071768405211 0.6881411051636945 -3.422114041479226 -0.9732536484887845 2.7238952469322504 -1.067547296058943 1.0441306857236663 2.9597067038264004 ]
[ -0.7181087909108239 -3.8908495977073376 2.8914667758135435 -0.8685243018440062 0.47620064385255845 -1.3030713208311258 0.18457890153614911 0.9881788816624333 -1.3400575335551719 -0.3720913244405002 -1.64880357142638 1.469064773449922 0.9341267478279855 0.7520247713228512 -0.2837718637703279 -2.7023757107873485 ]
[ 3.1239145600628304 2.37336547794155 -1.0558686514001627 3.888288750902949 -0.3125016093798591 -2.029030356680364 0.14271526836667175 0.7309715501630789 -3.1972098811204845 -0.5867422403519639 -0.867774428159505 -0.777474977287508 -2.2062383006294874 0.3937517107336781 0.32141402116129747 0.8463731736821246 ]
[ -4.049582817738419 -0.26439901060986676 2.3902654244054413 3.033198690755582 1.2715182153497802 1.5918323341487186 -6.972080651201332 5.875820994004829 -0.5892357372367749 4.739108282737214 2.4639778494696496 -5.178968831579136 2.6914842569361204 0.07458275119911065 -8.146496159318206 -1.2687355967244918 ]
[ 0.7829616041952886 -2.8392937859966847 -0.952393033465947 -0.48243845723023904 -1.5276901153357991 -0.4367287353822852 -0.9945021030684703 0.9978430001833207 3.0340247499644195 0.9222951115874722 -0.0851718730547128 -0.7525993043443459 1.7801236357306138 -0.7613414725132803 0.6306541298909291 1.1780506211926534 ]
[ -0.7884474979717667 -2.036131269142442 3.0242631960431337 0.20939699866977549 0.1457790124152952 -0.7420465989423297 -0.27378133667966476 0.5461043749100153 -1.5848789374354388 -0.07739104766806132 -2.6865356238288984 3.1044755180765593 1.1323243703327495 -0.6016368253243569 0.49837409092440804 -3.3481301088591606 ]
[ 2.3733229387423784 1.8866619257417274 0.08764557963205277 5.082688908029344 -0.20254199857967292 -2.913844288974011 0.38060346499370185 0.33952683167290076 -3.0596872319894444 -0.13859124001774642 -1.4006205303310495 -0.6244396724911493 -2.821373407040998 -0.03476510519870257 0.014092571970004289 1.5955218050114672 ]
[ -2.465300503310702 0.45754353307254775 -0.6667047695429787 1.6138909372949681 -1.5554334964905954 2.223892005642052 -6.815502139839175 5.329548752729716 -1.1064703868878794 5.481580281277853 3.8042866226907788 -5.573910568351125 -0.9815640317561367 -0.8333164570701966 -7.865632379594422 -0.47682556520297265 ]
[ 1.4820193158706747 2.445009169545621 -1.6036646791544646 -3.0053600981176496 -1.213815418679743 2.3592412539952043 2.7787580855397485 1.897197231616223 -2.0959585853852065 0.9425840150588609 0.48483774829089055 1.295853598709476 -2.4282886223973454 -2.1539247410904028 0.6559976846538367 -1.5458741832464986 ]
[ 2.3775334343726158 9.211147126643917 -16.1138320188353 -0.33574072490419515 -0.1661539171068578 6.1331324797278715 0.22134659490482828 -1.5337539838967778 6.817845533089069 2.0799229497755163 7.816776151020447 -6.832295779848328 -5.314356760649917 -1.2368923717872118 -0.1447934824774061 8.17867753463578 ]
[ -6.6577347064180135 -5.322731741701889 0.8663625146061591 -6.867608058214587 0.7110618807868284 7.841699729675572 0.3416318488731715 0.3638419829361342 7.266530687519556 -0.05837489167450006 3.4553118466586734 2.1816325903345692 5.722216241302923 0.6112749073303614 0.3660898306979272 -4.4658357871488565 ]
[ 5.915971014101916 -3.1905454090367593 0.022001332054506533 -4.986928707539015 -1.1531221992070093 -1.6344203594232998 5.66957200305605 -6.084635921067279 2.34405123582007 -6.9562982232287425 -5.0650469097053685 6.500890296513449 0.5820377830788664 -0.8895563885205339 5.468755929619167 2.0671946608292524 ]
[ 0.12790793762709812 1.1433806201354868 -0.06882864141139833 0.7189677693589254 2.480815123239158 2.8989519303880416 1.3339581408369545 -1.0370229872910932 -1.951653428804937 -0.7707452072844705 0.3634331263302587 0.43485228117505653 -2.7176136417003955 3.181286183950912 1.2354398927110124 -2.1253490655005147 ]
layer 1 Activation
tanh
layer 2 Dense
16 32
[ 0.04334380945029336 0.5448100333594629 -2.543712777146756 0.46181807070025316 2.1827583771014596 3.7484150313161697 -3.174841322654436 -1.6461740300219183 5.868791717401525 -1.8963255060869986 0.7323492786311293 -2.307912142920348 0.8564564129536872 0.1430980270325518 -1.387781810713791 -2.4428460576002915 0.8592805260283872 4.167992166267943 0.9244183281278824 0.25545276800780264 -4.751181005411412 0.8520253460410099 -0.6625322222500953 -2.1816955348910008 5.642498439077073 -1.911392804008589 0.46897780319460214 1.3328391833955384 0.9964720848930615 -0.24266610862327342 -1.4946803710544325 -3.8435289496732197 ]
[ 0.477145048197514 0.17794873372539882 -0.3799779333006409 0.5017157157529716 2.0214931101233518 5.487189609050755 -0.5553512343507647 0.15327587017782315 1.7985743363293012 -1.8015233228408913 0.45004136513640597 1.8025193825001136 -2.8163662627922834 0.5164899764806522 -1.0689008712365995 -0.0963901425426319 0.45986262741898476 2.3825851582867643 5.036482610466226 2.8153412455127294 -0.45512836919352745 -0.7198872325819753 -3.434912999654304 -0.6046098568585837 6.107780243688537 0.46622133379299024 0.033098435889026404 0.5988301363108606 0.44085519966631503 -0.07988479068403928 0.6559978212824822 -2.2951019528747727 ]
[ 0.5967898506584716 -0.12949378334134762 1.7563061260932038 0.28715008637569284 -6.295536316181243 -4.519412743097683 1.6240250281862494 0.7701562405986002 -1.1967938384180354 3.3021631742164534 1.1856196811344946 2.282097911917256 3.264804648004336 0.28509358907065907 1.490395179526951 0.9095948786267319 -2.8732546573587245 -0.180969452441397 -1.1811506354495944 -0.7131917343677773 2.458538901451849 4.977206560877067 2.192057200427216 -1.4695139432318596 -4.2772037358260855 -3.3058402710144894 0.28501527422984746 -0.5621675486050146 0.20091846339920294 1.3979657892816368 2.4049012066597597 3.8658837786410096 ]
[ -0.6654352346611376 -0.5170002857427379 -0.1745265851123944 -1.0350742448253016 2.0802421339048127 -0.4123133908298393 -7.855778612646385 0.5486645661669824 -0.5527703017220456 2.172712677781178 0.4958546467334692 0.30276263500624245 2.073961363565377 -0.4052998863544483 0.8791656510426854 -0.6148514128274354 -0.9051060516893003 -1.9465482367779188 2.2128055914623164 1.7495659504466887 4.763161586184747 1.8512245221727466 -1.8810468416575905 1.304330344438333 -0.7071971957005488 1.2904496050404783 -1.2309302084014597 -0.9995171035696991 -0.12450953220574593 1.3541235228795119 -0.5752318079101443 -0.5124782175490475 ]
[ 2.4651848330513175 -2.3857406543085724 4.787135623540763 -1.5066239289465997 -0.8630879792657082 0.054253355410345476 -1.0646684942653293 -4.27833599863113 -2.377758891243693 0.35124330138477006 -2.4026071647210165 -3.305892587446956 -3.3866397600866467 -4.232032499736288 -0.7371662608689716 -4.251102831383947 -1.1243666237594778 -0.36961063934423555 1.044761995802828 1.0563879762782908 2.164686658668335 -1.0891411866078566 4.029247265204562 -3.580059082460253 -0.12194062500704737 2.8449729052199935 -2.353791458695918 -2.0240645868131195 -4.552465144236744 2.917221432088052 -0.9638481103162546 -0.1211308938807948 ]
[ 0.9257417858359726 -1.7937545890376636 1.3061246252898755 -2.972799224723623 0.08006190970969268 -1.4919198172594847 -0.5402528723244188 1.466194581195038 -3.353430467442854 -7.41670909132061 -0.6555591639240321 1.0996556140939635 -0.9771257850197128 -0.15492273262939119 -5.2107762978609395 1.6157154168629966 6.2334806612315985 2.5914601283856293 -0.4179586321181436 1.4161872984775756 -0.0720017911064588 -4.51866659992485 -1.5362011966235976 2.828714264123209 1.6101316458048407 0.8973904548339315 -3.5415661975511052 -2.804732433858484 -0.42432472077752337 3.8073619778726915 -1.7337663100498706 2.3058900874715667 ]
[ 0.9660798931951514 -0.3090226143875482 0.5948064320261629 -2.181146390575844 1.174624461150926 -3.5214197684892743 0.435230859611346 -3.6713445736887453 4.1385706896975645 1.1594898571852639 -0.836783822787411 -5.230586344541277 -5.142033016262469 -1.1216263157333402 0.6351169543233556 -5.006478719874204 -6.451252988967278 -3.253167643887243 -3.5036839007825966 -6.730956992969655 0.2454363278514119 -1.582269612141799 3.505325538626368 -4.91348380866716 1.0904842524212464 0.0592020326986994 -1.539615782497572 -1.599640806098088 -1.9698381081279839 -0.2289669245977525 -6.491599038581841 -6.167081731848166 ]
[ -0.21746706718577183 -0.8024563835057188 -1.178406145853268 0.13925847772954525 -1.0536051547080933 2.660898776010043 2.097502529568618 1.7763218019445 -1.6066714367730557 -0.21991378138644 0.2547535590788724 2.8379053995312735 1.3014631485463328 0.1740641844486605 0.8053990822691818 2.992474065017129 2.284388634444744 2.595480256961284 2.20491670767137 0.38288851198299695 0.47812481155675524 2.01364983899572 -0.6566974016887711 2.8695140980173015 -0.8150797764071573 0.061294000078994104 0.3697051497415819 0.07598328834206389 -0.3685657034306017 0.3066552728636999 3.4028262267007188 2.1549974833461834 ]
[ -0.8495474930096171 2.298270024365067 -0.5748104448400527 1.797918069660955 4.1833147966817394 -1.8792541959656837 4.800704271566505 -1.4240185703541937 3.0254284999903116 -1.0430994480293767 1.4246298707967855 -2.353071801161172 2.0563073418618667 1.36374305264441 2.2012425588972966 -1.4209108294432233 0.9613142471735404 -1.5197409115455354 -2.1341035593687447 -2.8366332626426263 0.7003035138334502 -1.5565709937827 3.850995531834407 -0.47752212551684237 -1.3032539947149553 0.4251741886045243 1.8542596284858484 1.591456331006792 -0.41074004957173554 -2.14583676858962 -3.198859577186257 -1.9417821789352534 ]
[ -0.0787772819576186 -0.7932256085915965 -0.8718954541596542 -0.3875204463890273 1.3674536948637979 0.10398172267912803 -0.26893815682663147 2.0516212106189933 -2.3785237751815043 -0.52031197665122 -0.70255416973847 2.377061310753099 1.1604410503468403 -0.6904794838168727 0.34928789101064905 1.0437687068121155 0.984790060095989 3.6623280308534785 1.1818940175990864 0.5016441122987825 0.3743387988457823 -0.6557029889126235 0.1526118769011849 1.324013314093481 -2.1337478194261714 1.2419356440122458 -0.5506354063638277 -1.0390111965646556 -0.2720564394800153 -0.9113438555014063 1.8754035603771182 2.8106210919031196 ]
[ 0.3390961619550513 -0.2645793153826953 1.3136051150352452 -1.18294878878664 4.336727358992593 -0.3723675543257872 1.0703506514346925 0.9040678983141146 0.885297650433867 -0.06082544510714757 -0.8994498998642997 0.7248991322211525 -0.8214690788958412 -0.03420365112376219 -2.466538060047456 0.8546389120773912 2.1128520275919827 4.5621497961150315 0.22529101022432182 0.6351421945417519 0.7294229881584712 -3.0469575254917007 -0.6591762461850237 2.8648220590851086 1.1437268313732407 5.814081883057032 -0.17072942605569838 -1.042855031062608 -0.22588362315360444 0.4902217509196029 3.05924566077147 2.009943840626278 ]
[ -0.5257507698262801 0.7744919584687254 0.9028204059242069 1.0585150287347762 -2.8657796267114723 -2.357876528878708 0.39869739304639223 -1.2699619428080018 -3.4497956472419373 -0.8846465823069043 -0.23088765242104567 -1.0247654938460617 1.4550207484278088 -0.058578910885033315 3.5604714154058676 -1.22329643850741 0.36561140368060535 -0.9632630519955868 -5.318570768983365 -1.262037242253891 -3.075690009043758 2.1771277245807488 1.075739287790443 -1.5579671525480572 -1.2756474780430065 -7.337025900531225 0.9783859373310356 0.9319438382045593 -0.03455857287559043 -0.813611791698983 -1.0495197856908312 1.9876379620840703 ]
[ -0.05856047948603996 1.6558546761192365 -0.31759367190741683 1.2083588868606834 -1.2158069864156595 -3.7164615660906994 4.522989055727555 -0.23597212896926376 -2.4958408603343853 3.62011954238529 0.8645257346133848 -0.581023063326764 2.6352041686586922 0.09147873932776696 3.6055348152015507 -0.9557893297480019 -1.8751443098358493 1.4259624932704766 -4.785128693436576 -0.6436095027578468 -0.1838020681270348 -3.1063964314854053 -0.48510789050047 -0.6599629672750102 -4.266169375751763 1.6342797925171821 1.0741517276662003 0.5323108548967069 -0.6479877858155401 -0.9330490486357667 0.4502625268357556 0.9642643594017225 ]
[ 2.597580044978388 -3.7252202116524282 2.8221957614167326 -3.2604497572584306 -0.3881635698451993 -0.2346534177400583 -1.3103061462858514 -4.556581678796169 -2.389544026865781 0.30130077325462995 -3.62180695825918 -3.693777810977583 -2.95682042465439 -4.772050697476826 -0.9553748275806461 -4.657450407294488 -1.706924736402317 0.13631804236242595 1.148634052857976 0.3432775266478909 2.454656879060718 -1.2997255557844434 3.7896831915114606 -4.320347245993504 0.1747551927706347 2.685631268342511 -3.065688759627454 -3.2690161431846536 -4.247505076239249 4.120843226832334 -0.945646384722149 -0.2666894131924009 ]
[ 0.5499000322254972 -1.626343935154854 -0.5289159736770964 -1.856892584396887 -1.0525210601543584 -2.9308831862686913 0.6359982615136256 -4.160402147415231 2.5987160572962553 4.114737101479493 -1.3156094509517617 -5.12726866197468 -6.734602731830029 -3.3059078163706515 2.444153527227471 -3.572890888601267 -6.263818361415226 -4.331967792713886 -5.116967073850177 -3.976928030447499 1.0496789606341494 0.2132273672407639 3.348933369897234 -4.106745829405367 -2.274706036037778 1.6526938397507414 -2.281386305918316 -3.2822014346215815 -2.294131413766709 2.4665823580513253 -5.5043139318299605 -4.317234608047373 ]
[ -0.6447162153353552 2.2233768609175284 -2.2682919818324545 3.0212162288976767 2.440418582222662 2.2635255820577043 3.7339109182097765 -1.9978911666379033 1.8924588257365915 -0.7695286527116623 1.4148315594416367 -2.311399046788166 0.3168687768775367 0.10788177729883568 -0.18510583096787367 0.6249683203637051 1.299159466073174 1.0305002733303086 1.8574015011144847 -4.826237809402154 -0.002503816007350412 -2.093348218848491 1.6546378503940011 0.8851210016829195 1.869973451332876 0.3132863771745785 2.360246755154625 2.0779164174232077 0.6569573147319597 -1.7975978334893994 -3.388537413634015 -4.395313424094405 ]
[ 3.0810253950398474 -3.404109512919953 2.472802327570574 -3.0010406477670184 -1.0300356443636396 0.016640642006124088 -1.0705532006169143 -4.578939411093712 -2.014379795023822 0.5818839969571113 -2.9925726857047334 -3.6024920843672024 -2.862797950627863 -5.163952636419136 -0.627191834945168 -4.505604843700588 -1.3053985038351084 -0.10568395083940808 0.47334695424055123 0.4889254417803319 1.9333226612005288 -1.015593710873939 3.889748397947053 -3.9339064989170076 0.2608743123115569 2.915258381403111 -3.0747855859176707 -2.7958021528381756 -4.990961856775578 3.9488739010151246 -0.8952421646840998 -0.43882236679416664 ]
layer 3 Activation
tanh
layer 4 Dense
32 16
[ -1.9684431909806603 -0.06239095899390594 1.685564204096386 -0.4617041033627615 1.7822793335351441 1.8864021533193138 1.975327558363504 0.9150008191064554 1.542868800495618 -2.222556952407557 -1.449809774036718 2.1847895922156337 -1.6683613532575536 -2.4619859016314627 2.2412345166894716 1.7875782227811257 ]
[ 2.786300377142048 -0.7557583423731324 -1.9451389515012567 -0.05059832855791897 -2.539882725216504 -1.4435958452214903 -1.8324317292089245 -0.3812755190231027 -1.7095758677456652 1.3454367560890825 1.076713770375176 -2.21895030497385 1.2931622442035475 2.4912244105627868 -1.2923725093003602 -1.5072766526737449 ]
[ -1.6948101663795812 -1.9583851778119303 0.4640689940987781 -1.7355235487355447 1.8737413512513292 0.3111905078109631 0.7651807229740334 1.5506270566728224 2.1492153203753115 -3.020856457853036 -0.7318071202879959 -0.17693500846411156 -0.7723818738133758 -0.01757073011972278 0.7510766602432719 2.5526627457316597 ]
[ 2.3796158982561733 -0.09229681331969958 -1.9917654789132309 0.6541653429810533 -2.823056228987418 -1.3410595490443484 -3.5076856540529957 -0.4210565943167218 -1.116851020514435 0.8410981579072297 0.8683786456395999 -1.9052641700048183 1.9424998310901425 3.0090289192784656 -0.9234114627052092 -1.5421040600287659 ]
[ -1.5213694999660459 0.5081038267162866 0.4058538615459617 0.5859000842238249 -2.197266030518404 0.9000110651960406 0.1182679124731108 0.7435732847486655 1.257599501870135 0.45917846329076606 -0.4339165050095255 -1.6873339435463734 1.3101863500735367 0.3798246286091964 -0.6890721838419591 0.09989377160977114 ]
[ 0.4928319938587311 0.19777288810522872 0.021754893817416424 0.21642889959223488 0.7868373352784457 -0.04812593077792968 -0.9861189935889284 0.226459030432397 -0.9844387813670455 1.2797059448987549 -0.45460854389020044 -0.20843289515092198 0.7191572016245142 -0.8108076595750493 0.2118948859863436 -1.075466752208843 ]
[ 0.7683003153575201 2.4767502605308516 0.267972921880544 1.4209945960094814 -0.5394379189615794 0.7711274126487444 -0.9717261097677403 2.10347587678704 -0.46405816736798117 2.6451136450971084 -0.8379354332239825 2.2171985148676816 -0.9065211154808576 1.3120278642518033 0.43201130703416896 -1.2488003268835428 ]
[ 0.6974904336988599 -1.1646113043572648 -0.37395884368461496 -0.8223245644960855 -0.7801456647174172 -0.7817686097504625 -0.8696810822993677 -4.403285168387187 -0.7683930070768803 1.8174305392777592 0.3701333527945173 -1.8406417712226049 0.9459386956592963 1.2552922888750448 -0.6744937433527805 -0.5996861833156035 ]
[ 0.711247497313111 1.8369318093223586 -1.0367545814027845 1.4020760219820523 -0.07651883108776382 -1.1499566843220874 -1.0814264811910523 1.537844375341824 -1.7374590643342724 1.9345895469228944 0.16907195913710907 0.12029308604533252 -0.7508029606300591 0.28260715673583 0.31445515190700607 -1.3363774237128412 ]
[ 0.23089886498601606 0.5372210908756232 -0.9549269690825439 0.963750890994382 0.47432198957791116 0.4366605298177841 -0.8767008467028299 1.9519642960681318 -3.1308883362768194 3.2422181757018667 -0.6812603551037311 0.5212869900487831 0.4069988713992629 1.2707254657875469 0.26192683305481596 -2.0962286845307077 ]
[ 1.0322979573858153 -0.40725101069694114 -2.2471453090364957 0.2460884134803095 -2.598373902415326 -1.8238115643004007 -1.8768272763185274 -0.9060479895369663 -3.079772509945905 2.40301954648113 2.1047288007227123 -1.6909987464901741 1.7276031152815652 1.595833298413672 -1.5444161540322505 -1.7883154322368695 ]
[ 0.6335076008269147 -1.3931674556401836 -0.18003051688211208 -0.5686498658065333 -1.2430666393861172 -0.9992007222951458 -0.7363217613850467 -3.3573403683717142 -0.7944619580561009 1.469985066133947 0.3270651109067754 -2.7891824285105336 0.8073612788829201 0.155784930628001 -0.25462090884188304 -0.03233921250839645 ]
[ 0.8259811047511484 -2.071635709075124 -0.7614856776188734 -0.30071119115683626 -1.3437124128420843 -0.42407834581306947 -2.543784434244205 -1.2205996897225584 -1.642995784705196 2.721264734766593 -0.006633328209011183 0.3602133921109674 1.9533850651138502 1.2252172894297788 -0.3403304759523903 -2.641770512187307 ]
[ 1.05338505220772 -1.1571756967484268 -0.869020132021858 -1.0287462117990887 -3.6098875416888156 -0.7854152776506446 -0.5382044602406844 -1.2064352486206193 -0.9453925728946297 1.2620551603623553 1.0057688684249704 -6.24342490215435 1.778992929704987 0.8947959943569909 -1.3275444519192898 -0.6827615219513978 ]
[ 3.0444753086941025 0.4524444101033908 -1.3178342328861121 1.7140763695760906 -1.5163920929957142 -0.36728235375359897 -2.200097170513773 -0.8032246769457481 -1.7137708102066822 2.315030809041758 0.3575087576924042 -2.020839403609403 -0.22876855163012055 2.6570660847420164 -0.7109335799415258 -1.5397806682283635 ]
[ 1.384665432090196 -2.3382974596654837 -0.618409239347728 -0.3703394975986851 -2.445911733729866 -0.8025886166133297 -0.4790668492612898 -3.802062257767365 -1.5815350955361325 0.899938894331679 1.2445627283971035 -1.877877852305565 0.8985306814578593 1.3822257668224145 -0.1370579939025419 -1.544759331269373 ]
[ 0.02491206976735885 -1.3831998958756395 0.7728986162508544 -0.1392015414685099 -0.10455129178408182 0.9516707614081652 1.463480512128759 -1.436627880494374 0.5783077612417663 -2.833859869400619 0.01185195669077346 -0.943740788978228 0.3534633685005569 -0.5310098265748291 -0.11186234831513119 1.2245739478826236 ]
[ -1.2839810137573957 -1.1824509023194258 1.289996310071614 0.13129920949743673 1.5964670636551452 1.051124961106478 0.7817821742039128 -0.6668457953987459 0.5912792569479947 -0.7140681480674704 -0.23683779473920977 2.200114412456589 -1.2074739308547293 -1.6065321105657513 0.3120496376201263 0.9005161825185947 ]
[ -0.5097215985929446 -0.6504862371405148 0.43637594291679094 0.7548366978033461 1.8334798032964306 -0.7003735586101585 1.1311609080445908 -1.9181077454765851 1.2638017896588554 1.3760347070067604 -0.49394439587022493 -1.347747032890769 -0.492920534533854 -1.0929490358768357 -0.5603509753270433 -0.11341440783739457 ]
[ 0.5030597044289415 -4.986090191391504 -0.3784326363702324 -2.1330337568583397 0.5247835216616323 -0.15887534904777437 -0.6692651691191925 -0.45557300540348794 -0.20290793854278882 0.062111933582297614 1.115583197079376 -1.0586139004160513 0.8523292574107545 0.33303198328856204 -0.44975557925356713 -0.9726659683145905 ]
[ -0.9783915442097157 1.576104125954091 0.7874938016151567 2.084845684051316 2.5095316377785775 0.36656676003072364 0.8024223812401825 1.6913113812277647 2.5233074083062714 -2.810989982871071 -1.350720583165775 1.9769056424501683 -1.3799537910074535 -1.272979332149698 1.4875113762167589 0.6691642741023739 ]
[ 1.0960453830303394 -0.12040741970924902 -0.6972501702483399 0.2908564358234418 0.05388315028226629 -2.10796469882996 -1.2709640869731775 0.18274996056722678 -0.09558661605473351 2.926868379535493 1.159079803121403 -0.8363817030757811 1.3308413896163966 1.9265881245823167 -1.6050773016545081 -1.0831681700551001 ]
[ -0.7448769402287967 1.4383824225870432 0.6611668227180713 0.6680750305556571 4.1412756686046235 0.7229380707095646 0.29836653213394515 2.9598735838897814 0.019632002774335494 0.7799785498003075 -1.0152738507527959 0.7723552686055433 -0.8876850165387974 0.42096387696050885 0.6393622254021042 -0.07627058849612861 ]
[ 0.4265509329732203 -2.3368833987104094 -1.0461734325825078 -0.6349921537648331 -3.678249570783235 -1.1174629418583368 -0.40471499983009246 -3.419489854478967 -0.3161033560391215 -0.742794087643147 0.023646581980890573 0.5116237785277113 0.7615703476148202 -0.9762006334228578 -0.25860607034546124 0.37649790241039 ]
[ -1.5254329793177905 -0.3960842377991003 0.17601421497795866 -0.0433052431733505 -0.8187242910499636 0.9323979191242142 1.668046487611119 -1.2455727401652372 0.214864407253608 -1.0009762961816027 -0.012973077518631658 -1.4548183303497553 -0.0407182982099332 -0.8988242483994652 0.2946119500051319 0.6833207607686622 ]
[ 1.4950257227590358 -0.272690146936714 -0.11724237626365146 0.21890416815381775 1.7370739410942466 -0.11674580051450321 -0.9485463662690652 1.2595804261823684 -1.380509985542779 1.387349110797076 0.09243408579387177 -0.2441916369810645 -0.8242271544362866 -0.5405835315400946 0.05382487059705789 -0.8449854767951429 ]
[ 2.2143279725364926 2.076330769200777 -2.5512204956513957 1.145189085359478 -2.148765281952568 -1.3170614083555623 -3.302569375897214 -1.1501701974096263 -4.5698111654921645 2.7420339332360237 -1.2388034787323992 0.5179290366705664 1.5384813995614817 3.6568414959078823 0.13333222476231205 -3.4304408573213414 ]
[ 1.3965170457962552 -0.091955048245284 -1.8667605909329328 -0.038883155229519094 -2.143672781413495 -1.3221067802255648 -1.9271668741968342 -1.6337818902370222 -2.2295933419318144 2.9259061965148105 1.2336488548268725 -1.8544834302462876 1.079287618499116 2.244773550218611 -1.3996908534258314 -1.9824858123762503 ]
[ 1.3752354874758035 -2.0034840537710834 -0.8939298351621506 -0.42631007924087255 -3.666844258730493 -1.1224180841227125 -1.1943877950262882 -2.1087275954827684 -1.789500880476692 0.7724387547188089 1.423035189559962 -2.8756902983783337 1.4322815316255557 0.20274860815068166 -1.2716982455016312 -0.7764679368499617 ]
[ -1.8696381964203848 -0.484630265056459 1.4912880746383128 -1.3706716947758355 2.968942517018706 0.16667203986208326 1.3339828672265128 0.11444874786081723 3.2545773606409565 -2.1300695651535198 -0.6018799390011598 1.0099078200558307 -0.09755065307342513 -2.3344696136203704 0.611084168744339 1.5586065824180422 ]
[ -0.7273948260736074 -2.107927061458862 0.036791747799398554 -1.0813113160319419 1.1233601182363535 0.02335891999578734 -0.6575006525954971 -1.8121920184710796 0.8734863189561218 0.9767300272318166 -1.0406176331978243 1.9972587841196006 -0.35219802830835634 0.94995748319572 1.5123438054015712 -1.4926563025514499 ]
[ -0.09879373470091066 -1.6374832594225575 0.23815439581941641 -1.2754051135621929 -2.197916772054785 0.503706479266863 0.7127420125621498 -2.0039860910738163 0.159224346323625 0.43169216849019976 -0.10570764771998414 -1.2448408298540952 -0.2135022145817586 0.03694168302191378 0.23730325822530324 0.7094049006511268 ]
[ -1.6302885204482078 0.20942555862796627 1.176969908204249 -0.5576382631323695 2.765052918052876 1.3280088552684701 1.2782972887572668 1.2581444524765142 1.6510860355529595 -3.256683068192281 -1.7060574321197088 2.4433968755530335 -2.0243874687027166 -2.4636846977202995 2.0383948420956246 1.4735240560967342 ]
layer 5 Activation
tanh
layer 6 Dense
16 1
[ 0.15479199757765705 ]
[ -0.07317780524816905 ]
[ -0.11991345111976755 ]
[ -0.044631148005148565 ]
[ -0.16836583924494677 ]
[ -0.006213579768658942 ]
[ -0.25301953061356397 ]
[ -0.1277298402283561 ]
[ -0.15591515337672093 ]
[ 0.0543575587292421 ]
[ -0.04436709897034084 ]
[ -0.18558618852602007 ]
[ -0.25835672221890005 ]
[ 0.012812900123771462 ]
[ 0.6156952982574366 ]
[ -0.025599367132874917 ]
[ 0.43621152607957114 ]
