layers 7
layer 0 Dense
20 20
[ 0.03129501406989298 -0.3995154798847882 -0.07005251852198208 0.09874296990771031 -0.1919435846746464 -0.14825282897636188 0.24021058332018416 -0.043971532886355136 -0.3154746591386111 0.09838275796969437 0.04335829683050744 0.38940734654913284 -0.2562157586007091 -0.10653351944838116 0.2473526799382371 0.044609693885914 0.09068188445245758 0.06193877257076722 0.4578212726294909 0.30313903462012376 ]
[ -0.2537824896143407 0.013179993935496395 -0.2862820656940037 0.1310015502210756 0.17483530718036833 0.299720927668992 -0.04962042803747297 -0.18159418653226517 -0.25493066532660397 0.13878239927021085 -0.05927423427667797 -0.1170784544796753 0.2054672388074906 0.19910501060157637 0.35132688410924207 -0.04314463847776359 -0.033612675798106346 -0.23377388324919451 -0.03003453182151511 -0.23740534708796873 ]
[ -0.3536058619070165 0.06191542579224735 0.38279710232981534 0.03385591795382587 0.38282512985162204 0.0857247771874644 0.08211564978298924 0.22676875631148702 0.024983145316076077 0.29954347949037086 0.2626637762951828 -0.01835176407053709 -0.042362774452438426 0.2349883098801396 0.1886548528032533 -0.08498012296199514 -0.1789849339623419 -0.30538307316260394 -0.134678902898852 0.20255679774792698 ]
[ -0.0372686210764117 0.10618199675270269 -0.294929486181998 0.34621056775417536 -0.241231661933138 -0.03855930064684101 0.36374345172647016 0.33822689422331803 -0.26003687219849314 0.33063966098770714 -0.05321862491868226 -0.0640216479256889 0.364633308213138 0.1130515968519785 0.033783504853788345 -0.03862481397919734 0.005566156793316706 0.05959362646996288 0.41058163756496585 0.17687678400424756 ]
[ 0.3049349572187354 -0.37366263391017446 -0.37788994462924214 0.3059838797058993 0.22112502056132533 -0.34645628820277147 0.31320785439944643 -0.04934618530575044 -0.4839830011327366 0.5549462486149863 -0.10801909339963275 0.04088643345023944 0.3473723059901835 -0.5439516426182979 0.3347867964205035 0.5633829481416429 -0.2869057503544101 0.6011882715288641 0.07907609385352814 0.4382969883415827 ]
[ -0.3315210918490469 0.29700953349491277 0.034604880585900125 -0.046619218016763046 0.2795900976614846 0.27080485782933844 -0.1794276747605769 0.04765228592116113 0.3262787312244705 0.2365280578022162 -0.32162210764218246 -0.08220817534054597 -0.35954547570263234 -0.23987054396335927 -0.20070249408513224 -0.14632400892839234 0.16555974298615528 0.359789607588019 0.3059248695138132 0.039571113144271815 ]
[ -0.060604447040496175 -0.3298150854944122 -0.08923711865210741 0.36880819099848244 0.036486866421038246 -0.2541603441128749 0.21138868312477405 0.1447993552172781 0.24696095951610988 -0.33099985731818604 -0.148784852720292 -0.3588772597863322 0.05980068411591298 0.3628106499684917 0.3256577608586396 -0.016837905864214704 0.21373070262814423 -0.08773173895144455 0.3341230978755595 -0.3656230444078765 ]
[ 0.021457064014435045 0.21230235737941 0.26332105541833295 0.0702425088834577 0.18257906019280287 0.058960646159966046 0.025462264627020535 0.4326506584546777 -0.18938662455560692 -0.21128085136822522 -0.24844299392639996 -0.0941105609866468 0.14999785325938417 0.32234695762318716 -0.20981367846221113 -0.26678524160081596 0.009157346009726178 -0.21062952974706042 -0.22922100221051359 0.21709220198854537 ]
[ 0.31441011645891065 -0.1359715825440338 0.2780291506702654 0.38155857397242826 0.07895035481530481 -0.2602353756027529 0.4180951133823439 -0.0941848396133022 -0.5834808112116945 0.07787900640145638 -0.11647904021102959 -0.30461270616693903 0.477593440400299 0.02906930976825448 0.2338838473965977 -0.09828698588020181 0.27583346395508623 -0.0820502231392805 0.033560062986803633 0.27942723115149576 ]
[ -0.0042135839558242495 -0.34844879397550504 -0.4877212697841455 0.28007635411075393 0.11959026749173426 0.5053917953001607 -0.3346816602271608 -0.29818311620954946 -0.39644458599514715 -0.002683488352962175 -0.040641699922509725 -0.0019188242346942735 0.33573066140453584 -0.05621165239641985 -0.257788105193805 -0.48311698511894396 0.2707039657901534 -0.27152038091635744 0.0839160497168731 -0.453495699886034 ]
[ 0.0032512957390308786 0.005524772819037802 0.10725833865940917 -0.5194001331416661 -0.02448745392589785 0.14084082482886814 -0.08625169723554368 0.035657359329245464 -0.2112158869322038 -0.4837787811253901 0.22563117884235565 0.5359313757926462 -0.07491523990021333 0.1653828193838957 0.38013652361511624 -0.3606743537596705 -0.17970204804377843 0.09629788501052412 0.06982966239543283 -0.4042431240225408 ]
[ 0.13189408621528448 0.35023164152786185 -0.6937369113428923 -0.5761226338692771 -0.2650034920477864 0.334087987887054 -0.4520153666213442 0.10908562134780984 0.29852797913336604 0.3975299219398588 0.07955886113311894 0.660512715674248 -0.40036845065271764 0.45847714807608725 -0.5404413839716868 0.8349721577781803 -0.15338211732331833 0.7048715622550629 -0.44372431489266867 -0.39250397021408556 ]
[ 0.12057363019090514 -0.12675275272292538 0.5349140664188453 0.7163478483239185 -0.44070676895825306 0.16058577356600304 0.0653950185660519 -0.44959093072187023 -0.22685314835727208 -0.3832365486118673 -0.18060141465712287 0.12228134530137601 0.15620505432039616 -0.6090896850239613 0.4484474266761589 0.26908053731398807 -0.002618627743944831 0.179696219200916 -0.12975727633464038 0.4278489735496908 ]
[ 0.284160416430002 -0.18197710324189728 0.522276682469355 0.13813641244869748 0.2443124413980767 0.018895043017189382 0.17675431702368735 -0.5197335324424227 -0.15102944508960844 -0.13812066685853266 0.22125505947777374 -0.26176841719200056 -0.007079455206660371 -0.16495709113592952 -0.13392215979262095 -0.061470294450006124 -0.06385182788953063 0.45632109760946504 -0.3965255690502933 -0.1432329953398848 ]
[ 0.0894783221529931 0.01567535052296175 -0.16530912036881348 0.35175031370206045 -0.36719976415352046 -0.34334008020539725 0.17988801846421187 -0.18367036423225516 -0.07965450167273357 -0.24251435021030837 -0.07922732635859019 0.020844486057190366 -0.06450926661924242 -0.21975338445841375 -0.13563984818583383 0.40358730227980105 0.04247170077873143 -0.5054373233947214 -0.19519207632580213 -0.2876513469517475 ]
[ 0.3649018038742156 0.13862345829620748 -0.147498555567687 -0.29976271190847154 -0.6016349906190497 0.7322603914865607 -0.4895260568172771 -0.10552637222176217 -0.011631992970625202 0.8483176863093125 -0.33606010467990977 0.5373213303800493 -0.5770630284045135 0.26680090022667047 -0.24369543507059868 0.7865290352249498 -0.25589987378559376 0.720814652475474 -0.6326587167897306 -0.20671370615614804 ]
[ -0.20914202851816308 0.10539916922401403 -0.534090084208976 0.2781732344531084 0.005320022921857236 -0.2745549404276819 0.4832937182804632 -0.19714056718764583 0.29921566831574387 0.7517449649597122 0.33228427086825074 0.6379356551980112 0.2454307392127273 0.2999854736083172 -0.28029149565923034 0.4086750206417472 0.22672404575890584 0.2331602538507326 0.7065007293149862 0.07717012714062771 ]
[ -0.8776262117285641 0.03986263225981575 -0.46060310670590005 -0.2797820230940692 -0.4471064733984051 -0.6257015036043541 -0.38028111041478607 0.8851383067813559 0.6582624288510672 0.6094032931319768 0.5384064485684564 -0.18385391866571793 -0.9147157424667095 0.12259287147271164 1.0149768320577457 0.6518377163760707 0.7361147749793326 -0.6751706129313477 0.21911149303091748 0.4907994975786379 ]
[ -0.23820284384232573 0.6405729600865971 0.4866700927152031 0.5236427330387002 0.8574974219263107 0.5034062319818249 -0.7838477345861905 0.12104697766612356 -0.9696499288955281 0.9749925419520015 -1.1458406939633874 -0.7295678050921187 -0.7160143680626049 0.5424487133422076 -0.39419771321070013 0.10660074016299068 0.6060438091949841 0.20650217392391618 0.08015184761250628 0.9379032958502663 ]
[ -0.2996908675764493 -0.09297939862786592 0.48228251118941406 0.00348265912205273 -0.2280168372071906 -0.3240467721208506 0.4761413057697009 -0.2427693820603887 0.016007494640014965 -0.5336881896326133 0.18302255841373244 -0.5401370071927599 0.23236664484489625 0.04327294772292094 0.46665067474998656 -0.5338403992245563 -0.08633869247936775 -0.8444094675844183 0.5817611493568849 0.27467881969234137 ]
[ 0.023373930003503383 -0.11063673394943425 0.005884608589740342 -0.08969427749635434 0.06542447873586896 0.019147800244963823 0.05089136057547387 -0.045713086480502665 0.07327991603845364 -0.13952652479649286 0.07486919717907865 -0.029643196122514117 0.08192069529396608 0.15990013085466512 0.06384150908771642 -0.057292706623753804 0.08157958790018985 -0.1072303498359809 -0.020801768462296418 -0.05954576643767051 ]
layer 1 Activation
tanh
layer 2 Dense
20 40
[ 0.49009133710495756 0.22327659034458291 0.3070207172201287 -0.20573815370513399 -0.041239119643483875 0.08054151004293371 0.1922308173442487 0.11361014878752074 0.4672971556196105 -0.11519921134771004 0.2766307150748552 -0.29416401838535355 0.2205651973035064 0.3868656555971268 -0.26381966784048994 -0.06707467332440836 0.2832580035778502 -0.25053355047043374 0.17270923146769993 -0.19993190448275885 -0.2923475435624581 -0.23252510340468674 -0.36525294280065057 -0.3071615855527661 -0.17233459258755193 0.3792714649594 -0.035109993895260976 0.13844354322955846 -0.30173624573886454 0.01789328921639058 0.23157922837278436 -0.3284558997597619 0.4300831778257562 0.2843552075060296 -0.24344324604430126 0.13751576344366237 -0.3803609881601462 0.17874701599368595 0.09470473424704834 -0.08578336946781989 ]
[ -0.38809695254529175 -0.031334389652802885 -0.12450052461972674 -0.3238770323101873 -0.07364704482841496 -0.03829803124783626 0.12611757287753658 -0.16155138024575325 -0.43652509133456024 -0.20070255464019407 -0.07679711268587384 -0.2173285446631023 0.1735701163391154 -0.12532574450522482 0.21701759198812742 0.250879178762283 0.0918022565627942 0.06496993663727642 -0.17453353745589134 0.11923293594205561 0.6859418800117387 -0.14930309880123002 0.7516416179602043 -0.13632999041105792 0.19344276832959745 0.029036835043873138 0.20372660827115482 -0.12393037493650909 0.17876875274457973 0.31971128202125354 0.00971311796939251 -0.17569900281394246 -0.17426448465618233 -0.2072660537160935 -0.21130797801212117 0.07640003202729755 0.3607122852593288 0.2066390429247958 -0.11176127169955759 0.04379840851415307 ]
[ -0.2264069939289467 0.01651436912363682 0.05948525089110692 -0.40240604929718105 -0.1480893743553788 -0.1746754595393404 -0.15005162733722727 0.5674201318109071 0.26327599071255287 0.20404350353478345 -0.3771701533112103 -0.13401063559918652 0.3082426742185556 0.3466230666849082 0.21368055021322263 -0.01855840936305353 -0.07616367867108814 0.041438538068662066 0.10007447004070522 -0.05369891654932311 -0.027109733524548055 0.04367933156037455 -0.06581877208949075 -0.1102141765011973 0.1669496645655873 0.22062525894605958 0.2976370871130772 -0.2092147726388514 0.012716973359533054 0.4597942623487458 0.12223715849928575 -0.38677842455367467 0.14128105700463592 -0.3987845340959493 0.23918658283196328 -0.14780581365893414 -0.13366393145865335 0.06569128518443687 -0.2405171805217551 0.1983449693135474 ]
[ -0.051519198579212645 -0.09464027390855614 -0.13929057446734877 -0.43819556334050586 0.5006644024929662 0.0004948713431935084 0.07896847305450683 -0.33491838390730677 0.17859188036551313 -0.19053014504461066 -0.11160981964626247 0.5088729551435603 -0.05890998943569717 0.07383993542482055 -0.43792326612998106 0.3508835538858788 0.39372760466841444 0.04497161645909245 0.19610866247132658 -0.09349109888337104 -0.0442967800532312 -0.24480072254620883 -0.30550669781608925 0.13304475594524565 -0.23144969573226673 0.21903264609177256 0.12133820870717732 0.17899320230381846 -0.03780876525569845 0.28286822050207006 -0.15789200412391205 -0.08841490398545171 -0.08671637182107224 0.038391645086558575 0.11141134075622518 -0.0929063912901914 0.04532654692310297 0.11455023103437477 0.10961845598717025 0.07535993050039932 ]
[ -0.733085822155513 0.02707431222035281 -0.21644570898704665 -0.2661182420512454 0.20703099609474954 0.13852663934510623 0.3406476536444827 0.10896857366101323 -0.12051822024737059 0.23636998233993187 -0.09694334432661131 -0.38439048297476763 -0.07471669110432021 -0.05110253711187112 -0.2024578451600901 0.17611222637296498 0.39825600021360436 -0.12151364493189071 0.26797099439613153 -0.20818923210551837 0.29394459510393084 -0.17271281402647845 -0.39074823386141727 -0.06298302410802874 0.07500092733812826 0.06924195724277789 -0.09944720823895356 -0.21294068271331518 -0.06811913933517275 0.2098822595852146 0.26376052150924517 -0.12393122586424822 0.14777921217918288 0.15184975462967154 0.2188697429455141 0.11408209088143258 0.026627624335695592 0.02853142365753164 -0.34951672883683454 0.06008959869722987 ]
[ -0.3162117136486564 -0.0903226386268408 -0.100581648409719 -0.04064730735886391 0.37717373436830226 -0.022883773286425317 0.13248230476917341 0.5327001705774984 -0.3966381320802442 0.3406109470138583 -0.17791257704638963 -0.415634995480161 0.14894169363049398 0.2552732919852879 -0.09418871808422806 -0.3453960650962332 -0.03626321307804378 0.28209373791560244 -0.48417740522060937 0.09073775207720942 0.4009127532312462 -0.10102870024467822 0.11695868263690333 -0.14649057345858008 0.41405748994056935 0.23412017066945126 0.17246773553782008 0.3048391780672851 -0.23938002478120884 -0.24513894589761812 0.47380696737696326 0.08608923166753837 0.07503311791497365 0.10953830267044035 -0.246094994549821 -0.277873914919202 0.15496848252423753 0.00654547059734582 -0.2607126333324516 -0.17994347256976104 ]
[ 0.09080660053644454 -0.19130791518101692 -0.03158565969910113 -0.13244727958348146 -0.3610024212424468 -0.1351269817142238 -0.49418192723416177 0.040816385309361256 0.31831512789565924 -0.034680267214278006 0.3258351029930808 0.25223932711695796 0.29321784689589264 0.15980292369922808 -0.0434227735284751 0.05338692295261962 -0.22431990693983136 0.08074800550479659 0.369912508326861 -0.309518908522779 -0.44226890185633977 0.012836075535721069 -0.061495740016242 -0.21453076621847772 0.02576099171986979 0.110521990953015 -0.29040394531274183 0.04060139530889492 0.043001587865462466 -0.28035407278237084 0.12670313970521282 -0.19575384283363423 -0.09736223754243156 -0.23549850560244306 -0.24710532018366319 0.01745921090939147 -0.06264128058791567 -0.06743438652332308 0.2070405008862772 -0.19199750801541113 ]
[ 0.08854220641769277 -0.3226022252906099 -0.24450944601730362 0.35757152603435177 -0.38334037984180025 -0.142648095645402 0.19447504043344346 -0.19017268694273712 -0.24694643729403037 -0.287746256069284 0.16288515233493103 -0.11570651011362819 0.23261478691677684 -0.31214766962283164 0.0034940650709636345 0.15050678491855843 -0.4532681263825467 0.002517373774372737 0.22555531934931655 0.05402395457706203 0.030717183377218037 -0.20621285446147075 0.40478908421720383 0.1266882380608448 0.2912352522956162 -0.5970819928564752 -0.44417413845002024 -0.23093934172957142 0.3887702695354876 0.42517491924282497 -0.11615114880948947 0.20010504597189102 -0.20151416472617187 0.24433135962364338 0.0032640617331817553 0.09741767909425815 0.19446193656575217 0.04978317587273358 -0.30636835961566605 0.34831918265651396 ]
[ 0.5146909944618654 0.2821255491062064 0.4444234309669455 0.5320122986054222 -0.45119439206308565 0.015620679389921108 -0.39548375311427747 -0.5345113985211425 -0.11017393963182465 -0.10537541935177347 0.12029340939867886 -0.24886378730323716 0.09242576388059713 -0.10416343159124035 0.6690620798914951 -0.2863506186429582 0.06380160761586319 -0.03174777195888482 0.32014523361737035 -0.02205983719880442 0.2200716527194345 -0.21762398373697855 0.7707998044146456 -0.05642473553596258 0.18750736516738195 -0.06178644525966354 -0.398062758220237 -0.14199647440150515 -0.22613154864769378 -0.2574070684018632 -0.17416894108543035 0.13660877844811778 -0.309751788362063 -0.1484403719839513 0.019444104525574504 0.08991518652926374 -0.2573695445424208 -0.06516858592195957 -0.03887796824994976 0.1473307866782174 ]
[ 0.5856955137017059 -0.0804983694888 0.04905548975937903 0.21478773697180298 -0.4204360048794915 -0.06711255299052449 0.17102427420232785 -0.49356495738479356 -0.20320731550527849 0.25359668263749385 -0.05072438937244777 0.15055210647790768 0.05012252362444027 -0.0865833166466649 0.23096092240738067 0.013952523431195882 -0.5050257962015765 0.29842381024377673 -0.42557813455176985 0.36476885560451555 0.3086850273833573 0.03546297936894754 0.3413168853179743 0.32388060226766074 0.2131535748422615 -0.6201318424014121 0.15774408717027072 -0.15385711467289503 -0.31222633645576964 0.05302240989469776 0.2056053360952862 0.32367290513576924 0.17715594797357356 -0.14442311936931282 -0.3602356943698621 0.03427677811256437 0.23534271764161332 0.0100799705638262 0.22016814552588823 0.0850574474717634 ]
[ 0.3243340482818167 0.2439794724475026 0.15330884275290704 0.4016587449006237 -0.4602318888906001 -0.14932085459666963 -0.15488229710179785 0.2574569681408784 0.2192772519241103 -0.04620275718154628 0.1352353953331274 0.1172292219878795 0.10431941009667235 0.024262970362637186 -0.09131773221423742 -0.2832668439291065 -0.2599119267277359 0.08245140488048629 0.10967210230016138 -0.29564513761251193 -0.3624014595880509 -0.12966319384100986 -0.09321339608957013 -0.09291858691595323 0.07486898543620249 -0.11248389258680652 -0.038960602543940924 -0.005222516062445864 -0.010560555402680456 0.12086589768250496 -0.07752881291647412 -0.1506384052333716 -0.30040933563826155 0.21864197544688208 -0.043242489155556556 0.2970957200145575 -0.006256885233393935 0.044839010661752436 0.3835662352626391 -0.21812986266562956 ]
[ 0.6935000469644779 0.047417860720012285 -0.022752274117660835 0.32439664102982774 -0.020767010665719343 -0.18050547345476115 0.12325477380146939 -0.10030957520921138 0.08300778029055907 -0.2746000546030112 0.42806020580859616 -0.21575553463799588 0.2781550891160201 -0.24195043622032636 0.014514224235948125 -0.28958863542108665 -0.29005994689544223 0.09093618153982205 0.15679422440431806 -0.1667581150801289 0.146924399178401 -0.11387010978030453 0.02674597823485414 0.38498189869561417 0.14471659881133384 -0.3158939507304856 0.30571248073347645 0.3741514772288728 -0.03323956742684795 -0.3333585203127448 -0.12675152234507076 0.04796646753627252 -0.10148369491216457 -0.11574174782612474 -0.20251301919381978 -0.08955098087315709 0.28234605166843596 0.058805923142187334 0.21672434433553772 -0.1539280939052239 ]
[ 0.03775660370296697 0.10008561260494717 0.13587309461656255 -0.09869602002902898 0.21206325877646753 -0.1826233056662235 -0.44035420780721585 0.3896791397134835 0.10699212730139228 -0.19520167764774154 0.2974962196202885 -0.016313944841944646 0.3542585342806447 0.15641071003777623 -0.3941632265438324 0.012998796421224755 0.42973908642398034 0.27753665321651483 -0.33677546899386435 0.1573674060319163 -0.23994438166690993 0.08486271111683914 -0.5620029916829719 -0.12658974230916795 -0.25596838114549025 -0.06691624639872396 -0.0783461857967816 0.23171285182193108 -0.3705319458392284 -0.33115026237352657 -0.09934035136878719 0.14289714708344467 -0.06468377699657521 -0.09307051665986267 -0.2167938421848826 -0.1975459049185511 0.1709455118702167 0.052412374512814476 0.024870490295187123 -0.20560592142275422 ]
[ -0.2695753630403089 0.011619057622672761 -0.22253026561039368 0.01821571846573338 -0.15927329980168342 0.023289595629867554 -0.048798439065563484 -0.08388886427717276 -0.24988137952848333 0.2835361848432077 0.11462424564499525 -0.10825967507294623 0.23758390422800468 0.0487971537063702 0.0034254431792084513 0.09927281899536382 -0.429561021274447 -0.16024796552000903 -0.14843488638579072 -0.14838594304575897 0.39684246520109284 0.017241982154152204 0.08640094087198229 0.12451527509317707 0.09403182287085471 -0.3306436746199241 -0.143190902431009 0.13271759959724203 -0.05618266157759193 0.2119118693951954 0.24926284209316565 -0.1621988444929727 -0.20736783775634357 -0.13533160467909716 -0.09172420594971041 0.10934348529308296 0.2728062580377143 -0.06385367036392546 -0.35138193544734164 0.2680944012050725 ]
[ -0.22059771389946026 0.11830668820420846 -0.10297542331011057 0.020755399548198366 -0.07479641527426667 0.4034108450644516 -0.20026956647091781 0.2149389028858169 0.45296325777061097 -0.34436415164433637 0.12040677835910833 0.04706042118847105 0.19199837896607735 -0.16415481212071648 -0.13208888918051584 -0.6442984522474448 0.10366051118861144 0.4188494956715514 0.4415082429891734 -0.1072845428740319 -0.4874848111856063 0.18613924675882568 0.03876889690084581 0.15006375177085562 -0.16682597649066835 0.02902901847800776 -0.3877495886226226 -0.1418468132192421 0.5147310678387894 0.23648422958877824 -0.5403602628830522 0.2187253792236228 -0.189866213976923 0.039957455739840754 -0.08306447223098713 0.3191038841123021 0.14011050947650766 0.04802136937371761 -0.3312196264737771 0.14815646933615184 ]
[ 0.6447803248994779 0.45971607562656625 0.37740069718737645 0.08861787800550995 -0.241675033982055 0.012402796148056434 0.32839024386116505 -0.5650837332068179 -0.3201844269529784 0.08138299920212737 -0.04884399120904678 0.060756248441569516 -0.07067034822964237 -0.26041044393259594 0.21985311020046908 -0.04357489441491866 -0.013836055232186653 0.021547258825298163 -0.020841061751722834 0.23077777678312755 0.013636011360815386 0.22363507812885203 0.28666401205768943 -0.3311417293599013 -0.028755826611523132 0.27506546954363276 -0.17186640660152924 -0.001620926095429748 0.16343727095178928 -0.3332285443339569 0.17705237062019347 0.20438237496409203 -0.2142479939848235 -0.2450152726613713 -0.12780411665568273 -0.05890591064273351 -0.012049086744674078 0.0671005697061776 0.05389800900632932 0.3386242891352518 ]
[ -0.23214924188914884 0.17051136398548522 -0.1372244682119013 -0.11892470232884202 0.21233857321931496 -0.32719757393181687 0.2844205483077545 -0.5129989156937689 -0.03312975865174966 -0.24488253146813843 0.031107537230237375 0.4136243317750328 0.039397556374843073 -0.2900636883576173 0.2071042213855403 0.33732673802857105 -0.47908384148502037 0.23253144714048976 0.009755135838734847 0.07985857848735392 0.29358533983280016 -0.31762618249186925 0.06712488171775575 -0.04135454648320955 0.24684043459418292 -0.10263967583706059 0.16582777943555607 0.21301673725064443 0.16072321155668218 0.18909234717737367 -0.1958125245708748 0.004778021243032948 0.1715120970932051 -0.0851658413167266 0.10510578134900117 -0.2227632988620796 -0.10408610285716836 -0.08520861165831303 0.04268190847346865 0.39002190928716635 ]
[ 0.12583475714225742 -0.22606384294121856 0.19128033470390401 -0.20049229671009067 -0.3736740778445876 0.11712696631568742 0.21727231620096357 -0.12052243028601933 0.04932996278811216 0.22273513307504073 0.15849901900049632 -0.4585054278925087 -0.10039127447332301 0.10809381447372628 -0.11626877104296413 -0.07209252409274892 -0.41345909220561994 -0.09100430044498538 0.2003249333512896 -0.1798200071739657 0.22052109767347938 0.10241868004171101 -0.10714400406496398 -0.0778696500726846 -0.12012727682800363 -0.2940659154237391 0.3943623429885652 -0.03733232557687469 -0.5105611675224846 -0.20779723121993807 0.13700340612171 -0.1186768295902779 0.17948994495125772 -0.14433132467005594 0.19612232393273835 -0.10382419130254061 -0.19539226973306162 -0.19025213138513042 0.2539779778851333 -0.4099977105894496 ]
[ 0.39760908015387825 -0.3478749371829981 -0.428182129716278 0.1299308202633683 0.2923190155465618 0.20565523512584719 -0.07746045433539217 -0.43955639799833507 0.2988402276455492 0.12675968812136576 -0.16777066467926763 0.42338124489057943 0.1432552605102339 0.278953565880073 -0.1752956358616541 -0.10242246499747366 -0.4268018525223242 -0.2430121357139663 -0.23792250371330737 -0.5480356695662577 -0.24751534856022808 0.14432698484326636 -0.8304176841961439 -0.045499518019453226 0.2576648296698771 -0.4575141715597211 -0.37486932213315277 0.1492497583919773 0.5814354820302576 0.11764742637311969 -0.35004423909661087 0.038803384400336094 0.10564009814428214 -0.13980605009973515 -0.4195131630405121 0.01871586901979167 0.3316402738503228 -0.03800968281133003 -0.31441585659853305 0.08099515726788768 ]
[ -0.0001024862075959007 -0.12748523946900397 -0.26645604571049386 -0.5194994232391951 0.17000703794959504 -0.031856221472979694 0.26568244759895526 -0.2598079208628476 -0.02151584792454677 -0.03564365445304925 0.041017813737563365 0.21188066132232983 -0.32714176493108943 -0.012780993206741113 -0.35124628576993516 -0.05508747818890266 -0.41385322697358146 0.10115256551857607 0.5562263318850456 -0.3871337195501385 -0.044565369400796376 -0.4101236690355124 0.1142507950458776 -0.027743282811515557 0.28616460726942905 0.09976482153640014 -0.23300459127894838 -0.0829626496357846 0.24389785074198156 0.18507422566915335 0.23372856907014802 -0.09719531568966311 -0.19213257276835577 0.4978589416200368 0.0603227382854122 -0.0015832355478497299 0.05090784952860271 -0.18063849762424455 -0.7845016218649374 0.39430914494537034 ]
[ -0.11950670299958978 -0.0072858149065686585 0.03413663139778575 -0.05529158876765685 0.08255400974308424 -0.04118579201537632 0.01091035166780281 0.04605380267580339 0.16087994324810576 -0.0032140629462249614 0.05208535761358933 0.17440909407324412 0.0550112935492336 0.058228353701776085 -0.07784336839934869 -0.0796333797158376 -0.029524791461606997 -0.017501794396321626 0.0864721221683748 -0.12908811135752116 -0.09345315087608677 0.07012326555714637 -0.0827876015755149 -0.052973385220156904 -0.010057178759984912 -0.18657143027531495 -0.12051826970797354 0.0841199547381518 -0.04468319188864892 -0.16398174177216068 -0.19236224837704013 -0.02755426837507816 -0.028996555927089565 0.05335844218827433 -0.02417672948824242 0.0838423028342257 0.07794646383174515 0.08268609159352915 0.10515440909007039 0.028736139049478523 ]
layer 3 Activation
tanh
layer 4 Dense
40 20
[ 0.15585707979421515 0.4013952535173861 0.16274937401501396 -0.04300956920657294 0.15731344551660006 -0.552963243735393 0.09890827158993261 -0.19497825272193373 0.18776459352600064 -0.03734018616961678 -0.34742741856479936 0.5333443119651611 -0.2910595498508128 0.3167795453866995 -0.03085111364929582 -0.0339624627134369 0.3934431873367937 -0.20231843408956715 0.2051059045679471 0.26882685621740815 ]
[ -0.12574986607350483 0.29959149394086104 0.02256640151111979 -0.009216479057117363 0.16766775224982566 0.2479510445233471 -0.20946190329803738 -0.36137084919541834 0.13813548686706378 0.05247976338017944 -0.14734225234815218 0.14114284125041376 -0.28832491298089774 -0.26215487110851315 0.2568060451023443 0.08455855685588676 0.21815170525662764 -0.023307319432385825 0.24609810451368858 0.18190494560257336 ]
[ 0.12977708209863373 0.43732508663845726 0.09251275168808468 -0.16513461031914065 -0.04653232830902783 -0.3323984217051023 -0.17307599644497573 0.10217387055583296 -0.1381846814294948 0.10356016636756815 0.02882844186489298 0.20013824476284894 -0.22679243189979983 -0.31128884405192464 -0.0458075709201953 0.006543005918336991 0.26821685761463854 0.23228216314483047 0.060518856069688924 -0.1698060220872756 ]
[ 0.38221056495693956 0.01973291204154254 0.01683458440138129 0.3437806554262079 0.23810776385283572 -0.5397975110882797 -0.10782185340881992 0.13058527582386265 0.2106744409635167 0.2631751591187258 0.18770209412244204 0.4110029027874662 -0.07712800473577026 0.2697520853866822 0.026199315509149897 -0.41506204049303713 0.10784519940878289 0.12918553853765974 -0.07033860238615516 0.23212164000701493 ]
[ 0.052706554421576325 -0.5068734383745861 -0.30824350322130667 -0.5554358513702579 -0.24603455096276924 0.4599709668115011 0.06574818066786095 0.14936145057035333 0.1220522108522043 -0.12086056231930566 0.2542608837057379 -0.09366937788810839 -0.21723029084380852 0.37968045916452015 -0.1887414605788596 0.2818588698515315 0.12682636538324624 -0.3327054923281944 0.3422017987365205 0.156008485298369 ]
[ 0.0934411212344896 0.04807337779629591 -0.09100471388246656 -0.218932367940198 -0.07540829921442589 0.0623788138419916 0.1525355336498812 -0.18636953633180797 0.024274767051457778 -0.13225971773802975 -0.27190562992381656 -0.09123259260141421 0.2806840315401184 -0.011504715425223074 0.1423432588409128 -0.22366308747536726 0.07290328275532057 -0.017303702925035337 0.12630018842508142 -0.17662588484922775 ]
[ 0.0659724502162521 0.2578030558152598 0.09658324037515573 -0.13911046852111783 0.21608238919690428 -0.44925959091365864 0.14933190978344915 -0.2353350082300216 0.038014345420995896 -0.20123667635686388 -0.27100791827055004 0.06121756038815213 -0.3240060533239169 0.1401369985827036 -0.34065862440017713 -0.25239773623596556 0.07997577807381286 0.2553301698409838 -0.23770417011825962 0.0855420348696562 ]
[ -0.2541966281313453 0.10964996772564073 0.008091457757781835 -0.17231546774464856 -0.32185813721193396 0.5071992243802085 0.2195209429727629 -0.23336367023976806 0.20056552138878547 -0.09271246157072993 0.06872909832175403 -0.4442512823365387 0.1825509745625324 0.09954154728253449 0.2823029982658301 -0.03453177902119972 -0.3692810315454119 0.1233261395594209 0.2900971868572069 -0.10492541403419595 ]
[ 0.3061728809043873 -0.1684136677026637 0.10299169412362134 0.17908325069639383 0.11976758147939785 -0.04531449327128605 -0.3279560048465493 0.2539409833007587 -0.18414118584987355 -0.1243830094450595 -0.24735886332266643 -0.23379094865790143 0.31157926840399036 -0.08497770878973256 -0.0606090907968926 -0.053337346224260264 -0.22165117853901026 -0.3315259378534796 0.19546699040179705 0.01220503470730538 ]
[ -0.29180649691206184 0.21134140888687744 0.27235554028150805 -0.1444921298580438 -0.2078586213157053 -0.09149965215740005 0.31969240389510173 0.1329242556573704 0.08151151334998592 0.23261095809655197 0.0661039025718544 0.26265367593843264 -0.2962864484501967 0.11197511656679053 -0.19669359474700884 -0.01632151466731028 -0.10553515800833915 0.24814085089908586 -0.07809182158614321 -0.1464382959792077 ]
[ 0.2256743153066439 0.19635276993771805 0.0288109698082673 -0.1211415615696365 0.01863079494726048 -0.23363336622059566 0.24081048557701576 -0.29250137753565064 -0.3948394173787945 -0.11185581530029301 -0.13492166410205783 0.1454718866999953 0.07121604329930196 0.06906882228246225 0.12217477776336091 0.17061776391442607 0.06009769966785294 -0.2312890967715254 -0.1519170512510942 -0.22525452091097556 ]
[ -0.07203803067002774 -0.3011106285195632 -0.0259070457495529 -0.17225503006031942 -0.035624916336756636 0.6625361189025794 -0.2807673786069136 -0.0869694251356617 0.1504980565202843 0.21444262352861773 0.39536190982694336 -0.44685447201208256 0.09443673442399542 -0.12452850384206067 0.26932223421789614 0.07021409016098794 -0.1748893050537664 -0.11813299499573647 0.14688397253210517 0.13592032662118472 ]
[ 0.14222940312898755 -0.03904871476110756 0.1607940720708046 -0.2010861874646532 -0.3103925831390917 0.06742951792811454 0.24072558581979964 0.19676839443909339 -0.23643062678668075 0.14559594015620117 0.16987584776225492 -0.0747341242223401 0.41898121259132864 -0.0808034506108968 0.25365566612823337 -0.10939571222492232 -0.00917447357217918 0.19985634787679912 0.013653438602744547 0.07253717175258241 ]
[ -0.05097513177108004 0.2914403221221666 0.16595005185311418 -0.23976549671828248 -0.10905494537433513 0.1363706748250813 0.12593382393016478 -0.20276754156445306 -0.011169153095430966 -0.1298851976160885 -0.16274377853456456 -0.25805819125129237 0.19588322539367606 -0.2919639029426685 0.1556440230644017 -0.02128277416012562 -0.09962529880042661 0.2443593816713437 0.3117247320036845 0.012582219668527381 ]
[ -0.031099265258161164 0.38343035732146474 -0.36337923116137966 0.3207525501845383 0.17392609307938733 -0.3324279967328952 -0.27126212181977244 -0.03694992174021786 0.00509441409315508 0.15791277626991243 -0.024253664789501875 0.38848802198796545 0.1434207109709281 0.16371563139312387 0.1383300025204143 0.051712630605031215 0.37536336532397463 0.37471190858457704 -0.3198215692035144 -0.010387927362889661 ]
[ -0.003456064199888885 -0.07262852677841057 -0.2748134762025903 -0.30903627571282066 -0.03785895978602563 -0.01011151793105786 0.17095859231104915 0.2220365314055172 -0.015086862521454155 -0.18623290191232583 0.1969826976139294 0.0983286634600191 -0.43638847017705973 0.1331796993598054 -0.25081843393848413 0.3314206633088344 -0.015375641540771673 0.13704919923659997 -0.23970230606327006 -0.280943903054123 ]
[ -0.3116054205859565 0.11891020135027396 0.16202229328709855 -0.015040039012661838 -0.0636077312027207 0.43571511307613425 -0.1271715117009629 0.038155428086144416 0.06430488510495105 0.26765816479526006 0.32232839734405055 -0.3780533932646922 -0.00019452748357830056 -0.4535894606907483 0.17752165890180766 0.40998822292632187 -0.05051563020737332 -0.10949701624234373 0.0560776159054802 -0.08488120652410226 ]
[ 0.0801647852313978 0.1441741703822715 -0.25515246250885737 -0.0017284012686623023 -0.02688741114466718 0.3122867778033706 -0.0027948636775036667 -0.2214810912140022 -0.2067116764801265 -0.27869463993576593 -0.3164079050677237 -0.06724743706383902 -0.1609814403591135 0.2537715973285711 0.13329125965322725 -0.007416851151792874 0.12260084588634326 -0.18293382592947396 7.1082678432341e-05 0.2547228003041292 ]
[ 0.06252719997675486 -0.0604605370602796 -0.3037065391543883 0.001981074909451817 -0.2521824772898771 0.10646606161326917 -0.4162603046430249 -0.0335015157103646 0.24292047920784027 -0.1193232970993953 -0.26786371744803317 -0.34249387002489845 0.1160955469035578 -0.32067457980786596 0.3756346442680165 -0.021282670534522884 0.22156213215992449 0.08892572650496813 -0.048442409864812845 0.00654925242946958 ]
[ -0.03711590704297596 0.35584804255106617 -0.1983006528960086 0.09560450136954068 0.26163740476951014 -0.2928416626303737 0.009763225393008055 -0.17672205594555787 -0.07752136683023747 -0.18976918562584127 -0.21558355374147462 0.034496914105469435 -0.2236343927339423 0.1844756839650209 -0.2247833185632248 0.1146489073039793 0.12572185444714679 0.13677713645693912 0.1077433759435699 -0.010099443605977258 ]
[ -0.34427068395901284 0.030213756195631387 -0.09245969650151338 -0.2824902724513702 0.33902413281518023 -0.08339130780287081 0.16910217978997868 0.022037859600056914 0.29196621880298534 -0.25808975963168057 -0.1847009097323852 0.24384307537858474 0.1778942337257401 0.3527275274865362 -0.21232432236024576 0.08244176641647742 0.04782079566176272 0.36441158969394555 -0.08195690502783326 0.20890664932660669 ]
[ -0.03507717450721994 0.04795168364994072 0.1632461744985899 0.11438144187235835 0.04000495559082244 0.07214811742515036 0.17367807265235213 0.05785098021517974 -0.01997667243160885 -0.3208887712839103 0.025644621068303022 0.17736894700423672 -0.005747665497469621 -0.34438387416794075 0.1682606109549644 -0.1338419048490308 0.13008551522191086 -0.07485779572607634 0.32910508438358427 -0.01417461761184525 ]
[ -0.25591944619857154 -0.05902549046475953 -0.25944422345113977 -0.18352354144647418 0.24146019804571742 0.09480606255367074 -0.21258268410405254 -0.270418583947541 0.02114259380431435 0.06933130783308662 -0.25016663611820034 0.31949096082557527 0.3517021828548204 -0.26688219593804 0.30194733782977917 -0.30030308648701404 0.3676857958559073 0.3437304533467877 -0.37136733398030153 -0.10481062887296407 ]
[ 0.10565514938265151 -0.14269822606260169 -0.015416859139128932 -0.11378911485909309 -0.06735974844113225 -0.1867672654948186 0.2799130008430138 -0.26741574820697983 -0.09349939900712216 0.2877489386033113 -0.016017740987966538 0.11605402192616439 0.21601737825001294 0.38810149229776386 0.2440470754333607 -0.1378413202501214 0.22534816809419078 0.07647449942880832 0.14361897517733332 -0.3239892051170076 ]
[ -0.18883991444676795 -0.3014309574237468 0.20808736462891028 -0.01130820237856874 0.22428292203565564 0.24632261605700465 0.10544806401181338 0.13574741892028122 0.1225778200330647 0.1824676598133739 0.046339596296396494 0.29370856828253206 0.08719526432560305 -0.12719303111484476 -0.062054131455409854 -0.19100006282748655 -0.06207573991679068 0.18769718968324728 0.24380312456902206 0.032402286820549055 ]
[ -0.34669477977907326 0.2773563480075816 0.04250854240324774 -0.23340557740229875 0.028426822158498746 0.4058591454464842 -0.192936029128085 -0.13289104735031482 -0.05871269410050349 0.20236973123132607 -0.10231482568484067 -0.23514145959040014 -0.23624362796647216 0.04579087279514832 0.3246221535689351 0.30435643017637365 0.08798659759269817 0.16644413022674107 0.30706813756126067 0.19451260831817918 ]
[ 0.016414776305896082 0.33486932750544285 0.11675151920244986 -0.09661180942865291 -0.15028032285160325 -0.47691964070043735 0.29814544533167187 -0.10905295655598847 0.08333998232933292 0.2244799069070425 -0.29615712573923314 0.1424342686452732 -0.31008097145303964 -0.004593296095473953 0.10610135020095603 -0.08243509388583302 -0.13154557246894333 0.06554883592779433 0.12486820847332013 0.014485116763030988 ]
[ 0.18189422267664282 0.03753556261651998 0.23988745970363778 0.12445482068869437 -0.016068923521502465 -0.21568126050968423 0.17531235503326345 0.20638756896384092 -0.17333429625215382 -0.0030154002836303116 0.3955360336291774 -0.023425143303829915 -0.11851351009038082 0.22674506803089012 -0.2411783005494676 0.2273087552297801 -0.26473577845746415 -0.21375468660488273 0.2289847495521536 0.1404089413913357 ]
[ -0.4189796078997674 -0.37651537316338624 -0.2165051353968761 -0.13794593235653094 0.07121648957229075 0.6756952575854598 -0.33248024037203416 0.0723181424855331 0.10579830015156752 0.07072239672722201 0.3952246749686887 -0.36078704462598227 0.3887381261738433 0.0944319065734883 0.04775431847845996 -0.23770156862918979 0.06726934493394188 -0.3180412531260571 -0.04375915889398989 -0.10653402600300835 ]
[ -0.33387362567662876 -0.1555428338052491 -0.3111385158822514 -0.408040598112778 0.2372891542825964 0.5751284010068622 0.07413348338339726 0.1707233670795708 -0.007632212711414092 -0.05272074444512911 -0.28523054765200273 0.014438994595634538 0.3264840075719798 -0.23712177882160645 -0.13437320945947712 -0.14245607592574394 -0.11680324168407341 0.2582482657862953 -0.2529720378171107 -0.22562955818343775 ]
[ 0.01963712981831965 0.3123926743474166 0.0883116193416005 -0.26157061337858595 -0.23131911142915018 -0.33556174719166293 0.07327048321164481 0.010214906053025833 0.007904375563111587 0.18590226160360446 -0.3024015678541956 0.11661246039722413 0.013463979115590698 0.018149235778235413 -0.18287264006932616 0.08356682298627659 -0.25915881767730997 0.25352532854527654 -0.1686221410063037 0.2830811863749336 ]
[ 0.24965079572663512 0.12632798618487495 0.06555735243416798 -0.13165773422397065 0.20280799054802878 -0.47611652503139396 -0.010473996054991927 0.11176338080126935 -0.4060692952316019 0.08534259098983925 0.15728585814780802 0.05165970717030956 0.22118195202825036 0.24661014743154738 0.22093372683113108 -0.12143964532523786 -0.05455438736032389 0.09803021441510557 0.23701676431133512 -0.03879029498980888 ]
[ 0.006044255590584098 0.20520000311123993 0.06735404178106622 0.07190550933134571 -0.0029490015987714492 0.15246384026461018 0.27137587282576925 0.18092032848072728 -0.029958244538863924 0.05904271036958313 0.11821540332642393 0.05512620353229968 -0.050348573882448594 0.020385071669294152 -0.24034028179480346 0.25934331246655257 -0.20585349008192153 0.06181465772085693 0.16117338061071923 0.09296672660526158 ]
[ -0.047122820614290274 -0.33903629552798115 -0.003787730565492275 0.1554790514157489 0.22441280408578795 -0.06615779160478677 0.0945400675735092 0.059473373860101326 0.171499343493883 -0.13792900749052137 0.38191275286578164 -0.170329359161819 -0.018698204797869426 0.3771221778518283 0.11583209106977384 -0.15149517414055447 -0.13906298334688788 -0.16935869501572653 0.07770224613080663 0.14697928384265352 ]
[ -0.17268084516519958 0.2647840800128892 -0.09120092044661511 -0.09795310556021607 0.04690296338122737 0.26882722300984485 0.01111657071902785 0.2906457100374099 0.14614426579835835 -0.35793450884483907 0.05268236922527238 -0.09892234200693863 0.19643527756957743 -0.1557198556324155 -0.04472674530200956 -0.0727716290877811 0.08099639677511643 0.15620346936106574 0.15137058170319048 0.027605670914780046 ]
[ -0.08311305513760385 -0.28658305774128906 -0.05078414769490971 0.3433303626349077 -0.26521990011201146 -0.16142954032140205 0.036555471042666765 0.09362532613985132 0.20276479606965161 -0.09433790963860751 0.057078651648897895 0.06367424836677048 0.02225032731087563 -0.07206960428213355 -0.06351051265063277 -0.15981264905911427 0.19774378374411167 -0.25696247696395547 -0.27488111698700163 0.05569253671479276 ]
[ 0.21562926365541374 -0.15258871145895614 -0.10123333220949303 -0.1706024998335322 0.09081737797395846 -0.18287547689946887 0.14068814955717776 0.1215238758249822 -0.37437485226546174 -0.13669268330526532 -0.10512278004406388 0.04190611405466546 0.009120937418105957 0.2896400383194612 0.2111306429902911 -0.27637586053819674 -0.13788123153300763 -0.10240184936898773 0.06363228913698656 0.11838283531327035 ]
[ -0.02707121511352196 -0.2350729788156762 0.16370680477241756 -0.024326778941972695 0.11925760334241989 -0.295552611571399 -0.1169751098401886 0.19432426720593604 0.2821338332419046 -0.0019164045303317842 0.004341870127582773 -0.133196096109529 -0.16758982965852956 -0.23434780876773206 0.18588177713316512 0.027972292815836474 0.03896314820987612 0.19034578229927515 0.26530978165154584 0.17399110406073212 ]
[ 0.218393238966943 0.23815006290273408 0.3357128025593831 0.3619699974056832 -0.3128613591404086 -0.40900439815597245 0.2336740157709534 0.1925348861809777 0.09980793865291025 -0.2158020399908396 -0.2730521551520445 0.3325238242902987 -0.3580464113458213 0.0020990941399318614 -0.018336169268161645 0.04598615335224362 0.3576600530476304 -0.01508134363984981 -0.07211954133428074 -0.2534633944848593 ]
[ 0.15413578653851373 -0.08531586993221175 -0.14088060175050734 -0.17128846815578053 0.25085436278347706 0.060237873535879775 -0.34713270168817195 0.16976751762047226 0.2780170664287941 -0.012836083689416428 0.23768621281513136 -0.08602016561779603 0.1134644335707267 0.2523717326591345 0.0013526257056687666 0.2399665194329921 0.014372301596903728 0.02950914507594987 -0.14463339968172073 0.22733947799358542 ]
[ -0.0004451057727620116 -0.1269494044992149 0.06563854181785099 -0.007863992667996282 -0.0007175659982154498 -0.4203563630968633 0.04218419649189729 0.1520341416159927 -0.16802681499695438 0.0017204019165426192 0.296483858779217 0.12680071139279936 -0.02506527070983629 -0.05844415771206021 0.0007156056875263572 -0.0042763164704429 -0.0206773828134721 -0.12700283934326312 0.03894503464944374 -0.06538131433500906 ]
layer 5 Activation
tanh
layer 6 Dense
20 1
[ 0.3513614515132721 ]
[ 0.16394647261651485 ]
[ 0.32369890502334814 ]
[ 0.1807616028837212 ]
[ 0.2625044745671066 ]
[ 0.15759291789298355 ]
[ 0.27124545360354846 ]
[ -0.02628240528589658 ]
[ 0.01523195980071662 ]
[ 0.00465601556656081 ]
[ -0.055353853524501145 ]
[ -0.30909451638821045 ]
[ -0.2109580016680272 ]
[ 0.12465524430839368 ]
[ -0.19370388784006218 ]
[ -0.27473475732176716 ]
[ 0.35416757210066574 ]
[ 0.2520323359211245 ]
[ -0.24439963518370972 ]
[ -0.0011533570864380206 ]
[ -0.06684124104008184 ]
