layers 7
layer 0 Dense
20 20
[ 0.06769478502991004 -0.2229453422665927 -0.12106277743233809 0.15668267233692526 0.270137603640496 0.41746195054284085 0.007473310096627964 -0.06214451010965425 -0.13379507200214136 -0.33850384398247746 0.20763031269719506 -0.303003194258859 0.4850966998446608 0.1231099907308748 -0.014453718681228116 -0.15681110065364345 -0.10685888667737228 0.6405690064207322 0.16278661760611995 0.013742331267260793 ]
[ 0.239439866919738 0.20105748911889618 -0.06347099064786908 0.24485246006392838 0.33500628531403137 0.06352391878607828 0.16547981299428813 0.09258949803967645 0.018403398945128144 -0.25833188520698036 0.23113037272889256 -0.33722096423357933 0.3719228633030208 0.3157859730989771 -0.34246747624758134 0.3776464614863125 -0.024819139049291724 0.2688211968593021 -0.3151636623648714 -0.2658764066055366 ]
[ 0.003937258528027106 -0.0893326851348577 -0.15752942911998716 0.36150963376478784 -0.18393387762423347 0.37642701496506853 0.061249204847813286 0.3862284927172768 -0.3366129095192411 0.3564012663658629 -0.2990961955336124 0.22813188701977605 -0.07542005923103783 0.07663906520480009 0.35071128185391326 0.022664515099947068 0.3305317434437779 -0.12573874708940844 0.32170849510711064 -0.36404357595507 ]
[ 0.07550616339815254 0.2236905600213314 -0.06983662997691226 -0.06996052387910949 0.1086713576344344 0.12244803620198291 0.1317133469646045 0.15639652296420828 0.13406974194766083 -0.11835452789684629 0.2307917691132316 0.05113338603691675 0.3656075733766024 -0.1838545818284461 0.12342362560930294 0.3057130336543123 0.08745011460895821 0.21149785990730394 -0.09203113392847359 -0.12966382281131816 ]
[ -0.8325173264377131 0.10930609179472475 -0.2826526112680209 0.5355263277536341 0.13406768547105224 -0.18426091815904394 0.2179574579280089 0.16343965995342105 0.06739286343326079 -0.6462135716832581 0.3889673630633209 0.2671957675370367 0.2525308072202327 -0.5951293360836298 -0.4059948675927599 -0.46978622588457236 -0.18456936574628727 0.7869740202447362 0.4750801878659156 0.0085050349704885 ]
[ 0.05489649545558806 -0.2863756852437646 -0.016631676428593728 0.16620534856333294 0.26892631587833055 0.22787757431445563 0.029141561262912504 -0.3553012957928153 0.3569541750104788 0.3318611219399926 0.1268311345929035 -0.19146297730732367 -0.0441187972267488 -0.01326589428657916 0.222911337939409 -0.0860234236988657 0.11184427128109048 -0.02617703618380949 -0.025784060240736838 0.08413822715364613 ]
[ -0.011945897929843659 -0.14332303155352832 0.3429970978797002 0.2066039097971435 0.31256744868734826 0.04987936216374985 0.09221177407028144 0.12548901688838532 0.07331976299600919 -0.03558509001121103 -0.1163756977694267 0.19630871291698726 -0.2298044355205022 -0.3059658758654602 0.09272908071978835 0.09585509796475093 0.10791284662084613 0.3435638886208638 0.3021950986313535 -0.14192589347377912 ]
[ 0.5435559273654134 0.31465444828681766 -0.28041216202602814 -0.07603875810215326 0.3270784548356454 0.14049537165056458 -0.02683762687868692 -0.358590957550416 -0.0010760025940700212 0.37041052493150695 -0.16232888473792326 -0.08959810489754505 -0.16016602881634892 -0.3888277695226229 -0.23211038707154782 -0.2280192736850308 -0.33777608813579474 -0.3199300046808765 0.03395564069083217 0.17425522022737838 ]
[ -0.12162963149491149 -0.2868889913464901 0.5713530943354173 0.3058678600552031 -0.2779260310074571 0.2581419104288513 0.12948113106240305 -0.2619650202607615 -0.0382944402851101 0.41346044659369724 0.4176862383311812 -0.06722113842275587 0.12010695049314124 -0.23797827544140926 0.03067107624180667 -0.39994606773448377 0.43179744906152207 0.3458334632653841 0.27396677032314026 -0.42258243506866816 ]
[ 0.07725168998965418 0.4795097662814798 -0.6085622315217826 0.2912504857739906 0.5342971774150939 -0.13032535447871946 0.9021212530565371 0.42226827486495944 0.03601442581459631 0.13067129563228538 0.5194470308789582 0.35062046721783624 -0.23786444578777802 -0.2770409127204455 0.06525866893103897 0.7732721585186428 -0.44497448484421787 -0.048886390231242895 -0.0018609647929323906 -0.3735706837528377 ]
[ -0.013715673555375996 0.19580507282728757 -0.19790597504677188 0.1720758188279017 -0.4242312999633849 0.039679881759439324 -0.6922419916133256 -0.19761067248433628 1.0271737710997917 0.6528097384424235 0.4456307312475014 0.2079601658883553 -0.08143711187521979 0.5785379034813171 -0.5272520025928987 0.5424065113289342 -0.10092581261482218 0.031126158236613865 0.36852343801529647 -0.9659280393865706 ]
[ -0.9096275210666822 0.5167913497584232 -0.44287337816684147 -0.558161916229773 0.09658164174303925 0.5176461942624228 0.7414038907694385 -0.11046597928046965 0.18683803113502928 -0.961366352471802 0.40420776770150707 0.40301512977115167 0.14622828234922855 0.3784381981345487 -0.14348672127953926 -0.13135805039355297 -0.2736713174422673 -0.7390571158933692 -0.12867649908305648 0.13121476661884063 ]
[ -0.08442194131611488 0.007846016193074214 0.13538403973734597 0.43767849120567043 -0.5072145686241312 -0.26716721512376274 0.15642577517504666 -0.4046392618842085 0.1943382265486094 -0.10369626231526258 0.187511250012592 -0.2540731929199033 -0.04231174697632593 -0.447513338026376 -0.40257999894906116 -0.5324174866415082 0.3314257391591955 0.31687865598520265 -0.049368216361869735 0.25227755119562406 ]
[ -0.3838985704318334 -0.4416986825891688 0.44559531212629694 -0.61512372430973 -0.37171681333104917 -0.20074514487599648 -0.21840417206076604 -0.3388971114597233 0.4557453021837856 -0.2793833835328424 -0.33306695201421077 -0.080943148386725 -0.30690627129371556 0.14264381246316873 -0.8041473668075227 -0.8252129559716552 0.6186860309550886 -0.33792833757289353 -0.421726822054199 0.20357562986533304 ]
[ 0.27773500673260065 -0.40656886631275974 0.9362665394293336 -0.20416060133342642 0.20890397260494228 -0.3827113956632187 0.2151313890873382 0.758860508559107 -0.33985764385271083 -0.7054399765345883 0.6283201382420286 -0.6790167980683314 0.026809016300414823 -1.0181282229165338 0.590397908754774 -0.372288442174705 -0.5097228205467762 0.26063003782964955 -0.2456037359937436 0.5280638699036492 ]
[ -0.6121204815759891 0.3502105821418011 -0.2514157596365645 -0.2585033517801271 0.17930938520420325 -0.11714637816081404 -0.3770205741607988 0.32745801407227904 0.13553811035652555 -0.9353763228271179 0.36912488282426575 0.24124974634347904 -0.05823209155257374 0.6393719226910426 -0.466163044843828 0.24804277573020764 -0.33966880724693427 -1.1024722653111516 -0.1820270241718411 0.11432734327779347 ]
[ -0.8798724818721582 -0.17969451920929985 -0.11600547971193921 -0.534348424325557 0.29044422840571954 -0.24622211207391656 -0.4384308307914427 0.19170130069960764 -0.48407994589648595 -0.9287176106067401 0.12882360635825227 0.280945240945658 -0.6095876151210827 0.6047893546419204 0.4402933988580816 -0.09490837756618076 -0.16684920252740656 0.32275362127631174 0.19721391320164716 0.03991538156573816 ]
[ 0.002741343683735471 0.02410965761669114 -0.12041531046734133 0.05188205503227436 -0.15931637105927776 -0.029213586995337437 -0.5424601952992143 0.28960504705998036 -0.21779544769112963 -0.09248208078507189 -0.2070303981667078 0.20309218460703582 0.2591936081261751 -0.22587592023196967 0.011061377228718028 0.3521924051984831 0.32229403174145943 -0.35005135640259466 -0.114137568159837 0.29612140791723646 ]
[ -0.16236405345231159 -0.27970762089220785 0.0023005083630886548 0.06939598926810624 0.2999384098946376 -0.15036776036640484 0.33780982655984865 0.26733337735544976 0.41369006655239604 0.44705286040814235 -0.46236751655423663 0.1823166606612185 0.11974871162422888 -0.1470213680220899 -0.3146630019439441 -0.138681223940198 0.20478491486042644 0.205380428627967 -0.020577427558034878 0.5504213492756471 ]
[ 1.2214479820909734 -0.4863144734395494 0.7042298764607842 0.4136045836648634 0.16416784365434037 -0.07208499893891572 -0.7282707996784609 -0.2754907103312512 -0.07802766265423822 0.6850700266469463 -0.0030787519277720595 -0.009775544809826725 -0.2796171446319695 -0.021655429291703433 0.3526595106315382 -0.12717292541238884 -0.14383901103151125 0.5039371008335238 0.09348585850290464 0.40999247795633276 ]
[ -0.12191398703612921 0.016942937674131738 0.001890785713063234 0.005462320747203575 0.013130027617675592 0.0758543669867607 -0.08503803229470058 0.10765420281838521 0.18806993376303688 0.06805941783824852 -0.021176643639992186 0.018024251578876747 0.10914329736463595 0.09882934712952537 -0.13126648832852686 0.028383235048610497 0.020905175786374894 -0.06937392364542987 -0.0628745674271213 -0.1816283644326301 ]
layer 1 Activation
tanh
layer 2 Dense
20 40
[ 0.24458090670024457 -0.18471027168948204 -0.575233955783745 0.21644462844796597 0.13839718277233748 0.39655926858833823 0.11338772011825436 0.31864175581058946 0.2995395936059071 -0.008113011793658866 -0.36732212179769985 -0.2474341339091913 -0.29011619912624925 -0.43140119779450725 -0.09743385519417011 0.08077483455146758 -0.5455107481200571 0.269363167558266 0.05407860324749005 -0.09232264998775876 -0.43227684721530957 0.11594168062539931 0.20413223858592205 -0.20082318226201248 0.02784592945801448 0.16079499625012675 -0.019821290588162774 0.09712972772864963 0.2501596018606991 -0.5499451176534663 -0.07995223875956393 -0.15812597128195793 0.313796398148551 0.530884770688763 -0.040771691880826105 -0.21887417325171213 0.15035468086855241 0.04896566007301576 -0.03859942028218661 0.19598027682587374 ]
[ -0.26166069167308115 -0.07745152076878478 -0.04105706606743296 0.0584033214103405 0.0026948445717906704 -0.25320556425888757 0.17077486309666662 -0.13958820108993433 -0.05024479671068983 -0.10850899576399284 0.10196489108492748 0.08140989995374452 -0.10672279215079818 0.3401037343508984 -0.002979067095537292 0.13626651357954633 -0.3821151203229248 0.40041443521904324 0.26145424341890605 0.01671214726508743 0.373405654712684 0.059044698078764044 -0.5053424802306493 -0.09231602213872402 0.030924996452468906 0.23350714459449148 -0.12940011622440606 -0.2375288927336118 0.3124637429467256 -0.39480361919838436 -0.22903432801318258 -0.23032255870955637 -0.004352444741687948 -0.21003400285786475 -0.1951533064719053 0.2200250243845999 -0.015445774665243231 -0.00048058064571638665 -0.08338634309085834 -0.21908380151636525 ]
[ 0.36081441631248223 -0.07679904543309304 0.24347668939598932 -0.3144936768040986 0.5166414633025468 0.021641464846373144 0.1440901498025029 -0.012340366774042467 -0.15215055876530664 -0.1611431615179809 -0.35404626992578725 0.00996755251818713 -0.2793271618502317 -0.12096838820053775 -0.08789640905210365 -0.12282372913385095 0.33607415850533284 0.05709631521001127 0.06599119197027661 -0.05731231643610128 -0.19872809626319038 -0.08606626686369354 0.357683339858668 0.2621047515031288 0.03728126705438948 0.2369477621836257 -0.09514211967131214 -0.12712421581000147 -0.20604946629988585 -0.18432037563584105 0.0956289525305011 0.19102616386033222 0.14013393298329943 -0.06732681134918378 -0.4266109407859625 0.24263595362860096 0.369547793723738 -0.1357682238003904 -0.20244950151383437 0.5277912937590933 ]
[ -0.3499026432958076 0.09388910510493284 -0.7103364059137924 -0.03061386378311602 -0.26704685820704377 0.1812946827450856 0.36805420759755564 0.24833506162008406 0.10858227452857785 -0.41296509617363236 0.03245268333516103 0.07258569581875257 0.07287972236142999 0.42412133429027304 0.25877082055282313 0.31451290223138834 -0.43978126453616284 0.42405928364814915 -0.2690846275899222 -0.18258413690450542 0.21573339301682176 -0.19074352586229154 0.1639650366435907 -0.40919136156765973 -0.16882818218796597 -0.43812970956855785 -0.3853456272258037 -0.07267934540997911 0.3140406897538286 -0.3590612679347643 -0.30709014987800315 -0.771302385383343 0.39880047427500936 0.7249928247098588 0.056229241326823526 0.07179458434488759 -0.3116260623346801 -0.4604933825667302 0.05122890096051362 -0.2968566493695776 ]
[ -0.1341774394905581 -0.005814180766498143 -0.12028209876063914 -0.18519723248210343 0.15021686060696013 0.26009038100021364 -0.17518363400720902 -0.14130403738776356 0.09490419857273025 -0.311114663383029 0.1704040816133139 -0.15101379554174532 -0.15949082507557982 -0.16529305303100275 -0.060580585487813934 0.07054063974236895 -0.27799099003345645 0.04456752707692734 0.12230476763330975 -0.10934587971687038 -0.2336408625153845 0.1320046009480232 -0.6866111783225143 0.09621675241288676 0.23119370662735542 0.2780709588517848 0.4074576092268972 -0.10734994313015377 -0.1318858040312544 0.1251499009539686 -0.3363145359225908 0.08965561444683569 0.16534413892043903 -0.19566764468990985 -0.19468332696479707 -0.27759710463276843 0.5432371056584273 -0.3804563348913009 0.08291440527573035 -0.02007562330673238 ]
[ -0.20721332622900135 0.0020823422044934413 -0.23452814944072056 -0.17451630576544455 0.18742041921271224 0.06312193157984217 0.06051520355328687 -0.06169315132578569 -0.11313687145655564 0.28361583233141335 -0.07960077998380306 0.10575562977933903 -0.15606092754303547 -0.37549649164972476 0.11655183371631446 0.23950065975334578 0.04744790430984783 -0.21369884535318598 0.27019475806692633 0.13853615405479253 0.08668577825039817 0.012620435784865996 -0.008094434249850546 0.039177961777287884 -0.09262877555950796 -0.08727948296677344 0.03892491864350136 0.003233363346058001 0.01088642388381112 -0.16514303683136874 0.019371757342098506 -0.12252175316897891 0.06676556163411496 0.06547143501027602 -0.19457038383319536 0.30646176558465466 -0.05291517593819574 0.1201384596235697 0.38657692351126066 -0.22587036821325826 ]
[ -0.054198875201240726 -0.3433521147551726 -0.12313348981056185 0.21750331735442976 0.35052741762466305 0.21134776450026121 0.44317493957446535 0.15828169457761496 -0.26702484043466196 -0.28571367715406193 -0.2424192483411091 -0.19710232135999656 0.21327245413664758 -0.04440414801579527 0.12376955983963113 0.1291760920724241 -0.5380527785925205 -0.11251052290585825 0.21260774713400768 -0.13034954578357366 0.08671387443417632 -0.41705378094453327 -0.5525395533333897 0.22701038290320144 0.04021868075677356 0.132495785651254 0.29039642011117933 -0.14434594498201414 -0.2213980070073839 0.40717725095576074 -0.2967094030484926 -0.021029542841928445 0.5115384149501156 0.03285435092204142 -0.13332717157981017 -0.2720511538702613 -0.2195984604495657 -0.4319919082459218 0.2225986695414808 -0.2719909169776655 ]
[ -0.24906205070263968 0.1284280678241798 0.012640411408098204 0.10904426858289744 0.13735809947439886 -0.04346414833156807 0.28982720286964286 0.26835284493003586 -0.31275889327839146 0.27315975495942896 -0.0410369604610834 -0.16661709416899576 0.2515547116852419 -0.287643087813432 0.1710766067503703 -0.17723433027490212 -0.05080329531880423 0.40201284694701905 0.4239000800906923 -0.10718172828711793 0.08523783359905424 0.10299858778719471 -0.00847044813329587 0.09139697865633926 0.11543131112965647 -0.17169764013381114 0.12664452474701526 0.23909588728965914 0.10938369929251714 0.335193263593816 -0.1675438419095283 0.2745214836511569 0.17545843237207384 0.04623762789803996 -0.08482598752495103 0.18735884165536706 0.031567288614883136 -0.09426283207594542 0.07384095622139603 -0.0426348458849527 ]
[ -0.1080226276460105 0.05655467566187143 0.050533316739042086 -0.1586180058370954 -0.3037379649345698 -0.13585633719574855 0.053871118643117485 -0.3844260388754762 0.32857078002362394 0.370149555715369 0.07918866660845596 -0.04617590101739262 -0.17866076808710113 0.10581708319523195 -0.26294624939400196 0.2625323371147296 -0.13954864342714748 0.14480748617405564 -0.5103506604299883 -0.23813282551713086 -0.10662176549551737 0.23747019064049021 0.33225837455537904 -0.14731974650724539 0.13152112802949498 -0.057964782339068835 -0.4709216713918353 0.15102096558502123 -0.24318425676056782 -0.2371098293487346 0.09600176283728061 0.1139163312753486 -0.13365635437960507 -0.2601124409216017 -0.11167788331473708 0.05365776079652671 -0.1841238098456293 -0.1560477853444202 -0.09383729685718198 -0.23812027949182898 ]
[ 0.15548271625453927 0.0212911976368539 -0.23304688180348287 0.2554455353879127 0.1887791394264732 0.1339879100055967 0.21804496746818286 0.046767067062607734 0.18995711633986634 -0.07811848689060676 0.5931038065207587 0.23904646652126407 -0.2505829590738566 0.39603721735770314 -0.0024466349537585713 0.5365304738137486 -0.6365572946826512 -0.12887755900690717 -0.12664108967755316 0.3952848405873002 -0.057241903621636094 -0.17815360730782961 -0.35179162955165433 -0.10045875170396767 0.1443451988787226 -0.22036276204843802 -0.4339843138485743 0.08085460673492968 -0.05445531532088733 -0.5545064791618541 0.14948368805070406 -0.49983291977269245 0.2665493925957679 0.10660154272267978 0.223221034109829 -0.09693536739641773 0.19013317631870766 0.08401948250400339 -0.3114813830693593 -0.016870737569614342 ]
[ -0.08341708540851753 0.12813580151060308 -0.342457581810752 0.18589943182998914 -0.004969965324231157 0.14297481602672488 0.09803181305372989 0.2839106475544347 -0.2481078493274782 -0.21780375823622186 -0.055589378944704324 0.11952937548685034 0.341225752471002 0.41739478112624057 -0.04850503554070896 -0.03724335628324891 -0.18635966321449834 0.11244668361779694 0.1512515714903687 -0.3090285984181033 0.2761762091879528 -0.2432599413540889 -0.3129944511787173 -0.25002792388764156 -0.168510686966918 -0.1815693927802991 -0.19830569639743267 -0.03305390723872347 0.38225747461222664 0.32906980307667244 -0.17775936103017123 -0.6005807727808002 0.05380135165896125 0.08650006061303071 -0.2672070278934375 -0.042547924654707095 0.031324995860967916 0.1750737679317211 -0.06975299925169896 0.10739931170751713 ]
[ -0.18453066557844658 -0.183671730487322 -0.5328927811038545 -0.1274415476889669 -0.01214446678074914 0.2373264669444311 -0.27843958892740617 -0.19398513672129095 0.43517711666405723 0.3929705903878848 0.5192312160280967 -0.0032271823751431478 -0.23322054107572132 0.24990874112167427 0.24711154983961284 0.012491187291794622 -0.0656145747195824 0.1993211449726665 -0.05869388301104145 0.1274935293212194 0.1276310717138712 0.13692789126245106 -0.06979168625453525 0.08909810492582977 -0.09467786645468447 0.022206999887778113 0.2510613146239094 0.2838523615913851 0.33182214090911993 0.2887299208468676 -0.009200871275075746 0.1539783943292106 0.1289253946378538 0.283253817356449 0.2260142013665178 -0.2850078956906125 -0.3353843634800176 0.16570605305505087 -0.2718163026973622 -0.21883532861567684 ]
[ 0.338746228776075 0.14649255940670483 -0.29515987508818453 -0.018746062082600608 0.06685952459323974 0.44315660568459964 0.2176785490591154 0.024425432062976087 0.21651085178785603 0.39842497487605444 0.14634390983605317 0.23110139326655796 0.3257703427353546 0.08437754666246886 0.3569519572248282 0.16831047156934761 -0.4962636204306836 0.12235781710810137 -0.0057351381632404835 0.10855947216951548 -0.11340213708255376 -0.38237788638753395 0.058013962087021885 -0.10700576550258756 -0.3240099277588037 0.07581287840655875 0.12402562968764018 -0.3339379594457562 0.1723325311073799 0.17369494062345936 0.40703682557831644 0.11748070465679514 -0.022259161909867386 0.3084645209763642 0.15357591891185676 -0.1790359099163495 0.021180686311918526 -0.3403438779100817 -0.08551603328337459 -0.18542355351427994 ]
[ -0.31025167009747207 0.0415624400434249 0.27279075216872123 0.0680726515436263 -0.4867086519178408 -0.26388966941376524 -0.1044675658722904 -0.5630160377825455 0.27156373188947636 -0.0958701287426888 0.08450387916869237 0.007944411586194858 0.500836010387952 0.4072309914964669 -0.04176350550684971 0.10045546131574078 0.452985396228421 0.11815721383372775 -0.3213006979334237 0.2602462331333802 0.2814454843048019 0.39119200208137894 0.21468044303059228 -0.14581611994253263 0.4158339820796977 0.0723722753552497 -0.2755477330288724 -0.0718535206386696 0.07496090118938774 0.30167536724813326 -0.16567349232930745 0.07126391560190982 -0.30529301039637086 -0.5566483230522149 0.28272396166950353 -0.13926761686824693 -0.09140353226309016 0.1421400531687788 -0.2892322028053883 -0.7098911014879608 ]
[ 0.15665173907153693 -0.29561553571774213 0.043924985930878874 -0.03895044281322281 0.054158945280236265 -0.05282019914414222 0.03966188135286698 0.16740782594722517 0.06494470809415802 0.06699931664430028 -0.061291506479554045 0.11193253714203245 0.2768047647963484 -0.04820268290904683 -0.09089007735182086 0.10737309982498952 0.1552030897926796 0.16280231077870383 0.5915865804790921 0.275277733735995 -0.19487113695699157 -0.018487093036132565 -0.005190416906708233 0.037135647044659534 0.055034112019225805 0.3726488710257404 0.18052648865350326 0.05397391934730655 -0.04046653944878178 -0.16730206852789076 -0.019776442035163322 0.19548844778314992 0.011522694329186735 0.6956948958862612 -0.12568221389408152 0.0014262048202860187 0.056108173212194176 0.09072482000028531 0.027737054184895207 -0.37124711560359236 ]
[ -0.30674819158051514 0.15452875599999125 0.3514228633624687 0.25712399944062453 -0.35683563595248113 -0.2655152107722321 -0.1993714403068949 -0.08494720778430008 -0.3085655018005841 0.08426737013016591 0.022605522253663968 -0.23436223718621277 0.10300188427900592 0.07649957688807456 0.25230767517573505 -0.15006884389947678 0.2681808817896959 0.4289541483690123 0.5988942981306683 -0.02269733038513719 0.28843865758459053 0.287250948072238 0.09795631222917632 0.026861980687614792 -0.09804871569272022 -0.12631799156370915 0.3120953114213202 -0.28228527537546744 0.018848617667014903 -0.010676046844636907 -0.03205971736464805 -0.21823594258336326 0.23166588865807117 0.6476032396890639 -0.28941528579672754 -0.1634379213188127 -0.17799685524865036 -0.0044331131180193216 -0.0753547448262018 -0.5720840260153206 ]
[ -0.07742924013339444 -0.04358364187264836 -0.40055092847619594 0.11042140600258642 0.07444324062515495 0.2908111850484231 -0.048255446848840346 0.20387321680952725 0.3967510616575019 0.2501273969991308 0.20953185797566223 -0.07333062090893919 0.2214953034209055 -0.254967053726237 -0.2728571676012406 0.19086792726274557 0.20319787077598786 0.13694469823903757 -0.09518729319826523 0.12229474996607771 0.23570219101588524 0.24155349603105108 0.21215774396810178 0.0020500097332929582 -0.04415820050327456 -0.01800238182460603 -0.2498773726948053 0.08349775316958576 -0.16996371890198714 -0.21952232818093917 0.23410627461755376 0.32087452085781837 0.07805268545301255 -0.1323000076889581 -0.19704944401018681 0.3410243138204684 0.3493847877858405 0.2746829077847435 0.1762025599941928 0.23893560530118524 ]
[ 0.407253959444273 -0.27230003885725196 -0.48010341190779965 -0.06260273066249782 0.1761137226312881 0.1490598079328465 0.48100984111393136 0.29855059403466455 0.40151788963563945 -0.16794901079123228 0.3686343955120302 -0.308813186927496 0.3309851752722737 0.16131760145000099 -0.1922666370416441 0.09747197990721529 -0.24445179914196316 0.07901930339997405 -0.15480825310352825 -0.24657121520694053 -0.34614465444994486 -0.028237179414626674 0.5031217270672751 0.11543320301854727 -0.31384929301368386 0.17304082560085476 0.06328043530389277 0.19328916423349732 -0.0292953424221505 0.42613722345085725 0.020731941688685678 -0.3293562520457016 0.2648797050736878 0.34562653052849446 -0.05442818189833408 0.02414383265521798 0.039208601792370706 0.21759779745395505 -0.16458232109996204 -0.3583406431628632 ]
[ -0.10359491729720682 0.14808700241478645 -0.2901745735920887 0.27642513424953546 -0.1451106142987382 -0.08799259236046249 -0.19057088883728643 0.14029637431817596 -0.2886547584321597 -0.12350470432332157 0.2534885618005217 -0.20748620338392218 -0.2543709602815879 -0.09012744229212077 0.11206200873885554 0.2131978518145301 -0.285833381892784 0.03895834991867141 -0.2311875647452844 -0.3028683765895354 -0.05992020126308715 0.03459117070101137 0.11025724842361963 0.06420485766251283 0.17322552346640327 0.21239185995473825 -0.35726045251690447 -0.14313684554639156 0.3059966283662741 -0.0017337707292979661 -0.18534332915058443 0.07894315892416572 -0.015308598403797884 0.0934556850231851 0.09560920244718006 0.1753663613305326 -0.031697227518969064 -0.037076493045564374 -0.1649235011999668 -0.17987619185282835 ]
[ 0.030986888391216168 0.03943858189014716 0.1536184885360789 0.0451624171178625 0.24717220916099286 0.008240633976689485 -0.14349267647025604 -0.17840271168683627 0.12497224085011105 -0.013464159021306609 -0.21653231149401117 0.28827421252017055 0.2569273791605989 -0.5633818936865359 0.16707036188875893 0.10575712208180814 -0.13175558509064178 0.13808383795848186 0.08280176536925647 0.3572003956677638 -0.24221347740055937 -0.15768772610076273 0.2869695891985354 0.227175734038378 -0.08342758359151768 -0.18476682314102882 0.4708484812014686 -0.14245292986854438 -0.4737225717670398 0.249750962075266 0.2858665298151886 0.5038393086241227 0.08107501711716783 0.36680398296201877 -0.10759614398849832 -0.2568240946446672 0.2637804806596231 0.06515067578378236 0.30856107405502525 0.49954269845441146 ]
[ 0.09564913562770967 0.014593572326836125 0.1561959361577203 -0.032086282785955544 -0.12752882049304487 0.09137696094119993 0.09417424838080614 0.008709960548144694 0.10576564883230662 0.06898281200982953 0.0807060466154018 -0.003257730297686998 0.2526674321251382 -0.17625718814854122 0.10748650259116635 -0.016756045664182834 0.0656335360375986 0.22688700713463641 0.1514235110623951 0.01206796160848145 -0.03229924830576196 -0.06759931137310951 0.21045451770123597 0.20562456043698885 -0.1502453229414805 -0.011834405999938022 0.06817290989738099 0.0004496749763246158 -0.07192528400784434 -0.08707062856976668 0.048502004204163916 -0.011532809264340292 0.0542790254142689 0.06165073831977675 0.0720643769185434 0.038115893102995006 0.10858820840796886 -0.09132833016588415 0.18674163789630213 -0.1360893685627334 ]
layer 3 Activation
tanh
layer 4 Dense
40 20
[ 0.03224500783481157 0.16368333192252615 0.32436932974426763 -0.09593274140846984 -0.027420451447716154 -0.3872527670859956 -0.23640237898365388 -0.24095754708242506 -0.376078675135947 0.2952476725630281 -0.14382105680726057 0.21099081297469557 -0.02355103358284727 0.1169273457960285 0.20198237715372822 0.2969222505788684 -0.3002499459800874 -0.12126765121941878 -0.2218500008527469 -0.21469579713737294 ]
[ -0.05174186407440929 -0.13844243576505877 -0.15155086590780828 -0.29528977515442095 0.09080979795789736 0.3374874742896687 0.22761669065248305 0.20356774822742216 0.21996329568534936 0.15869980619805502 0.17717931403655363 0.2143395685365385 0.0914405988470258 0.10468425174548969 0.13291650154774765 -0.012238222745675363 0.1615736112513515 -0.07667770320497368 -0.10147904275272772 0.21238215314221556 ]
[ -0.14188986361803707 -0.07460875960198331 0.3014105274206131 -0.12717244870732117 0.10102788873048446 -0.0429605705329751 0.2912022699059147 -0.028690410945271052 -0.1870384918641481 -0.19792526690238307 -0.2716793117812409 0.07662645785758024 0.2894904813766489 0.2099886434678594 -0.27166414700340874 -0.17802931673139005 -0.07337088082126052 0.17684347101942824 -0.2775336793456794 0.1369789348135937 ]
[ 0.058329216673294396 0.1084725774671608 -0.2321149189828028 0.21803651249321082 -0.19395925623111762 -0.11514550061848125 -0.23510510671464518 0.18987721222055903 0.12744570689083892 -0.13853409061201732 -0.028595290465917845 -0.2657388461036384 -0.2781446615651664 -0.05004769308512649 0.030221948428961695 0.15403243219456397 -0.08759558316106854 -0.19312456469823283 0.02057570997449617 -0.23357093956045588 ]
[ -0.10241728307203643 -0.08290116912255976 0.09256453888393347 0.007659365533065368 0.08386011434308893 -0.21428495831886343 -0.26703765910502264 -0.02191448795726566 -0.03313588148467817 -0.2472987681189411 -0.23804185854930135 0.3027197797903528 -0.1831449547849093 0.30878360621249706 0.03341767472026007 -0.22809334510162768 0.19776141957016466 0.13245140521869972 0.2139426024154822 -0.36040727393613 ]
[ 0.02303235336874322 0.04458990927314782 0.3134243306870943 -0.26207435289038955 0.02783833402147411 -0.33092872545462926 -0.4109404464156689 0.1252586257859124 -0.15057848532461054 0.4337531996865494 0.20190272003111867 0.05058071319560917 -0.2563083416387843 0.3254332251160226 0.040136546323511164 -0.06905272224684103 0.1902870276069115 0.1613144794664419 0.0928732422907989 0.059842434801946405 ]
[ 0.032994464949481335 -0.0008838747799109806 0.14391904464072644 -0.03750245370280381 -0.17527251750288636 0.2164992975933482 0.05141915871087729 -0.38917486611483987 -0.343510970618293 0.28084829918818355 0.21533397585515113 0.18791921947044374 -0.2620059230302808 0.05308682165064984 -0.03968424662602748 -0.12737892868855172 -0.13835707053961718 -0.2552887744052896 0.06923665761453725 -0.1538273170382885 ]
[ -0.026475614906764353 0.3025719127813582 0.11388576042203132 -0.15980744554506138 -0.13234674544724606 -0.025465844800205344 -0.23903155310732205 -0.11113051936066333 0.003447937949717065 0.27420501999766156 0.15458622319839055 0.2827370992126202 -0.20004851350202044 -0.2596889614525746 -0.264639603748606 -0.25171067255475754 0.24020712984500645 0.2181657906889331 0.005120621925933713 -0.34619477340010124 ]
[ -0.21442282109595687 -0.2027461181764291 -0.17864601481892942 0.14511230884918644 0.17471574357916073 -0.3893728471728737 -0.11823663772908807 0.20028837603831856 -0.2518580533397104 0.18817071444996689 -0.3992398061274489 0.22474436631335487 0.025764312854996977 -0.1125915814997286 0.12915403467800549 -0.05315898776315802 0.06935957821815604 -0.05083539436378797 -0.004401552258380551 0.25556666515245124 ]
[ 0.12770837821756376 -0.5014451185906138 0.09037588088629889 0.1312416124614952 0.010372247221268923 0.22579133667209625 0.3103847393031751 0.3509464733509127 -0.12408845026358467 0.3063806594307745 -0.187101832609588 0.03515243627151495 -0.09828518057639343 -0.2105897852583801 0.13766693545674374 -0.14974474641069327 0.04560061330276111 0.11656895894042839 -0.09803009579937041 0.3270228277840342 ]
[ 0.20723561303889568 -0.30521130086750253 -0.19130357545500748 -0.22562059705510418 0.1318800465578952 0.19151624802170444 -0.17366763714345443 0.42407059325527807 -0.25157051263336916 0.010269965150742431 -0.11684717471822498 0.04491908823743916 -0.28942114806561275 0.21177264103213392 -0.15969558586559668 -0.15910223067363996 0.07711995833623807 0.029498738047848576 -0.23003087518082965 0.2804427251812532 ]
[ -0.020193248019374922 0.13265110994136445 -0.04784242489351987 0.22799619651954472 -0.029187231607556232 -0.3029049251764486 0.02530780486550318 0.2851430684399082 0.255325571369381 0.13005964532498002 0.13371327797432608 -0.1647023099747211 0.2823916485464735 -0.09877998041626637 0.12252926542743696 0.20957106582616147 0.07024468743593418 0.1401147511156203 0.11047757855188657 -0.27852169761725076 ]
[ -0.1704688591144458 -0.29512966245760097 0.19001083007529646 -0.02886439127374091 0.08314290347584673 0.0772497701551811 0.4209768352297572 0.09428596142174567 -0.040191097598991955 0.39835792590988006 0.03770967459575123 0.25435060420486705 -0.0702667173618076 -0.1155910592312177 -0.18392176660291662 -0.16382283508238188 0.22785699604650841 -0.28757730418118926 -0.01700139085560864 0.22771493903770493 ]
[ 0.2794342274804806 0.042521112365511544 -0.22889324098719657 -0.24068818700107852 -0.026233662989901572 0.21873062066913415 -0.13089385353326097 -0.12056241162546871 -0.08626533849106174 -0.22939713919070767 0.046433940451557985 -0.05625075704913781 0.0021447546701236684 -0.18953173224010236 -0.0077594234856066925 -0.26427639226288685 -0.140399212443155 0.10883504129428703 0.20228132550764907 -0.01593504252027286 ]
[ -0.16963806854405672 -0.10018424620539385 0.01910002864082549 0.1646493188046295 -0.25968332669557487 0.13341919339675645 0.3425676358006382 -0.11036134592468867 -0.14165068000042444 0.22440727097907 0.21669356929617686 -0.10817708060445379 -0.24061410605200334 0.264502172524511 -0.30112267283696675 -0.26596085384878426 -0.2646806049366805 -0.2214502633533964 0.07665156017727683 -0.19277512290059276 ]
[ -0.0768488903796137 0.31244492517717415 -0.18974142178421904 0.17732299966484008 0.13444573450733996 -0.3058884918342877 -0.4332443225926899 0.0905667640186711 -0.24852954337224603 0.10565279558065228 0.2539366711561318 -0.25432535969815084 0.03145806362484852 0.21863123989269143 0.14746988932136187 0.05012786974084468 -0.22395781820610383 0.07837503887350959 0.26798897541968675 0.33716911980378644 ]
[ 0.22248926929739152 -0.100557246746095 0.21917493675872982 0.12542836646857897 -0.13754008821750696 0.32817706560258203 0.3740486793508088 0.0012162800949613618 0.515776037698032 -0.298190242285626 -0.4195664492687104 -0.35591810092008813 0.42244211077875454 -0.01433603598431797 0.019191880480385407 -0.0621220780636688 0.055065002455931725 -0.05998048975971008 -0.018019488146204916 0.3572307809848703 ]
[ -0.20148057251027227 0.06761340259877183 0.04619229431718358 0.1778452440322661 0.21698925041402933 0.18260540262130687 0.2538015276630826 -0.25574130515518045 0.05507413466473996 0.20888013875365105 -0.03717633134251604 -0.13220583165025362 -0.05777859942767657 0.0570281055569649 -0.16047755569656016 0.05942538487736125 0.24292923433092947 -0.12103534156468702 0.13538631903754447 0.14780917257755663 ]
[ -0.21934080426163619 0.04758410909524093 0.15013778417609788 -0.23160687307831357 0.3647575419645794 0.04271030963614455 0.46678207366951874 -0.15913733740600156 0.03470083219078335 -0.10242790752610141 0.27676777181951717 -0.24929216523251987 0.3451044560488732 -0.06487916659545542 -0.26654877002602356 0.22296991533374744 0.15769504051314953 -0.14408785220195552 -0.13863168619503125 0.081833645190073 ]
[ -0.13035215086873136 0.08895704218187023 -0.0762628526759723 0.14819782783094476 -0.3001588547256378 -0.3156338063226426 0.0017162285819841043 0.34327132834032514 -0.04471853416601624 0.25876123948656965 0.3693774528912984 -0.5204365182442615 0.30735740477968526 -0.17323961974366264 0.03735838174578475 0.0654124799190426 -0.1840432480523297 0.12223968601852814 0.013964135230210502 0.268550265001358 ]
[ -0.06769542163790043 -0.2223312042178414 -0.23272658216139935 0.014145013432350759 -0.10962512454499321 0.5124426398409911 0.3388773803753027 -0.047327400628631826 0.2548155124643765 -0.0009072969058121507 -0.052484905634725965 -0.2987046314530496 -0.24452044240563003 0.1256449402619933 -0.14190583858062478 -0.122764741820829 -0.11479864408031301 -0.22676551526934158 0.2832728601739714 0.3273572099674169 ]
[ 0.2426948915553204 -0.2807110789130314 -0.11208107124457228 0.025785493899925474 -0.2355387906705667 -0.09186310603243057 0.15439102338442412 0.13356890584956632 0.06936893009514102 -0.0820268241464203 0.012465335257718937 -0.019689344962701312 0.14635945376956405 0.02880897414837666 0.10693738874905556 0.09665300289892922 0.21969233779618563 -0.242389325711381 -0.15658122611904834 0.028201880200463762 ]
[ 0.2540554663419475 -0.4018920894572396 0.15683060114227237 -0.1632551203727026 0.00037738420879587895 0.23900128758559827 0.08883150725856472 -0.3215877357553355 0.30997786031142227 0.37458436733680556 0.09349045656168273 0.14744569511636557 0.18339193223861852 0.07249586164445074 0.1355822069134361 -0.22782023693809933 -0.29658310618364037 0.23485188535518867 0.06793191112831702 0.02511597446008476 ]
[ 0.25634543494315587 -0.2914198984495454 0.25630915650359276 -0.032624513065538555 0.09458252937157631 -0.10326120508213228 -0.10297580068443923 0.16111691104491296 -0.23143028556902365 0.24077147708280758 0.03129647550347177 0.10523275851493603 0.169751798026679 0.3019836898877756 -0.17555656817956392 0.3417982737022261 -0.14724819608622292 -0.10953260494503353 -0.059494898844986266 -0.10535442603991384 ]
[ 0.17630597806436463 -0.07974051828837005 0.005892408885214032 -0.0787152403985267 0.25403503689010676 0.032784837762515735 -0.19052902885146247 -0.05091850093148161 -0.141549811294595 -0.2845147597347801 -0.1763289205589265 -0.24990092778448497 -0.016392170998550955 -0.014379815916736944 0.08385167289662265 -0.12296679546220857 0.17925870322606785 -0.026476680824084477 -0.09888590158840453 0.23666916472206848 ]
[ 0.24891094130367616 -0.10318691966013724 0.2545600907280988 0.26392538836185264 0.27371753464102355 0.05612052285848475 0.03461510730608603 -0.18912022575358897 -0.3132609085468789 -0.06956355690176229 -0.01111094513296606 -0.0030071024281853225 0.16110382295289571 -0.32450729956503527 -0.05089776364705231 -0.13578739442079277 0.10106920957895994 -0.045361311063062834 -0.043789635697622085 0.11356079711347992 ]
[ -0.08035801641905894 0.1476260568592517 0.36091495534129303 0.09508207204867206 -0.08782486484927382 -0.29437286922931616 -0.011512603213559933 0.25935754975459807 -0.1498783278838153 -0.2795261830819029 0.007892608501117428 0.2586928196761516 -0.1282167927604897 -0.011007505532545333 -0.32169208332330057 -0.11955547173864219 0.09348771383696107 -0.4108167306913312 0.04434694639898569 -0.2941682657924222 ]
[ 0.04615744214794572 -0.053177686007775046 -0.022971493284865287 -0.34831855216627 -0.21620163259695796 0.11863447488455674 -0.2950433859978697 0.11521606845007157 -0.14384351005382312 -0.1282494590437754 -0.44540358508237443 0.0872988178470292 -0.10305897707029983 0.021418978406429878 0.1113049420100474 0.10795596042320912 -0.20669246060092925 -0.06649809936484899 -0.15491398221749952 0.16707100317919862 ]
[ 0.19349018378045268 0.17056703266135814 -0.13248968238148698 0.06185267381281994 0.010801762637349183 0.07425679547881774 -0.20208141183579661 0.22305133634103919 0.3196705888402431 0.22617578332711757 0.2758325513249585 0.3006721770069828 -0.15726350645377393 -0.3748440635107695 0.11610406250721035 0.010203277768190907 -0.09512319118067619 -0.2533819661951663 0.09959144063717348 0.20830023203335948 ]
[ 0.11598709455442523 -0.19888380210670997 0.09489105740711096 -0.06385632508441902 0.051095459981671434 0.16472250579433745 0.007108703036348799 0.1685217940066102 -0.11264569152345524 -0.2822619938047937 0.4204070237101926 0.13751041207930828 0.23534126068497171 -0.2059435448816272 -0.1453989396799986 0.024202524325435213 -0.3335048012928777 -0.22597510339329668 0.24674013674541262 0.10937222624034545 ]
[ -0.32150863170127103 -0.11087189291113748 -0.17971458155630524 -0.31962313905654766 -0.030545005577816083 -0.16985971009244732 0.1734425321318336 0.2531460319646934 -0.09893023255811025 0.31314982614004105 -0.3629988628210395 0.13136086781140843 0.21473252549852156 -0.15485536648318846 -0.06776484644829397 0.14950995140694887 0.1608570822233944 0.25730433669678004 -0.2321750487503527 0.09432218287874217 ]
[ -0.3404213388636158 -0.2773539000472097 0.41504717887274867 -0.35755383465153495 -0.30152999953154436 0.06251032283374303 0.1630951042034599 0.43240726856449946 0.052149388336701165 0.1413016726688739 -0.30497772207189866 0.05357744341093436 0.20622208375127696 -0.20021901523672161 -0.06512362807716142 0.24609141459991718 0.03889087424847711 0.09597106654713464 -0.2501063925092707 -0.1331918123293934 ]
[ -0.30514349459675 0.2510035030265577 -0.05844385627956548 -0.19953537135375166 -0.07035906444143572 -0.1204493176243791 0.011692712186867908 -0.016268753792618953 -0.26354720402139725 0.049751524886511474 0.33599960138961843 0.03566108862862269 -0.0611469945775083 -0.29182138691155163 -0.17328264488525597 -0.04492690270096023 -0.1731143600533717 -0.05479159023445542 -0.09121079085472081 -0.12803319924414278 ]
[ 0.13322856972326338 0.29695546860770783 -0.12132774651182668 -0.1118987206375286 0.20175990189258944 -0.19036704087867687 0.14065718081751802 -0.15165642151498665 0.19603891052056138 0.357143942244797 -0.10566998493812642 -0.08466923826547373 0.09420552646676479 -0.04278842931150245 -0.2512388131664542 0.02716186279704001 -0.26095648549359785 -0.2892024704611651 0.059440048503017935 -0.388477815117138 ]
[ 0.19483713878093134 0.09758883141234272 -0.000886734781348846 0.13744520585854703 0.23246058145769938 -0.01311811985659137 -0.13956929731366102 0.3652790136587758 0.009151702805690762 0.1846412238123695 -0.06046776473122112 -0.37046508939912554 -0.012997683043613859 -0.14673988583008116 0.11803792338827182 -0.10908555141320309 0.04277436292518504 -0.07076558979353739 0.06675469845163477 0.18833810493413428 ]
[ -0.08865775239703871 -0.1245017232499974 -0.1503027730252188 0.010583139531658615 -0.11051947062206699 0.39810395901551965 0.06270875311109766 -0.09524209558175048 0.12878343580197327 0.1589491162942833 -0.0008136834371561866 0.25430778067408877 0.38480369775298906 0.26000920632153035 0.1945640348503351 -0.020061427116876085 0.19508437530756204 0.15855377079754673 -0.14360071977986488 -0.11067316466028004 ]
[ -0.30987425696908133 -0.13349433639503994 0.07838093899764584 -0.2957870790364522 -0.09415389176487873 -0.41234848380095057 -0.20438806606119483 -0.19204986461455775 -0.13374427216118442 0.07645701515318043 0.04482570771357744 0.17802595808699134 0.2030295221886384 -0.25485573067909406 -0.1761479637043211 -0.18880763749822585 -0.034996953909351126 0.22445815146279174 -0.029103383352078297 -0.09146131772650105 ]
[ -0.22828309514406997 -0.323107214388638 -0.3427129069741256 0.18773888031942 -0.046134533877516266 -0.14904282549037842 -0.24989511369063083 0.2851863486713174 0.24742468474777243 -0.058982892958516886 -0.5048531141886027 0.017307685571039726 -0.15060458416140948 -0.31507139931055433 0.11294343289444594 0.26533230127391527 0.008257235488239974 0.22263231174750478 -0.25627002031005097 0.0640230734716528 ]
[ -0.2781281956079479 -0.1415574159853142 0.1650297918724477 -0.024431923912131823 -0.2953113773694226 -0.2764953752567009 0.30779743340137955 -0.061674966138563755 -0.13836505410693592 0.24228937564607536 0.21908541819704824 0.27165345226520304 0.02502038284274269 0.21167214516566027 -0.16962313174754365 0.11133112758589911 -0.2522609971110115 -0.040384228170350533 -0.06828418018210625 0.12386639152968111 ]
[ 0.08698243929879172 -0.0003088711433571728 -0.25960619442377597 -0.27353445152343153 0.1172717827159655 -0.3605052188476022 -0.2783994119777006 -0.014710375827710937 0.0007469523734600136 -0.19217923893600436 -0.14692257106097867 0.2746101225237792 -0.27667145549930205 0.11375120210655583 0.23731619707922 -0.09868554929277273 0.12373283966042599 0.4650077371260385 -0.18070686261758168 -0.4600909479026105 ]
[ 0.03875724256110068 -0.05920526453299868 0.05032108750459254 -0.07122911496907629 0.03975534506132926 0.007960803744190025 0.22621615358615402 -0.04485321121736572 -0.060731271347942456 0.28957137204044475 -0.00485543107594033 0.0030318114199792434 0.02145270036715309 -0.032958864000306544 -0.07881922946778014 0.0812434055474959 0.00898686587014484 -0.04111891279052677 0.0677223675417885 0.039327460963073824 ]
layer 5 Activation
tanh
layer 6 Dense
20 1
[ -0.0765236759884127 ]
[ -0.1122638533519882 ]
[ 0.16575337388324984 ]
[ -0.002868102573705065 ]
[ -0.01560545418717421 ]
[ 0.10459570788563063 ]
[ -0.1361796994508394 ]
[ 0.1416519465087314 ]
[ 0.09712760078164077 ]
[ -0.1557481736395744 ]
[ 0.04172170784498771 ]
[ -0.03733014622111539 ]
[ 0.13798209304721432 ]
[ 0.007544100609869188 ]
[ -0.22681590248952893 ]
[ 0.0029519160997370404 ]
[ 0.0015912123206365469 ]
[ -0.20360612736277137 ]
[ 0.0028409260145115336 ]
[ 0.07533671372747203 ]
[ -0.06463878240594763 ]
