layers 7
layer 0 Dense
20 20
[ 0.30545144326201856 -0.7302859448104829 -0.0369327732807937 0.06626046855201152 -0.07511792490224406 0.5606543421630754 0.3904709431505428 0.07338127175044629 -0.5290870248394568 0.2457366949689066 -0.5470597042756754 -0.7884042505272001 -0.5157936317632025 -0.40278669217373814 0.11783263162303405 -0.4231745815491837 -0.3495647982694382 -0.26299881922217816 -0.12098736311458551 -0.2246626163990592 ]
[ -0.3547902058387951 -0.25293505227580576 -0.0654682343279411 0.16659540558546682 -0.13901986271802558 -0.3279247656780659 0.11788770283338157 0.04036622735239735 0.3386378927245492 -0.024024454441734344 -0.08126006407283329 0.170367064153631 0.009351592004340697 -0.25472954898554906 0.379511877078048 0.28536629158483556 0.3327419477286692 -0.11424817415172905 -0.13805096985168952 0.1013430512319382 ]
[ 0.06655198690297918 -0.16536787192683838 0.18240394131719376 -0.23065175617934278 0.3415099769547132 -0.07896671417688211 0.08590985677729163 0.2571329722701685 0.043065780684778246 -0.3393652611367087 0.2594577404657724 -0.05722660542651495 -0.06450293136252228 0.09345380431495023 -0.09560483324395032 -0.12536508709234379 -0.006080634545254261 0.3146980006891807 -0.2328740655446421 0.005522707885592307 ]
[ 0.22854412923037967 -0.5573958204140492 -0.3126328725911572 0.02217399023303658 -0.011248435728762714 0.6113825345063422 -0.3778593794200147 -0.6047217173996523 -0.6832009421747036 0.33473745459486803 -0.8814083682071663 -0.21122362253996638 -0.23316340124769563 -0.16935442129685854 0.2097130650085746 0.322291093655532 -0.17858634193298287 -0.24163067647458336 -0.5490968202488697 -0.4536455446131412 ]
[ 0.29788392051022616 0.06555213842266674 -0.36114884044060513 -0.18187926547991956 -0.36895191173410136 0.7830735959590484 0.846979878976884 -0.15081835551110673 -0.33406437404952755 0.6151788423549422 0.0788875905882641 0.243553236170423 -0.02069169782719774 -0.6095559478583177 0.061870280842519804 1.0316099798076297 -0.3559238565727074 -0.004863672369008907 -0.09519607331701976 -0.17089725760048105 ]
[ 0.037537254967752835 0.30757891285740474 -0.2285973043626065 0.17658916077607423 -0.12006069054561878 0.08566773695924897 -0.24204343006329596 -0.2505577447287575 -0.20883659130149762 0.17468353082064705 -0.004797204015443055 -0.09460661349792109 0.10939561645964532 0.287103413525723 0.33903076722084535 0.28666244209246844 0.12857683368460407 -0.010623923193350895 -0.03893513573212022 -0.289564204143853 ]
[ -0.08624077752087118 0.01790330436267569 -0.2024806574739713 -0.09134584612885742 -0.12899235940058168 -0.12340453803565188 0.2235979820226057 -0.04338248801763322 0.29839089719109535 0.30628086584445335 -0.18078557434969073 0.3693585954602944 0.22251433919733865 -0.3110789947157279 0.3622262410920666 -0.07321738846291805 0.2766666788856227 0.20010349520064225 0.3166836139391155 0.29412008607878537 ]
[ -0.23139140976934164 0.43755105868750777 0.5409868588444577 0.12124003424344845 0.10767292133429959 -0.4434279120343537 -0.5639575508534026 0.4466108064213507 0.6104399018216636 -0.1681903115881175 0.8164737062331576 -0.08810324672121361 0.23926785107163345 0.11550773130210026 -0.15465426488847722 -0.6487757447181914 -0.1559750192485016 0.5558826649862639 0.537378005839173 0.3392791048176734 ]
[ 0.42755429697556374 -0.35012961135793674 0.17298055177156468 -0.458700081493642 0.58169663074187 0.9232055689461176 0.10056052188184982 0.3688830385165835 0.1766248625744807 0.24324704590063567 0.5681895145847443 -0.04521935777280585 -0.7092822216102307 0.006907926713554396 -0.4014049329599352 -0.15167548979844755 -0.6440165080392646 -0.39758886321918224 -0.4179919201510181 0.4902275927991332 ]
[ 0.13764306200375967 -0.8575209056030227 -0.18031459923285006 -0.1898263861453114 0.6877192562172584 -0.13476026237499247 0.005976608645853249 -0.004705451784433962 -0.21106865212018627 0.004860809630147526 -0.03216830833299029 0.2987660716577391 0.3210008252620584 0.17725078954987708 -0.03384059800722786 0.18512548041420138 0.8796178210666763 0.4002181905116879 0.09703084226717873 -0.00024146966673320165 ]
[ 0.3333117013579223 0.4316482457866772 0.18411499908881343 0.5934376485897428 0.010899671351504844 0.021232163980821606 0.20432256046165137 -0.2940303162510897 -0.248573429472759 -0.9733516068491535 -0.37621520877724157 -0.16778195123613296 -0.20416079129806422 0.6462850913829721 1.0048020477360275 0.11211139140309431 -0.19237473356240917 0.5433673956075439 -0.04886466315940102 0.27066183942932387 ]
[ -0.5230345913916447 -0.7691766022043672 0.18980961514747088 0.4160851767750996 -0.7181613558086843 -0.9400787536657587 1.0348702994066652 0.2915900584028247 1.1431424282297977 -0.766487405851199 1.1974370300348893 -0.23047735986349493 -0.36414392074807955 -1.1030358385882768 0.5111394504851439 -1.3144617257416942 0.9846828475994556 0.1921742072019849 0.7427026458364903 0.5372920843802655 ]
[ 1.0918012298185378 0.41487190027397286 -0.7003461516388102 -0.6568991956531983 -0.04259482637485054 0.6315319754454803 -0.038937662286865654 -1.186368195810855 -0.18517808331573288 0.019744860326395282 0.06288962341563599 -0.1135417342591004 -0.37021219699009233 0.24102943830398968 -1.1028925197960546 0.7296758510101591 0.40856609035020747 -0.5747952607733327 -0.8412691253536965 -0.9636444916292073 ]
[ 0.2981660585808169 -0.13519942833687804 0.21962692800161707 0.7164723957652926 0.5707692421316812 0.4945517945515106 -0.40029145440169384 -0.01697307388248569 0.03182897831075654 -1.001145367285563 0.21753231034470974 -0.10965143265847058 -1.1923528835257837 -0.5461760324987924 0.03214934502972736 0.31356767654946155 0.08140747989282468 -0.17968425861302578 0.4515895837933646 -0.0007417023308899802 ]
[ 0.11129070723146396 -0.3010108982591035 -0.3738647310008459 0.43093582026213995 0.7644803549109727 0.3277929433984295 0.30873120860861236 0.35244068765905806 -0.15589262687129601 0.12017675542000086 0.015595923883445545 0.2172829420718829 0.3569092176844079 -0.23241527049934532 0.60608672811383 0.11613762083342902 -1.0437416750884256 -1.2381654652170926 0.22440295780474054 -0.1591110807214426 ]
[ 1.2864965300556808 0.8137404520404833 -0.3188059134216908 -1.5465432509213168 -1.4736550432405748 -0.44157451391684394 1.164139557754396 -2.1266002288805024 0.8172042234336844 -1.2263757112145257 -0.1614182961061365 0.2611269838953583 1.1719697866309844 -0.47969013671460903 -0.8083385479113903 0.1264566898288736 1.0724004215000629 -1.0122335685462103 -2.0686250739871936 -1.8000214514001134 ]
[ -0.8259287227682746 -0.5543922849544253 0.015782728344202024 0.07508678595812072 -0.3573568851248369 0.41097488417684 1.1080599064958458 0.3603109345415163 -0.19799191538687988 0.20615897335624284 -0.16495371000067946 -0.5754937967870987 -0.4271735458136929 -1.1645158408219076 0.452611064930733 -0.13172330163594984 -0.6042427998591287 0.8739279307768175 0.8227422071839836 0.6631321018273622 ]
[ -0.6272232689126321 1.4491229387696312 0.14461199026253796 -0.797316909389218 -1.6367639280889985 -0.09330304750070917 -0.20759655084862966 0.36402340123454696 -0.30193238980066706 0.7475017517244776 -0.44801605369739816 -0.3438540865820372 0.5102068284770215 0.03469856287515993 -0.07090442228039705 -0.3137357609246309 -1.7736498819597055 -0.6357239639518933 -1.0025201502893704 0.13951525510831175 ]
[ -0.8300286579120089 -0.7148964861935962 -0.0833076374953849 -1.552800509458989 -0.49780728547284664 0.006271967676581029 -1.2936582318013412 0.12871224385284172 -0.030720954942396208 1.2282050922048968 -0.05577251483167833 -0.7526531712870904 -0.024434555257860407 -0.7092302259380896 -2.064325694177628 0.2648241421296221 0.7808222682608947 1.0083716183376419 -0.11315008438533934 -0.20233467962015955 ]
[ 0.3337606013175779 0.511647098669645 -0.37731239715167475 0.3262496883329077 1.1600673461856188 0.6187773547218696 -1.59303133122657 0.27736681415377457 -0.8835804071139453 0.5225718385437786 -0.46612136292645245 -0.625376988412166 -0.5490169549685755 0.8460738880010229 -0.3727177179635882 0.021159030119872663 -0.8776350372361713 1.017139006442878 0.0725251435296611 0.38810512223535115 ]
[ -0.05146030936629671 -0.1104232773532111 -0.11777884915125446 0.06723886922755043 -0.09653096345787457 0.052032345657210044 -0.06495120548265636 -0.26191307681332987 -0.28603410802231816 -0.021893583348545614 -0.4918940834334957 0.17655488259343183 0.08385454500519632 0.16847306043866667 0.07768828592872329 0.22423350005880052 -0.1089156644492272 -0.3317874614242915 -0.2877451931838109 -0.15652730868930012 ]
layer 1 Activation
tanh
layer 2 Dense
20 40
[ 0.14248517928330348 0.4804928470262881 1.1418078305879142 0.4425301102938881 -0.43276787953831547 -0.4264186556745592 0.5952471889992951 0.4428488308517659 0.1542162875126305 0.7538637205413337 0.8036846296564593 0.08833509172444526 0.19633179904480083 -0.2963172338706522 0.28319069603613733 -0.29507424601370186 -0.03811760458141463 -0.02869098456444491 0.23204238775528666 -1.2197930836447903 -0.224284703293692 0.8845769643697895 -0.3968162263441328 -0.19601572144446594 -0.4293686561844861 0.402795050228362 -0.6459095420214184 -0.317796099721355 -0.24044825829603497 0.18749327310832412 0.1345014006055123 -0.15428900868285933 0.31257095840236787 0.12028670800961716 -0.8203027725986273 -0.15169660728702697 0.5822114395343362 -0.08365269941315172 -0.28156492901293284 0.9872398337500244 ]
[ -0.3081736050403398 -0.3090159170855667 -0.22924571014763334 -0.2846314538231258 -0.508098779230789 0.2581316990074677 0.3182713351525662 0.36930515576114614 0.15297775997607063 0.3916453024392585 0.003404974830448459 -0.38926640481130803 0.5628897737788544 0.050705112298554234 0.26692590988108 0.34208968146722274 0.10159956230302578 0.5158493712446213 0.2001786517672741 -0.7615855729146287 0.29397374948272015 -0.003884998694290029 0.4331948209453505 -0.1382963910679633 -0.4827054862744882 -0.1695574782176504 -0.7074907341692657 -0.3935672701835507 -0.4253144971104733 0.12747652972611315 -0.31671485026435914 -0.05889750656548643 0.552066849644848 0.6201590163013858 0.6835008229340789 0.15877106704661412 0.4339783606161166 -0.2688754665697968 0.03695606669894646 0.527988707281329 ]
[ -0.6294656080939625 -0.09761375158483111 -0.9773012765319703 0.6758210651726857 -0.7512889251007809 0.06656936937522433 -0.0235448164072009 -0.16138215132463898 -0.45117161085749624 0.08681119767174564 0.26135170777375183 0.28756588268919425 -0.5107532112664921 0.027034585494649085 -0.40683375918243336 -0.6215655417746972 0.26777088247446984 -0.05623351914002427 0.5304954845308145 -0.15969400499697525 -0.2436984001368514 -0.2097482361082678 -0.1692132945696031 -0.2203874288515169 0.11695004587887169 -0.08463914372943454 -0.20829125967257822 0.0873731199587239 0.032729416007644875 0.24945917185612002 0.14303620462655778 0.1685633812865476 -0.3078422536452529 0.6150794551830245 0.5552881025270173 -0.5239410785772161 -0.14851894194993215 0.40722986416566187 -0.051177594718382444 0.18638698555166305 ]
[ 0.150664627117402 0.31200695086305313 0.2945982572957118 -0.14581017321789433 0.46305530209705587 0.4154453468716424 0.0024208829548373724 -0.2562247397114508 0.14761284271223105 0.04766593541009556 0.40080170153711064 -0.015409018299834643 -0.32397533197835043 -0.04570862285150404 -0.37983832689409486 -0.42645322080581294 0.22267682073208117 -0.20843522463438116 -0.012375593693871973 0.18860134669133638 -0.2882745235645228 0.07502670695431159 -0.2757218852724898 -0.5496203326028842 0.17279764866727326 0.22733841905687083 0.07880955735291839 -0.07860468077021067 0.37758984102037274 0.05257969777126825 0.40489098907356724 -0.07575060893431317 -0.16997893244264717 0.0920710217038728 0.30237137142329534 -0.38209568840215224 -0.13642841352810478 -0.03310967987107699 0.1289007424856838 0.3636713555302821 ]
[ 0.7440010590759872 -0.15519974161280783 0.9811584840173625 -0.20689171213222987 0.5152130639397365 0.2512561989225592 0.666325428008476 0.07578390181759925 0.3888324523715826 0.514984266602986 -0.2744617856157581 -0.21883970438941178 -0.18580875440796601 0.05953828688570938 -0.25975818615623114 -0.10817190291468798 -0.5111754593312077 0.23747525784920848 -0.3961194240164654 -0.37534805389470505 0.005180694448475301 0.5511286191902913 -0.07072649376628407 -0.6820175159827275 -0.16174625992636912 0.10821172120193874 0.757015231582675 -0.12934482293479166 0.17759404780910001 -0.6129403908565103 -0.2878006095294161 -0.1708073811077518 -0.2979509175099075 0.5607458039692574 -0.3087946042341321 -0.43613519212540053 -0.1485251330853334 -0.813188013953014 0.1564980182767755 -0.2420208080122847 ]
[ 0.5188387969636407 0.6370332837060888 0.6224600709492615 0.10971428054051954 -0.10295939573631468 -0.4450473154310491 0.725367426285329 -0.42470032429831844 0.16150493908082242 0.4192985947268583 -0.31977578730342204 0.8209964331632061 -0.3925500727978905 -0.09402495489259154 0.1819305602794146 -0.40607830335072176 -0.5347895170391407 0.18218705350166056 -0.018183735881499418 -0.6416998380486316 -0.8885131600046229 -0.16846879773117304 -0.24665673449866415 -0.22592361749740317 0.15487616650938124 0.2859366515455315 -0.9472156240755709 0.08878721323480859 0.14825847978550577 -0.3202907327184005 -0.15676739642727391 -0.23720065821682437 -0.10906228380757893 -0.22247403923520465 0.5950220606251146 0.5558826442145866 -0.02987656463794599 -0.3624018144434221 0.355111991415273 -0.40862733731836476 ]
[ -0.7225049966260432 1.0354610588626656 -0.39403057731265617 -0.6806372574110706 0.49468568115090256 -0.2332477789203185 -0.0694331207666307 -0.5805526072636976 -0.4595286677143445 -1.0544575274056027 0.7366502815541963 -0.7413112080183177 0.8292181010034786 0.24102917546939426 -0.077703553285533 -0.25319348673532943 0.2753051741516021 -0.15361791497950777 -0.5306794860240448 0.06429299458366429 0.5704273398945844 -0.35158916677150953 0.5248878610851346 0.1240205151455801 -0.5204874014744543 -0.6055800177962932 -0.6243325028087396 -0.2741818900719008 -0.1616839246946254 0.4446382635605505 0.28923432664696175 -0.3426019392525902 0.3447294968099466 -0.991621344174008 -1.4333923815325424 -0.6505733899426385 -0.10223181209073609 0.3489302483630948 -0.08840852462561845 0.31415845531652514 ]
[ 0.23606094433981914 0.5877232900914642 -0.7321821530369126 0.16911336512226355 -0.27778554971436 0.9187142755288835 0.06653363293061053 -0.2869967829907966 0.27950968753522604 0.04713236255882862 -0.2178701393665976 -0.09649445677072767 -0.46337719105646424 0.5328012135680688 -1.2287451024765979 -0.39334099161662456 0.2913211327306739 0.09276583478082229 -0.2689625114370074 0.20465582040391958 -0.1909921688597244 -0.7011542735188491 0.811374216609828 -0.36091909996417537 -0.4656160269201169 -0.5387782647850486 0.5751863048970737 0.05911089079964547 0.1271811776360874 -0.027065946496931684 -0.8682769016754706 0.7243756777792091 -0.5716954829545934 0.3628372147347649 0.4175296691247467 -0.009100626348119608 -0.04496531554343818 -0.1635478188370512 0.5577499021009701 -0.6138142344440726 ]
[ -1.2388727065586962 -0.10572602661116501 -0.7715346329787647 -0.47147432581424936 -0.9411867349382668 0.6497616296262614 -0.37318076262373145 -0.4723717341536935 -0.8685853434539804 -1.2377795469725392 -0.3712859514890675 -0.32930344991830385 0.8446952319135088 0.5265380267632391 -0.7634135111351161 -0.19727677293666493 0.6419476158066604 0.4618273571805732 0.5581318195885422 0.4296404022541275 1.2307149278196758 -0.44925141705368926 0.6686324513527921 -0.08767058227659501 -1.2644628671970173 -0.326570303928337 0.13711652070054248 0.18736885997574623 -0.4468821251980728 0.7459337182975962 -0.3227502046628946 0.13804122269819388 -0.5948632892246356 -0.2252667789320363 0.3814170884851242 0.20833427092014617 0.6325001214758499 1.2027319618393144 0.3713763587074909 0.2482418956806466 ]
[ 0.7901089433642329 -0.40062864565114686 -0.3866521140438624 0.14927807368278997 -0.054002732512305134 0.11505629237608828 0.138399671525132 -0.1913295577669233 0.39415319834709084 0.37566133444279326 -1.0387555699209572 -0.045791491000381136 -0.35432928791867657 -0.17254488658806377 -0.28839985064979384 -0.2062521995583522 -0.38190589351609466 -0.13940671521951217 -0.17714382527725975 0.49057938284593894 -0.2422579198769049 0.1630807603381419 -0.3697237650221181 0.43170583954030806 0.4579169089526752 -0.43648971168667455 0.10431510115473804 -0.19632042910906872 -0.048434720958200374 -0.6132046679979755 -0.6586531727562556 0.06171086703668078 -0.36682380897343836 0.47698911100456837 0.1746829643888418 -0.025795196504016314 -0.09226208784187728 -0.43271648006113794 0.37118696580171356 -0.8881675083854602 ]
[ -0.23951092418213465 0.1926425901591367 0.12084387474676318 0.1454957569706859 -0.605869570886316 0.7545350723085613 0.015459582668659978 -0.571614874306654 -0.3072355538457996 -0.6108738651216957 -0.1477127150370017 0.11422917480147973 0.5643194803456654 0.6373056190963701 -0.5697366625481732 0.1463862125279858 0.5252227252332278 0.885492983097194 -0.12438194679163964 0.3310027220098656 0.5597484523545059 0.20246200117627608 0.8887466846516011 -0.16013537495362065 -1.093961379303548 -0.46038133237208706 0.13381038802562012 0.31860806365398237 -0.1595747103015866 0.00809799860605598 -0.9433141105534868 -0.44624493492674117 -0.6689874399058461 0.12054836765285877 0.20013668562727477 0.21749209207151357 0.9002457318489548 0.6592949491575522 0.4964947941549737 -0.4876075644058678 ]
[ -0.1522175187715989 -0.38366767233046467 0.0659367436079591 -0.26866233239203624 0.15316999160616115 -0.08025819638066163 0.01966165928878597 -0.5627353961984592 0.2211393891119691 -0.165828524668513 0.19837920737897222 -0.3220852970928459 0.13307764487550133 0.008481618288978723 0.08646347803445706 -0.10288498740274897 0.2716896725055152 -0.06782969529498012 0.018663215300175222 0.14284987711686586 0.20786254865315268 0.2003932433097994 -0.00974971513003821 -0.2654675627181032 0.33016534513256135 0.10471023041180938 -0.1810641763534156 -0.11275442757294331 0.5389813996062774 -0.3407413546189456 -0.20124819660041351 0.22988774519469438 0.3339376164371842 0.043365505800902315 -0.3515544130957929 0.3382367118276064 0.33703950149692163 -0.16643474727149898 0.05245690162390381 0.27446594848947575 ]
[ -0.007872241737589726 -0.5850579439568303 0.06104230430673203 -0.5279219437621054 0.8750459783912395 0.04179177152387779 0.15932437662243967 0.36911294680536066 -0.21598821248866243 0.04101234841147827 0.17115620952506497 -0.6821425410296011 0.6626012476584369 -0.025958088131152097 -0.1786881943730983 0.43672992933240634 0.08299153387450953 0.29973216909994577 -0.018419849337405925 0.1717915536460188 0.35225963501398466 0.40247877265684917 -0.19167149474183356 -0.01974853862982992 0.3804966181710744 -0.1415813382648146 0.8346957688512985 -0.48794377876660555 0.5031566474082416 -0.6596906784157165 -0.07444604219803719 0.10235248736193882 -0.1623532563720371 0.5470344919614967 -0.14071555741547753 0.10967853693659309 0.1759571635418853 0.17556479660675509 -0.023980435806010447 -0.1380764433294094 ]
[ 0.3128008194636276 -0.28975668678841054 0.7487275894375909 0.3376784435319391 -0.4397847826418269 -0.34718135589244775 0.3699655929669162 0.47385171332791104 0.4351866766866438 0.5331764428722867 0.28901391407877103 -0.09767824915004565 -0.652650505406769 -0.3339254266575747 -0.4024046028279328 -0.05760818356127218 -0.47924320380375895 0.2797780676845074 0.0764445182436905 -1.2412128638362476 -0.2048569958952506 0.7812489641980196 0.01118515061508268 -0.09716427672991007 0.45753652588926785 0.5030502463346588 0.13355849346645735 0.11645826527862614 -0.08419036538215274 -0.816619557787087 -1.1096502441969154 -0.021948332921158952 0.27486341066811315 0.45403029736880723 0.5079816782548195 0.14047644593663353 0.12143210282428983 -0.5468541143517294 0.7726382765168752 0.175515453158772 ]
[ -0.13091666074301514 0.8895110826103699 -0.35206817818420694 -0.17215628357956056 0.39053091041508736 0.08614071009039068 0.5380422515148169 -0.6366476589063426 0.07831270529310244 0.1363449731422687 0.466483907811095 -0.18722386307337474 -0.4759243870979442 0.15956485227192563 -0.41342138982227183 -0.37473679368958596 -0.026172154628397507 -0.015388458394992177 -0.42413818950022325 -0.571098809473293 0.06431873919757594 -0.8106560530956868 -0.5174014221729012 -0.7618899762791717 0.3482926969283783 -0.4127162130964716 0.3095830340167165 0.11372900184796328 0.4717112501489518 0.06510596080929335 -0.3596428911679717 0.19651149977011953 -0.1887081264525639 -0.7024455513186739 0.6440146089380554 -0.6756779706249395 -0.01968556815445965 0.5543744779207843 0.08990741029768377 0.29015585129375904 ]
[ 0.16580863909102847 -0.8847968543115743 0.7579532615066655 -0.16200752610385238 0.49649987943042057 -0.5262378483524819 0.26245499423017504 0.18977963741348475 0.27550510091258296 -0.06030894385515938 -0.44884271024432204 0.5053140709597715 -0.5768936905027285 -0.1185914371979827 0.6798630055036504 0.8461342440280224 0.22837561928496974 0.033600972405450506 0.44258394208624385 -0.0833249646412355 -0.47749503743197397 0.6215427801147009 0.3334196771602729 -0.05017896198707814 0.7038769300135845 0.7296418270210868 -0.46261443274783 -0.12501360645386742 -0.1969882334659624 -0.5691830978058384 -0.3906093962556184 -0.929531573583814 0.1396222738271467 0.2604568004039605 -0.3663573868852579 0.48470752999774486 0.0018166758782351526 -0.27231914351895214 0.16803765716807698 -0.3147731846823446 ]
[ -0.6570929881240196 -1.0854538433183218 -0.35324496503204394 0.12490394598324302 0.6102381626323232 -0.3560277544106472 -0.02995863957802681 0.3349033619538526 0.13437725346128296 -0.19725084138818672 0.5657069981496351 0.15547553143911608 -0.06599465145018933 -0.5590496920134798 0.014927900013790834 0.22594034495853868 0.3614461551253526 -0.715164213238638 0.4567681920531011 0.9555004498087727 0.6382595621555514 0.3746841625688597 -0.1787549503591137 0.819178466452637 -0.07081545033394646 0.25975412369388884 0.5983988013557108 -0.13120718973682338 -0.24985604402517286 0.41774166328685264 0.9809877414549427 0.5582357928982208 0.42504562971025756 -0.0980830594117551 -1.7612323725610286 -0.5911453095961403 -0.46029042200702225 0.11796028310175755 -1.0177726794855555 0.21290478887836406 ]
[ -0.10664540431877657 0.021088756089942266 0.3673339493085669 0.08970960184645967 0.18087006159885607 0.2587355883809049 -0.48868407494153615 -0.6986310120836953 -0.3119611754507558 -0.21851561410272333 -1.0549442063552203 0.7143121056913145 -0.12874467141347026 0.6308199097416826 -0.4747573966353978 -0.25551492804980247 -0.11220885159684876 0.4717111415502451 0.12390829850965775 0.20939928092899607 -0.6017235692195712 0.4431849614580595 0.6034846207065429 -0.44824290432212266 0.18959481817693885 -0.2904223024070204 0.152887773425035 0.47151348845077007 -0.2253376781671314 0.2055316202884723 -1.3690693768963276 -0.5900118826508964 -0.24746819167286271 -0.4649829303670588 0.05262005676200014 -1.02734871857757 0.28548578594751706 0.11410242667999042 0.6760475326229486 -0.020524137588060317 ]
[ -0.16715713875095708 -0.09091105638157182 0.8899657244600586 -0.5590116206397089 0.5756810121387813 0.8016158865193848 0.13570329506548862 -0.4611925638733745 -0.1320394212451298 -0.7259308797373927 0.17405246742487315 0.45394008879018494 -0.07171038305201828 0.46496331328562845 -0.6506800294887028 -0.14255403485803841 0.44215093167656955 0.11559283969529066 -0.4143496701622388 0.34999873498551787 0.2208856914353602 0.06459862328615966 0.13001026009784197 -1.0298522302357238 -0.7572120962527951 -0.6292055086693525 0.25991608000359234 -0.14844361690015734 0.07347464878281044 -0.05668752557255188 -0.49366332959229675 -0.336636817757185 -0.0956647492002793 -0.42077165083050566 -0.8101044521331721 -0.6119217654247835 0.23846576395990726 0.03224583994807403 0.7495342365975288 0.3431889370424433 ]
[ -0.18402175076585814 0.22580960965445532 0.2839401551356693 0.589955312369936 -0.9743420857161667 0.28863595526916386 -0.012820792649585572 -0.41902296066778283 0.17432495956131708 0.20425656142444346 -0.47118870419156444 -0.2587890566141515 -0.17625821028751576 -0.126333839025743 -0.22587779639752392 -0.5218382345969027 0.050258188913945824 0.1750486951935692 0.04236387387618021 -0.14652565382042612 0.09884161434979444 -0.45728811931548746 1.0665500131764318 0.056631465327641774 -0.19525910216339948 -0.3957163546870209 0.09515447498729808 0.2258707086216657 -0.06072372974656068 -0.13246333169264732 -0.15688020485267123 0.15053839187170495 0.1606915295924589 0.14881301026242097 -0.2257888316914719 -0.7148541304322708 0.3361743170063105 0.5347467122721099 0.5426390473174365 -0.19103526884952265 ]
[ 0.5721176692158151 -0.3007524893928515 -0.23643910736147977 -0.05912346031555266 0.4031078282741955 -0.4539790804632151 0.1366254449173864 0.22454919104550666 0.22107419729633376 0.5086984553634191 0.3752481966823854 0.2205303061642293 -0.4681058256770225 -0.40420533814200293 0.3494429990234831 0.007543251077381817 -0.34593697835126763 -0.7595520335771713 0.3094114303664065 0.03140338053234134 -0.4105446421819785 -0.001409668239434911 -0.9245114931942294 0.23142282629265776 0.7993516033333821 0.39335357631581175 -0.027181445963707362 -0.22761207279916715 0.1966131558175562 -0.14108277751209614 0.8774474656143931 0.2298416833575026 0.2792995243327064 -0.06039989777643232 0.013153664138199506 0.06020204404884585 -0.9332114389959526 -0.47991670404035913 -0.6196306379618437 0.0485768913549978 ]
layer 3 Activation
tanh
layer 4 Dense
40 20
[ -0.12975875782662324 0.40066238953101757 0.47079892131145684 0.11054099512249069 0.30078129057936703 -0.6250892906914999 0.07558003427513274 0.30896059289943534 -0.6373774924923384 -0.20051900255688399 -0.13299294320609534 0.03007321814268596 0.3444417573173252 -0.11186386571858156 0.24792009260657125 0.0731230718180234 0.22459078519786713 0.3334687068695158 -0.5697141507019682 -0.7001697551316876 ]
[ 0.6194123914047615 0.008572532111590696 -0.31590963417478624 -1.0569321084714973 -1.0290752983819271 -0.04759340526971471 0.14192210954379836 -0.8985970970385752 -0.2841217143732549 -0.34499495461916707 -0.024876597345875735 -0.16890714155234057 -0.005422520969197695 -0.3583519598441465 0.07783940957688675 0.08660721829871196 0.13778855242695356 -0.698335907170931 0.22546977727207687 0.39916443880650204 ]
[ -0.09739545451194852 -0.9486837947353355 -0.13099735710787827 -0.44924486068524944 0.23620587949566418 -0.2234971090632508 0.004563884407129232 -0.1153842458693881 0.5991910372229282 0.09107082602663832 0.06719575383366584 -0.0013554440205431162 -0.1249241193758812 0.11531746445070594 -0.06585490012675715 0.18504306935061332 0.5432532673107635 -0.15798686606451123 -0.8483573140720181 -0.17538006656834113 ]
[ 0.1519463415036115 -0.04483286959716711 -0.05313397084121217 -0.449423746468668 -0.012630131963172706 -0.28251343821423286 0.056986761917265656 -0.0018624299266261414 -0.30565648328967165 0.31684357596911944 0.10508485156949854 -0.4253042399656844 -0.17393302911237443 0.46441573143356324 -0.5229946292451594 -0.44050177752179775 -0.05638740114535983 0.12186686476412796 0.3743737288888263 -0.12704125175821065 ]
[ -0.13971137856356405 0.675965902756856 -0.6128418049292524 -0.31968824000653273 0.26461141088563084 0.015054198482593205 0.3553654917850811 -0.41478674926492365 -0.19970799935776226 -0.3927193464163624 -0.20259176481447744 0.5137204139818209 0.13343415970915265 0.0516091578578641 0.4317166553804822 0.07876528032374407 -0.1562414978508404 -0.10892584866485724 -0.07421817863351518 -0.045460164970893384 ]
[ 0.2976157519232214 0.05399726115932955 -0.2662933368106565 -0.3042510841285479 0.03344387284526386 -0.10975335161181322 -0.2965694030475313 -0.47971904654943914 0.33128248861984144 0.31476355992333893 0.08184596352399448 0.08655565217893778 -0.32113758109379326 0.22767430410767425 -0.3761995660611504 0.2341369655471507 0.43918790326530244 -0.71640425465205 -0.014650649037763596 0.022789259206832484 ]
[ -0.3377766627812368 -0.02013408714437426 -0.504293991525787 -0.5805450341837514 -0.11986525968037129 -0.23656964363825014 0.40334544494584607 -0.1783497974996949 -0.09432993402174453 0.02309889542151834 -0.047485822822117156 -0.07191154911447996 -0.2804752574381048 -0.1793228346533025 0.1449964667602244 0.3317065939376321 0.025648993785915238 0.12622016257166083 -0.4483573312855272 -0.34477911731533567 ]
[ -0.34568893162767705 0.3324358983869017 0.2420466994692303 0.22337348839479104 1.0201001394632556 -0.1653816129976946 0.39995087685718117 0.3032731515199234 -0.06776814905251315 -0.04574346662402779 0.05504024435298275 -0.2360156131480142 -0.05153778852468131 -0.00231538243174369 -0.3160305725509865 0.10161537153516462 -0.13412751417692242 0.5011436275311619 -0.20299293202785185 0.33667567523534303 ]
[ -0.08549857403246312 0.2549477963937363 -0.34791023401760335 0.19814083277450392 0.2421224641797099 -0.19697446362947446 0.4101096882620843 -0.06529971894848852 -0.22838343098708683 0.017964782612671582 -0.20799588213769848 0.35389305600935134 -0.04208804239544326 -0.004584599204980691 -0.004398253944763237 -0.12310813143238904 -0.13878529462564743 0.43010972628437655 -0.06384719864674082 -0.3198188519461963 ]
[ -0.4728178063176087 0.1965053537163746 0.3851631298588735 -0.045723567903914526 0.2674409701809222 -0.5246219657175389 0.4544570921251478 0.3799664615834255 -0.6508628501902782 -0.33412326029442724 0.3154112635793236 -0.027861106940909933 0.15078035652596503 0.020450676392395555 0.06459252838605949 0.13937593791535144 -0.5857132077164505 0.3491767807240952 0.3307903506547903 -0.6585069774141141 ]
[ -0.09161723912646212 0.19970997710059102 0.05684733703222785 0.8544956846979901 0.06691304109580382 0.17252340622149864 0.5277309536944909 0.4853190476167554 -0.34779253915136166 -0.4471488251649851 0.006528960183874642 0.2285585956373136 0.05833373341681446 -0.2715950787612606 -0.07597786213708649 0.21219370828514236 -0.7040897925241946 0.12685874479184023 0.053283354447238473 0.19185146614563314 ]
[ -0.02947988487947022 -0.2966251516878746 -0.14346309763014214 -0.8842720281895635 -0.009759364973720172 -0.3952823463172497 -0.37643320195060487 -0.09933430826969632 0.17669769261230603 -0.08450804577734539 0.01845965244959659 0.1958078091606381 0.007623262128717947 0.15291594386478632 0.2564167858805327 0.16065187577690174 0.39029403268443535 0.1790209003185809 0.08795153120677539 -0.5342021956749538 ]
[ -0.2939903145447063 -0.42226897444408856 0.0418576170801888 -0.1651787000588014 -0.0007287975043870434 0.2328105228992898 -0.4243805292889005 -0.16086894445810196 0.3946544642942588 -0.10006267847111276 0.39801227452437804 -0.02633583263437138 0.0867677226122991 -0.14158088635015872 -0.0900614663501217 -0.4054724103788606 0.20113476848590978 -0.708022615869859 0.13373588578116863 0.7884611085913829 ]
[ 0.12087937446779509 -0.5642124683894431 0.08505398974922539 0.03741943358647593 -0.2799560250800111 0.3943910947269118 -0.419565022300783 -0.1014340095574049 0.26281054804495035 0.057485311297078165 -0.14491784649373846 0.20749365607447914 -0.5323905571352338 -0.039474626148649786 0.08277418231674828 -0.030819714151114543 0.28695649840886656 -0.5633750626306258 -0.045367076732486265 -0.009193439204303808 ]
[ -0.2829656272883109 0.035418322365649485 0.3598884982387566 0.20109074357904627 0.6458385711101917 0.2555659855840557 0.25162075118674443 0.6339479860896395 -0.3405017148746801 -0.4684765985278201 -0.09563699402373291 0.2903943380035951 0.28684471636425063 -0.05722926081750867 0.6152447741479646 0.2661363552676453 -0.34763474322261456 0.9997618947759366 0.036921061265249855 -0.23354891694177674 ]
[ 0.053986912818302965 -0.12212799694543071 0.29779554129069125 0.4149554014748206 0.3080037064234759 0.29459122768901747 -0.05481741224143236 0.3677469968622663 0.03809350796025429 -0.19340288837835184 -0.20364553410362363 -0.21140688943692318 0.005870914977321444 0.05256345802399294 -0.3963900739606827 0.14112178624591018 0.019032007744253652 0.19466301280766196 -0.6845536185065356 0.030328000331336254 ]
[ 0.10776788520285592 0.004292614207247063 -0.07421008286816956 -0.11266214478017163 -0.19729017830719742 0.28606027402172396 0.16533320108772157 -0.15038146436836375 0.3260416831096433 0.00727519918404793 0.19537978897349115 -0.02340468357318402 0.1051218972837298 0.31164105890052657 -0.24706812126418667 0.5002935095246391 0.3827221525137583 -0.08090496346567323 -0.4742235541281289 0.38993811199694467 ]
[ -0.04344673028904758 -0.8189003679964822 -0.05008076457721714 -0.27798018334476265 -0.01713307084557127 0.3449873067086229 -0.6870488519362751 -0.36265662490116723 0.3160061192411905 0.38069813108091316 -0.19791019510772367 -0.5924568855143836 -0.36365773929403855 -0.018344027441034822 -0.7675640620335195 0.21280955594389056 0.42980973933676797 -0.4160078793400058 0.014898220689229497 0.4590630918813241 ]
[ 0.016893891195868926 0.23420097539211956 0.25747296315577023 0.04875155142183574 -0.08390806531045385 0.37044908978838514 -0.16169830211553515 0.2288490875850317 0.019666136842618608 0.012546872893966795 0.24736321746107565 0.10270985757095698 0.31175605141583573 -0.37730908517189526 -0.3450581174523194 -0.2699351625927222 0.12832679716161863 0.30551046625130057 0.16624753873335954 0.12453634711936883 ]
[ 0.5549824162658212 0.4524305026644029 -0.579857391785108 0.5697826380924748 -0.1516257628888101 0.6408117802930297 -0.09838711435594398 -0.18233706284436524 0.3473968418629869 0.02474978803535772 0.3260023327627595 0.3665650880224401 0.40212589961417416 0.4649041965856907 0.32977722861000014 -0.24850743390058397 -0.46824486955816275 -0.17140325010030638 -0.03369232782233205 0.5004760017556726 ]
[ -0.13616427975620365 -0.224044074487264 -0.12300378550747174 -0.32628203611273054 0.22861860483387952 0.41194686161423216 0.2868697782295825 -0.2672320763746888 0.3119805767622278 0.128554423501299 -0.076675434966029 -0.030332118749622678 0.07639126451336709 0.1687046476997694 -0.22274712357137302 -0.41269427309303647 0.03265099548587 -0.22209573563550422 -0.3191615649801146 0.8734569507212275 ]
[ -0.7993931188457607 -0.6155401052617769 0.4062455576172927 0.09701567199998043 0.6253471297435759 -0.42774331724551407 -0.38949388078590974 0.3155049482549158 0.559650655263001 0.2918961963428805 0.04692059300995614 -0.009031751100536469 0.17282182453888958 -0.22644464262845082 -0.2655005969697544 -0.21741065723500289 0.3099099234231381 0.4462407632006937 -0.9092649547936451 -0.06986426837628879 ]
[ 0.22820139882927828 -0.3955300160959893 0.2549634784895186 -0.4719028390673711 0.015087309498276646 0.4567771472221054 -0.17404386090742094 0.026169711242982254 0.3901716531077312 0.5264145852867289 -0.27114647636010636 -0.39062460479905325 0.08657628731819948 -0.06017800926110904 -0.24318067535677498 0.1402637485308547 0.4278977434899858 -0.2568396240431014 -0.17685238862738822 0.5082288038562148 ]
[ -0.22042798074367068 0.5737320949887857 -0.17612462365747292 0.8010746275240395 -0.23397965955543337 0.41511498695739635 -0.2250701085958759 0.5796752583405327 -0.34339692078873446 0.1799865182221927 0.25577396020361937 0.004499344878543447 0.7458037686527359 -0.034266553393470116 0.21904785142593952 -0.009406442973471032 -0.587611755406651 0.5434145006045871 0.0004006971666701922 0.1386683810335193 ]
[ 0.12933048884309706 0.2433648663059358 0.08707666844035064 0.6413272696047306 0.23611210185917444 -0.19278562521411077 0.010657577927548172 0.7075374313895069 -0.12158714535420985 -0.715629033923947 -0.05868048017438385 0.5499540850904971 -0.03908779935991024 -0.18932622479526598 0.25404113501513187 0.03995993610526169 -0.2775473456418292 0.8097146908367319 0.14259767753986 -0.6431962543526557 ]
[ -0.20692087832002187 0.29186555511349804 -0.1630453762053651 0.4436819147549657 0.4933670675834884 -0.23393616865171585 0.38034648066624405 0.5431717927287343 0.10810190525005627 0.036343671860743984 -0.018926105119023377 0.6508892894037475 -0.0751301180882431 -0.4277792941173898 -0.044828883862197126 0.019427787641144303 0.1582865733066355 0.7095608695758763 0.007438133387694643 -0.6923559357436916 ]
[ 0.741336945157723 0.013587574818558275 -0.6961336231230212 -0.08736396952748095 -0.055692082432798565 -0.17994095823968131 0.5946188277281131 -0.686917539945773 0.017611594302856307 -0.4657596815765989 0.13062009034822822 0.41986872966294614 0.19085547408023787 0.28828271339048983 0.5359998831411517 -0.18337417676343842 0.03754310862180065 -0.7858871767272506 0.25299115142902295 0.28950468677174584 ]
[ 0.051952356359717386 -0.3098899929243683 -0.018194362709839183 0.017953466107105586 -0.191695895445984 0.025221891911710745 -0.2711392218496671 -0.2118702443768199 -0.11736355362257113 0.11705249760686817 -0.16919580309928217 0.07875204372056506 -0.3538913522995494 0.47418836739240394 0.11391117319609538 -0.18279068116587957 0.020429780542954634 0.10134040571436351 0.33159747995224936 -0.07307635624107224 ]
[ 0.029793756233252616 0.2524941311607846 -0.15360008550034857 0.2727475862491067 -0.05034926682485944 -0.05614485837031864 0.1838624722698942 0.1473905152901198 0.06772718251720564 -0.29261340485552323 -0.1802293923348554 0.16146598700500617 0.22999911862440242 0.1872144213930394 0.5179531700599663 -0.029883132611645616 -0.012410122038550438 -0.16208416969104988 0.14683079952502434 -0.16241061469171864 ]
[ 0.3250902310581248 0.11705062321209904 0.4869682324675514 0.6569500030254471 -0.3130332134023314 0.24565210318463165 -0.4932115911869755 0.002937344400100533 -0.05829626169153948 0.2829235237100671 -0.3510961900795228 -0.07873748302470919 0.06994941281968249 -0.044973099097095806 0.3952943541909983 0.02081833006189914 -0.19724984148302474 0.03325550524158163 0.3333036220591114 0.5432460800239878 ]
[ -0.08493503627701177 0.14227373901803314 0.13373586713499164 1.1664076495771938 0.8034656388348852 -0.3356135595220896 0.4320506759863886 0.8572147124055627 0.026538352122573005 -0.41634821258016214 0.15811595147509788 0.6366246880374354 0.4807512895837101 -0.11103421434030664 0.30701643314499394 -0.08521712090316781 -0.3188693604147455 1.1671781072001197 -0.2780593654030591 -0.37558982194328266 ]
[ -0.035698384241112505 0.20426359802388375 0.17705225519088702 0.3509565807058021 0.054435855338574465 0.1140073581692201 0.0965114452103455 -0.009724969223778138 -0.4361356174925323 -0.32365331649951584 0.21921391207802926 0.33232766673638575 -0.3040359369829873 0.23333346752068548 0.5293501345521436 -0.07941704458805712 -0.26784850506536245 -0.0693003270991714 0.5681614022119249 0.1989608923612145 ]
[ -0.013120470656370415 -0.03740305441849282 0.2547560803024563 0.45874180862659336 0.3496694472986972 0.3037891507038524 0.3572795462506488 0.2594725543532116 -0.12526945242474044 -0.27742934538531755 -0.32925003485899546 0.07852001047636326 -0.3048121096175177 -0.4458215882432573 0.22776577616630808 -0.014243571030415417 -0.2666991824059931 0.2510158829422111 0.214967685863198 0.19937473770491468 ]
[ -0.04337218897643795 -0.22295962642487108 -0.07154622229931659 0.2788778043542061 0.40317080664699484 -0.5261140546874025 0.17577541203114647 0.3314132271012468 0.22683862283199835 0.29728294495065133 0.15656050924262913 0.08573242219121714 -0.000915913481316517 0.6967683752447025 -0.3103443072517542 -0.26622406909339275 0.12300951162647611 0.19170856795698527 -0.3188967373133646 -0.11576373053064092 ]
[ 0.10572330062261552 -0.46377275609070084 0.2875571428147753 -1.2003284620910795 -0.20307434234624352 -0.7378642911310058 0.11812840398006047 -0.30044957690053536 -0.2807694232296739 0.5046960344065738 -0.05586893497468041 -0.16718941154408898 -0.5878171787414227 0.6285687376138924 -0.445873988740691 -0.060302466422637466 0.978107191338044 -0.15518062846010922 0.29307380522079035 -0.5497004639260898 ]
[ -0.6648699922310483 -0.028835473258661915 0.7614885673162499 0.3808515996858195 0.0335989257226096 0.015458817064555144 -0.4734375644686683 0.2943339799259927 -0.5876778603427081 0.023542395238606302 -0.3773466041275437 -0.16930345051678597 0.26431663390134147 -0.09979259448373731 0.11999187885013578 0.06340729352769796 -0.21804535633767683 0.5661464930352036 -0.3368706184994507 -0.1767977910560908 ]
[ 0.0520764135415578 -0.7586480359316319 0.25458639576388514 -0.5914799051328199 -0.09202534670754633 -0.0765340327600112 -0.6264054495708143 -0.43530806523916066 0.1625755227651113 0.20012795137757797 0.1878787472969381 -0.6793442908204073 -0.05261811107606256 -0.24420395165075184 -0.7837902369919294 0.2213630044444736 0.12106374482515365 -0.5753913024519651 -0.2567764041439074 0.43430108717886834 ]
[ 0.17328902030821453 -0.33116859602161075 -0.41550598601832556 -0.0658210269738891 -0.7819772622243165 0.4230716458851703 -0.26507951156706294 -0.2774551591182536 -0.029689489541728627 0.4374153403504167 -0.03920484616146539 -0.42685285807126083 0.15586333326497154 0.08404317512350701 -0.715066371837062 -0.36988006889894776 -0.28211072927100295 0.044486156847391635 0.07969361306043996 0.8250803567256184 ]
[ 0.26795607634088103 -0.16757019786779964 -0.08748440588096673 -0.6485002729733702 -0.26088009447030974 -0.014991298085499817 -0.4526872866725428 -0.344240634113903 0.2068353659370493 0.6320121732917634 -0.19885937143770166 -0.3394828467311484 -0.42120608246677005 0.17950972065806226 -0.3380829336280709 -0.03222660544637658 0.29831734031946605 -0.5989254147755619 0.27404639063313185 0.1875560207914961 ]
[ -0.05918645197484287 -0.20338246483992256 0.4151271342043793 0.5937174629066575 0.20009276017604288 0.4602058769300784 0.3134063135531937 0.2058300331542385 0.04531488804479043 -0.17816015745220848 0.24144580130308568 -0.282406944889105 -0.24197635039408985 -0.3353915557793721 -0.5840719266997619 -0.01656408170665803 -0.23673533796911417 -0.03796289175548429 0.11305408043522784 0.4025105206281273 ]
[ 0.006938134107640468 0.3626945774604854 -0.001659904439322673 0.5056722064257498 0.04801561798369653 -0.1719788569686115 0.3003489317956511 0.19654649526837933 -0.1511197699174653 -0.360636087563516 -0.030270661253173316 0.3754890781477228 0.0644510812406567 0.018219446707736158 0.37371258202564445 0.009298358730687224 -0.13634790522410903 0.3295006974578786 0.15256515087849853 -0.3420343636122939 ]
layer 5 Activation
tanh
layer 6 Dense
20 1
[ 0.23922796936242413 ]
[ 0.45207445728994733 ]
[ -0.1439053848532206 ]
[ -0.33387430411378266 ]
[ -0.16195902960497605 ]
[ 0.23985838073035626 ]
[ 0.3704257054119772 ]
[ -0.7158814032138358 ]
[ -0.32139722238877455 ]
[ -0.48138832180796737 ]
[ 0.006632443789399395 ]
[ 0.5497491655664163 ]
[ -0.04603420200772375 ]
[ 0.02443908318112844 ]
[ 0.5459976019740117 ]
[ -0.0012753528823849032 ]
[ 0.5751786060551511 ]
[ -0.586248327480305 ]
[ 0.04360376020893638 ]
[ 0.16113787750453334 ]
[ 0.3588009813037695 ]
