layers 7
layer 0 Dense
20 20
[ 0.2811254995285737 -0.15490948957823117 0.7676822617155231 0.32528164921669966 -0.34010410023683874 0.1331788127803425 0.23040303821957717 -0.11649852317495725 0.009328352029824247 0.2215633550483292 0.39522213481082147 0.2980961147616347 0.3200404554436807 -0.1461795944765921 -0.11831816812584454 0.04065509222707617 -0.2820702764625406 0.15472549082946033 -0.5455235449777606 -0.5462385650346744 ]
[ 0.05283151044954521 0.2538026196636022 -0.15738141485520676 0.21981192466186955 0.026951765898655063 0.14002720241112848 -0.1907907284495815 -0.059255084894143564 0.09125104684993005 -0.1265583897205442 0.024376490656306815 -0.2459164575637785 0.02732488259237825 -0.16420854871350873 -0.054224957305063166 -0.22504013087782473 0.11602724682064702 -0.008439438829113481 0.1582355555318678 -0.18041991140192876 ]
[ -0.29063420006611534 0.38208665692090615 0.37048438278558443 -0.38705573286562833 -0.09653181471613216 -0.17421881811749418 0.004486949252412172 -0.07322289428255736 -0.17236977479284624 0.3299942117083387 -0.3820596012802997 -0.28306173239413057 -0.023742598083970393 0.32618659548979323 -0.27877953757530355 -0.005751720214854415 -0.02299973810893174 -0.196972793518786 -0.1579313490259949 -0.36970296044151324 ]
[ -0.2909879190154443 -0.32850794273745876 0.5444375971127988 0.3524614024588792 -0.304621756352656 0.06969792224100567 -0.20130635809196065 0.18893269345425134 -0.22813135680895524 -0.14268633094225724 0.13933550925439622 -0.054614009959728836 -0.14806764224787003 -0.06860136303299862 0.3708846558835686 -0.29541942135022387 -0.3052539177133168 -0.02426387451236478 0.20825427161120091 0.31330430540507564 ]
[ 0.7241353566171032 0.15048620170311888 -0.051604036004380065 0.19247754504028475 0.6635434543542772 0.2585081126293238 0.1109958467103564 -0.016046950374703856 0.09438981607821191 0.03209745507290809 0.5767811754795514 0.1284664049336982 0.2681201629860598 -0.48317356117181115 -0.4968780599009991 0.1574475628245678 0.19394589429870937 -0.09313502961125139 0.3581296829335172 -0.2228561859358314 ]
[ -0.10322055197043062 -0.1793276781295591 -0.022427450472641827 0.35947766265010994 -0.15095987270993846 0.046538729486202766 0.3401156796160951 0.1799868909165047 0.28210899713808896 0.22501400321329015 -0.12656324896720678 0.32699873743069297 0.27444539857245354 -0.011589247056354966 0.06889846065218079 -0.2367007563560418 0.27087949342233897 -0.007078596865400363 -0.1781119007729649 0.34487463231463406 ]
[ -0.07425766924023276 -0.04315247816932886 0.22561134261751303 -0.13347164556919414 0.1778997200570319 0.26183277597606897 0.299091628758943 -0.12014135973865993 -0.04304272953373044 -0.12957041120565477 -0.06971966901443077 -0.3233171071376364 0.2575345045126663 0.3681173087004117 -0.029668494928383277 -0.007217928076623512 -0.15489683704566765 -0.07105159854532545 -0.21116444107088372 0.25111315747977153 ]
[ 0.18727946253875377 -0.2677424327746007 -0.2415214931141279 -0.35907005716058443 -0.11109199341444317 0.20119226461129458 -0.08745205273345158 0.08639438130053394 0.18128792191349805 -0.12004998222718728 -0.3531917292011526 -0.29139837747942443 0.12026493576554487 -0.04056067144967419 0.02077973764111877 -0.31781347267707594 0.17232728803212363 0.04834279107909077 -0.2703032714010121 0.10772365959777314 ]
[ -0.12756267250025 0.2532987256304613 0.06388674533808245 0.01080942695635581 -0.08392590149057423 0.7735926300217856 0.35361664195004877 0.12734630184011114 -0.11437906744477393 -0.1386252899246524 0.5193041827404687 0.7625034610481675 0.1481384442809379 0.0243219528852628 -0.3558754406600078 0.4231314717672022 0.500519667602298 -0.2518376332571039 -0.5176468838810452 -0.48707551505993435 ]
[ -0.2564180535140438 1.2893872915433175 0.42155703784737497 -0.0175198655427687 0.45358538378297675 0.5958989968370553 0.5667352955248515 -0.6580714792438355 -0.12069743584802835 0.3175964916917063 0.3825281689008407 -0.13260855266474805 -0.702260429776639 0.19635460347477512 0.8626339835535015 -0.5391056361651321 -1.031735908925439 0.20971778694606646 0.37974279885662954 -0.2647555506762433 ]
[ -1.0406645811289463 0.041020806629242686 -0.14546715025969909 -0.30825926671432624 0.15209304945276847 0.1548765093226898 -0.5209299984841281 -0.514909513196739 -0.3062722355508105 -0.15260076757670268 -0.6102524558192878 -0.10236082210672863 0.05077610162141957 0.4483630627812477 0.07178017391878601 0.8081677542122933 -0.8574332581653359 -0.3670130782901425 -0.3519368634460397 -1.18197758705227 ]
[ -0.31080972389263317 1.0648281770984291 -1.3381967209659817 -0.5417693266929405 -1.5469396844842014 -0.599481832342649 -0.6984469759948914 -0.0685772390240689 0.5226203238898135 0.38082340909510537 0.8160869304484545 -0.45998421584233884 0.6223306562900227 -0.7710499587409897 -0.8337036713296897 -0.9359218938373619 -0.7814695512241667 -0.40076258279123095 0.3547514072706389 0.5323230466991761 ]
[ 0.7187291186912432 -0.09425628473527367 0.4759641446359329 -0.3339911636001404 0.5842380556962077 -0.25767602512097365 0.6334349737851614 -0.06406616127186608 -0.2722158785253451 0.5958662618843427 -0.03819742381155108 0.4923799356726521 0.17983850508149077 -0.12243168250976359 -0.06489870330621625 0.23720287295284 -0.24254685789071614 -0.08659022882776034 0.3707010553581735 -0.9165379688963395 ]
[ -0.06760212804798135 -0.3439945031553062 0.11482914190258027 -0.468018861332109 -0.5097601407317255 -0.3861158583212296 -0.2597251019622542 0.24836804198681622 0.5040732604376292 0.23744281130772263 0.3222314207875204 -0.5973482772914499 0.012589403745325198 -0.3268459423872342 -0.006701020978432483 0.3840782017033508 0.17491084782532906 0.011166246083481882 -0.7669402583271177 0.24394698718092409 ]
[ 0.5131957599164518 -0.2899842175295795 0.05821781951382285 -0.003322244404286017 0.026306395157098407 -0.09405175408684775 0.5710955597312546 0.31959263045935565 0.19878031283369066 -0.0904471444944994 0.24764006169003364 0.09728869988707488 -0.23337369357198073 -0.36433271584878685 -0.08719930211447373 -0.43485236812940586 0.2678552857361282 0.09448651920786864 0.03497485495623587 0.08192382588133115 ]
[ -0.19226019862327406 0.09070082065571357 -0.30145572795844305 -0.7799375223654763 0.7168343746435483 -0.5759998421889065 -0.06244778746944688 -0.3172807225279017 -0.6553123270898336 0.24289950394796753 0.7641310516614382 0.173604918340347 0.8075890522463863 -0.36590229950000086 -0.9060180577457252 0.33908401728106224 0.3959520649481655 -0.7525930540696857 0.8988393492138665 -0.5830675382339483 ]
[ 0.4391844303622656 -0.011959163157806024 0.09194976501275616 0.2759121070758224 0.15108145350722824 -0.483025381512352 -0.17273936520282318 -0.0534716150005831 0.30430335953124205 0.40609694087705206 0.9740848836777409 0.4102139360215035 -0.1835704607715421 -0.8576981616138454 -0.5423652056093887 -0.025940286341256977 -0.24359558897800832 -0.6186688502649466 -0.1502012352976784 -0.3947404891098604 ]
[ 0.37179629162299666 -0.8884041356833728 -0.016343641269909677 0.2523463047796441 -0.5133975923730049 -0.8753886106069344 -0.6810124665844648 0.4063274774330093 -0.4171092587020538 -0.08050267687860714 -0.10755265933920465 0.7294370388431258 0.7855457367150265 -0.19157344089805978 -0.4492170142636776 0.42698459118277715 0.3606983971075613 -0.35296484584529547 0.9358195614735026 0.2505498306438106 ]
[ 0.7186229765610882 -0.2033618550009246 0.23323206409321381 -0.0751816443065905 -0.6556646939728361 -0.034409000142047744 0.870023597329578 0.6145577792876585 0.3447666646450933 0.19332376880180244 0.2440801312291349 0.06452802782223553 0.06471590452940555 -0.3104343756379977 0.15316275647257535 -0.4417282614365269 0.4778506169471898 0.45510927973065274 0.8188306602144382 0.8563042074158101 ]
[ 0.1070680005041215 -0.41944653637779705 0.4197070748035712 0.7352949933951475 0.0443425532195959 0.6155654668862259 0.2905286670182107 -0.17530588076057899 -0.10807809983487957 -0.08927819968716663 -0.5345270060827234 0.13486716453017514 -0.4434955887769948 0.5776545043869911 0.5001703037256331 0.5182260279355728 0.36673606427546945 0.12297189620745978 -0.428172239327182 -0.15684004216500552 ]
[ -0.09857464638493067 -0.08998536985605159 0.0961583084586616 0.09181223586270258 0.03438672743662522 0.015324435458586071 0.021789961719139272 -0.09964507145856571 0.09300876980178814 0.04294520931033367 -0.10025148835728176 0.04938084814567952 -0.17585631079089434 0.1259265865105002 0.07640894251384435 -0.2296148026288592 0.04443366299132677 0.1159705600561464 -0.0830603126340229 0.045699898035676964 ]
layer 1 Activation
tanh
layer 2 Dense
20 40
[ 0.447209391193424 -0.26798891903373956 -0.19437009706875027 -0.21337531684472075 -0.0021605486543368932 0.03460943989157895 0.39605392798347283 0.44130657943541124 0.16461545087906693 -0.00802134969058734 0.4828193924870196 -0.522978611194562 -0.19189016771895093 -0.11317793901694655 -0.002950811023324046 0.1022527315077806 -0.12061440027129046 0.0018164143327696468 0.42100912653307504 -0.4270882778674633 -0.5771851893001679 -0.02895375579478307 -0.1032142010382491 0.094416091723164 -0.5776409791583204 0.024616872319025724 -0.04297184778064266 0.07816223142973805 0.29057147068932876 -0.3748447420994027 -0.5228170127254363 0.16034539135155088 -0.1077306082892623 -0.038616742235283046 -0.21741320093600766 -0.2687902126948131 -0.33730062150673 -0.11567705868413179 -0.16829193456127006 -0.18623072768381482 ]
[ -0.09471510507244621 -0.43162603327523036 -0.15075407368254617 -0.1374321064782618 0.35176037017503436 -0.4412681011754775 0.29272524162738967 -0.831809566075736 0.11008173801579053 -0.4307311439069103 -0.5136391204068025 -0.3294098999064825 0.8358769612508122 0.12862492970379824 -0.40551607001618994 0.231475203100847 0.5027090592071017 0.3569073668216525 0.4718537781248558 -0.27105880895504214 -0.16184558000867286 -0.5320092987625029 0.4973070761544013 0.6744089497607691 0.6035103234885829 -0.074969408469033 -0.07155168270358843 0.038213510156419064 0.2858362413810698 0.5655984243030886 0.12940908901956258 -0.6881745555975188 0.3075871022299384 0.20683402421910685 -0.19188831792092367 0.4012398030782019 0.36306792673450616 0.3566283914464101 -0.11484146443616544 0.07045616693530217 ]
[ 0.10692114659583016 0.43472893301124116 -0.19374418509685723 -0.1821083358070416 0.18699827553806805 -0.1961752394069291 -0.06650059008860011 0.8531319692254128 0.6517331750588228 -0.1743013087044504 0.2786044095631549 0.16811403430154923 -0.19332137049904324 0.3107724330653709 0.6546052991199828 -0.3432011164600166 -0.6491676443941017 0.22667016780016006 0.23923801027352165 0.49965417108608345 -0.06361456289486417 -0.33211869532319604 -0.3159337890946851 -0.477941671408501 -0.40465794004626765 0.06015922807781435 0.06067938944251987 -0.29310575931352234 -0.1544194907263986 0.27287888712617586 -0.28410322860540427 0.41526472386403335 0.03762847249330845 0.31273038727280206 -0.15972070668117191 -0.2804999028669404 -0.18367243985875145 0.21121024759482182 0.1301729868846811 -0.09580637402244745 ]
[ 0.14040914193427234 0.15683660508296518 -0.10983497304881373 0.0959593320369032 -0.4111496887720971 -0.377108977703021 -0.08265793054531062 -0.09974740079938703 0.1641775804932491 -0.22740033852706745 0.27525638237950917 0.28222595374230636 -0.051154741645949346 -0.017467392896497198 0.2335558190263469 -0.044198663310184634 -0.7513052028910517 0.017844025603288217 0.32892686196930104 -0.40347364379318823 0.5426480157033539 -0.03506120379907012 0.24911184302183514 0.34901726005981987 -0.21834937452773867 -0.18798329437268316 0.33032426538902826 0.02968623732599334 -0.1702501735396005 0.08593503995780755 -0.19352939156235402 0.0226848630921274 -0.1346104791002251 0.26914732218871534 0.0009421440000691641 -0.552468526125876 -0.19445458255171338 0.21966235797228276 0.1388355268185862 -0.2732080691099957 ]
[ 0.05585538132665282 0.47936991419903857 0.14479890420741748 0.2076600033922372 0.4800402084982495 -0.6075818571562578 -0.7751909138838241 0.37389577595084306 0.06961871328832865 -0.7467640120218054 0.24299268823513098 0.12121289409428382 0.07654892726351409 0.21509046604011553 0.08535597649398283 -0.5017404238140243 0.6018113792717316 0.22785879556085983 0.6418178485306261 0.3989324629691026 0.4452367968282433 0.06586041790006239 0.20048286043427996 0.020785416362291836 -0.49930849272395866 0.05731424513661715 -0.15649631490832266 0.10373445492916643 -0.14585643808370347 -0.22827784168272408 -0.4059332873739559 -0.2819575672227154 0.0053018820473680955 0.04353168698042528 0.025816076578103024 -0.07396795676767609 -0.12380946814862905 0.5243271291892256 -0.10130537095968353 0.34766387661136594 ]
[ -0.03413511022958981 0.49220292947450917 0.3463980962755329 -0.08320700804667873 0.40596138732617965 -0.5547738694747678 -0.46209110840346335 0.4800890260440711 0.3542424065020075 -0.3685601549276144 0.3730097668466999 0.4491063998681739 -0.05288002652648645 -0.2426797109555131 -0.19449394782381915 -0.5552398939832722 -0.20412484588463978 -0.12014917424838188 0.397269373939421 0.42296263460760575 0.47206824335896413 0.1684454080667192 -0.015769674327012064 -0.5360193009287708 0.20728857178080845 0.28995405947977015 0.32541593846685224 0.055913600068947404 0.003398085645614679 0.0496123289508895 -0.24327726134356514 -0.0670391063706286 -0.16482728186861895 -0.006853684102253909 0.10264724196833129 0.17805985842209027 -0.27759704012643316 0.21164917598853927 0.146758261642177 -0.2574690854450973 ]
[ 0.48527489421021675 -0.041480576862166794 -0.012929931075198551 -0.19156973003208239 -0.05548768249754428 -0.5025831343909394 0.35425814586953036 0.8633765643743551 0.19223887179916554 -0.7964438380327662 0.6236219076153021 -0.025798951757242453 0.2542174443558031 0.036168126507059764 0.520310911957739 -0.5537593403750837 0.07012626433338708 0.12578456511565614 1.0386817697679882 -0.03432548049311328 0.1933906799529051 -0.15336878813530402 -0.24874401080855596 -0.5890899030073183 -0.6516741395565712 0.0605917085444139 -0.2793822566393297 -0.34694251989060704 -0.27229408739499933 -0.09709532225988154 -0.5438111171017752 -0.08664443758102101 0.260163683532906 -0.17503390367815058 -0.21633222908959163 -0.7936694920629268 -0.5754930534683551 0.00737492917012916 -0.11758742587450194 0.11352765996461614 ]
[ 0.21436263261515492 -0.4824987217908036 -0.14418972391352544 -0.1290031504088164 -0.32920351500498973 0.3197775178739456 0.2337525514200295 0.13869371880846507 -0.13778425224541305 0.33269686768796314 0.40359086379364695 -0.32438258901738976 -0.23169122842300893 0.17392204168995223 0.3391477821597507 0.11307525440760346 -0.37590136277439073 0.13817665789344633 0.12791166042007646 -0.35071500281663887 -0.09808595676741377 0.2966308114676347 -0.2764187708571346 -0.010780716384817542 -0.40286644671191857 0.042526070101521096 0.27076487651340336 -0.055195234661970086 0.384420695656116 -0.2672652433349051 -0.19583262101231444 0.28348107195204914 0.10696268044095218 0.22433038397709643 0.04992614959313276 -0.1119723277641459 0.06747501824438762 -0.04847887562224409 0.18930881522195794 0.05088695064049675 ]
[ -0.0955818027947583 -0.15059156488362613 -0.006358173509033943 0.14336656259725147 -0.17158310493347168 0.1808891765760909 -0.17980280298196558 0.7865413569052454 0.20902428253032826 -0.046408871896137946 -0.044490990335459855 -0.1276844119048364 -0.3580144065148989 -0.1985291690834105 -0.34236498755568356 -0.30969641064052755 -0.06580730733489445 -0.2369625032902496 -0.21773246389451015 -0.5093610774415784 0.23393040787605907 -0.32056341381508 0.027482212308149755 -0.2926743226145717 -0.41462322455058875 -0.13960111118296256 0.1716199955760134 -0.22691429529144574 -0.3382301894691694 0.08970843916380179 0.08301317852667835 -0.24043477540903951 0.053291753640811804 -0.006042705164777069 -0.4330219636942563 0.05405453681471233 0.07745663694331528 0.2886607613375298 -0.019735466548626453 -0.2789659118800537 ]
[ 0.13520733659152867 -0.22160079635674185 -0.0227236981991735 0.13173904778263 0.5161083983406186 0.011852139162224183 0.06560844845456995 0.39803922772120104 -0.10872417836238968 0.2029281576390468 -0.15627069921625866 -0.24631511979558998 -0.09049524218416581 -0.028287031043233213 -0.08860831908386459 -0.3082484348559776 0.15197802775576089 0.07243486575495986 -0.17330286817186522 0.25964463527709836 -0.03721892291514726 -0.27601307437170397 -0.20249110419457636 -0.2175041377646658 -0.13296551926817696 -0.11226367123553561 -0.08203613303757198 -0.028820747293141314 -0.19306440467430053 0.01650396858937762 -0.2995992809089224 0.26314430316833637 0.08112269208827128 0.06775726325460686 -0.2759391243967666 -0.14474234405245084 0.20511031791267842 -0.029571975808805034 0.051543092985332835 -0.06245986656301583 ]
[ -0.484027131898801 -0.7682853999677617 0.16705431228507578 -0.23448370716475783 0.1438731562102563 0.152187238899284 0.16358263981074947 0.27386981095917856 -0.2872357150393234 0.0437862778066371 -0.005410624219163341 -0.26932968186403466 0.08933213699111747 0.27609672278723474 0.08440710251540985 -0.3686082877740157 0.7444387403972132 0.2656220189188807 -0.19915986576994446 -0.4272563203895434 -0.44232206044903616 -0.5065683891713186 0.290160025307954 0.8828411726615844 0.044588920773421886 -0.14721176381002335 -0.3062047463553735 0.32565895600376316 -0.04576954672326607 0.2360714468179079 0.10059864012205162 0.1714903671614897 0.4944772934730832 0.18122768838533884 -0.6810421868369156 -0.17925490250853424 -0.2663727355165544 -0.2690775684018168 -0.09207545512444724 0.21156099504956272 ]
[ 0.45167893642999446 -0.37213844637956434 0.2708044736581384 -0.11257045208497418 -0.13721998747736058 -0.12888792973533578 -0.17187090363303037 0.28688860427987345 0.00048412677808773273 0.04580236367391805 0.2330960307380498 0.0543329221621522 -0.07047483398050815 0.13731362630039165 0.13525545675550216 -0.21680018657478065 -0.26224500287437175 -0.4185212620252813 -0.13626989621751623 -0.11243570117115759 0.18415971870454823 -0.09837468346278797 0.2822538795530194 0.6556974990247052 -0.6973646877588215 0.21612807400847944 0.09249682639614736 0.21401512075909165 -0.19847004800642734 -0.12487774280332715 -0.11201638096110539 0.4329614201377435 0.056047115096885806 0.2706708957661219 -0.06759392212036813 -0.3496907307132038 -0.3054290098584919 0.33448625820885874 0.3406145795374164 0.1722076008535206 ]
[ -0.23766681886537255 -0.44584206912974744 0.28733796807229056 -0.5020558275092736 -0.1772901930750568 0.37260821977315395 0.38010738948590317 -0.23889741547505858 -0.016715599583811993 0.5874356310766916 -0.3008196424768008 0.10881017809236516 -0.16886335115783385 -0.17425891795437579 0.38700072938041613 -0.13726170350097391 -0.07024975633026913 -0.5185791600338782 -0.0676428934745123 -0.16756577382840682 -0.09102682921432753 -0.14306915541021062 0.06903477189820963 0.4891757364873705 -0.07851717616391445 0.31790650220507305 -0.11277548841484202 0.3890376461339531 -0.23837728962016155 -0.5820657141700918 -0.06254851768033004 0.6937454093469901 0.36912517618594015 0.051935769985316196 0.22411500331368633 0.050899167861983646 -0.21684579705286355 0.087390281385356 -0.017161173512560895 -0.1535839072834017 ]
[ 0.15307909298582006 0.3924807530792587 0.1320985104766968 0.1352955385021038 0.39848373428636197 -0.051543357437919456 -0.46780905475034973 -0.19302233066901692 0.3272121999317745 -0.40734581122730934 -0.0610083604088953 0.08996746371347883 0.35125636768705865 -0.03987943627156634 -0.1635644316017524 0.32439778059080426 -0.3042462198580375 0.07043972702257276 0.3666082139151635 0.021451887572918542 0.3144225550590625 0.33888278213968154 0.018843147582716827 -0.18363071598540756 0.2632752350027036 -0.28210983044115234 -0.10208949187520715 0.038619365307036475 0.11349636926306941 0.26459679207759645 0.24144923871865723 0.03666754099194331 0.15074127404759188 -0.11920596864136541 0.19399829227909782 -0.098257159730919 0.08704865340237603 -0.06022376006208577 0.08505321156975981 -0.04530230778360196 ]
[ 0.1848170623210476 0.3946881756385532 -0.29573495023291363 0.29542476540727086 0.21111502781886757 -0.026110240646836844 -0.389033614302324 -0.09546464529156554 0.6812636199879689 -0.22065662308131617 0.17139641794172925 0.17451019734966863 -0.0734073847048354 0.3560591529914758 0.14155344212843768 0.18154329526709015 -0.7108399518415661 0.5070335849244304 0.5360532586278808 0.4482405123074363 0.22193490717850797 -0.25799382882941574 0.0276711271679572 -0.46059368651013005 0.31204143943048757 -0.3063596235287126 0.013274853131887478 -0.5941134597267724 0.41796769116343657 0.5587945708104872 0.1280417021577679 -0.5656715094974946 -0.14824239329847702 0.16185498024081876 -0.24100706980107345 -0.09452965789009028 0.1742865517602683 0.29081492480215043 0.16358959395526107 0.10854018286376126 ]
[ -0.39707662668119503 0.12327554450212358 0.6511066394671177 0.024471473737978217 0.13354351089608132 -0.18527317717122957 -0.264980449367943 -0.39767915968550893 -0.09685510023646181 0.15602340360504155 -0.34037353966901907 0.12227539736419504 -0.4895999914190684 0.11861994413805438 0.1936890210384363 -0.14140811931178313 -0.6124508035599441 -0.6122252223663778 0.09411130237781758 0.6454063688829187 0.35344190435760237 0.21743972383883758 -0.3099460618582333 -0.5605022259845288 0.330998611615477 -0.08428452119772195 -0.32033594164327306 0.5523364014196726 -0.795688918324262 -0.9356074810490393 0.11850168662094072 0.48151934576095773 0.08248328456985626 -0.1129966279788928 1.0259499807277592 0.18885026965906862 0.25884771345466295 0.06858684033379987 0.12788874461935856 -0.053704305973507484 ]
[ 0.32472981901647374 -0.03686795178118138 0.4470771785954318 -0.3472998583000893 0.027940379333459758 0.46818384496381366 0.08441827183504824 0.5168874187298814 0.4707949997030314 0.1507475992137899 0.3809251646329715 0.1545568060992904 -0.5389575847503869 0.3762171489099083 0.5718597393537991 0.16693028729467516 -0.3910874037335508 -0.83276834180711 -0.09203040589941833 -0.33320806774208184 -0.3941319374895113 0.17156180223201892 0.04151830043547464 -0.36581954485404966 -0.47857588972784765 0.10322324426754413 0.08251132220271248 0.4412893264956893 -0.1896243594796342 -0.5591791333445071 -0.15834352891232997 0.5233548346734846 0.27125044820879907 0.2689608947565545 0.411664434204766 0.06486534094356065 -0.39218341157868297 0.02088206520493191 -0.05567155704958018 0.32490433333848756 ]
[ 0.03618216663017323 0.30922509490885086 -0.334939034472043 0.11132804125742975 -0.32987388486681435 0.23553704496448874 0.17334082800339867 -0.055904610519938586 0.5470823918442058 -0.19072861578687894 0.29834742996260744 -0.020921957528638322 0.05456026175382207 0.02863996047307385 -0.2838581273197823 -0.05162058809193637 -0.1121843028472658 0.04322063764028219 0.3858148661632266 -0.05224720529955316 0.08440301053715983 0.29717227770125954 0.06890255704865252 -0.4411784358349701 -0.028084379633107517 -0.23018248035536032 -0.016945300072395215 -0.24109930178529543 0.4625979724679936 0.40726370338538853 0.00016480243954398273 0.1505079055402388 -0.3936772350645374 0.2824861193855251 -0.25868071913166074 0.20614699765734487 0.29892854055382007 -0.13672418737043543 0.18373216765442674 0.1792157233144553 ]
[ 0.3342040473940243 -0.6156437304732283 -0.21008361851374668 -0.49284468855956387 -0.10825248503399787 0.06688076215833967 0.09180504726392623 -0.4667426530205971 -0.006848925121721468 -0.3056061842520392 -0.10582787295763832 -0.3640836268167145 -0.01418814766252395 0.305229024278453 0.47216069202848837 0.4634859292804734 0.7135512618557633 0.6347372515739733 0.6907615429174262 0.153808422890155 -0.3462703032134145 0.0480243022966181 0.08672038923039828 0.3344523724759803 -0.3612818170432998 0.015951898502241577 -0.10360475709128654 0.0401503209713034 0.3282562815397556 0.34623357746555566 -0.23629534688993004 0.2879953694973736 0.3182710339544881 0.01838816695963669 -0.35196131426252286 -0.31483457706701606 -0.158911623780665 -0.1546921225194118 -0.20798937701297332 -0.026246282154443027 ]
[ 0.3587417710065707 -0.10097903112266815 -0.4309114634554616 0.018919629816038543 -1.208762259461319 0.19136539577105505 0.22593869817819132 0.22354570470287 0.04607600084150509 0.8551164111306848 0.5305643598630453 -0.10665996702157896 0.1498554994224648 -0.09689938397350382 0.6290073764458944 0.6726981567918109 -0.31562983559073066 -0.22569750338159467 -0.11469721336094867 -0.8536354951619507 0.1362381267019105 0.1610321213527901 -0.5194035589239444 -0.5449447167375544 0.18288413609585233 0.05765954303929778 -0.07500538774511406 -0.8019465120205249 0.5323516959403445 -0.14138422933728773 0.3288491327437288 0.07023127528479285 0.08506888396227545 -0.0977053621640374 -0.2911098523855306 -0.08210492698682452 -0.05776818986356024 -0.8142616153607217 0.24758663602935455 -0.36784542845392176 ]
[ 0.017625466053554948 0.14315743245614282 -0.01783678393143602 -0.019371325518968776 -0.12117888536380941 -0.05524386170929115 0.10719021347184063 0.1514623946577557 0.21270584659444527 -0.27482255135343553 0.11025758611846465 0.2097389214601798 0.008949782924897176 0.021371772704790574 0.0743042261343554 -0.06817780874684252 -0.08153095164324775 -0.03971983815546822 0.113668264624183 0.002766311890642916 0.10295976517680493 -0.09321618026540983 0.12781806786829442 0.01248025244089885 0.11676358930804692 -0.02150958390066375 0.24599436780814768 -0.04209072934190771 0.12828593348800504 0.09464607239806565 -0.11294423615174509 0.006141246593291351 -0.13721486428587965 0.04897390187850121 -0.03542027059631494 -0.10910638826857579 0.004919625076008242 0.09822526858881035 -0.008215160222238253 0.04498229317755259 ]
layer 3 Activation
tanh
layer 4 Dense
40 20
[ 0.04018228455002478 -0.5846924473408809 -0.08997193984478129 0.1423692236302125 -0.3190218699670606 0.07329402869262855 0.46792754451220614 -0.4327599503002967 0.015615036232493251 0.5028099100510923 -0.013829142495168648 -0.06396738243983621 0.5902697716984352 0.21431558724207123 0.5141689576550006 0.6341190174405553 0.3780403958190961 0.167086790625258 0.02347794554370463 0.14534780967546132 ]
[ 0.09635258091722783 -0.024226352225535257 -0.38326266056762315 -0.5167325193003013 -0.4602602290957797 0.09137941303461215 -0.2990758878188118 -0.31619118600321283 -0.2895095449126461 0.2075304287026772 -0.21787209002792624 0.08674419394941409 -0.2227232432821163 -0.027466109024240813 0.07096432254107334 0.04114390759236033 -0.1898372890591035 0.23351321075999634 -0.1516630161863654 0.1922037028090944 ]
[ 0.0509950963199016 0.22943881013364106 -0.07565959465762673 0.3334825963281591 0.21218442735743712 -0.2559784550044254 -0.3598293436939573 0.09898854344235253 -0.013263126913242733 -0.4821534796118263 -0.2262715334831998 -0.5136301328069913 -0.051891649794202896 -0.3866513121162429 -0.2617200218498484 -0.16731246252092077 0.050270906284002985 0.03209264284174687 0.07199180055873738 0.09105596781663547 ]
[ 0.14236723232853157 0.05459475910668429 -0.10878466517470992 -0.24713827352915121 0.08233126609744146 -0.16136289283447028 -0.09372024495373535 -0.36696320986988556 0.1430173521591476 -0.24254065787336163 0.2764572469168712 0.07134268795511974 -0.2481570256827806 -0.05646480903440314 0.05321106503762492 0.13478109701239827 0.12670597274555617 0.2118452649962515 0.12011160088178119 -0.16515500386167 ]
[ 0.1303976989735052 -0.14000772214728593 0.07783069145268655 0.21493265944543874 0.35285984997962083 -0.25814799111920383 -0.09885319730137236 -0.01756899861455704 0.017360454808518135 0.2031562668782125 -0.29936776391007675 0.302279385419422 -0.6185232144381895 0.25388258998887814 -0.3548085151101945 -0.5475283582719249 -0.1889532401224244 -0.06432130900343257 0.3499487221919813 -0.5474647320238821 ]
[ 0.3059678198747319 0.08120841837743548 0.10785425459360028 0.07736387996428679 0.0629127231449016 -0.32638236555995687 0.26510030902165294 -0.0589251397168227 -0.23163415518112318 -0.07572465002659179 0.23644295664646886 -0.06027988733206924 0.3718965755977183 0.02718105896263962 -0.045416768203024566 0.24721772409357035 0.015010726784225891 -0.35539949696922135 -0.5623408139526107 0.5207622287524644 ]
[ 0.0032288832094621907 -0.17227104546323607 0.32882581580869236 0.49508807030552204 -0.1641436369898145 0.29265396128983545 0.15982912015673728 0.2033594603077351 -0.044896131437999344 -0.4117313422579739 0.35706242248100994 -0.24140768807327878 0.10730775231274516 0.13837434814766508 0.20387809471204216 0.11372002965066767 0.17204293250049163 -0.4168337246816102 -0.2342473045302201 0.13295236421593407 ]
[ -0.04094225493592432 -0.5695983630593978 -0.4551616079664041 0.08198207123672475 -0.13270613139439608 0.16258340877095284 -0.22847910268101265 -0.2684328458405959 0.022491588753172555 0.2047367357694741 -0.24317922403188066 -0.05178004869215338 -0.034750388069392714 -0.11172420318657246 0.4205186328927914 -0.011833004098775529 0.16417739623850286 0.23465287850558625 -0.04942546095589809 0.4157491103018578 ]
[ -0.2325514423444953 -0.540353289849052 -0.21035497653955926 0.009514754246189874 -0.25336753529107114 0.06912224614743948 -0.18160213733947356 -0.4008301386384764 0.03697676823148381 0.20323022994571777 0.1735169081920619 0.3700463166741766 -0.2924263306567608 -0.1792742930647982 0.10412677352496044 0.340843595512058 0.005997324952076062 -0.09558640437632522 0.23676432497523717 0.17260271112501954 ]
[ 0.1267862894576492 0.5272563417953309 0.2061706899007662 -0.16263960528089166 0.0009258000095395957 -0.2820242906111883 0.22964105553305775 0.5272412057690178 0.0012427490460926818 -0.5481683004605172 0.3055775864402613 -0.22679791820951717 0.12743487015303917 0.05190259293077813 0.19275035111209596 0.34731009007051716 -0.013232897069895133 -0.15046055012198226 -0.6842046190245639 0.46310801448667616 ]
[ 0.0643742613753001 -0.09640230551242895 -0.4072038840939345 0.3773589317102797 -0.2311939865695317 0.05333538315931189 0.31999609274721214 -0.0927708694393582 -0.0096084838986657 0.3988725785262132 0.08618759064853157 -0.19105488876995602 -0.0006315194910185072 -0.16536070469069056 0.27344332364263046 0.3582278581578135 -0.13317493929369273 0.3125154909155485 0.3628156672415295 0.21702788044553348 ]
[ 0.20023675707793379 -0.28768918226976953 -0.22949720559177564 -0.24272148265337054 0.037422254244730536 0.1301132777645813 0.09349736210537894 -0.4480345831158373 0.05225295569667546 -0.09449570535481276 -0.16206389563074658 -0.2118236888774379 -0.26660630232420945 -0.3171600565405648 0.22920440177498336 -0.19695904875436712 0.12196309717736394 0.2668528288898926 -0.01606465242723749 -0.264874043803775 ]
[ -0.20842397844214702 0.14208316695437073 0.09852650099198113 -0.08532814247160124 -0.1373259528245704 0.33098406437154826 -0.1278563288026853 -0.28323966664428046 0.3303649328208306 0.31083569059942434 -0.007552722561028782 0.1786033518731291 -0.5027019744184726 0.07500843665855926 0.13424631312012875 -0.3558090941724099 0.025519436322734953 -0.1024626419488695 0.3907030671147032 -0.3383146121240758 ]
[ -0.03483671848626529 0.24756349345573256 -0.060902374285919485 0.25315627857843936 0.009585538821418854 -0.13787599442207057 0.10882673848073905 -0.05377343110851553 0.0726411703731911 0.33038369901091197 0.2585322175815746 0.1915696726080572 0.23316247925640968 -0.18261929013489872 0.03879720957877701 -0.002214933236445233 0.15748148250978578 -0.26477380965549724 0.09997534656309535 -0.07623350506612728 ]
[ 0.29012201887260586 0.18892665872632575 -0.19513226160417851 0.18318601313782637 -0.14072148836462742 0.14291250136762162 -0.09113948476078586 -0.22852453904059986 -0.22323906116483036 0.3155284210565077 0.2944156912704849 -0.2687861714452521 0.056493810999231585 -0.3246240799394544 0.18938227565349078 0.270070067828848 -0.16975739104940746 -0.16335799883894436 -0.25952451997212456 0.39170563672053227 ]
[ -0.04188344436659112 0.3691243948347547 0.3645971937545177 -0.32897832572764907 -0.036822438732872026 0.27410636442267217 0.0920458958494085 0.36136973811106116 -0.37999124758714914 0.0799825853045245 0.07904436954257123 0.336869392277073 0.6263302959989256 -0.1309492133550629 0.2618102174088112 0.6046455915828877 0.32906109588625276 -0.2056077276052035 -0.2793146927862983 0.05439902974017647 ]
[ 0.19044249197278887 0.1352862666132052 0.4271943057701596 0.0934981423441984 0.253236750560733 0.44950909734407074 0.10002287457423084 0.19135787875857815 0.22395065018980845 -0.359793111887942 -0.17624601880211369 0.3671345087697983 0.05412831756776814 0.3671451508529464 -0.39105742364502294 -0.32082770454909143 0.052151195113668086 -0.22520014600038332 0.1738397521117604 -0.23307927607485937 ]
[ 0.18304396274845466 -0.05495955036326615 -0.02020437378459761 -0.21981235643193764 0.31256502508050166 0.47153863958319275 0.16166236631001102 -0.2883149896095304 -0.4037965364155766 0.33207437784098653 -0.06652348417817136 0.2982052625823645 0.2270033556438365 -0.1199625380753102 -0.15701202589434402 -0.07910939404942033 -0.20010823377245132 -0.25071581630730594 0.30225081970152307 -0.22304614461550593 ]
[ 0.18517668081834118 -0.38238585565919525 -0.2637898094892168 0.4030209968045722 -0.39087031721375076 0.2897554516436845 0.2847843502095878 -0.2791858758102596 -0.03795548997977824 0.4133280770676897 0.25444559534257283 0.08422920818280319 -0.26742044906413676 0.03819541006039333 -0.009602845824063044 -0.2503503542557887 -0.17480626237546204 0.14623319972485482 0.41376022852929384 -0.16203124162416124 ]
[ -0.21183166096567133 0.1723731453917758 -0.45123511661906224 -0.05002479961537429 0.1575950222503998 -0.4560658276305652 -0.237185583995721 -0.4986970035149028 0.24348687206858677 0.5762461135164927 -0.0724953082846022 -0.0326201195988891 -0.30680426711423386 -0.42393899574251476 -0.16945059901493773 -0.5346952548637048 -0.15334491691185503 0.10433329334433532 0.710745226909174 0.054820756626138646 ]
[ -0.036511749919408094 0.07103333009613123 -0.17171243549105747 -0.24179826614168193 -0.11753305364160219 0.0659298940971553 -0.02289979495545879 -0.03879255108138507 0.15838311349336334 -0.000504488689750492 -0.08051206418894724 0.19035418482643002 -0.1694828685081366 0.0323186050020347 0.1586365793175538 -0.18786546841948887 -0.32138677346820643 0.4158233726919551 0.21082710702946122 -0.09519718817065066 ]
[ -0.09577888074741574 -0.19928269135978524 -0.4252489756488187 0.07803803629995855 0.0855495650001544 -0.29742781004998925 0.13090415487190057 -0.11849154500875811 0.27848433849045395 -0.2379678189198012 0.029695898279664228 0.13097840795820073 0.33293574192978254 0.05972067506976393 0.26045938009587644 -0.11130235847748987 -0.32517539283014535 0.23714388268186365 -0.1200294365893119 0.12383045031384934 ]
[ -0.02293243025633105 -0.061228441144371676 0.17653492325151912 0.09851932632641457 0.3180467985222157 0.008307372608376197 0.07536766923510516 0.14643145304534833 -0.08232565680657605 0.09937741690772993 -0.4341098197450486 -0.18722313206174923 -0.07558688253770489 -0.001285951658062015 0.0035696637423873814 -0.04711441678603239 0.0731999741091219 -0.235369188102788 0.3673766387674718 -0.2500030745522065 ]
[ 0.09897915529293043 0.4868205229316293 0.4186704789286991 0.13998274182845097 0.6440482349638378 -0.11166703597889008 0.07918595374622571 0.0002667383146099237 0.2527067517516866 0.05458603086973427 -0.37892826051787726 0.1767764053491028 -0.24947575687528345 0.19523972526303285 -0.5410941979687348 0.163570951888494 0.011407828290745228 -0.43905403731172193 0.013039848634847301 -0.3587946646902118 ]
[ -0.08834307100072185 0.5454981197330466 0.29510517846361656 -0.3485652687545755 0.20797763220888163 -0.09919931056159327 -0.30294500943565533 -0.08446022885447237 -0.26911335801746833 -0.3802451783399292 0.23614652101294745 0.04134532119605486 -0.0005637586105916115 -0.24986955919114515 -0.13951356488923097 -0.17475115152872558 0.2387729149987689 0.41277321833699393 0.055422693000652425 -0.16595722579240021 ]
[ -0.1877630129206008 -0.16624591288877447 -0.12101021676224614 0.0968870641722165 -0.21912955351534621 -0.027867733620059214 0.16312988193586195 0.24960714905838308 0.1492706907709072 -0.11446021518722116 -0.29674445548301853 -0.15624911037855488 -0.03988026765876029 0.12738082405497408 -0.01042966163591324 -0.0037891421375990963 -0.1845051279332877 -0.009760512660738841 -0.18936062984858984 0.026619551239738196 ]
[ 0.22911182463371257 -0.2490425147768587 -0.030328549905405344 -0.1388127522331863 0.03245100147243512 0.14981477130037554 0.07456604129709678 -0.11620584401296108 0.11309600398361869 -0.13009389816868716 -0.20204552121841396 -0.11846516537096739 0.1873612470650401 -0.23616672018590776 0.017238940145941475 0.2698665869437225 -0.09633240905244121 0.09967471082366089 -0.05641784242919031 0.02232130921584395 ]
[ -0.034501797644607056 0.3259125639280542 -0.01617488796485315 0.29900148962030126 0.2562989453305444 -0.061918147988184964 -0.17293662594043505 0.23802546552269355 0.4597760906938515 -0.07551714597503796 -0.40380305200266126 -0.47208963732081843 -0.3253266616838618 0.14374974875513746 -0.1984088011028004 -0.388863089456327 -0.3951643625798361 -0.06337114092663464 -0.13433711819167798 0.1653063678282603 ]
[ -0.07422292500068033 -0.35190478806478576 0.39253461071199197 -0.3955685361316336 -0.35894734198671585 0.2693999855078005 0.4288657003111342 -0.3003217801856957 -0.09679900013621076 0.48261075305465245 0.3438142708263891 0.4909994053696714 0.1784539054594738 0.42196769028918674 0.20339911822804566 0.3240760783021879 0.2365604157152918 0.05145080980567282 -0.3291406111090588 -0.11316475013577638 ]
[ 0.11528509437472995 -0.4036302985047144 0.35041760304178043 -0.2570653466831785 -0.022960629567356935 0.4226975494538358 0.2098615689142818 -0.3403321660120516 0.0343535626749839 0.012602506923589928 -0.22557220319806798 0.5324241865287588 -0.20987997277254639 0.02509017712110469 -0.40251329589500107 0.2465857107655605 0.0016196069371545733 0.27837951706430347 0.2242140144063226 -0.4323017735867825 ]
[ 0.12474574454179628 0.17232327957045412 0.30676258714258825 -0.19172760954291765 0.28624342656254925 0.10562540356413479 -0.23610615269893126 0.35935340096710827 -0.2083088013822327 0.014964179628899125 -0.14461580805001514 -0.02704620924883545 0.4021951088116434 -0.0720970971805221 -0.2555781589598173 0.017257795930000486 -0.19207043659764547 0.45351881608664774 -0.31218601602658225 0.24642596751654983 ]
[ -0.19939603459537747 0.1867530275771136 -0.45812043242733186 0.319873991116978 -0.2699217501324213 -0.08545951315789248 -0.3840772861388779 0.17616937700445487 -0.22286862836530896 -0.09422216410160197 -0.33829865576217716 -0.21265318938188818 0.3837645699300818 -0.16887364190397844 0.311030147624903 -0.03616338992319793 0.2098748542233253 0.03189441518298855 -0.3775905312866433 0.4420021696373839 ]
[ 0.20595477839365486 0.08442073588643269 0.2008774227780739 0.22913787216131842 0.178700208010082 0.11676258371353479 -0.1250302747792987 0.25121794420495724 0.2377781427106468 0.21563653943571073 -0.08246184252179728 -0.0819796421368122 -0.16433010363564352 -0.024991243618471732 -0.01790766345439462 -0.11424998738395864 0.06578538509854828 -0.21302541320452748 -0.18450962793646722 0.04093562282459577 ]
[ -0.3466026629680255 -0.03534830287763746 -0.08219436340025887 0.2761648536692848 -0.13176375702876073 0.06911890978291267 0.43351478185278847 0.1922526655174465 -0.17164302821201644 0.30233651044099896 -0.2069360449980037 0.09872139143118192 -0.17522573022216312 -0.26352973013060255 0.02409097364312456 0.2556288282308453 -0.11422177814299109 -0.005303659614582766 -0.25423544129846787 -0.20056258676363603 ]
[ -0.07083126132835867 0.48008056360925505 -0.356183457177372 -0.15807462081938534 0.08381488866462808 -0.15498782015039012 -0.3081207513226882 0.09282874746928658 0.359065434270246 -0.07005498642937423 -0.31678061586384565 -0.06628237123808621 -0.05950451068308904 -0.2252889015484857 0.27899629616036403 0.003503207401928903 -0.2913410759030791 0.281858759736498 0.3279371072416671 0.574519902087425 ]
[ 0.033883657364179955 0.003880771505217352 0.13156454551611754 -0.32616465367296793 0.3176630329185286 -0.2811906863258385 -0.13099499137474024 0.15931780167884663 -0.33055409765275034 0.12636689541101878 0.021364767422161163 -0.23043940394442394 -0.12055908618926285 -0.05954063671271162 -0.07810757484546066 -0.20482121114855242 -0.29361256838599903 0.01177086460571468 -0.052566403716419345 -0.13244604897573786 ]
[ 0.14536144608758525 0.5470993458032174 -0.039078598497024074 -0.10802491449346568 0.290703689107032 -0.039644071345692304 -0.2615408680841415 0.11925001620950493 0.08395878540008722 0.10806247617099851 -0.026622952685397303 0.34516926850524704 0.14468323379864748 -0.10353813503360527 -0.23943334909078934 0.11355755443367715 -0.03535461343088881 0.40184829088545926 0.11412790585587321 -0.06377419003381668 ]
[ 0.30989006278567743 -0.22286840331420685 -0.2895049581897541 -0.07604691642360163 0.12470112668846663 -0.03433490542293058 0.04861979017823654 0.13927244102041408 0.6353075894091228 0.18707934623260378 -0.3914857120918607 0.10968674166468717 -0.3820161041094255 -0.26001772161392234 -0.2900856072463339 -0.05424699578958266 0.047845258651230294 0.02996972417177024 0.27488451612033765 -0.26649713605015857 ]
[ 0.10163547901025669 -0.15596244948676843 -0.07466656022982222 -0.008364726838399821 0.037967327223802534 0.015582262608286844 -0.07372332347798377 0.16906216717021905 -0.4446804435082552 -0.2545707842172912 -0.043383507412503616 0.22983514891291557 0.3134379546863221 -0.20480886165597137 0.12239097484485967 0.06662238464649343 0.04051376373288772 0.24945095444800858 0.049281445749604635 0.09917310098400357 ]
[ 0.03419649809873009 -0.025272954259139058 -0.18608371667192516 0.1548654483647565 0.21669649771304492 -0.17586280069061866 -0.2754965565098623 0.08309009090098597 0.27190689332567625 0.4051545055254758 -0.0699838508991783 -0.04930990391287303 0.2554961382529213 -0.11181826944507528 -0.3119282102274023 -0.2598020392366816 0.0004901166694152868 0.06644707440314113 0.28186504172665333 -0.13759920174190055 ]
[ -0.05747100687936791 -0.10646331106541163 0.3790385507522386 0.042233682108090476 -0.1608989905594683 -0.012039864640692531 0.27548945834384847 -0.23048460611883298 -0.028495570777296537 0.08995067138425324 -0.149902620418642 -0.07473103175506786 -0.12487962795435109 -0.19712664596674315 0.13202947479306293 0.025126365317481296 -0.10858491810707016 0.09684700975774996 0.1129594274694679 0.01948851087161582 ]
layer 5 Activation
tanh
layer 6 Dense
20 1
[ 0.01295879815156327 ]
[ 0.20418633370741915 ]
[ -0.15674989756961147 ]
[ -0.35553640972725814 ]
[ 0.2777303319635163 ]
[ 0.34607087296136874 ]
[ 0.054089086601139966 ]
[ 0.2659612223154568 ]
[ -0.07016023097693856 ]
[ -0.18005183465945665 ]
[ 0.20548822278283524 ]
[ 0.2399495547264573 ]
[ 0.08307208391382927 ]
[ 0.22278434498645425 ]
[ -0.41311333864632355 ]
[ 0.25654873578764686 ]
[ 0.009316284658728392 ]
[ -0.36367564207820463 ]
[ -0.33933060850563135 ]
[ -0.40146279804187157 ]
[ 0.057453584218124285 ]
