layers 7
layer 0 Dense
20 20
[ 0.11192909243141724 -0.07997407542876518 0.11923219148295204 -0.4187914890012122 0.12416710941264805 -0.16076670839831328 0.14670727956396082 -0.325478665836585 0.08733662473716257 -0.1495937218882817 -0.05116353450106671 0.4219454211716962 0.28573025071847535 0.26786633371917445 0.15742537438147963 -0.6925328208462856 0.05752099691634248 0.014806499301254933 -0.2552746721531295 -0.17148311907171968 ]
[ 0.0787398748051266 0.24539798719597455 -0.2188937904054888 0.29528369481920136 -0.19130227473732514 0.005724030845280634 0.16489521154371245 0.17783507945970572 -0.12562588575874187 -0.30961151701355194 -0.15830571334502438 -0.2727415901055549 -0.13762821051681484 -0.33258509429162497 0.2155978258427034 -0.3139905987507803 0.22032468396551289 0.3479096179570261 -0.14346023019232246 -0.04758911672605242 ]
[ -0.08814298677208614 -0.3193995778015986 0.04155042490568447 0.2863422042242203 -0.15886464296537853 0.17198720554476687 -0.2767427705014653 -0.21643452659344287 0.08542800166243636 -0.33319728367442664 0.05192008000883978 -0.011279894510481355 0.029147007304147435 -0.17553536062564565 -0.2153205571418117 0.3099098290876928 -0.2692009061925166 0.3236265896463332 0.3860414728685603 0.3276202651269042 ]
[ 0.12230106706829258 0.09855209676394037 -0.19825377818287507 -0.2712130422088253 -0.3840832461440682 -0.02980167753944625 0.07288228877885776 -0.2634664256100257 0.34270392519628723 -0.19302127815826645 0.36917403200615784 0.43385535785391716 -0.1558933063289685 -0.31184987280564336 0.05483005715225922 -0.6982012276660151 0.42199572152037623 -0.37616631249048776 0.06047998301260337 0.4445267392032348 ]
[ 0.34231524829360666 0.10569487240065388 -0.07030713951858983 -0.41205764778033616 0.6551848092150131 0.2114508842072699 -0.2523077994746351 -0.5919447521445212 0.3558891955564205 -0.1388193866663338 0.3020746532120574 -0.5428297460815057 -0.38670307980689506 -0.3391268033487335 0.4276387296524094 0.23230016827780656 0.4887024942002001 -0.35627945681409057 0.3713251876429375 -0.5490013329785488 ]
[ 0.1822567544124516 -0.34154739718409255 -0.04392441170000749 -0.26944560610705737 -0.20327734487115032 0.36063131769956475 -0.3637507643666617 -0.08501040960665622 -0.3429044196994409 -0.28661174577599685 -0.32429097489364234 -0.1901361804783955 -0.1648909160324543 0.3739410015923256 0.007849592665374928 -0.047173916314264354 0.1237669057610342 0.32254962951426386 -0.027473863973510686 0.3728080303830534 ]
[ -0.21492982664382282 0.11707873632748299 -0.3631560995967397 -0.31026229867295974 -0.09532846653414098 -0.1854918828597647 -0.09180801877398677 0.08223256417434562 -0.18597686199762808 -0.0782764256218074 0.30716469533841717 -0.08927426078195212 -0.03920853959031518 -0.060502964608266804 -0.015587044172980697 0.08164120068621725 0.3586078754331985 -0.27791751609223514 0.17119027908609963 0.3015809329948465 ]
[ 0.0434778348259232 -0.2213407921496896 -0.29511147591916537 0.2676780285195115 -0.17999946833118052 0.006199125918479238 0.14089511423136317 0.093021083361907 -0.26109211116272996 -0.23952467106408287 -0.2813545314835787 -0.2184082927285418 -0.1697941238275044 0.07753108725543911 -0.04572784487385868 0.24662665872445103 0.13317100706374563 0.23678658855678228 -0.20348529537620105 -0.08527137488070127 ]
[ 0.5571742777290202 0.19589522322856712 0.19155899359543538 -0.6052852809921856 0.5635621825240549 0.34225084565175434 -0.17705207556524447 0.25587953929599605 0.2528568853303263 -0.5040814547332678 0.12313134241462247 0.11746332168223282 -0.5181328476433115 -0.22279609225145952 0.14238109475079272 -0.05241174083863803 0.3159681537945677 -0.10741324258406729 0.16696891141683445 -0.35374329183020836 ]
[ -0.24903655429525554 -0.3311052185241712 -0.5765176135421028 -0.5634735078429727 0.13662520848227677 -0.36439463299206876 0.0037342042569277678 -0.24248301008002632 -0.0837480755663405 0.19301558539155253 0.11102208780034024 -0.0793552606176206 -0.4399660670222679 -0.2788903615537897 -0.11601230658891563 -0.1437156732328192 -0.2603717392357188 -0.2923771874466471 -0.47052962416913435 -0.3259506957912644 ]
[ 0.005358353772090787 0.11987029764406801 -0.40749586149089967 -0.04412793960389198 0.13330425894328932 0.23179316263854136 -0.3837495602511206 0.3550595668246756 0.09090969499442754 -0.5110936901217491 0.6241229589160564 -0.4663473522664546 0.4390870062306785 -0.32896711180435817 -0.06058720484984896 0.5827474847091625 -0.5163725991174326 0.24576396742979886 -0.3512122308337518 -0.5052609968486549 ]
[ -0.3426440307312056 -0.38406857958234125 -0.5233538595675187 0.5495076768496497 0.024570654540628848 0.024800347448683695 -0.2004356858657593 0.8873404029351377 0.32077825304150664 0.5904254234799338 0.4753298077534976 -0.018323620758527923 -0.19947472101455588 -0.026189089035478872 0.1018232523045528 -0.4203404619586711 -0.3089851424038173 0.5110789294462622 0.9371842333327319 0.11428562682285746 ]
[ 0.8096062357428403 0.048730072434267906 0.25308806292078634 -0.6913653712579074 0.42319391729466 0.4739775467907625 -0.35988845210559356 -0.10241921034591568 0.31950442960604 0.08903742774350551 -0.2057865080553342 -0.31084181579033343 0.4575636437315437 -0.15580846534713585 -0.25100771746805767 0.1836843691215494 0.4854590200126744 -0.13869969010926608 0.10021127509635265 0.16191261001172358 ]
[ 0.13792130384875304 -0.4294822361375372 -0.312169592787148 -0.10258990044048001 0.4448366679937788 0.5655780159698416 0.16660525059197806 0.24208774779627873 -0.050070974074208595 0.6227639982021875 -0.634913810987642 -0.30827710435478206 -0.044195052085797056 0.12691743959912102 -0.28174386757236874 -0.1677276593811286 0.07245813263455227 -0.3787839795874925 -0.28447070457935186 -0.0530176771794948 ]
[ -0.0922257132406067 -0.0026125235342674244 0.2700432122462931 -0.06750333079026387 0.2676458059270988 0.6075476509271588 -0.21981225362929316 0.11307232023823015 0.11434946836555158 0.24446021488823713 0.2904607317264551 -0.4841696054772507 0.1898913126257798 -0.18586142712886466 0.10238975586471108 -0.04927158902028123 -0.4656996496091015 0.14860214515253883 -0.18298746572967325 -0.30015332283493207 ]
[ -0.060518646095447756 -0.4649864078332651 -0.6202595631131096 0.3792338836074529 -0.05305730525449352 -0.4219289694586769 0.3896607449157616 0.49348518252828905 0.8056869314967967 0.7747159763808216 0.5597882746601721 0.06869741818740104 0.810035847811327 0.1791231536381014 -0.3823137294522959 -0.11784850723029787 -0.04994913696167697 0.10537165093874178 0.5769254671269283 0.05438877170024761 ]
[ -0.5323241609613449 -0.40976914212506776 -0.20393623184915471 -0.2189869166500328 -0.1318288840711451 0.02944997599577595 0.5200912824070786 -0.8866355841702614 0.8238903858823755 0.7273426030393874 0.657889593412105 -0.5695984779319803 -0.4112707082745858 0.4595496218332456 0.044448367417776136 -0.12253812601937168 0.29848890032474584 -0.060415910939509224 0.46561670570586794 -0.2348880088358234 ]
[ -0.32022318626778695 0.712776768715645 0.8295804189553244 0.41738393791192213 -0.62184897474502 0.1975401866355745 -0.5401270586743809 0.16731957213907234 0.6487743976364679 -0.8606864287692795 0.46200251836134415 0.21659796587929311 0.4527336079053518 -0.7972100804882702 0.514116356963704 0.1650517635183239 0.731772520434237 0.16086231015605523 1.1959755760359134 0.3311055791302434 ]
[ -0.6044683162056707 -0.12553622595389907 -0.768254820995537 0.22499603728589082 -0.741112398042005 -0.6303647595948346 0.6241194931060245 -0.03946504888976677 -0.8017203205244954 -0.6154821957297698 -0.5186070660968405 0.5704828905628976 -0.4178553781012047 -0.03477402824417384 0.1990478399157063 0.23671345477026545 0.7100898768779685 -0.3263069346999692 0.5894365439800673 0.7377282845809663 ]
[ -0.0994582862531877 0.26858812450263864 0.6260707438849058 -0.41477675503012035 0.13170690019880435 0.24460918690688715 -0.20895364446641826 -0.1272987827669997 -0.640067699817538 -0.4308045687786111 -0.3798774137671878 -0.2146801376097965 -0.36589124354374375 -0.08265470249715927 0.22564012808330022 -0.1041326910600245 0.5626948991604791 -0.3640348848605001 -0.7375829310674816 0.05924737888907529 ]
[ -0.06862810074977374 0.05864969610438064 0.14255393069009403 -0.1413863427459386 -0.05000724198559228 0.040415540146488536 -0.041560520953711724 0.048102939600588465 -0.12977101467732718 -0.13826730501629486 -0.022841787954243867 0.046077146518611084 0.1085395413231935 -0.023462631909188895 0.14662319867541035 -0.12034992564852473 -0.029473112932358513 0.06897891578699421 -0.19034549532893183 -0.044150539534970376 ]
layer 1 Activation
tanh
layer 2 Dense
20 40
[ 0.026182512136696843 0.2461340328513562 -0.18707762380619394 -0.06408141798697921 0.09373339828667247 0.07629552933208789 0.28353929437007985 0.13625780870828805 -0.013233012285626277 -0.035982531956455996 0.09743296766653273 -0.3320395530797749 0.24235744052133484 0.1464278668316627 -0.6028900085229443 0.14653991101027153 -0.20534264337797142 0.06642339808879874 -0.24956395546883545 -0.05666656186306332 -0.03447479824907869 0.5419454337460079 0.41516322308443254 0.1860227737555664 0.34369222685093315 0.2699349410682972 0.24243317398835154 -0.13083581439192576 0.2446136018715174 0.03311539029282112 0.2185893388262978 -0.07448777571682852 -0.2556028142618091 -0.09009242497458855 0.09420625059128893 0.0789407316105287 0.16067904432733238 -0.29783612337126386 0.2543170799348122 0.04339681009294523 ]
[ -0.33755410244026407 -0.2520736866473382 -0.28768570639946356 0.23680997155135083 0.24325270416414144 0.047119145730795675 -0.14530279433729812 0.2395204824423546 -0.25723698796184996 -0.2024293738799655 0.36716586503490806 -0.057095296104825985 -0.0757711290139198 0.1598640307668293 0.36523641441770016 0.03670478869380583 -0.30613461273150516 0.033310688073449966 -0.2844102728594559 -0.14724079148246005 0.2921227123959315 0.13466933491531025 -0.5423465269685709 -0.4117989267120427 0.27914596770481 -0.6611640528921917 0.5564729452847791 0.3937091543640783 0.042128947156897883 0.405142812062172 -0.1013731091581492 0.06949816705246209 0.2702558393879743 0.38849460288091175 -0.03176608826501574 -0.05421222181049108 0.3619378645959706 0.018744508751052394 -0.13800829328413752 0.4539794578581522 ]
[ -0.2616347384245935 0.06019258154813484 0.05508177019152517 0.09493265131638098 -0.3650954173665038 -0.1251332853111903 -0.4684748369803859 0.3045157332343315 0.17187290088548637 -0.181475409147294 0.35661661689353846 -0.21137307266919736 -0.0367258678579677 0.0030361947352915523 0.24142214521421607 0.09653175452376625 -0.7466128180183738 0.6264277266307909 0.49465777967364344 -0.06018109790186715 0.25258810707067114 0.29074038967847265 0.06665922955331353 0.25931337591280584 1.1780829663457946 0.17687735866698856 0.2599187952798202 -0.5239435260123358 -0.525743473380975 0.19594613382509896 0.3127139757803896 0.11826899095770106 0.26621928809991713 0.49688380969281143 0.24986367514590443 0.40631525566852283 0.17738902933668793 0.139554000419642 -0.35838678873637275 0.20853311546199316 ]
[ -0.4314504232408127 -0.41853434793768624 -0.1072973835523168 0.3891113404232866 -0.13351629031710024 -0.2669447811925256 0.3489554614278735 0.10945154167307597 0.19522654490831245 0.020137723184004926 0.06039721575227474 0.12889192030777827 -0.24733467956766764 0.26984720374394144 0.5741601023186603 0.1398742449518358 0.7426946351009085 -0.3201622483101226 0.4725977093090372 0.1779095765280183 0.09559876363990193 0.10215348758463023 -0.4152890968109166 -0.47658784743963956 -0.4020889338808895 -0.5822206070812213 -0.3221355483941714 -0.01856084855575147 0.4284803365927294 -0.12306828200924885 0.029898988766998025 0.055744599823124234 0.40828285812749365 -0.11988413470682872 -0.08364104467776645 0.42747773184208404 0.2776804528296877 -0.06242405667490511 0.5246144416161348 0.03012083970548691 ]
[ 0.16721044538696447 -0.16953388978298214 0.15185951173777035 -0.015439688964386925 -0.04509616704985026 0.21053562258934552 -0.15293286557987293 0.09467665980288957 0.04066881826897672 -0.23465279441278317 -0.15007186546503562 -0.17052943663396097 0.22411078805659082 -0.22263656430417775 -0.11644660118733685 0.08206700474880482 -0.4104499488435339 0.11229503263675433 -0.03209005325861513 -0.21805018767830875 -0.09396482361767274 0.28149946365589595 0.256833437973983 0.2399879717355921 0.7203395805043145 0.272605509542689 0.14008252849407046 -0.02836973484135082 -0.09423424533859787 -0.06387663867548164 0.0619439419196908 0.12563499890380075 -0.23338815184870748 -0.16561908374575907 0.009657812034033188 -0.3490513431288188 0.28930529010645456 -0.019341519525903985 0.2550120645986175 -0.31143275331766707 ]
[ -0.13714284354520562 0.06512845960699631 -0.23056537237107633 0.1860471020528593 -0.20846828857888342 -0.32280119738364166 0.1882643819746133 -0.026959491451413794 -0.26249324913138516 -0.07075136372971212 0.39181979861182015 0.2513075921031539 0.14016603497729932 0.18208488290833036 -0.20251378965113534 0.021065199793022606 -0.6681000133263374 -0.0377231449682216 0.20063328599763142 0.1829154182603892 -0.19541784451390276 0.2952010614542805 -0.0662551371202309 0.20481897657199133 0.5197088294898541 0.36134120236342826 0.8107511741019683 -0.27860558721355566 -0.1002284653272638 -0.1497829449771896 -0.08524767231041691 0.29821375808034806 0.1989903477096006 -0.07124483730361977 0.07482065322886797 0.05402252652794136 0.1966940945934443 -0.25441763900376124 0.21484256969832422 -0.07099658525685931 ]
[ 0.17435950359147137 -0.20825165227643905 -0.0628408130400369 -0.06343586493733896 -0.3421818168190484 -0.15789066296210813 0.08532450190279613 0.07907431973662055 0.04746296574856023 0.02891816905488219 -0.07204082483404199 -0.04668165797455151 0.5380396043513562 -0.23279102846862637 0.06486356331284115 0.06951535489844428 0.12789866662189214 -0.02476296071557059 0.21466092153120075 0.0965811956065884 -0.1877908928021164 -0.014174222698962263 -0.12215129075580235 0.33753826078538895 -0.7324730971472465 0.06935623622889037 -0.6027461580073413 0.2428764242303886 -0.269555766807034 -0.09964884555392263 -0.061474890420848353 0.0136721730501141 0.05567897557237991 -0.32269734809387784 0.2895415429950038 -0.13022088418468208 -0.1690795027823363 0.0072329870316492195 0.032343218807568706 0.21289481229242024 ]
[ -0.21977698383206615 0.14116079318329075 0.3079681709394863 0.23580456212036294 0.2044318496283161 -0.04797480321856023 0.1144463406366225 -0.06645329743654393 0.16030096874823122 -0.2129399513218319 -0.12091305803459995 0.2564253399786256 -0.199917016515527 0.1233877512940374 -0.1226625089982855 -0.050200440381156064 0.2901672244412048 -0.031969782788710994 0.08481352189370078 -0.1934833883862395 -0.05874320056900947 0.5986434492854125 0.12673784696471835 -0.5178535712987739 -0.25110277932298714 -0.38585177398518244 -0.1932335696492532 -0.18324191956207697 0.2890625220437275 -0.11778990190851657 -0.08976968939159748 0.1772842430255053 0.1654503457148055 0.04428785445244513 0.020138345425367025 0.23155064282655277 0.07906285827533817 -0.266354088546676 0.5642428070330728 0.23995246319753616 ]
[ -0.22781310339328895 -0.004381598229296358 -0.04020777772209151 -0.3461876790294773 0.05384124330507106 0.04945735906145527 0.011260951767585296 0.011274846375303427 -0.14441110635462567 -0.3317188826449528 -0.049596677001175066 -0.13946571335735802 -0.6429580119129185 0.019657239377429404 0.32593632947675777 -0.035101053683435565 -0.0890820752533971 0.048157769682097645 0.1970764781366583 0.1698175369977202 0.5601472551002084 -0.4293615805969941 0.05957703309771616 -0.4239236742541859 0.11314857664932491 0.1153088308649917 -0.1746024430032473 0.4277763729517703 0.2138676865605835 -0.33143282832467214 -0.0664545837863929 -0.019668698324377013 0.30534958845086807 -0.17880698692990038 -0.03466243524251454 -0.03590395368024262 0.019811479934464533 -0.49938806478299075 0.26980389689852824 -0.17118762919468972 ]
[ 0.057433549508331114 -0.2034691980334959 0.26255798680726583 -0.23294767774391115 -0.06997498244932732 -0.05963532513566778 -0.05889627992826335 0.14132295740525136 -0.23226349652719017 -0.09665275627988788 -0.07163505542709755 0.41934012622122957 -0.19445996501315269 0.12612846032515082 -0.13315785379693618 -0.11222427131337237 0.07033007659323086 0.04761209434707807 0.36878318257645426 -0.15225215835129616 -0.18833068651465917 0.07184679131190526 -0.22924687738487984 0.4549651849104407 -0.5661342926294614 0.13392350340109566 -0.6584670657122055 0.08260200618858671 0.15369416910322345 -0.3526680885269859 0.22602810739481577 0.09672751883950773 0.4464248428652339 -0.5225828082764923 -0.14463534360596 0.288230817013862 -0.4585721473127034 -0.1804282607491899 0.4685426753262854 -0.5493435812627487 ]
[ -0.15214619499579818 -0.3022843708057127 0.3351579633964093 -0.3356130534381367 0.11006056331138277 0.22692130369339739 -0.1746986271418896 -0.25922329722493725 -0.010429396571929683 -0.3584648852856066 -0.19770073530039012 -0.23579688093845963 -0.6695959930294796 0.16559878703268258 0.0035969171964446737 0.09450895372524337 -0.3190901077541151 0.024084305640828276 0.1162428149339087 0.14422145017388568 0.22930694871244192 -0.5225636959684729 -0.31338613500092743 -0.5699284589878623 0.25141305893867033 -0.39522377859207397 0.08762544754829595 -0.0704056923935228 0.2208114386296282 -0.06668950037541473 -0.07015263650700901 0.10666415125792174 -0.13005983036365001 0.3575269256994437 -0.21849172524262228 -0.3297703899669122 -0.030883777023592122 -0.18721401771076535 -0.3893069283846554 -0.24759265246773599 ]
[ -0.052398161382361856 0.06909139471597964 -0.11761649776189331 -0.40538547769182487 -0.17009138180997568 -0.19126781650889874 0.1925344441668594 -0.07937116639119554 -0.2218033265921888 0.3352408786612613 0.24506055748829272 0.029720409445432444 -0.02234793645398166 0.06228424462759358 -0.13863766529143667 -0.15687561428630167 0.17544251261314023 -0.27446034652236123 -0.3705337862093495 0.13746093379979585 0.022423540733063543 0.15437975337688817 -0.00974080230857919 -0.003919251579411233 -0.3602074007451671 -0.22034577814554576 0.08116348852572634 0.1317504816489324 -0.3875989614890034 0.2191482976491323 -0.13357408307733007 -0.11547720731193672 -0.01442720873586562 -0.077242327468526 0.00769138135211775 0.445820816592341 -0.2004475983881777 0.40969771183877896 -0.06944462740584038 0.18590139854779583 ]
[ -0.7360016559264886 0.09739171401238701 -0.23089599437725752 0.000548017596556794 0.12925755130329356 -0.15328727355825045 -0.25665196352483755 0.20892679633457117 -0.1343223916453278 -0.16930735993255167 -0.030592375720651658 -0.10702340129360542 0.1712679493631704 -0.054292964555317486 0.03179574423982149 -0.2633056571963832 -0.3502365666450965 0.2926186582341518 0.2792344431466216 -0.20644677712261364 0.6169149394404899 0.19670063096045182 -0.4848645492339994 -0.16980744211922127 0.0578436610434299 -0.39943004416710665 0.23696796311945134 -0.42417752907114653 0.05721755158583078 0.24384336192750927 -0.13217002086986557 0.21268279615409183 0.006776798523157062 0.4438057997625513 0.24812800295042706 0.5372287829183706 0.6040426292124804 -1.033349043205744 0.34811727937717335 -0.2108467715638294 ]
[ 0.2197687053946369 0.4060271132528853 -0.2896463712287846 0.18878520468784477 -0.11575017910964196 -0.3723088386677018 0.3842952948027408 -0.032612065852306985 0.11830586083120026 -0.3172804678520111 0.3089970090070146 0.057140673935550425 0.23212723431342586 -0.05501223358589173 -0.02178123086279881 -0.1382405649499225 0.14973765338200426 0.08256455574462356 0.32119698593530344 0.23027927981030347 0.09174929394911123 0.20153194480869024 0.3298335783681546 0.2748841748690529 0.06299579388929684 0.45864599459190547 -0.408848028534833 0.24678472287183892 -0.07895164008798772 0.051124519993015406 -0.19256944027957856 -0.41776686316095313 -0.059778182328592715 -0.21331009057346928 0.07743504970688167 -0.13168457474921297 -0.41691375162346395 0.0746483079177353 0.23924952597240343 -0.31280329948880076 ]
[ 0.11266194732777084 0.019452911396177875 0.1925759127417161 0.1623748810892894 -0.28998619776908446 -0.1883642250055746 -0.2599868931044813 0.40267651783430897 -0.16731952677162928 -0.1776207283251488 -0.05448384471708064 -0.3256782655515246 -0.12619150581907415 -0.015986213858303695 0.3672129803340156 -0.09076536675942022 -0.18771743302987925 -0.1095911655535108 -0.15472070939107382 0.09277745518370398 -0.25132815825458055 -0.07864352773361581 -0.5424302773956353 -0.1723531085907995 0.3561569713867785 -0.22360890791493687 0.3266491691079187 0.15239321368466469 -0.12468989736016634 0.2508169320457191 -0.011156153444782541 0.2524012189770824 -0.1567060309440101 -0.1307637909008487 0.04076073746490292 -0.0811738072047445 -0.1670383553824712 0.21646206720672975 -0.014087453349489694 0.33657407600136646 ]
[ -0.031869809679858314 0.25154064520333147 0.3209071729824204 -0.024632615489893536 0.06467497040006522 -0.21115746915055925 0.11475341248598224 0.15504922682983469 0.005062621990476795 0.17628032374314992 -0.018093636166783958 0.06821279942193524 -0.14658348003190372 0.37044544648581834 0.08158557233650279 -0.22016355931219853 0.11969068730915426 0.14681754606975722 0.010758924150277268 0.1793953293859879 0.13330424550061878 0.27543922934798887 0.05154047964118268 -0.3044760613140502 0.04492613991052258 0.1622601612282774 0.23855844398395593 -0.30553852355717204 0.3202905441849984 -0.08554187236721089 -0.2500088389747255 0.14415249524920387 0.35577041863260384 0.5064211528619623 -0.10082610612471471 0.06825398695932673 0.1594190720077621 -0.12548613836696992 0.25620641778195785 0.421175900440054 ]
[ 0.19986553571849397 0.004399321745784484 -0.3889630215183561 0.023520573987864078 -0.31488964250935025 -0.07360678310867781 -0.3671903739615544 -0.25336032049349894 0.3337246228105692 0.4841633765049203 0.12401634299659905 0.10977588436594092 0.20908375929987646 -0.34163182818912596 -0.43937799171737224 -0.2713470970779127 -0.2188251906968005 -0.006721443389702575 -0.7235976971821112 0.17369537585026623 0.10390857611310654 0.1888249434838264 -0.44645335534727204 0.47193231572981553 -0.3656494441476254 -0.3147735391168214 -0.007568646323248664 0.40250957294113343 -0.537021993562905 0.54892761087883 0.05314539420650557 0.05679086739068104 -0.16711882864197428 0.09732236630797592 0.10759334721871648 0.22560756363896925 0.30692449577659964 0.7513695637576472 -0.5455277959460462 0.44373835240742227 ]
[ -0.3003615287817322 0.0169893666331853 0.14398010506109857 0.1201022036241021 0.03000978219353779 0.18173958080570704 0.2455737584469746 -0.13699106531262503 0.16750459054159914 -0.2883547453626941 -0.5792066426295389 0.09357950119219041 -0.18732987963477812 -0.07465921230859128 0.06352184847695079 0.10672713531961134 -0.20416398221504622 0.0943821166833078 0.014440962742715478 -0.0029034140366383187 0.26832954263276537 -0.11876652697843262 -0.3688463323481141 -0.12209286126187754 0.3149166110859557 -0.2642548970107287 -0.02731720261230951 -0.4339877650019165 0.3926616297286692 -0.0744171032402753 0.23157735362988163 0.1396030914465204 0.12581724707058012 -0.04115709246138064 -0.13191445132813648 -0.013743412281777407 0.04420726120940748 -0.45577505917918804 -0.06519684994351885 0.3783423115660004 ]
[ -0.18801150712510828 0.013164918307293787 0.27024622930982534 -0.14296478216938416 0.3601114405199247 0.09587012137710778 0.39387358544179246 -0.0721324734486127 0.0719588258141125 -0.3679114631262326 0.07097931680062268 0.10840990161971929 -0.11380175609708026 0.25628455381525017 0.5674455559567262 0.16166983469391563 0.6853876681119713 -0.12424963175937014 -0.008464601638433 -0.3823504499989623 0.20477829763750913 -0.35261215274000546 -0.6316381598568537 -0.19987411041374578 -0.47447586712716683 -0.39027552646518215 -0.3792567659087489 0.4321711381087779 0.264621315918887 -0.33228694698833616 -0.2974415133308874 -0.02717205503528536 0.17761768519596657 -0.525226742313376 0.028553195794614322 0.4018823908949319 -0.6254970444844552 -0.4452024134821747 0.3927476127424898 -0.08940943832609752 ]
[ -0.32070388854003157 0.29414050485136595 0.2838820343969073 -0.09272454129261104 -0.09418336142719416 -0.0849693963726505 -0.15327641838186196 -0.21457869629246815 -0.0871998266313545 0.14569686743489615 0.2919285840430396 -0.017280641141523556 0.03604687795490144 -0.23523690792330448 0.027749984536417156 -0.15830987468440255 0.16607536005268408 0.1159686687757178 -0.19712222784927627 0.22007538468852597 0.03628837862785096 0.27589087512646265 -0.24195769343868087 -0.11404825258717552 -0.41282042571334415 -0.4518385625095448 -0.5091358564567816 0.10855802183239499 -0.33711520073292484 0.15763651001247161 0.118556495376113 -0.4379003191453171 -0.0421936724959534 -0.23594131442773786 0.04514841363959996 0.5269900799590856 0.15735967961254507 0.010610696900281274 -0.1528783459920505 0.16953466209779144 ]
[ -0.07773777142352503 -0.0335299488702415 -0.16326674672686253 -0.07212084335875996 -0.13339193645556044 -0.07995331246706829 -0.10598565600558388 0.02139905390466396 -0.0871036688830095 -0.018310434416224826 0.32493520662959696 0.011321822561406134 0.03520616613392656 -0.0407281291201312 -0.16331682709749443 0.05496075725745191 0.06636599574941712 -0.02783262275378205 -0.013641248833656945 0.039013742193828 -0.34240753901950227 -0.1809062702325223 0.067224839597554 0.10503353051275159 -0.1248166220674133 -0.05471563390488101 0.12229897253292053 -0.012222457345167673 -0.1695067954753885 0.12014816826642663 0.060731209256194144 -0.03824142101092596 -0.0749065975611254 0.021446862041876572 0.27568504813391526 0.09015282542951891 0.18345336698242598 0.05364702270968981 -0.15298275302813444 -0.033146735437663936 ]
layer 3 Activation
tanh
layer 4 Dense
40 20
[ -0.0041248313226700944 -0.5067176453427096 0.36779777823274745 0.263444397907916 -0.007547212038677078 -0.13112495948318284 0.23932565628346736 -0.06637810234955097 -0.11398701263757198 -0.2845365193357604 0.40870950830586866 0.09693883796799584 -0.5873585763983804 -0.009107777671433528 0.2680996863979127 -0.10251423360613166 -0.4431161277211785 0.29068283655372273 0.3322435248769222 0.18360387397651043 ]
[ -0.1691239405451012 -0.13611055273596367 0.07277711261584452 -0.13981695509263542 0.3237367384409152 0.2557851480866065 0.058959550707952814 -0.03280728789213759 -0.3269714288442294 0.33129978325440473 -0.1004978823956496 0.05088280907060617 0.040651479444669396 0.2730498808742929 0.09924815568585128 0.3588608222001476 -0.010980611934337315 -0.013995327038589234 0.23597939843762564 -0.21826880663893014 ]
[ 0.2868190468558165 -0.31696315923943547 -0.24026783217615721 -0.041348430129535235 -0.05530160945490461 0.3959834960207868 -0.2032211107587489 0.22156496412727464 0.2128459217077226 -0.39940571211034 0.022479737903644187 -0.256862470524037 -0.18413013418126745 -0.12951376547511628 -0.014112583683757517 0.31034725606622204 0.09860023242578489 -0.08144375350514545 -0.1111244490389834 -0.15026377889991302 ]
[ -0.4485414999573296 -0.2653795111079059 0.16114977850720388 0.18055848644272396 0.16937022445613903 0.28536811981605265 -0.0031923260675963882 0.2572445789386005 0.08773822334244058 0.037096730223226015 -0.15225608554127112 0.3315213084090283 0.3406540604448064 0.1981249109696809 0.2561366591517434 0.05400954644975161 0.10118387206484394 0.20607660310849085 0.11686197060582995 0.011762703851968146 ]
[ 0.0074143640431591495 -0.13732387299708723 -0.29635531606778204 0.14978519942121202 -0.08554541570780737 -0.020697680807592263 -0.12419091824824167 -0.21883158928704657 -0.19814213987881985 -0.2814310400699567 0.15426827634992749 -0.47607041771783304 0.0919378259070049 -0.02663585121866465 -0.11585367376597573 0.22547569854984914 -0.14488211616253385 0.33747861004716256 -0.21856751364540802 0.23873292152628936 ]
[ -0.1664764825512456 -0.34264391523592097 -0.0024880131060728955 0.047130489832524144 -0.1849826809212774 0.06341880618915555 -0.1405403568507597 -0.2676757968599505 -0.262262898412715 -0.14386731730307858 0.08050605823319909 0.032268260504786914 -0.11376350579848109 -0.004543300100723139 0.04654555121881024 0.01903167840579016 -0.10234710885365292 0.24208189053847218 0.03364161621830308 -0.1851752628286794 ]
[ 0.1506472388897351 -0.15701337643466037 0.05906887485322087 0.2835640923662361 0.25028428053620916 0.28962703434045056 0.1733691879292888 0.18076291276007517 -0.11235416732115112 -0.2118137452570589 0.06145517480287436 -0.5652240567696228 -0.30557051934380425 -0.31211246029816503 0.16964613168188525 0.2865509694785797 -0.1603173684236449 0.09532865615962215 -0.024560873860575556 0.32833114218219334 ]
[ 0.09133104908009373 -0.012439264426193137 0.2694486396141518 0.05653042362499927 -0.016653517942439352 0.0009805984044642707 -0.04664756035637165 -0.14269789138112798 0.10246044815828002 -0.12322405061735267 -0.13328219061525276 0.10272629233800075 0.13604358876022346 -0.05410372334579415 -0.12487446536793287 -0.08196908446241767 -0.15837709967526256 -0.2830096705520299 0.1163282060467107 -0.3139626559790913 ]
[ -0.21611640636297214 -0.14194012357190341 -0.10945284794489116 0.1043080709876884 0.17577906984223685 0.3696587308040785 0.004037574554481532 -0.14171085962371321 -0.11078862796652383 0.2675396733493221 0.190806624871284 0.005522877820734632 -0.1410938470672885 -0.1342340593617711 0.34823278130242374 0.02043923333174434 0.12089441878262472 0.08646889471683966 -0.03364019352929609 0.21856909927216828 ]
[ -0.5823044271065534 0.19044985938478828 0.11824377256485197 -0.341265455911306 0.06658006429467758 0.05020699235888261 -0.11650940208102127 -0.27288099113720454 -0.4538326585371293 0.24071113570669536 0.2641195844235332 0.35771086973084737 0.04258038052932692 0.2402209367759772 0.30121159042643814 0.06519460331844903 -0.023745974116763744 0.27351093985743724 0.12452869383671579 0.3452445806940023 ]
[ 0.2756740605246241 0.45872803950637503 -0.28734642220625356 -0.11454452520751762 0.26605830544275605 -0.4230029469719806 0.06201332781557533 0.01799309468053835 0.07114156308190484 0.18570222804771075 -0.4271057658990887 0.17772742406362319 0.20185172342124125 0.024891548344219167 -0.017080229340723795 -0.14217609564540834 -0.10589131966585003 0.026268395038594936 -0.14107985405359316 0.10402112411846334 ]
[ 0.3420274017640625 -0.1401550127600199 0.01128734139171278 -0.059716769161846504 0.4522620061142984 -0.013999226718855276 0.04853095661803574 -0.013767186542057093 -0.06104937352198392 -0.046315739706010106 0.07575382740493024 -0.11431281924428315 0.19720668332618388 -0.20208864372741353 -0.1445434632902583 0.029970286941220756 -0.10975795542581986 -0.20981396282215778 -0.1515321953266214 0.3361227449377688 ]
[ -0.15150784310775736 0.1758375570600953 0.2918253681251346 -0.20724610883833236 0.12701431916636707 0.25947102061190636 0.30050376372141674 -0.16659880943300076 -0.22750748178501462 0.26994105721938827 0.045759026951865046 0.49204335984048253 0.007424526668420653 -0.05448293606170009 0.04216612853363363 -0.26544488634331376 0.22828892991264116 -0.06610142641888597 0.21023776439044142 0.012734127354326781 ]
[ 0.03793307083529031 -0.1295947454478648 -0.26021325404018497 0.21107621913943536 0.04583940051165508 0.13154213435690149 0.007106746246891135 0.20593179702836115 -0.2874471754846578 -0.17008847656363163 -0.04059990792701796 -0.12260238716052733 0.11988491648576861 0.04470725668116384 -0.1074424122976176 0.29782549585223633 0.1304910269796361 -0.018983469426656945 0.021617065096029467 0.21011078069709885 ]
[ 0.30762996936572895 0.009863143393951604 -0.2735395328136408 0.03036636344007734 -4.124338837522315e-05 -0.14470786016734463 -0.0678163308280479 -0.030543958580842342 0.22972906769147342 0.14060028345975348 -0.2355072875419514 -0.3258838586459746 -0.156310751545302 -0.3167986121097182 0.11651279601987441 0.255478814997825 -0.03832510110322203 -0.06025593522070776 -0.0023643878472742147 0.2879765099190675 ]
[ -0.03469378258858983 -0.19320246338767996 -0.0671929778070777 0.08666887433779255 -0.20332743334817893 0.03501693176405658 0.13894109590240983 0.1688131195937114 -0.11035709595188126 -0.1992551959020233 0.10866090689453103 -0.01301161768787018 0.006696977684614907 0.17762163329930947 -0.15793658992579132 -0.19361247565450077 -0.10319554525678774 0.009592885749779088 0.2808149704948835 -0.13286376612595027 ]
[ 0.35734745642549426 0.2244307878209335 0.2520068112304001 -0.1770223346260351 0.2584095278530676 0.3509835025638593 0.2536967953085831 0.35153287428821045 -0.2402948595997652 -0.02100084229618155 -0.2212886832975709 0.15781862617982295 -0.12737420360010068 0.294249440808532 0.2920175450519192 0.36360100153662667 0.0049365086829754184 0.27900565875266 -0.05031036943123656 0.3593085809485834 ]
[ -0.37462123421460425 -0.05880818061713702 -0.11025312531781002 -0.02219507706151064 -0.08784884873227272 0.06001132348310161 -0.11146261403327538 0.06581031254970937 -0.09072158193845668 0.3673980043646655 0.09033110841225042 -0.17280766250452634 0.10709233264466317 -0.1921590783401009 -0.2723648146258148 -0.05865339639399046 0.20720369762769808 -0.0643366413798803 0.2368481748060326 -0.2315803100641448 ]
[ -0.06149790022462551 -0.02405374791784502 -0.2909812954042538 0.0846094380995095 -0.012784085415434106 -0.15153046404700343 0.1476042937272411 0.051799181742601376 0.15897231898393982 0.13607737234718892 -0.059545063199907655 -0.12233953006572718 0.05745925072316156 -0.4255290192465839 -0.13034467659375806 -0.11966320539696425 -0.11755167080136662 -0.300373124196123 0.48161878554789145 -0.11217280231123698 ]
[ 0.02067219740242289 -0.08461854794838887 -0.01742599841264058 0.04984741547116802 0.2519749558486311 0.20935878098356453 -0.31061245538797433 0.20097643803446785 0.05324633107414063 0.19170017087665459 0.07807773464154477 -0.044870401136859805 0.18266315502584243 -0.01494100244816736 0.005300904862316632 -0.06856018500301433 -0.32969893135050826 -0.1066982929725355 -0.2669704707880226 0.10644216170317751 ]
[ 0.01623462471496275 0.2684997448395228 -0.09500496454359862 0.021487271295943636 -0.24076104907151008 0.2759107518933352 -0.2104159052992823 -0.18455267725267516 0.27623905549474903 0.18735510787349852 -0.06294804242434088 -0.18361398449264443 0.1714941709025063 -0.15229865280717836 0.08009586004686506 0.13891870650132748 -0.026144517409043486 -0.21687532690485606 -0.12577068804160407 -0.33717118476389046 ]
[ -0.37133719477620913 -0.22956931791676338 0.27272993948952584 0.08337594929949396 0.060357243438345566 0.21046952266612706 0.1881112148844631 -0.017790147160714687 -0.12960168801859256 0.2874402587097152 -0.05697090516218453 0.2308447825813386 0.4380800660948208 -0.09679393566315539 0.19613351732936393 0.027498415520967347 0.2481503808947008 -0.2749019522337331 0.07256488758708043 0.012695592174231999 ]
[ -0.4301031254237598 -0.326429901944394 0.45014052165408835 0.24368747113661982 0.40176926505098465 -0.28515305138518815 0.08680191617360221 0.07012301422519915 -0.13845991309178962 -0.030214879400422803 0.11259427387435426 0.10965349266107473 -0.020016377239005026 -0.009854045491145987 0.02285555182543489 0.0259084507592935 0.14708008174683643 0.38905332564864115 0.13526441358961436 -0.3104830156963987 ]
[ -0.39772683863218355 -0.17497705380134776 0.3363043411393545 -0.21857278610262643 0.3633509353390782 -0.2448445705071799 0.07166910607442327 0.3264612803313675 0.004453750949244654 0.03160015488187043 0.3495559924539709 0.33793629383119467 -0.059101696366101464 -0.0027043399820078124 0.1850706283731071 -0.36965383098166543 -0.06411446297967885 -0.1607343471355275 0.3581385254236072 -0.3664100018237342 ]
[ -0.19059960067648907 -0.4462654188742597 -0.394582846991445 0.42103647580625375 -0.08181786001048348 0.03136886373454153 -0.4083672253314352 -0.20963850816817378 0.2247720672496807 -0.18252912955010214 -0.08283497562827297 0.3884271316721463 0.04179391004857702 0.04881589698687559 -0.585621633541772 0.11733535168495972 0.4067396686996237 0.19348893083972277 0.524090184128854 -0.4758261161425004 ]
[ -0.1754167659496614 -0.3351554377261107 0.12013604524237378 0.23940298328380938 0.40170256454543857 -0.127867254412584 0.10864959947293976 0.17536299986024748 0.27561986935797256 -0.07563329311885793 0.021148447235245026 0.36165991305225587 -0.04556766764263022 -0.2555255412626961 0.0015630977236033602 -0.02883049285201176 -0.03902255891840551 0.2479702524135989 0.42849920827845467 -0.26790815284308617 ]
[ -0.44175473767351914 0.14920509963829037 -0.4017034035721859 0.06548786830698937 0.08477146998519858 -0.3413286928824441 -0.17176004015576246 -0.22067542548175595 0.24362587228754098 -0.26170415271576253 0.016705904590783784 0.412299352853039 0.053206709855215 0.08449101584246718 -0.16313173200592812 0.25716180588099513 0.40306811098740664 -0.1083474526748222 -0.08491599286483226 -0.13521104768739234 ]
[ 0.22401325517478746 0.40298960712241144 0.11692504335710927 0.052025201631013915 -0.19036140382501004 -0.10688823149019039 0.37059965436729186 0.3444202774568374 -0.20490640375501032 -0.04278826966896833 0.018906834058959196 -0.22291912630079658 -0.23584612562448912 -0.1909331495600305 -0.3017791337781084 0.051685202051753046 -0.3673079832163263 0.18842068952606433 -0.20224939046700638 -0.20720932523594415 ]
[ 0.07920874931374958 -0.5964753673647927 -0.12406971464385781 -0.08530786924785196 0.016547543027528512 0.4494759106080188 0.2253649249048104 -0.3722347066952314 -0.37428285529398425 -0.24155127454119937 0.0755224000290881 -0.5491730208885581 -0.3421188180088442 0.1925622960063782 -0.3543399671916845 0.40172141606436 0.14334157255655047 0.002489752493999703 0.2803119206886199 -0.17766269933389614 ]
[ -0.2544605649874045 0.23028987416262994 -0.026617797803064207 0.00424524269194603 0.266529489582024 -0.3579536626724568 -0.13149937799860598 -0.01093338358033846 0.18296388555613932 0.4075533106125027 -0.07162260546466588 0.46552897799827303 0.3914761133547933 0.23964737422629853 -0.1528951047426444 -0.380215316297881 0.1735209950952414 0.19793431737042766 -0.01784718343253837 -0.09723822352764254 ]
[ -0.06654648222442172 0.14675283570764894 0.20570203222745978 0.22695137779823993 -0.10337758260687996 -0.16756039302265444 0.14740443326797895 -0.05314321659717109 -0.033401653374258614 0.08758006207948615 0.17735298208657532 0.29382297293409804 0.2883599832575453 0.21331870519666765 -0.16873093159943772 -0.21849688080708676 -0.23012446552509203 -0.012489681632097063 0.3041672593829383 0.2487669790338348 ]
[ 0.15801318548716853 -0.12123741116776146 0.12670408454598245 0.21322414354971314 0.004509407168935901 -0.11927675909946558 -0.009278618514775757 -0.47457950928719844 -0.06277910566346881 -0.24982324616023954 0.12692485719232155 0.2484645406617332 0.1438808143359963 -0.1758805167885807 -0.06016174898556987 0.10580856505509284 0.13004804361805156 -0.2590023972519362 -0.16579399004305087 -0.19324702211407432 ]
[ 0.009681133945688461 0.3409691845230656 -0.25318354782151953 -0.14533949183393477 -0.1622626406532283 0.273848576301319 0.04290386546311222 -0.07903418754925472 0.2030761625342857 -0.1731507575199861 -0.24408591407144276 -0.5218855489458905 0.38260309377768054 0.189664851926228 -0.12382756178079193 0.38823175151262923 0.19022976362010913 -0.2993376768446971 0.3028786744546895 0.2933785628687435 ]
[ -0.212587612142385 0.0695059191185453 -0.25014339894547766 0.23265018183976846 -0.26504018077264346 -0.18481599505228158 -0.38288643426734675 -0.1074409497021657 0.18328254033731967 0.20454314265725118 -0.281685936266197 0.582640189955053 0.23996326524053502 0.310899679012621 0.09618225226058666 0.140947978699997 0.07607743154861452 0.09914779936143617 0.2378529253584849 -0.37262856925209553 ]
[ 0.18627179026078416 0.20761959928883086 -0.11441249663529716 -0.1879779826662651 -0.039113629696907924 -0.28457333223974624 0.21614013963934395 0.10589223184787964 0.07699570782770213 -0.1667286200999102 -0.24083204349030468 -0.012343401311222028 0.18143104690062886 0.13594175254710006 0.045198538427570406 -0.2792324057796286 -0.028514852363579875 -0.10959458341773551 -0.17133939010426433 -0.2484634859918103 ]
[ 0.17120423166473683 0.7561077790069922 0.179126644645459 -0.5108525728402002 -0.12044564917692623 -0.012775719075867392 -0.0824372193148625 0.04592271961745444 -0.08402949987847337 0.3527904739638585 -0.4968623697827245 0.053433055865384514 0.39951445965821897 0.30120591769211436 -0.024858922828180672 0.07330659570326055 -0.12780794310265448 -0.31192123157548274 0.09853784208175428 -0.12629042171499902 ]
[ -0.30298779134660836 -0.1524167592978612 -0.24847987479892883 0.1883514261755577 0.34502720682555144 -0.21529868102102123 -0.18923255658940374 0.0585914669347901 -0.14500890896675092 -0.025806760377081493 -0.3299775557432646 0.47222338487456067 0.2088009958285286 0.0016727261621284563 0.17301554109946615 -0.1330620995751371 0.0009698660201064952 0.22902622396514774 0.027682819245413496 -0.1816625615004313 ]
[ -0.23297896859526065 -0.11559062882727271 -0.048754374328312734 -0.3481516310420866 0.1737193752202751 -0.07040359201809902 0.0030592938133209616 0.0885852959898647 0.24607640884348717 0.2593002030556965 0.40940368603033517 0.5663028951795398 -0.18226994316042344 0.2618233544402688 0.3213924398247311 -0.2799726650789384 -0.3065100550723698 0.08576829699385892 -0.15009223728711035 0.2715159733534025 ]
[ 0.23600525254211205 -0.18785541694030938 -0.12617255388551704 -0.2858937008414302 0.10267623274917094 0.3627625125956307 0.04954109146858388 -0.07281761923806958 -0.08365189741726027 -0.42787718382484546 -0.345541245923078 -0.6190245820643215 0.03355933554011795 -0.3943208358748472 -0.26973110666051847 -0.07114427789334558 0.0067244401584873326 -0.042190189340276206 0.2904993636361681 0.02225554358074916 ]
[ -0.49928140283871847 0.08920277033738397 0.3773251618684876 0.2572430824847584 0.21389439919561168 -0.12138222630075744 -0.18582781760765155 -0.024803010483686494 -0.01034315694102313 0.08750858580837644 0.05130482049922035 0.014806403056209562 0.41339556207738093 0.21639991212278992 0.4304928199128654 0.07785405081409937 0.24933763718518767 -0.03355921107753357 0.10236362349365632 0.21767419784028072 ]
[ 0.3171470820731362 0.06177751986985108 -0.019142303532229496 -0.011682574226876232 0.033130458435011216 -0.3203719385441692 0.05895100961338165 -0.03996466572900431 0.11632816941467358 0.035508757060985364 -0.038772571859200716 -0.18037056305167143 0.0017409533723242087 0.10517186644541869 0.028504404083815153 -0.13896233594515142 -0.07499475741898981 0.05922163900026741 -0.02351288976100163 -0.003016702442220411 ]
layer 5 Activation
tanh
layer 6 Dense
20 1
[ -0.16891502661988086 ]
[ 0.14338844997522612 ]
[ -0.16342867416224427 ]
[ -0.17983026512460015 ]
[ -0.1028527934761905 ]
[ 0.1869583465870403 ]
[ 0.21659223064163435 ]
[ -0.000167821408514669 ]
[ -0.03130036927969878 ]
[ -0.19582941461513567 ]
[ -0.22567389427596374 ]
[ 0.1405530190976365 ]
[ -0.2625743584580433 ]
[ -0.240432345236812 ]
[ -0.3218701481096806 ]
[ 0.17993491704800305 ]
[ -0.18098463606643844 ]
[ -0.09025470554965294 ]
[ -0.2286751879196091 ]
[ 0.1607788337992853 ]
[ 0.03692644256093322 ]
