layers 7
layer 0 Dense
20 20
[ 0.6653790652685431 -0.007404616067386021 0.011631129774018461 0.01290189899331739 0.5911851194334646 -0.307877889730504 0.5160374232848376 -0.3256436541920707 -0.03106906183550614 0.11460613442478564 -0.07774625384035057 -0.931889998735695 0.05321059487058289 1.3812290965607246 -0.1621453572658082 0.17718454539719783 -0.40389391402099983 0.3278742754214515 -0.16097296359222932 0.052984921635935246 ]
[ 0.27988239239853396 -0.1143087720098089 -0.09270448074203119 0.3305762281913152 -0.12678149900580463 0.17002597534347813 0.3745096368873335 0.21794100055678725 -0.36749004535780955 0.22864936771200328 0.047714195408521884 0.12373346216632276 -0.08284645755896704 -0.1658474662925952 -0.16452414047583966 -0.26034182959236046 -0.17082281341071004 0.07915065325687078 -0.18015395200908713 0.06667791767173585 ]
[ -0.3188984907967013 0.308954831536981 0.12995659090664852 0.12618234318160743 0.38157288774094295 0.19660089517539178 -0.049883364314612516 -0.33186324230846365 -0.09694383380589149 -0.009839361644177043 0.358655538364973 -0.3211800238509291 -0.2519990309251512 -0.28017507754349263 -0.08422642320415946 0.039062937719526125 -0.35393417164440477 -0.07948854916759612 -0.38592365929007694 -0.1076971234874173 ]
[ 0.49571420157328144 0.13141870158404315 -0.12616327946981912 -0.29236376747405945 0.3563453239887017 0.43091056611253187 -0.019543553053359638 -0.1160497853163749 -0.5152457036222895 0.6612897877911532 0.02867903460846764 -0.4747142788485975 0.24648485724163144 0.7647241260580219 0.3435938396873968 -0.2116523615932298 0.23985022641219714 -0.011369524579912135 -0.4272743315021378 -0.2414970300068955 ]
[ 0.3342215723644358 -0.2235474527946644 0.007839864955897361 0.3300977738478329 0.14666664895237708 -0.041808295468831524 -0.3095363437256875 -0.29243972192264145 0.15879594293325527 0.08852220653075324 -0.20735670818507745 -0.4434732321991959 0.39145611309790707 0.3749125485326897 -0.31518841951647963 0.3509899209183377 0.5281306595563283 0.15742350720977524 0.06081604089976782 -0.11421045153887355 ]
[ -0.2537721362269636 0.24425362682677043 -0.05376682032678507 -0.30304871837760666 0.1393092570083649 -0.378694201577196 0.03074994449610416 0.2489442314293693 0.09161165766327618 -0.0002738411831595225 0.08962791690027852 -0.16659397108937124 0.07789625254535336 -0.1413419649896828 0.3703538799393889 -0.052772938792843754 0.3790952346891365 -0.06540410023423941 -0.03889692268737407 -0.1986537840632424 ]
[ -0.2549453409535051 -0.309944368602375 0.028703033656345703 -0.36709423484699755 0.05887551287433275 -0.1153635987990156 -0.3820808952216743 -0.3092592830525322 -0.09976970543934281 0.18426033851402712 0.21605534751567468 0.1356538527661873 -0.24545893798663018 -0.13490524710800508 0.10599470386390164 -0.29532959073802656 -0.3251041654222021 0.0945167824684221 -0.0418211964120343 -0.37660410055237753 ]
[ -0.1122645340036671 -0.2711065207911793 0.038034580471005774 0.1245085693206655 0.12648631775862557 -0.5191917908012811 0.09174665810868868 0.1217150042314841 0.1633776103440214 -0.6096405911580558 0.1996836940819105 0.7795032315931611 0.22600632480530267 -0.05335597521092644 -0.4521401426416215 -0.4826803155086516 -0.5523892926837051 -0.5536084280688305 -0.07435969174953415 -0.06284260962805291 ]
[ -0.2660283150292033 0.4225836125539352 0.0521028646898985 0.2731509063654672 0.4166298686487487 0.17779472702361415 0.6450675420279173 0.23428902285348582 0.2038601134870216 0.40756589376575253 -0.2359474066859011 0.0567857310787943 0.2950315469227826 0.3319703248936088 -0.5846071708187405 0.11014423395130986 -0.2168777609950461 0.4679908476132706 -0.37010190741326143 0.293683757069355 ]
[ 0.049290895765387324 0.1010310503916311 -0.0566004724118625 -0.9994413047259069 -0.22032922722328102 -0.29710761013329023 -0.7406954797672941 -0.5299666327234177 0.9840599458977767 0.4740518643093707 0.4248270365304845 -0.07719665827403288 -0.3069254835418761 -0.006640310752341046 0.6936189557326757 -0.04413684570377674 -0.8232680065569695 0.6999386553558932 -0.18518850499075343 0.1806216447931086 ]
[ -0.39518270916917814 -0.5183266386582994 -0.6138570183856434 -0.3806765214258872 0.14193379580279075 0.3345930560545332 -0.32294520206765714 -0.18983144816758754 -0.7493668968628843 -0.017854703083833058 -0.19787575579017347 0.24508834058212836 0.9403657056719817 -0.2730292249461563 -0.883573352209668 -0.9896720358779185 -0.6800547750436778 0.9276966419108026 0.7150845414705251 0.7896643280065987 ]
[ -0.3999177824711144 1.180310516637073 -0.09015026733623725 -0.08264225648860729 0.7173425918310286 -0.11966402645342795 0.7667168586355851 -0.2900130642529032 0.7495046986197801 0.6798324465068537 -0.2653561628255225 -0.4773416698412784 0.19844733646367219 0.9997305382197128 -0.1653675181270986 -0.2628214571808159 0.17110952138190516 -0.1503414672052786 0.46073353282937846 0.0381813690277975 ]
[ 1.0281781569849815 -0.5887011544252524 0.22874311198566732 -0.6350026270278624 -0.7428744926908534 -0.6349093338648129 -0.8692065961120851 0.9082324659747526 -0.7737116889060199 -1.260882571038574 -0.05092013654587556 -0.3509285759702673 -0.6844186122001275 0.29875074228252896 0.8680458612290215 -0.694957849082437 0.33814986394854746 -0.07925814151158778 0.20727873793982665 -1.1838342777845512 ]
[ -0.18628604480926053 -0.16460902764281507 -0.10715237541977471 0.21020508218448516 -0.013194955929138072 -0.6224628325195852 0.017301466464097078 -0.18739687037879338 -0.2123557540545563 0.3600295413823165 -0.0922525787486722 -0.12256425647325833 0.45705547810604225 -0.42847656325471456 -0.08313544655214913 0.0474033411903605 -0.06669163166784532 0.3362851229112869 0.0229242616236337 -0.03202240363907909 ]
[ -0.39385286902409966 -0.3393629442021789 0.07898580675996966 0.35636339803112127 0.11704243125137609 0.27609284350318647 0.05426106465557205 0.053254892220644924 -0.060789328048461405 0.2404299786955513 -0.4565865939948181 -0.06609081831617046 -0.5397402756880822 -0.5547041120276237 0.1603627454597462 0.3882610744832863 -0.8721943668115153 -0.47304702470712817 0.5706102109569664 -0.0890749051403969 ]
[ 1.087412608766441 -0.22460985649983664 -0.20487841703231172 1.610242274749902 -0.07774199391052508 0.6770756388485832 0.7970209716780854 -0.5668400852263263 1.065172131483655 -0.05764747153401201 -0.570629436944134 1.6427766368764316 0.3608201081020241 -0.321220289037211 -0.6167132888253181 -0.676777793228274 0.05584471606373758 -0.755359260153967 0.8330640451443607 0.7957587798363821 ]
[ 0.23826917424513372 -0.8516315706866804 -0.15818171795223226 0.33858080800964435 0.5533293570177331 0.6445323971564241 0.23880692548405777 -0.6149464359123861 0.4350979603441039 0.31854419191254696 -0.16475141330508422 0.005275649537802944 0.2449725671039958 0.37441869758036206 -0.3860242014971767 0.5192940957790777 0.08609344120450603 -0.10296856399735675 -0.08325521898971724 0.5119947889864694 ]
[ -0.27828352678747365 -0.5299874695353426 0.02486974167055112 1.10815039295566 0.9333452092374672 1.9719109828398613 0.3313689834396979 0.780275131402438 -1.176934005562845 -0.3963430684483718 -0.5154966303606956 -0.15623873551802767 0.1381104325105629 -0.5543586604383183 -0.36097861731853353 0.6339077859420642 0.626624728511624 -0.9970694083233758 -0.44325885163577894 -0.39553365972990057 ]
[ 0.15126166921416512 0.2990343950065181 0.25744055560629653 0.402674539977348 0.1841540927219496 -0.053658765742877035 0.0915466595257765 0.5272003709000489 1.0522331731603562 -0.13512493057701222 0.8986462886813229 0.14140811445413015 -0.4130072562493939 0.7101085229265758 0.9632298150931812 0.6859671396511526 1.9275178110959612 -0.45286840414211194 -0.7819389076810509 -0.7175270722980353 ]
[ -0.5427840986116863 -1.8813703881499704 0.5055802346164913 -0.7724783499870949 0.1678384706664331 -1.290217639277071 -0.7526004697949323 1.4879195268177068 -1.1902627313283884 -0.11374560627231439 1.4126766858349684 -0.8594784422194492 -0.9121033813208114 0.6608694236569889 0.26762799616692257 -0.4195418644269605 -1.6646179067894484 0.8288893295412215 -1.5802572365737833 -0.971242924139109 ]
[ 0.2062249010376347 0.21701549789234814 0.04276277696892442 -0.12715208184458848 0.0613753432715543 0.1284114957942374 -0.055300131331065705 -0.07679902991156497 -0.13747922430802254 0.23991311299687576 -0.055549050191910955 -0.3048006949454918 0.029999623977832138 0.14948527588811322 0.23889169707114347 0.0971611170045961 0.18565073385738995 0.028238835343387544 -0.01995320427489207 -0.07532314441218087 ]
layer 1 Activation
tanh
layer 2 Dense
20 40
[ 0.34172584980943255 -0.2022425541725175 -0.599498651835162 0.021052604591390245 -0.1831555710182733 0.37486079601076944 -0.15552123314350497 -0.1108219816499413 -0.39011729885150287 -0.9066391899645783 -0.0237346583365916 -0.3332535361595486 0.40918083093358654 0.018712370115660522 0.4696290072091892 -0.3760038568025146 -0.369309987289008 0.16726582842333754 -0.5607034247074534 -0.2913031579087074 0.07451893654453798 -0.343750014276287 0.12798511739330753 -0.5709845191242081 -0.00650974703847095 -0.11086963144454309 -0.13067720827654677 0.41856903098617165 0.08695775128757997 -0.4353817107493677 0.027301433131005304 -0.2853081928621358 -0.10773021114839143 -0.12024530317542255 0.2181246472845308 -0.022617837158437435 0.12491784554660282 -0.2612144480834292 -0.11061131593452105 0.11299995735763284 ]
[ -0.12266825142188677 -0.30569705490119053 -0.19182590105561456 0.20096976662152552 -0.14030185479765384 0.6659858889469693 -0.07199002367569131 0.04791339248475982 0.4049480781883706 -0.37039361529332837 -0.18046279791799436 0.23060632119878824 0.10168105536441108 -0.08107439316487298 0.2706375380962167 0.26559737791484084 -0.06563763407158074 -0.44669346082695616 0.015454184118551562 0.15903798210323664 -0.21393803846339662 -0.5111898141915934 0.2539107161509024 0.20465971875794148 0.44462594168128133 0.5370864906227707 -0.11680314618745377 0.20585615772570995 0.3572607683215294 0.6562371629080067 -0.05033721358447315 0.15657627679525257 0.846381679101866 -0.1873989128951332 -0.30723449415623416 0.33584500999930395 0.19110907507865177 0.1589326738334682 0.061337514637783794 -0.2333275053628387 ]
[ -0.22218437767492946 0.06210894880464983 0.27846223304315254 -0.11850438030151748 0.11838178816581829 0.28243251496033595 -0.2146718879027978 -0.11953437272346193 -0.04119237656115461 0.12498871325698492 0.1910104679498948 0.4352331908802817 0.0440753831306456 -0.1613802533045372 -0.08987777639188425 0.15549720800124117 0.09487567250719492 -0.07228938630201655 -0.3165735395323106 0.20813350586268814 0.129106095450653 -0.24494561551731817 -0.10335182946907753 -0.413892181590641 0.1078355537983897 0.1608531011141125 -0.10066650027560843 -0.05068559773217416 0.19991553920503322 -0.21198601516123486 0.4482557670171553 -0.0045522763756162795 -0.0925023987455775 -0.2035180336960617 0.012353789360176174 0.020742418696048728 0.18365170443831022 0.15467142153677702 0.1121837001224458 0.05362588789483358 ]
[ 0.10329526477008809 0.24557682292349217 -1.1124659321023163 -0.6835170904963409 -0.5343162269131024 -0.9531043062955208 -0.06219732425844794 0.3465399534668015 0.3844258780884296 0.2935517221098246 0.7722628058912271 0.40063990304768177 -0.19871905563067982 0.11999932676137105 -0.45628010967387067 -0.4383678007648933 0.08731565023717765 -0.46154221956044145 -0.13091619089890932 0.1856302343869786 -0.09693921519602479 0.23636765197771248 -0.055219538045083595 -0.02792720881850888 -0.004569879347955317 -0.5610841237755426 -0.5096520940567565 0.004831880970536765 0.23475419159008526 0.04920443863684632 0.8008173241635116 -0.31203261546413474 0.02249771739720685 0.1278212993501805 0.8347531099949844 -0.09683606765855529 0.4299120836559905 0.2845095174714426 0.04163492587900624 0.5546542458450934 ]
[ -0.04202541766116968 -0.08761824854669896 -0.07534832188790891 0.0894201258431273 -0.02575723728540183 -0.8411927173586059 -0.0796316864722796 0.3100987514109918 -0.16818140255498415 0.053397814690532626 -0.2019684313310729 0.07120123886560754 0.38106785263898924 -0.19731169749125166 -0.5137782930654449 0.5255995408590366 0.2212981307084396 -0.4609638378312927 0.21032847760863418 -0.09061992874524745 -0.18501599378439845 0.4448344390126263 0.28754715417337695 0.5265354482267947 0.24858903429411303 0.11093805578533446 -0.0710435189273535 0.26746557230389545 0.25472973420461137 0.6998368800729716 -0.16977065970149002 -0.08277426683160582 -0.598948807760612 -0.3789489736883971 0.020181279545973364 0.2350225860175764 0.4117605815737435 0.4871604126181148 0.06058372871204982 0.015031561954941194 ]
[ -0.3791436352374239 0.06210115639702298 -0.6687324439305012 0.05175859609798872 -0.7295996666855752 -0.17297254589747124 -0.09528507989753138 0.6005936411264938 0.39087348227903085 -0.25346583666663686 -0.5674691459896039 -0.03485679529633762 -0.18816362437863599 -0.10486594115539688 -0.1744777236484795 -0.1049513991359461 0.20488995833311047 0.4366721421110945 0.146054432019798 0.11817742289005308 -0.19499760990556084 0.05726124886582417 -0.10445747535559487 0.6674685788426872 -0.16552548556736657 -0.5596401300195241 -0.6466547732387351 -0.039070738408592494 -0.4818325969390129 0.31280963504998904 -0.2822454237490588 0.4790557915927079 0.3280169959157365 0.1990966490220994 0.0440131225945308 0.3514873516768101 0.956268453350358 -0.2918875157412418 -0.42371071046581377 0.052940271183057 ]
[ 0.06318221769921156 -0.27916450271761356 -0.6747700598129517 -0.47557547165161995 -0.8507869629989117 -0.3541168598783039 0.09541457464737575 0.10083036657942746 0.7428425800026157 -0.1916968367071616 0.9397863790240683 0.3509364560304357 0.21602466631279837 -0.04893204512398107 -0.6329634788022572 0.5182430077774026 0.07911194876479902 0.19763371902854235 0.18260915485287438 -0.0467054625714856 -0.13531643640379756 -0.2806591496910934 0.37693623266757154 0.22650483926903753 0.43342193461348316 -0.22976397860780873 -0.47599514528296627 0.15765118653034824 0.6275467825988483 0.4377500968289033 0.7851632110676948 0.0651078697288123 0.06433219842859915 -0.06995256120634538 0.5567495170448641 0.245289599894429 0.12644758485584004 0.36101484449172927 -0.4809610502741064 0.20998412592403218 ]
[ -0.19883311168898082 0.07438145671815809 0.334064744992933 0.03689269013485503 -0.1403962915207637 -0.9961567158195695 -0.05630479387405874 -0.17589850904934456 -0.19531998256613378 0.4600963237092227 -0.1268053878050682 0.2603176354154188 -0.21080841533960676 0.22322662529506804 0.31905294244744237 0.3007014343461523 0.38379076066106094 -1.5209452085658004 -0.3246990652076356 0.10682617566508273 -0.24823474328632747 -0.43594080202719 0.1725199886423693 0.23587658500382389 -0.2357284663793722 -0.0845154925575294 0.48151319888749144 -0.3177456158381161 0.5416077594646984 0.1893091033314312 -0.44972754227778755 -0.24498954229928074 -0.5845692177205226 0.10284691479138253 -0.30505128356383493 -0.24407583618313955 -0.31328341203864335 0.25666708149381673 0.21744089996564447 0.2766269560220723 ]
[ -0.4166685304779838 0.344666442885515 -0.3013638646328842 0.04720292066695508 -0.15559048015409338 -0.252036619498331 -0.24736261314312663 0.3486381441438781 -0.2937699320425094 0.13874592353471235 0.347453929907026 -0.3090036787611479 0.17330268699553653 0.06213569724342918 0.22587554383750047 -0.11845143452063053 -0.3408897948226248 0.9369596859273857 -0.6434300684556998 -0.23086152373228613 0.29588222785467805 0.8070814635756838 -0.09349710072023594 -0.42280898943890943 0.2883789435992261 0.053037512803120364 -0.08104210765981847 0.4340618215358131 -0.7205090820071629 0.2654610899984392 0.5299581877867406 0.03457603915224074 -0.5567570976920693 0.19666690512560367 0.13292583635955088 0.02103119814940113 -0.17009588264040168 -0.22528814948390416 -0.3132880010212118 0.1853372395281149 ]
[ -0.353917689645493 0.0023653725281426053 0.26030738376988616 0.06235601649580253 -0.18854378407027791 0.5923884197617907 -0.03190416401887917 -0.17803680980460848 0.5293116941100441 -0.010562243040024741 0.5766973828883989 -0.1768022669455479 0.3459232137000188 0.19112334136197692 -0.4180141580282799 0.4174953390206348 0.4055665074743505 1.0115115252267792 0.19357953403342326 -0.004634584647455251 -0.47317893916603637 0.3325390114015655 0.11378126419544234 -0.41512708490164224 -0.05346493632399549 -0.21214380100762925 0.1527656151320559 0.47179509470076114 0.3287351503200711 0.05424601815170796 0.11454108630571881 0.37190103627354376 0.38755986598451564 -0.07217654739129084 0.06943424697382877 0.055178848123735684 -0.08585596321611982 -0.13297601985820723 -0.7775607220124686 0.017667719494103815 ]
[ -0.4119370398430365 -0.13237080482101596 0.6684748586370967 0.2125141862516668 0.4906986722078232 -0.4121255245870354 -0.10445047511831271 -0.3355941818869225 -0.4964099013234382 -0.03776529003953309 0.05170305468718721 0.06341573296797062 0.013565838480032486 -0.2613218679083801 -0.21676149281501433 -0.5372201979776425 0.16193551791094307 -0.6390321126247399 0.03165404867600427 -0.16845821036926728 -0.31198232072158555 -0.1645706464147889 0.1251132792755498 -0.3565929987789389 -0.35441252171861776 -0.05405142645869435 -0.1360306189321407 -0.027251869351947282 0.355525298542079 -0.024934849783688477 -0.061345260057458106 0.31152569336466945 -0.5990764552225674 0.12049458100067911 -0.187534170734533 -0.15337085694802016 -0.48845996048317936 -0.09699557519836088 -0.08462612563898557 -0.5665031141326264 ]
[ 0.24054642067599738 0.20968411856620225 -0.5599400764297849 -0.4048084822187232 -0.11127226594169452 0.02348387278947316 -0.10808503373435581 0.07746502715397773 -0.006324299619858283 0.027567685675357716 -0.15643904864712366 0.7148919111399925 -0.5656299488320407 -0.060038963306290855 -0.3646553340619243 -0.7007235712286303 -0.20546212778308043 0.4230695398316355 0.2918293636245077 -0.35155362172793636 0.3252110386094958 0.3970242808210991 0.4052231257454375 -0.7936504446045152 0.35464677518951576 0.5805891574885124 -0.2201019391982235 -0.1520813549457737 -0.1533589462089275 0.5190288626447871 -0.021386759111337337 -0.07528830831101362 -0.08891721068606126 -0.20319960594649547 0.1794760646027977 -0.21225709741320592 0.3030760615022305 -0.5025138286524524 0.2297423588241065 -0.023920855713452736 ]
[ 0.385796945337686 0.3675171699595506 -0.16536199351241337 -0.009224503030686455 -0.06428140454365064 -0.1379073811266726 -0.06829738468784936 -0.13750014268665461 0.35823921854184276 -0.255769275619726 -0.5916959775279018 -0.37280154460677256 -0.08467746617659269 -0.25928320179522735 -0.4477808085872407 -0.09471451774915014 0.36177723897624503 0.19464219970581698 0.2637284525640098 0.2148587889061359 -0.0843725010036348 0.40699388957762594 -0.07024857870054972 0.8127298053675216 -0.2783227559476424 -0.09013429004246358 -0.16692627692722478 0.06616920130873352 -0.5621821652746278 0.2597672219885704 -0.4237686906399478 -0.07822388188075537 0.5237014872116657 -0.07614089736035226 0.06977227194444217 -0.07629101841275664 -0.5030791949128867 -0.05938760480550505 -0.30484312241768385 0.04427496158615774 ]
[ 0.005158188148461062 -0.13992925999255867 -0.15873447586712927 0.003509976898370607 0.1641023161427539 -0.5965226376220654 0.1915856470784959 0.26564551183743074 -0.7877492124064729 -0.8600784886394061 -0.37631143322225713 -0.4291935134670612 0.5939357725970378 -0.0007650242298475704 0.46793432398033263 0.08933061008937025 0.11913075954456435 -0.45164611375668684 -0.39828323406290944 0.19131753672356658 0.22952250155381906 -0.00037570374951981114 0.054559462652796896 0.8934691904729773 -0.5612344633144248 -0.4383537933045239 0.08802888974954713 0.5820005247791622 -0.3571619655727048 -0.2842660943645392 0.08391744409859454 0.019443030370817516 -0.3555151339989173 0.20641689212320963 -0.0647226759649401 -0.022364376705716456 -0.04020866076487086 0.07727944266872472 -0.11004093750684626 -0.1308785730873443 ]
[ -0.23613606990379812 -0.23125646295435534 0.4883867196357856 0.08264423407309318 0.6408491181140163 0.7218559574867146 0.06667106163200431 -0.17445478589909982 -0.04860015957859621 -0.653697770983339 -0.2663075329881706 -0.00037764366511947684 0.0055466784991603955 -0.010892079908151097 0.24669771212849986 -0.4670171154291927 0.08031180921216341 -0.3268563510571546 -0.5535776017822994 -0.21591571776497243 0.24055179157038561 -0.8319567529159729 -0.12353048549671011 -0.5335922919729822 0.0037144983970203316 0.3461919781628898 0.7064412166733356 0.34318820657896454 0.5715783389349621 -0.5339629464182155 0.1410081366237796 -0.31498170071322407 -0.45270747796107697 0.22433452881266253 0.31836557306202334 -0.34583285804633723 -0.08181582804206756 0.12475276802328009 0.07485701980599252 0.2503050068362248 ]
[ -0.2803599105734712 -0.38771398135598617 -0.27323082990330533 0.18942371208772119 -0.023547522003631 -0.5012008298278849 0.14259030322387 -0.01833806922882874 0.15424750265770465 0.5422297350599524 0.14090186610226366 -0.04892600685735514 -0.16910261754670772 -0.03762664153655801 -0.003932375239713359 0.46523586398812805 0.20797291486957695 0.3814148172512466 -0.5395968958738875 0.3723579599512051 -0.43519565763798246 -0.44414161413836434 0.4112347940449114 -0.2359174059199726 -0.1351950812993169 -0.21364508352957579 0.2681135949072451 0.3329015179214973 0.1465056600580176 -0.22188444235374327 0.6998619911973057 0.1673588669653421 -0.17783681375672186 -0.08658878111420365 -0.17829296274717144 -0.02199780383202029 0.09674239451851463 -0.11307470369918089 -0.2873269577833436 0.19374140259733147 ]
[ 0.18797651582224503 -0.060100923360071556 0.028452406675549415 -0.3058683909855177 -0.2712089744531186 -0.41452658690535177 -0.0007647232144577865 0.36477892135731393 -0.02427996502764784 -0.08195606507030265 0.42153238168834906 0.013051708276551222 0.050332904862872965 0.5335427662105725 0.14896683743387196 -0.012751975705775421 -0.1077825986205733 -0.33330350533296355 -0.742800057903418 0.0673241206563974 0.1991884127588009 -0.7995408005695952 0.08192508489406952 1.2077552471895752 0.5409739547732767 0.07221283766925682 -0.1884070203128814 0.446779370721063 0.8317844914412846 -0.1525965728851836 0.870745446735315 -0.3355746336609671 -0.7058561370395234 -0.24280571815363602 0.5431249034623479 0.32803537210934575 -0.034776245121716065 -0.11890445165445676 -0.31298569831351114 0.5109054202126245 ]
[ 0.17153141388561582 0.5011356858753928 0.7314572426556751 0.377704620393544 0.3390951517533408 0.569505964427846 -0.007454455381266588 0.17474494983531455 -0.3042678933388357 -0.2649758097797359 -0.4001757317260489 -0.3419173294240267 0.5137795132469387 -0.2037932565670666 -0.0482876618708365 0.20302842405139795 -0.05923213627064397 0.0759916649656929 0.4818950024878248 0.13710323816674283 -0.025312576232193334 0.4101566089755674 -0.06968617172844027 0.17432611420016217 -0.5313460312530103 -0.4842485972239313 0.10911841193352602 0.33675548876342165 -0.6127163731391695 0.11094493062168644 -0.6857176651415511 0.41187497388697986 0.044707116751165545 0.3455825711179707 -0.5362238750385 0.34222949140047804 -0.4150585852116363 -0.2143303559062234 0.009950636202268697 -0.12188620906998202 ]
[ 0.36550745367699566 0.1369984998538574 -0.33325484377663106 0.03314152021286985 -0.23960425689232623 1.0212937604774537 -0.22292781043847185 0.06179132699202383 0.677211804358022 -0.2793961611976278 0.12035709928433762 -0.38242038896965036 -0.1561908643913195 0.3686083038157267 0.2717368344149006 0.14309540011958435 0.011090750543988347 1.177839299652994 0.4406530708899411 0.08981990682115365 -0.05357330199417689 0.2560404380731808 0.00767205415394207 -0.5488827965500693 0.2581451989808471 -0.19594505025603157 -0.13422838222130268 -0.11659666855238329 -0.21894605676141138 -0.26348646451367447 0.3807011087476225 -0.08836112330118238 0.5326358049262185 -0.17782092070286507 0.48931832565995587 -0.2640351441094892 0.36961017860154716 0.11698890475823147 0.10983108448431728 0.2127361545979506 ]
[ 0.2721551157259322 0.05563914449763432 -0.18912786089504108 -0.06001623327170974 -0.023006061758060557 0.13133946563442453 0.18451873745489766 0.16350381678028927 0.06664462039865375 0.36851852351245834 -0.44992784088630594 -0.23758088351534692 -0.0869519952806292 -0.31544044762246015 -0.21767866677358894 -0.36100662727504274 -0.11221282948575688 0.4585102545509848 1.1348317778892765 -0.4361799090041237 -0.10359218613440942 0.5275842817105186 0.28409841079252957 0.16196051245199417 -0.020212685604427568 0.2497038313482842 -0.24057982064970823 -0.19206063414607563 -0.9851437952838612 -0.002763542498482635 -0.31547068921455723 0.36815612459287783 0.5451235002045732 0.10964932205720404 -0.14748326926525793 -0.5062357462428773 0.23882082846749306 0.028875407584254824 -0.5306758071725606 -0.035248012200987874 ]
[ -0.0481502936601522 -0.2264951258170315 0.12326257965337338 -0.04588563097834269 -0.110331288296865 0.3216143721754809 -0.009200331436721497 -0.004471464495934259 0.36692474130701963 -0.31699210705225944 -0.1561372160201415 0.030319555247835937 0.042578038401489125 -0.025849696807038493 0.02070733708312109 0.1445114130325434 0.028678995189753972 -0.19196694159533506 0.19022082044141508 0.014031330327023056 -0.2696196294289421 -0.225789565689586 0.0711998821790903 0.19342871767068306 0.06446308168472267 0.06990298837131519 0.06119846896515484 0.01568435936087027 0.15793373638471347 0.15181172028228662 -0.10207399146321579 0.2664285680006695 0.22313188802981757 0.01858077797123948 -0.39813541667143276 -0.07762403482471997 0.10882558130491123 0.1348388903359709 -0.16991817084583044 -0.1800400543503908 ]
layer 3 Activation
tanh
layer 4 Dense
40 20
[ -0.2795618102342196 0.06252318887269095 -0.119169122609348 0.2208402147084321 -0.2939377679643325 0.0160879474779803 -0.47063649048870826 0.19580070858297102 -0.08917165001002642 0.07772206278922024 -0.17887804880838654 -0.028244894436863403 0.22156879150623243 -0.23737612239669287 0.03828249704184844 0.39749860085709515 -0.37472693372050203 0.14408700018063617 -0.19284996191371923 -0.0438639109971029 ]
[ -0.09188623359161084 0.030574260358521562 0.10605261638316443 -0.062435492100934895 -0.09309798508154055 -0.21686459614634893 -0.1844062172506316 0.585057731478517 0.12776807060799722 -0.056041585020885964 -0.07308180485705985 0.053177727413594146 0.25001944695434714 -0.3527076128245887 -0.11565711588070375 0.3317264967620628 0.01926176823484016 0.0466664418535531 0.11011880251435018 0.054907978901363334 ]
[ 0.30641691060445897 0.43475128821436376 -0.24306292217251949 -0.5610920436332483 0.09921389398115303 -0.07622980526834645 0.1768524145808038 0.31503806826480696 0.2834604903943688 -0.12675516107887352 -0.162205273552135 -0.3685993150058735 0.12804125431705682 0.28960172009772217 0.05416912925169725 0.07204660381155432 0.41979527088113944 -0.1635014122248779 -0.07862510903736712 -0.08111205938946063 ]
[ -0.11329866694320753 0.17384857551694116 -0.09531832545959862 -0.15326578459055692 -0.10956097504985039 0.31534989601020014 0.19406430968992616 -0.053679110701999516 0.2635175309170808 -0.10343221649312452 0.2230700946579402 0.04833853327434367 0.27473291314971954 0.04924172823314464 -0.23749922026425552 0.018180810742661542 0.13593861031983542 0.028019985447238518 0.05636221501007569 -0.134865487758163 ]
[ 0.03472718492062161 0.2869766983778193 -0.18444335077553237 -0.8332188510829202 0.126288629821557 -0.07197740677866475 -0.3822440729555727 0.19434138001329535 0.1414468225811366 0.05794997180180542 0.2581726779832937 -0.22751007536531975 0.03676658170960118 0.0067758621641202796 0.16108433701539687 -0.12375515445227919 0.2457396724346582 0.020073390599222894 0.00816140315569235 0.06388627636593686 ]
[ 0.8151178732146847 -0.06004225311401458 -0.6799278723070696 -0.11071313329252917 -0.05300489298116538 -0.169945126996831 -0.04071631241741836 -0.2648271162871528 0.04898493140337082 0.27325445675905363 0.07651716725207618 0.24766545523019246 -0.03882488739165654 -0.26834693158015716 0.1447876747538051 0.31513403280074886 0.3889783529810755 -0.1381182507007287 0.11059829951486681 -0.21183737400007988 ]
[ -0.2519553526933885 0.08369965697190818 0.0062214555223409915 0.021352655551231038 -0.0841486129813766 0.34013073486520196 0.001729222814920126 0.09811574776990103 0.008463535138892152 -0.06490132145407536 0.1376183907095005 -0.010459890724826082 -0.07714435552649547 -0.002321215926071381 -0.06471499390299139 0.030331634587981396 0.010578106126820752 0.11771796440933185 0.09304201409270207 0.058215333483737725 ]
[ 0.15746619575303697 -0.2884545929867507 0.20084674930849197 0.009599555565438147 0.3579593903583126 0.04899902196807961 0.1384302333045911 -0.1064073134099086 0.21694929421335124 -0.09256469148526197 0.0872149944092807 0.2973311090551666 -0.06729975020665807 -0.20907930142235237 0.12801099451332873 0.09655844361221963 -0.13052313630156545 -0.1244961783600395 0.17572477504229758 0.11014194972108583 ]
[ 0.2904042716833802 -0.32525389182765935 0.2287528780054244 0.10128788419139631 -0.3780673838174029 -0.2699827896221494 0.35393824492233666 0.03841219326722166 -0.00023818158121104052 -0.10755437037142145 -0.19095097559022928 0.23387140086705857 -0.22058786119112722 0.48448930419325326 -0.22951156069182574 -0.03947487662698668 0.2832788086534605 0.1953272908491406 0.203227024527379 -0.16190109304654696 ]
[ -0.43820133565362285 0.12327324406540142 0.23549298708673616 -0.0729865686939364 -0.030052575293326732 0.04927519584347918 -0.2732122924060394 0.24762200991530214 0.3532742414100837 0.12276206149024796 0.21083266458844918 -0.35848352810725087 -0.2582130625538981 -0.038318960957815694 0.2525783500004517 -0.2930138562102264 -0.3420820952352045 0.08409422072041287 0.050150657730789416 -0.09895055054694438 ]
[ -0.11322037429629861 0.024704638216217344 0.20529263953959787 0.35210487368423843 -0.3586138231260949 -0.21824292700795728 -0.08042971484526103 -0.013980629036927261 -0.14523629915394248 -0.02827192289635535 -0.17873282954836356 -0.25156702083641796 -0.23535932535446755 -0.39970235992350384 -0.2986076476767784 0.08145440525571869 -0.3309658623363635 -0.16515819493563022 0.016747293832850584 0.18288577861467573 ]
[ 0.3493900865197489 -0.2401590255900413 -0.07400507508434798 0.43010021911704754 0.060914826672551464 -0.016827483044540313 0.09121551934602813 0.013131069721770215 -0.24079897027400715 -0.13983815190309182 -0.2854511301166271 0.009989906204764382 0.053667469011726567 0.13333042194484476 0.04175102581421086 -0.1423009278290371 -0.086667782903394 0.29680175514655177 -0.12434595710568179 -0.1382919530571327 ]
[ -0.2583948296055198 0.2595947681290512 0.021942888289535462 -0.10979230147014468 -0.06784799675380677 0.0399794650977692 0.42961579937419714 -0.2333220349072753 0.12836155029809782 -0.18401001905874134 0.2846175976433506 0.1264732469567611 -0.32378924230355516 0.4418509754466557 0.04314027091136131 -0.26273560474352015 -0.2571068006833605 0.04536385400651758 0.16731294956197362 0.08687450595987524 ]
[ 0.33932630811667486 0.11004792784118228 0.10681576930361655 0.3240843476035938 -0.350451464429519 0.09200848337906338 -0.035439415230046276 -0.3820827225691118 -0.08349831317863192 -0.07675869551509391 -0.3032386604935608 0.11242178687353016 0.03165796401229991 -0.02489887634750139 0.08324890051059748 -0.28682765734257254 -0.23505886336989482 0.08890143798271191 -0.40740861986258764 0.057721587516169216 ]
[ 0.2758379381550036 0.225106196629551 -0.13307742119286756 -0.3436401688374861 0.29691278213583255 -0.18174856217107863 -0.33406938879101744 -0.7456391841447257 0.31390556550660603 -0.17106691605331686 0.29211050302363184 -0.01557057913899862 -0.11152566280809238 -0.19582866877927996 0.056597516404323506 -0.6885363672806538 -0.2615835915850403 0.03163422334664509 0.07572852294129771 0.014975586318410181 ]
[ -0.24759446266437718 -0.08705394965770587 0.06153197408741759 0.29220567462735475 -0.20073014727596006 0.03238036710255633 0.5599785651825216 -0.284079183293721 -0.11483219908477436 -0.1856968479059632 -0.08396873163725842 0.0995983126152888 -0.14561541968578506 0.7721942396765489 0.2067532008765516 0.13924066284116066 -0.3900444662363037 -0.17503611844857778 0.4151695570494549 0.031305970140306054 ]
[ -0.17429955261897728 0.003971797144052519 -0.019948513873518287 0.09148471332634393 -0.0804174089960157 -0.1567189456622229 0.20102511354650038 0.2528613012178669 -0.1266158724797537 0.11437830601274164 -0.6048404332853179 0.07170099392565432 0.004073027438765819 0.467300259665251 -0.12406299367060854 0.051210598821378836 0.030025078962622544 0.11028939597480138 0.1818480313717063 -0.041475336759399066 ]
[ -0.16498772748382146 0.2782056989168538 0.5676172708405216 -0.05225418575560923 0.2859443103273156 0.02893331569498781 0.11032334618334552 -0.0638404423286022 0.30383615979604867 -0.05561539007893371 0.05451613637964456 -0.3308241343233017 0.10092392438683233 0.19082041718569015 -0.0396346664173508 -0.011297243126364827 0.004807042927325683 0.22190005719371186 0.45097082136977107 -0.1738307645450671 ]
[ -0.3080596828235256 -0.24624957936758188 -0.25212721095747853 -0.1895678288148169 -0.24052768696630525 0.037452477250268165 0.25528284454750777 0.3671678536645819 0.1935506166302167 -0.13357756496403222 -0.14956366726056186 0.24349651131150754 0.1256797491781558 -0.11155355801698914 -0.032285642114407674 0.4561999021525644 0.17608894610167197 0.053190327267199404 0.22735351795458042 0.08843829701240832 ]
[ -0.22859490041690597 -0.060419435508453974 0.09883301204986819 0.33794912555892465 -0.21061159290192882 0.29418598792342915 0.1764417046867023 -0.4005236365021904 0.029417404636705998 -0.01921040233542824 -0.4497465552720272 0.12199099157697967 -0.0004048925864072008 0.2670430953888953 -0.10376348357531326 -0.24857220485793483 0.038884585903355876 0.01737526322900969 -0.08859551232359723 0.07766814697350317 ]
[ 0.18604716100411534 0.1610805120532235 0.037222471502069886 -0.2486445921317253 0.1987016764703757 -0.02728259786255303 -0.7247873663830433 0.16296634416583358 -0.006400095765296069 -0.12603304900391915 -0.20885408974454267 0.06711929289651836 0.06723790789319656 -0.6766934882310214 0.07317233349352197 -0.017576798011354776 -0.14738763075153682 -0.1828181529406502 0.008525045269685167 -0.07384676249079428 ]
[ -0.429656222725139 -0.12012409100922102 0.7606138371980993 -0.08215673169646477 0.4335200678637662 0.023854303883753387 0.3229684390287509 0.520231603493267 0.33973940050104895 -0.4084394769485514 0.3936476933485555 -0.723760947539859 -0.07074245222660402 0.03763935757114697 0.06199266474480992 0.5427838459372514 0.0681196345847323 0.12401899110748726 0.18810822687392453 0.10290709704063562 ]
[ 0.10487717400751394 -0.19509216515007402 0.020953373033129278 0.019919350247264215 0.03639903872447313 -0.006432322612104167 0.29455375479801565 -0.3862025292593869 -0.2440983131178545 -0.23474176124151325 0.12772947520772787 -0.048822263253738285 -0.02121238076044898 -0.023911684064089774 0.1876993829286917 -0.024341065602750712 0.0719386204760815 -0.02892150852957185 0.06587970210939491 0.08775126278535471 ]
[ 0.3179419959955655 -0.30459036556774405 0.30375171133908385 -0.15050701264324612 0.017250924807112166 -0.040743944512932895 -0.36483163037664734 -0.056712262763946114 -0.4227057128296019 -0.041948234867614634 -0.0181508953426485 0.39708751506463313 -0.18960965377853986 -0.10718165763858714 0.20253886216313519 0.3429605142810927 -0.09035716579802931 -0.034996585118304106 0.14979957226786814 -0.13195276085022797 ]
[ 0.3932167839742085 -0.13697237664955494 -0.010327233439845278 0.5525412178067338 -0.0692441828758506 -0.020983710659242993 0.13192951472553374 -0.4451807214527597 -0.06909858210579041 0.1566696701917093 -0.0724274908049739 -0.09574458462700404 0.025666120311532845 0.22923145374485093 0.032429278479538054 -0.14244459353392755 -0.21486622094401522 -0.060379485052847286 -0.34022458372231995 -0.02157835344463963 ]
[ 0.5289848709825067 -0.05054459816429086 -0.0771246898787706 -0.05229646508277551 -0.0015025457578849426 -0.002045833340443173 0.062274799580274695 0.005567304899389883 -0.12604536400828606 0.03538849984646984 0.022124928043202544 -0.14428294074214093 0.24877817996628607 0.3291078374515125 -0.060430091409251895 0.00117106686948322 0.054883432865557163 0.08233799136905823 -0.2084380229105778 -0.05228013123722103 ]
[ 0.4001355994045267 0.39740953562099357 -0.18948286583822063 0.06061007725238883 -0.20945798840923396 0.11433722461274569 -0.030673532705986703 -0.3906099844979724 0.22288854726998114 -0.07545185756672453 0.055973758001088995 -0.16026785734386478 -0.1624378417561034 0.17363354247804386 -0.029951751220591454 -0.34910313141490223 0.07883152168826749 0.12341059771202764 -0.10302180650407712 0.10905369668732158 ]
[ 0.4147556137150557 0.3858047645256709 0.1603437274826489 0.24954444125573444 0.052932498066049785 -0.09033851986198817 0.4849883119712129 -0.32551076691245817 -0.01901761142926541 -0.0032041599343524065 0.11683513661801645 0.13569263246999477 -0.14266123766980882 0.22634904729904745 0.2535229858517123 -0.33415097373877706 0.006020527195438581 0.014693895308167492 -0.2211491251032002 -0.032781578387993116 ]
[ 0.44214694012146794 -0.24125381724819756 -0.44804644706213387 0.6489023949542042 -0.3614519631427389 0.07924436384953085 0.3362037181789754 -0.47899516809305187 -0.24179454654690227 -0.09042644634297786 -0.05031611320482505 0.4172197943100612 0.07908003749535653 0.5097329208870899 0.13702843506740178 -0.33158973487321797 -0.20755125256197995 0.12822040819182695 -0.3999285229145978 -0.05517475603732606 ]
[ 0.05922432524447898 -0.34916332574500686 0.10525964288370626 0.1334180220545564 0.30633077193647806 0.13137162762289797 0.24299830103534426 0.26627564235478185 -0.09621780307163319 -0.07766590423894308 -0.26730997705360127 0.05013904686490849 0.17476875561920655 0.0918054396287056 0.14828995624472405 0.44998995906102424 0.22361423441007516 0.2856722582111268 0.1887988753755664 -0.20273488852276927 ]
[ 0.307354416411808 -0.039409935187514684 0.24605338096289103 0.5256161391357053 -0.3504901036538666 0.32901468554125507 -0.1462011297582229 -0.4063918730498937 -0.09416189719657345 -0.0009393744233703329 0.11590045771874093 -0.5182602602191904 -0.21940389486736045 -0.4493089837779825 -0.07926861508986152 -0.41060505745009845 -0.3157753603508446 -0.19883817577783053 -0.2696418863866825 0.1345821933450257 ]
[ -0.09830108891576235 -0.08894106362316222 0.04253455517410158 -0.0975466678074184 0.0668770245132255 -0.2045269595492202 0.3955084105068207 -0.1650321079634321 0.34650573090968617 0.048322372903004555 0.3052390704744199 0.017680067734753203 0.019635091032148815 0.07746141922680076 0.017822567301666214 0.371594834058537 0.20377714052792895 -0.0439212056412522 0.15020878097921853 0.037884425573959365 ]
[ -0.10159307773547778 -0.3874345878969474 -0.1935955557100928 -0.1427404727007905 -0.24180603862287461 0.18446636318279502 0.2622585554756422 -0.03860161457513985 0.13880026798327338 -0.07611495210156626 0.024362059337324125 0.597932479519122 0.2053075037627271 0.3322149835054282 0.016917187570437513 0.13569065201179145 0.3463483569572952 -0.35167564806248924 -0.1566641112067686 0.10777874162347399 ]
[ -0.16524237119410837 -0.07949843389618395 -0.04313338903557555 -0.27397516200597066 0.12021145854202976 0.11869865491444188 -0.04248098174627746 0.41548798706583856 0.09615965228864577 0.04331214071869933 0.0978420109684472 0.05161279074517649 0.02909357238005458 -0.240409802470068 -0.034583593378830754 -0.07082132377458182 0.07780557086216897 0.09607948782901965 -0.10031082952258998 -0.02805908122688863 ]
[ 0.1715451850631241 0.0513190483064427 0.1195473745732222 0.6760702061191128 -0.32750598664206154 -0.22425215792964173 -0.13949743114277552 -0.09539287500987041 -0.39699573299566016 0.11772507823714806 -0.29139462182740583 0.26887413551404943 -0.06475644104028562 -0.2919862103443564 0.08345784272323548 -0.23570860298864538 -0.41177678721021516 0.026918225941974093 -0.40740456388695895 0.13610050363869114 ]
[ 0.05735179198186912 -0.09551767078472562 0.3412652459940304 0.08489318388826507 0.2476249933735589 -0.025699376009366698 0.21974367784778845 0.011357568885295996 -0.06643134828248719 -0.03642806428040477 -0.1602407046615089 0.4164940011447428 0.026326226123344485 -0.11736160808434887 -0.09765067616321352 0.07378257644109254 0.018604726551828803 0.0064997592899171 -0.021644215022637733 0.045811587314524164 ]
[ 0.1534959905940319 -0.3830049401436811 0.3844739825145541 -0.06823347303568257 0.1806383324557469 -0.09514293920774632 -0.05952138329630559 -0.3044484268514118 -0.26415825283209404 -0.03918981255189689 -0.02894475667144514 0.4621723449158067 -0.2816704347435741 0.006686018071994351 -0.19128784597170342 -0.0025435587910605404 -0.22993563008358822 0.17202286493153232 -0.10147166439438844 -0.24217918774629393 ]
[ -0.21498445805703892 -0.2052576256076928 -0.12734165817128745 0.5972670306613681 -0.013485251409800005 -0.08686049306506567 0.21970611053906608 -0.0505290667666934 -0.23398183949193566 -0.15124042942030344 -0.19209711419407238 -0.009136470936026288 0.11039038315284476 0.3614386575746063 0.05392575254297512 -0.11634090083053023 -0.3564399859617267 0.16881655518377317 0.1054119316944366 0.30539931948423343 ]
[ -0.37292450167243474 0.09125474634249844 -0.5576016888556908 -0.2355252335429651 -0.06454446919557126 -0.04615202111402831 -0.46004905515317995 0.11843076277554136 -0.09654707296077064 -0.15060872163636063 -0.2424528609515078 0.21292248444877548 0.038106810659874084 -0.554176861291249 -0.16533316729541223 -0.027865005656665682 0.027458393510917424 0.025481748792233548 0.10757292202232728 -0.1470538978402231 ]
[ 0.0809958680769958 0.0711498311192576 0.09863017890694192 0.3600052140686125 -0.3729897871469661 0.32507191298251836 -0.01459691502335661 -0.32711960523946404 -0.05461994192263216 -0.160179472976728 -0.5900465006326402 0.1682189265949211 0.05290617329478032 -0.0458867268743181 -0.1177499647025784 -0.16445240912122683 -0.2496026013759871 -0.10349780585981727 -0.28500912484899305 0.08545186030861164 ]
[ 0.06111202691975861 -0.09526611591950442 -0.11201087061058801 0.04675748082601855 0.09397060001665296 -0.01412095518193264 0.3072576262417421 -0.2579535522999397 -0.04909490617387378 0.03346893762099284 -0.14004923558135163 0.15334658855111769 -0.0604311819802826 0.3636445048217448 0.026495540955827266 0.0764338487211773 0.08690120312694143 0.03811347194773302 -0.012887696537931625 -0.007712750378122477 ]
layer 5 Activation
tanh
layer 6 Dense
20 1
[ 0.06526301045236307 ]
[ -0.07722677115729694 ]
[ -0.32751219738464094 ]
[ 0.03363698094729481 ]
[ -0.023626899057938494 ]
[ 0.007599364726488599 ]
[ -0.05852841701752358 ]
[ 0.016196527754255584 ]
[ -0.019561471402313103 ]
[ -0.017689150690153095 ]
[ 0.006351270211394392 ]
[ 0.24740383999344687 ]
[ -0.007309133806270223 ]
[ -0.09074438851462169 ]
[ 0.016771763596139067 ]
[ 0.03608259880771106 ]
[ 0.07614842129016838 ]
[ 0.0010572247862527817 ]
[ 0.010647420704848256 ]
[ 0.012880264726370784 ]
[ -0.03587354157774571 ]
