layers 7
layer 0 Dense
20 20
[ 0.08381290735952296 0.4142080732283091 -0.6582951730684604 -0.952741932710327 0.07667376985546245 -0.04149119936581912 -0.20515027505617858 -0.03060488930603058 -0.10685999487916285 0.09972515121178789 0.2839126029654632 0.7048749444080502 -0.4724823951868703 -0.11945664783226907 0.03728620095576537 0.3296729546588073 -0.1267056092818748 0.07759871881361856 0.1242249351476016 -0.6068384334878446 ]
[ 0.24479410892875964 0.3134415414310385 -0.1348036810512496 -0.1763362952223553 -0.2654766511476048 0.2818736517717829 0.0604298990445577 -0.3381993650378627 0.21894006733549795 0.3692228291156925 0.06921848914569136 -0.336614236502106 -0.183048269182906 -0.16833657337800112 -0.1281294323311345 0.13492583287872484 0.3378076500312443 -0.02895065303532396 -0.3086659723886948 0.3578162639734877 ]
[ 0.09865331806200583 0.08746703678433712 0.13830923775232207 0.024498142088653217 -0.05150226434976461 0.3605230715215299 -0.06876970610231446 0.38403468628288107 0.16579858883180104 -0.33309127381724396 -0.1511658291940836 -0.25616202228809204 0.2763145421942317 -0.0003547676521069097 -0.23892729525208536 0.0761945680951847 -0.25156045750310363 -0.0016051871278588133 -0.1961492643522392 0.06928022013132065 ]
[ 0.10146996195879966 -0.011385504340041942 -0.01585272977828749 -0.7161296103663127 0.26549379238344384 0.10044376435013004 0.16598080757022485 -0.6399687926194559 0.08330512534896813 0.283207046951956 -0.23413375800224084 0.7114131530164006 -0.10543538674189469 0.10197541152052199 0.24238166641545122 -0.11014343078412571 -0.09020133095575597 0.046661930448572114 -0.4111274145809798 -0.37809568034041685 ]
[ 0.8146810241500559 -0.09707103004803778 -0.7286006111058956 0.5720922194153697 0.24382060509398648 -0.12487699132165714 -0.02902595987045335 0.5313452130064734 -0.0704002714681234 -0.20556557313333418 0.013303303797081627 0.32288334013954056 -0.346759782845078 -0.2718022038147531 0.16896466798545204 0.17396594106742266 -0.20934960313792977 0.1729323105703463 -0.2506693600843772 -0.7905923997621868 ]
[ 0.3272402528895531 0.03566180437846827 0.3221850942805512 -0.12908254481174444 -0.20587397274291439 0.357257496956942 0.2131316181110224 -0.2922162066334968 0.16603774399999302 -0.26435779633837236 -0.16828677553542595 0.020505344734334633 -0.3080977541358624 0.21172335377851323 0.07668059480846552 0.046705119121342314 0.11775994940513727 0.06759883923307419 -0.2075369787632503 0.29033681185754795 ]
[ -0.2895202035709366 -0.3656723747603337 0.018281624849968606 0.3201431784433402 0.2926544545130869 -0.10428926157920611 0.08500254331647379 -0.08747188199710387 0.21453529625243534 -0.35554409756567396 -0.1298828451758721 -0.3381590539608005 -0.21733937545167228 -0.1580984969755872 0.18950207887312148 0.13166505642804438 0.14193954492979385 -0.19944226962597975 -0.1370665862477992 -0.3538071273529847 ]
[ -0.03333929153083381 -0.12706178371890817 0.32257305650469753 0.12024833859350446 0.294355640258617 -0.04466621469378305 0.05145213207755924 0.47295076452556256 -0.39646496850773866 -0.3594737532526246 -0.05194919033932438 -0.48326240897512696 -0.08376607974818029 -0.08821433374750906 -0.0839848048022887 -0.3973619378104401 -0.2205296690521692 -0.0031624055137373292 0.03663018362072965 0.08832812646451087 ]
[ -0.3604159791439628 -0.552589273457473 -0.5770492270690041 -0.09039316155131205 -0.1667250357447888 0.7396874378223787 0.1362028766865595 -0.0991386151478657 -0.5629692216126884 0.15096970179639607 0.8264001504647064 0.2290068406359784 0.5433103661499501 -0.577304767686174 0.2741731338853907 -0.13123960292400988 -0.19018254576208898 0.1260296476952477 0.3070012608155425 -0.8568075454811632 ]
[ 0.16084265423719288 0.5212827318474417 0.2909840923737907 0.13696171560377624 0.37607588816872217 -0.8685332067400569 0.5283753796529851 0.05651958109096595 -0.8509407235768449 0.056540742306383285 0.6479731980261624 0.269936359256189 0.27036820810351014 -0.14159739370450147 -0.57436435384666 -0.7251945947674483 0.6824610211114653 0.5713250127872423 0.3705236474301558 0.0832624012035622 ]
[ 0.10186721628191622 -0.5100288846468112 0.27011693481990007 -0.09786995762200879 -0.28523455956678206 0.6551359427254891 0.21852965403545555 0.42904661775206776 0.26739533952107214 0.7639144612403466 0.09988821969748499 0.22352072199890524 0.7131214061920758 0.505148310858259 0.11166289704310192 -0.09266115236205096 -0.362469523801954 0.314923991768788 0.44816818286999266 -0.07716425005333721 ]
[ 1.24552093084123 0.19846375505306157 0.3130918080291389 0.5034994802525691 0.29629756534184426 -0.020864420565825565 0.19058748060613576 0.036051040530730855 -0.9211784608137992 -0.9135633224368778 0.06571269580289948 -0.8440036733232055 0.13521237494222327 0.45564365850785543 -0.748442422121008 -0.20680667657483595 -0.7217500357623928 -0.19572567259879034 -0.3228984592027872 0.14930594567594666 ]
[ -0.32957784142217333 0.21121845366743325 -0.9107123894598089 -1.0797001880439052 0.2446553860073282 -0.6259501813726144 -0.3432314584979456 0.39312587697214296 -0.04230963285061164 0.5563674945266107 0.23584477585539304 -0.046641607990402234 0.3257311903294984 -0.669690283606478 0.09093948694240855 0.01455991745045413 -0.2027413089835632 0.4141289388911906 0.162676305101419 -0.28831227154536937 ]
[ -0.12987144093214653 -0.30708655289642134 0.04524971243214558 0.15191242291845497 1.0795904283378333 -0.36636786497526524 -0.9335206472549745 1.2138535345153774 1.5177493275831053 0.9009218649053067 -0.29832315625739825 0.1782457317092854 -0.6534675363852626 0.8539624469349884 0.608298697960059 0.7956633600723098 -1.3550868784284815 -1.2891836268936325 -1.1276657860493806 0.01654988553315196 ]
[ 0.2817004634997867 1.1871927255852872 0.4910574384512717 -0.6956259158140355 1.2052168850625011 -1.032174104693262 -0.9226100540066382 0.21411381968823304 -1.1005716951388111 -1.3127670173776755 -1.6450653216722193 0.2518761062367466 -1.0401172643421956 0.2161424359884521 0.5105450842254476 0.5448848701276113 1.3402901921166117 0.5768606037206674 -1.2694898180114895 -1.2077619468834564 ]
[ 1.0209229028172564 0.9892063632685133 0.5573552596277669 -1.934861735793854 -0.42671885448623587 -0.3755349545005409 1.1221892547183516 -0.46243492946742804 0.633399332904635 1.4385763908909692 -0.7262158662599432 -1.2080950518466995 -0.5294995458553463 0.03272672941490398 -0.10342971560325076 0.7358311839683901 1.183837725655101 -0.49067417325901236 -0.49645411599859673 0.5158484174543668 ]
[ 1.297136688511641 -0.1632192301131358 -0.9873400700228674 0.48150202868651154 0.2550486507618547 -0.1237762105682334 0.46002695492601714 0.6002949333250642 0.30990143311555 0.05631492235628064 -0.18189933252838017 0.32729215980367976 0.18199616209489114 0.047894403726070116 0.8158395094956683 0.5033762440973977 0.10489228606560276 -0.2743946237436234 0.013920564756839436 -0.5461140155015773 ]
[ 0.6392170850048611 0.060969296589005316 -0.5413628467497985 0.20074955108118792 -1.0183130437129362 0.9110356570856013 0.6451499332427839 -0.9839606872648327 -0.1770921729176357 -0.25130154118242976 -0.3862111102801688 0.3215054333472645 -0.13395589343904601 -1.27936040266839 -0.5408723986573191 -0.31441961393555135 0.6093184403404698 0.7664288225619428 0.590049891961112 -0.6295525725221944 ]
[ 0.058408175133292044 -0.7827922047190934 -0.8278692160681758 0.18832006786650035 -0.04388081904888726 0.3219952972756497 0.8303283549995687 0.07650456030428406 0.27189300591624005 0.5733276118071357 1.0095219441026932 0.21729811667925106 -0.01405507663022685 -1.038177701278722 0.025430994584340484 -0.056980437114136605 -0.6074225287716006 -0.5901967692660535 -0.5069100725059329 0.9344876182871629 ]
[ -1.1083212697958906 -0.04400264946528574 -0.880522185913787 -0.19855656772755637 -0.2726571810696289 -0.3348186799028195 -0.7398108571742386 0.004243783440016146 -0.5253533700922612 -0.5176111525868473 0.21505499827744518 0.9161571025270504 0.6577192327820762 -0.4103381595414043 0.0535456014722867 -0.42199458911576715 -0.6321095093839039 0.33316975171104135 0.6171984136018641 -0.884584219681962 ]
[ -0.057468994889718766 0.182988012587213 0.1662228461808126 -0.0003130330392530792 -0.03522150211249715 -0.24671345859966803 0.026363405374097645 -0.235219754771075 0.36458903971142803 0.04634632381630984 0.025122100074263146 0.2717579032254757 -0.21179564055722236 0.320988534324631 -0.06925322918397941 -0.13223247609660435 0.16653163762148618 -0.18727256295728037 -0.12417802373740945 0.29766523938692224 ]
layer 1 Activation
tanh
layer 2 Dense
20 40
[ 0.7133844211429363 -0.6559559644048301 -0.26746172100358717 -0.4776208177082044 0.6792874687117502 0.19887278538894423 -0.023261120121723558 0.5303184368670327 0.6317110052157645 -0.12604797715161295 -0.5635356453037821 -0.3446903646820619 0.6301195424264191 0.448166652347121 0.36644082727272986 -0.5833768713043759 -0.8639013476292879 0.024879553515203538 -0.008629502249906553 0.06630789470283506 -0.1971359480634904 -0.478117747088087 -0.45310522487254745 0.9018250748356298 -0.4896295277145536 -0.09073495575027075 0.043207322258993555 0.25587322861318845 0.8381887417609845 0.3418167512999405 0.13887478005051654 -0.6538944432474814 -0.30535143659411246 -0.6881386872883862 0.37026920802636626 0.03948081586419591 0.3284695841112779 -0.23983211528351733 0.49334531364280415 -0.12521314211212622 ]
[ 0.31124130166344205 0.09275155049025008 0.13425283408798983 0.27384526647354984 0.6957222570078736 -0.1270935054041536 0.09721708056802707 -0.05211103037006356 0.330995190883935 -0.5972049385822987 0.02027145288543574 0.06727973858339902 0.03739325388325569 0.07156479714646408 -0.6083743941584062 -0.6842492621404206 -0.003964761857031724 -0.42983517391806164 -0.14158196636322623 0.19755973381313638 0.1928719582120001 -0.23415905161093262 -0.6923018036611183 0.24156334691166356 0.47756429096921715 0.22281388624046106 0.09457644315978989 -0.1109016296138482 0.3725253024313658 -0.12287501459570672 -0.11250850451496557 0.5847251440150487 0.12260993158600687 -0.3758609223327633 -0.2281491680268638 -0.26252513421158374 -0.3694669894064372 -0.2928603342709468 0.5465991051710029 0.2550975302167406 ]
[ 0.4828651303373522 0.2517094113105961 -0.23306934343439412 -0.3605065254506179 0.5709592327304216 0.0089362235984836 -0.47938712052329713 0.3887622092910616 0.49979272960510823 0.4482202314541352 -0.6388505104824643 -0.011893795551112933 0.8043570099418849 0.4633388919918028 0.0491063236587668 -0.6486049516050374 0.029125688388670225 0.521502434225404 0.15569508871163806 0.1338231253277616 0.5102413917890436 -0.34671853197297225 -0.478738140711968 0.3313199358536516 -0.3679537048701682 0.20354632743144163 -0.18983285979350836 0.2806215569287113 0.5511561655321413 0.071900028420302 -0.4508873549076983 -0.11130275759484289 -0.006199100645345188 -0.19089058106327955 0.2493681316333559 0.21291078460538815 0.4571783398774672 0.015901153405757335 0.33948699333085325 0.30399156054982723 ]
[ 0.013988639633991247 0.49884516073813046 -0.22298649568883672 0.13787521128029237 -0.43587786590754296 0.41671031810385334 -0.3385264638379209 -0.6295286102935546 -0.46915535774603634 0.12150811899787234 0.07093863498870705 -0.012538539948266259 -0.5764971280665685 -0.23853771938288926 -0.4374374129786518 0.4741556848029821 -0.1175579999319436 -0.21021510689587428 0.3211626366440857 0.3472552915566288 -0.04547653134239495 0.2796201054241342 0.7563274605023599 -0.6871995151280629 -0.025877326027003714 0.04249227341814664 -0.20323459631508997 -0.6188174493086812 -0.10371361404888907 -0.29202980756256935 0.10601979013254077 -0.01364376490838897 0.20532447756740926 0.02685126899953403 0.44717290532393267 -0.21965148491439013 -0.26032035556482863 0.5297916489999642 -1.0495263940434103 -0.0020585680063223344 ]
[ 0.02439640118676323 0.5384170416130133 -0.151843754643332 0.23533535221291246 0.43651729747301027 0.09858525072672857 0.06274998245658243 -0.15950758471102278 0.3976549764015178 -0.3412806112629513 -0.23825308816830537 -0.4814063283812715 -0.04971243481009758 0.320527584045693 -0.6140700755470356 -0.7013113262804265 -0.29953737861766727 -0.30772647279999604 -0.3218453662908996 -0.11159294699974806 0.2586757621051049 -0.016903477607425707 0.03996492266220489 -0.7781402483747337 -0.1665956106786146 -0.1381392515249392 0.7610485387129248 -0.4875673369938696 0.8963322076637631 -0.40209661937138763 0.04155809747944676 0.24787122561245561 -0.10365785558343983 -0.5511687722378891 -0.08139276151204394 -0.17904568536226165 0.2468159067892745 -0.4947020434241399 0.16455951042394457 -0.26848997488920356 ]
[ 0.5010026253505011 -0.017936693245767722 0.18644355156581371 -0.4627770874088459 -0.5292472882998157 0.084431796431648 0.06161348084420348 0.004020900001178612 -0.25849174961487753 0.5318963912828862 0.22824885253202346 -0.5391801350925718 0.46459277213518174 -0.4249477180500663 0.5576721241783698 0.5655144236763766 -0.3512639996611073 0.07019032180441291 0.255840807221772 0.26145918390814027 -0.11745867789853003 0.02009394374802778 -0.15546078273454536 0.0814460258193078 0.202223547651016 0.026785992201752276 -0.5027969647627129 0.5764104596089586 -0.7016930598417248 0.4141982617898035 -0.09736686184005205 -0.6741643620167603 0.2604384573200484 0.16125510867978865 0.6299793622794172 0.20306437355561457 0.07917348262533952 0.12828360783409312 0.13801418652814842 0.024045510579045817 ]
[ 0.6996790631990528 -0.8318487853708032 0.002714312803196077 0.23317788865947883 -0.29274319431348234 0.18931494772440483 0.40220926655337436 0.20595290101879835 -0.24838998796782566 0.2324220735545949 -0.006949064712766748 -0.4231352638969944 0.6402819641010901 0.00040411021111229074 0.996748530855147 -0.24220717430477895 -0.8087943276209408 0.010431586078966975 -0.05713312882221692 -0.37525178038390433 -0.43566124301540304 0.14951648302531453 0.24221431751201103 0.4590153431893411 -0.11560643526302472 -0.6262364340626488 -0.23000549387605998 0.762791172161273 0.6841342167217901 0.23616729666026498 0.15309700840652338 -0.5870031350917959 -0.15056865648581133 -0.08135779096282386 0.5570940247473686 0.2430980703564443 -0.3497559523264578 0.16187113027313932 0.06655232100855082 -0.2484096982251886 ]
[ -0.3064162305195519 0.24658411291401375 0.2633209020174475 0.19415663709815384 0.2523658974310609 -0.3326245222866023 -0.08692227667317017 -0.3871598037149627 -0.14332246067094298 -0.07122230341911291 -0.571764744366636 -0.08493560877323336 -0.43254133348893953 -0.37201977557555627 -0.35876434442244437 0.021940832859042365 0.30787673027423407 0.1857518787368995 -0.1463839883699802 0.42710322670995426 0.439415419694846 -0.6005997658384378 -0.23100746894238383 -0.8641929701795154 -0.005704827444034924 -0.17914799469530243 0.5288220966343984 -0.1501705705632547 0.5408499866153229 -0.2177489235447755 -0.08045924046103539 0.2619466043969829 -0.5427944987997098 -0.32659180966992923 -0.36543657097112664 -0.05419832581993853 0.1373575798170087 -0.3533008735685856 0.22738799050109773 -0.08622310373366335 ]
[ -0.4790527013034031 0.20812289973337697 -0.4396192219709187 0.06815856091369495 -0.042536413723215774 -0.7310362045032763 -0.35644831155857376 -0.40568392460911445 -0.42021177402364984 0.7660016854195895 -0.09227556662779764 0.487353476736017 -0.42919826635432556 -0.1398358397917131 0.27781581208597395 0.2465276510175938 0.30425947512271323 0.8757296302123383 0.0404615047486175 -0.3503977260281047 0.4251897896352556 0.0258373246230166 -0.12690529807749745 -0.25846551007611673 -0.36184031915344456 -0.22585088661237668 -0.2854291349340868 0.5159849573595202 0.3496575614779035 0.0334365909739546 -0.32272430776791267 -0.09239475883375507 0.3824856475846645 0.024016292510481055 -0.22162304541706757 -0.21300884750746757 0.30773531508215163 -0.19223362180832973 -0.3435739388151189 0.3715726370859323 ]
[ 0.050756161476407415 -0.4761127107156903 -0.4909813941263247 0.25682728009672057 0.09037631186704473 -0.45524909748613956 -0.23082671509530442 -0.01711864261256109 -0.128525610437737 0.5711572074901103 -0.5253189096415634 -0.05676902347390621 0.13453095811819574 -0.2689939843947161 1.2750580119004726 -0.08633730758841388 0.012061518207540775 0.9729818529280819 -0.12758319710767305 -0.1351149820622368 0.1673314353526598 -0.3851466173098424 0.25083923873135555 0.08826920046292612 -0.7462585731980961 -0.2652443019602723 -0.4890542516472293 0.5722964781424008 0.8341776253445895 -0.0653714526500745 -0.26449088041459384 0.19814154117912214 -0.06366229796416148 -0.02756074646101975 -0.338982401883294 -0.1452886869374988 0.3278435271889252 -0.06569018320075874 0.17462739641897124 0.3340226900716581 ]
[ -0.2154999275130921 -0.32175605656680967 -0.2389128122703774 0.6993613367054848 -0.7619098186141222 0.012807865724470546 0.2209102149171971 -0.10910885783285827 -1.0899846851329822 -0.2507754294527003 0.3503312453147925 -0.03599594215304114 0.2909136965804741 -0.6563315474491708 0.4341925386247528 0.15788698969573117 -0.08993817871569786 -0.3529623263724116 -0.19380291268334973 0.27305694896391247 -0.513780807119821 0.6586833398613773 0.9444361329308564 0.10879555563082566 -0.08283581797815705 -0.5165318482852246 -0.23556780072356712 -0.12468966451773152 0.23384039485641267 -0.3017625789818678 0.42785028723942864 0.3442411568824278 0.12600876282043938 -0.20249389484216043 -0.0796090603618289 0.09079409013299547 -0.34733851446616115 0.17900438801270127 -0.5712842411090321 -0.9675933204940171 ]
[ 0.034836591888127925 -0.12633442091862032 0.4767135849295069 0.07217841794721988 -0.2951394908344119 -0.12490373666371671 0.04960289197087583 -0.49887339085295007 -0.45482711488948707 -0.42900775721087236 0.9251300790845193 0.41819452058562845 -0.47168232515653574 -0.2566669504731014 -0.5078328900687636 0.22802619672487787 0.7861585528419521 -0.5049590943291743 -0.6680911759438201 -0.5658557437973204 -0.4421402707216769 0.47615166917578916 0.21500437002475561 -0.5318660264552199 0.4925597218066017 0.32545075523114086 0.22269103907279195 -0.16425668173858202 -0.27728320231600545 -0.03568425494500012 0.4376259772608125 0.3295424281361547 0.32924608390670973 0.2752003842649536 -0.05502124300867031 -0.34861312019273605 -0.5738848128013085 0.2917856089032609 -0.3157168259197331 0.039795733066500444 ]
[ 0.13519254780192624 -0.403952136468828 -0.23059357901658578 0.5437454185799494 -0.6504676503419022 -0.30353667068856977 0.3270027122127368 -0.2530469792981123 -0.7649539087857449 0.2777978282565806 -0.09260424495954982 -0.13060024704784404 0.17521652307492672 -0.34982668077326373 0.2852998875896145 0.3013020966574168 0.552032239372051 -0.110986958801039 0.17313511001064544 -0.26914614096088474 -0.165289950440223 -0.29042165971833384 0.9008419498117196 0.19800796045065375 0.267214137047465 -0.29294786738245276 -0.3926239529517603 0.528814323565636 0.6986312285604249 -0.060859553550824105 0.4403568585441474 0.23972479950240233 0.05002557378761033 0.19950797621397165 -0.25909668343685877 0.09745128668894633 0.2707700990645404 0.435146712082854 0.27349660967691514 -0.18244277403855125 ]
[ 0.1137699588580912 0.40923280400394446 -0.28019330481371263 0.04665026865358281 0.09659845513052288 -0.024674362820668774 -0.47956034059032177 -0.3069851589963316 0.14601008622824002 -0.11363448689078776 -0.22923366947116255 0.11521090094776817 0.15139898971131308 0.088340003222219 -0.3345316912535564 -0.2980983081033166 0.11808392257267056 0.428254556765397 -0.07061885956705478 0.03124274801799394 0.3153960567404097 -0.4833715960731486 0.02321543895128402 -0.022275712269021704 -0.5560858409173414 -0.18367999257487094 0.24204072366309332 -0.7109095493786577 0.4164340541306987 -0.3245817169840069 -0.9543599935351526 0.19650641727235096 -0.3401379149537552 -0.46192800070252626 -0.1506635452731265 -0.14441011943883575 0.2112528234677123 -0.0423907432915575 -0.11134300740039803 0.7159976809043007 ]
[ -0.004223869633056415 0.26177126850803845 -0.014884093791254743 0.11360180739960771 -0.5131732981561313 -0.17362472803827006 0.03185717326177432 -0.2074324377066888 -0.19723746582367904 0.28614919290984164 -0.02581589779772947 0.21359778969543058 -0.6849485811441957 0.19041903535765223 0.06486411755087026 0.044389971438716286 0.48050286275535187 -0.14800080732815976 -0.22681180823060212 -0.05939255245529184 0.2273472376350358 -0.19166589080540863 -0.16348934249206995 -0.4668593374043871 0.056225352349336885 0.18043980715828858 -0.033620235665179875 -0.47739139128261726 0.17346006677481846 -0.04041366878455546 -0.16822352891063758 0.26162248995102183 -0.2585730604355537 0.24912080330512262 -0.12014365706146371 0.05924888593680927 0.11905156607376319 -0.06315056671838305 0.11605348954071674 0.3777285174459727 ]
[ 0.044202539075552785 0.23360733472391243 -0.05717931853049221 0.09334790613013093 0.5458097185507418 0.13679816541371603 -0.18126215644014826 -0.1834646012670227 0.07482229047543007 -0.2185162670679356 -0.13542870141593297 0.3359964452495179 -0.49138052699698154 0.14079025834865055 -0.009498997776912382 -0.10936419983382778 0.2636098509002704 0.3238629533267299 0.33327938889179093 -0.25182910504063066 0.1931950265943634 -0.22710443488959434 0.06445577597404538 -0.24901883168815667 -0.07780018156593754 0.1843281023523023 -0.014836907308643146 -0.4029105707998476 0.03765370357177068 0.07996822008592042 0.0055344747741433355 -0.19988807014978602 0.12326179063627117 0.10368304449609654 -0.10240545366599707 -0.06236295351760508 -0.4182025303223628 -0.16627214053868025 -0.3471014988039926 0.5021809419557063 ]
[ 0.8602396734739884 -1.0051883391493128 0.25307948526057716 -0.31787417870482654 0.17682242629706774 -0.14832529918176918 0.5677330252811591 1.2950735119254602 1.4202616156625474 -0.4233751949802282 -0.3125625267193738 0.13335400679227905 0.3437654788652963 1.297685115323519 -0.0028405375911695467 -1.3394746038909568 -0.7018766227815927 -0.6806100383628558 -0.024539663017641686 0.14210160951883705 0.027807701784062184 0.014973846578387448 -0.541370504539589 0.6230922887316294 0.47096977707814786 -0.04927257343078669 -0.12750851701865812 0.5993085560288692 -0.07389630604544148 0.24326421743329826 0.5629433846411949 0.27864750643204356 -0.04680141824109422 -0.4926906464933535 1.4017427834157516 0.3235980437470598 -0.3059831460029369 -0.336547909790077 1.2451996960165306 -0.543054767917304 ]
[ 0.2569242993755979 0.12071055592248929 0.1855694893374716 0.00017523716505904972 -0.30424822853740946 0.037324252573886586 0.34642197437479905 0.40560745422293865 -0.14862082382663785 -1.1083000142800752 0.2512042632973015 -0.07385743279068219 0.4127545494236028 0.14445620765835704 -0.17902320687242684 -0.18592767467893703 0.01858613641252862 -0.5663845171743233 -0.18915898566715 -0.057410964801796714 0.04723575945753158 0.45921384105575985 0.2638170818438742 0.5963269071735335 1.258109695504211 0.3721729166692622 -0.08264343236102407 0.22944816308086577 -0.45684099302999825 0.4595620032944292 0.2913924373124756 0.41142112708801454 0.5626549721346276 0.4663828963174337 0.3052248510490315 -0.2036807266968844 -0.4481323389936836 0.5124634111588019 0.7638360413489863 -0.3622362326046493 ]
[ 0.3021318249974665 -0.3641951648380292 -0.17938273106234687 0.49376202814449366 -0.6808535820457147 -0.5567521211496566 0.2067246146062731 -0.5041725593327955 -0.998827118894382 -0.5881447943858087 -0.15319504998745828 -0.05817410851820303 0.5657659449208232 -0.33000397501316164 0.21284243861800775 0.3104482302686893 0.5005412616632846 0.08733488188669032 -0.19274221776936282 -0.250046252685534 -0.10093886327906444 0.37589887123251664 0.9356681723143229 0.8173187732407629 1.0472439965219842 0.17063273989550642 -0.21646299221145127 0.9166537543315183 -0.012748468411940722 0.3258448005781827 0.8000930054136304 0.3893824732917867 -0.08308866236656229 0.6434971193850934 -0.33549428661425346 0.17520883439946 -0.12694868525961703 1.1646805326808773 0.5746524917908834 -0.33986733557156545 ]
[ -0.31872329180959486 -0.004025797863462229 -0.5405039502056872 0.2568147656949305 -0.011661265412909164 -0.6165606350137531 -0.0659781074224199 -0.07844402052404839 -0.6430636251812969 1.0515785224193683 -0.09524627204834814 -0.10746388504934425 0.6138285021564809 -0.013939038241545113 1.176456540742729 0.5111261271937484 -0.4152216732235575 0.5781141296577199 -0.12786491062221333 -0.03372127089981293 0.2553589097788707 0.1978392268063668 0.36313271249304024 0.3380151410378652 -0.7633965538763265 -0.7650688329589943 -0.11430109934354607 0.5375788951211553 0.1304458441497811 -0.17435983085471202 0.15829430849159054 -0.47304900560154706 -0.443971078479568 0.09320850873631516 0.08245506019086642 0.012765793970326988 0.6342549654676252 0.3739063002034339 -0.7881073157646808 -0.6555194346268134 ]
[ 0.008155369619451007 0.13006731753092407 0.12063897903469181 -0.05453586383192744 0.1032950080102063 -0.3295888240233265 -0.14002295029819245 0.006766838073220397 -0.2586705589057339 -0.07454963250633428 0.46003185749841496 0.6150888793719114 -0.35030100503105677 0.28529354979661203 -0.1455872697151304 0.08507662641329826 0.3233654370307436 0.022548193984363335 -0.24571476196618186 -0.1088567047487692 0.001230115507743947 0.34506975539660695 0.08049148239374898 -0.10598398279919388 -0.13715277250570174 0.09628351979836164 0.3611731941559313 -0.07654789730003575 -0.19142171226858684 -0.15064648441681236 0.1095991031011232 0.20107567374310573 0.49638114626533203 0.12104943213395049 0.13989301791945627 -0.22119320193123745 0.06756194412078695 0.061386884295322096 -0.19624939191695226 0.016148725744631703 ]
layer 3 Activation
tanh
layer 4 Dense
40 20
[ -0.043713027585232905 -0.35628236666584095 -0.014502358075247947 -0.2461319147823485 -0.04353612608539879 -0.3366773291730496 0.05570906901402381 -0.150215566979969 -0.18505372036260728 0.34808775540364373 0.4016295348442801 -0.22842634676703272 0.198573491222087 0.5098780808290525 0.222543349138391 -0.10215922315703346 -0.10671042434778341 -0.07318245014736778 0.3479986427296603 0.3036982682102176 ]
[ 0.25279960006438973 0.28494252090304023 0.24934275490328967 0.5824567668855783 0.13259104733233915 0.2618451583782404 0.17410714830100957 0.23870179085277587 0.1921508056364452 -0.39475340702626455 -0.4137785801435173 0.0036777980529885176 0.0037083706603517064 -0.3378159260422723 -0.07846599092859247 0.32312430528278335 -0.0477611392143021 0.03907024806258192 -0.1624833876995607 0.21596104217830414 ]
[ 0.03507134288100741 -0.3431789369318858 -0.3031948967930052 -0.17534434232395246 0.07361624756966662 -0.01860594188318649 0.28447198964416004 0.12859641543504424 0.3216354021088579 0.20690866872439778 0.1388293674855423 -0.3209018468446992 -0.13918591297575778 0.23705648388608946 0.021543530720399363 -0.01040808653413778 -0.014346462512432394 -0.16667785075936567 -0.11958516559878954 0.22892289429639553 ]
[ -0.05391475580961513 -0.249151719965188 -0.17791678405608527 -0.04826138164449086 -0.14444568804554467 0.39024320346340446 0.04375825279130645 0.19531570108338855 -0.08644477387263605 0.03879914267589901 0.0805228004030483 0.11882320948455007 0.38264731613218317 -0.11841722391562995 -0.07028872918110035 0.22393698752766958 0.31434024462473975 0.17611454709880817 -0.5204996498712737 -0.04392267175890367 ]
[ 0.18001190695002156 0.2792182536021747 0.056657038204537234 0.1991426590434879 0.22186986439547735 0.32834700079544304 -0.2484113988671379 0.5064110338126531 -0.5212075639798925 0.4715787751509404 -0.07874323595634716 -0.3669279205669962 -0.06680490573533994 0.17538855014313562 0.30402859663938825 0.45079390608464115 -0.18749814311289384 -0.20429445104786612 0.040644691523636284 0.4040055384447744 ]
[ 0.18846138453742423 0.2210966300786634 -0.2663094875369672 0.11674539666578419 -0.16154471843944126 0.42419686432209874 -0.5324750104426478 0.12883482836767504 -0.0935323846808763 -0.03786624393627803 -0.35165613138062773 -0.07881162602915312 -0.04137055553675926 0.02398678959511707 0.025519384296397427 0.4283400197645457 0.41041528534155697 -0.09808168415592651 -0.10295088408240466 0.34491134962720654 ]
[ 0.018165405051909497 -0.4986141410406706 -0.03572506412323044 -0.22123326757873427 -0.03728602592177293 0.2311952061473091 -0.03789438225318089 -0.12522601522644647 -0.0759053354061451 0.7011837088349138 0.26509413300951673 0.1532910035545083 0.27358624125073616 0.44659263324603643 0.04461208859496441 -0.08717100911081868 -0.035008649338337146 -0.27903507150664536 -0.3638852817079307 0.3455896214497418 ]
[ 0.08582120469501921 -0.6680729135989789 0.03152219049378277 -0.2444624153477807 0.11752162795012129 -0.13695124408920256 -0.06050562878876869 -0.11723463415031198 0.07808900525041068 0.737615837010455 0.3811724249331962 -0.16192595063503612 -0.5517553718086896 0.44123025591818255 0.29859396889918594 -0.015284515341069945 -0.2528694235098156 -0.4861567157987011 0.2845037613348258 -0.08629293501233194 ]
[ 0.37621930578669044 -0.06212669757349091 -0.010920377796954036 -0.27193645867683897 0.30716641803043826 0.05263522054303302 -0.2473672030852944 0.423423721184307 -0.5988785990533674 0.4603745571199279 -0.1144666110810426 -0.5807012493971179 -0.1975812086777253 0.4122653879091805 0.297420593145104 0.31689638515206475 -0.23735670272890444 -0.3328696920885541 0.345595717016833 1.0555825067753015 ]
[ -0.08138334568898219 0.5102598545218353 0.3731687919582429 0.13998785982860082 0.06038325487767996 -0.7255328056068703 -0.04856664858687971 -0.5523320624264322 -0.25966728184126503 -0.23471556747582142 -0.09957694885897402 0.2746939481824682 -0.4553318875280129 -0.5028920059884062 -0.16216201086296164 -0.17182638907635228 -0.5232756322947527 0.4431176309195952 0.4802752702976102 -0.3676607836599831 ]
[ 0.156996820087541 -0.42725234603968204 -0.14460967259052535 -0.06010102873675294 -0.09533474836974544 0.29008369355500924 0.7884476607320086 -0.049208984488729283 0.4126700992239303 0.2185690098430237 -0.0760308688053746 0.1299106594204006 0.2861040014227445 -0.2264717208850788 0.1642265848845325 -0.2522000578016642 0.3376795639089191 -0.2588545515960289 -0.07996285620364117 0.5623124933373697 ]
[ 0.10182914570955875 0.20955732140808586 0.12493608257275508 0.1313420071256454 -0.027191087590472045 -0.07925328227731003 0.4384727537759332 -0.0900677701976014 -0.3285490663032942 -0.008827424135997821 -0.21414192562230586 -0.16930286240766446 -0.03356000136529609 0.01192434889666388 0.1387867490820196 0.35285244801271115 0.24292341760175523 -0.029311584536238253 0.04309020781279935 -0.16930522432271924 ]
[ 0.11791785361112102 -0.24674016013688704 -0.3989236255817995 -0.4761553156390413 -0.3452973181513228 -0.18846385560200848 -0.521099058675463 -0.35833204014311687 -0.2679547244286255 0.6220510455705113 0.593025322617927 0.1918236443368189 0.4163300177716596 0.0303966994326284 0.12168994325339097 0.08699381541483397 -0.1477282822872605 0.29601902803283486 0.30201420760689374 -0.627369498925784 ]
[ 0.4773468893757416 -0.1945835084384825 -0.14491707344213642 -0.014337398157494132 0.2002023474386077 -0.17328913801240453 0.0034305876647203973 -0.14034960991051448 -0.6386085082800727 0.24322741035147927 0.02250805046857031 -0.14963565533313108 0.042516486432840624 0.634169418089739 0.3738390711400253 0.30373240623672354 -0.19108565367286545 -0.2717944041957777 -0.13058182200648272 0.4593523279511179 ]
[ -0.8164343921064905 0.4275527167102505 0.17343523935144342 0.166219772539494 -0.33945486859186047 -0.12633261358490863 -0.44378705561256704 -0.6382383023667952 0.39593436510637997 0.019157796516237512 0.3573655147773506 0.6594500695673183 0.06544636060794083 -0.48856495652974885 -0.16513500863574412 -0.6796690240421182 -0.4895132750677244 0.1859013218853272 -0.16326207087029648 -1.0428995099429734 ]
[ -0.1788033775661954 0.06710839011397356 0.08097575402732184 0.3849264471468479 -0.3876713698049778 -0.04996116202310579 0.430224216454479 0.18748587408135217 0.7612697951777445 -0.6647881159219269 -0.18819435272857032 0.5699685815232965 0.6235467111790122 -0.16462512918671351 -0.6255789854958015 -0.2587148854177708 0.3225640631290254 0.2358205155170259 -0.11426299562973499 0.04632642373876484 ]
[ 0.07362188830298662 0.16793724635686083 -0.21413272751336085 0.17875493194299458 -0.06960803824846738 0.2615810048338772 0.39653754300882077 0.22844230522241762 0.11131015013852 -0.16687383683867008 -0.20241066232987007 0.12341441884692694 0.3512297894053296 0.0034958132023607254 -0.32868883894302375 -0.10697707071566229 0.46418284204160876 0.14183977366163303 -0.2924297260093226 0.2553519535317543 ]
[ -0.584990415020515 0.5719221655795572 0.25826437767032256 0.4092178241629297 0.19533212508234596 -0.5364490858696784 0.3014508100612545 -0.03260605659619984 0.14128114852097234 -0.3299076421728669 -0.10101458987383845 0.29820348218582765 0.04095569396243073 -0.3161893506370829 -0.6000508803376768 -0.6805017565313152 -0.18097560841306615 0.49003013643793747 0.300556939224187 -0.4984132124860762 ]
[ -0.32280444337298675 0.3898027718804355 -0.10290461792121221 0.1620953740048656 -0.03582148556790446 -0.3424467525654491 -0.3143334585135119 -0.14084211597124213 0.3144570202162985 -0.3140560011708336 -0.002802384337058056 -0.10091422562367995 0.184603648580507 -0.07303026261306572 0.22550000318527808 -0.10899371068215234 0.19639626871718863 -0.05853640004233567 0.32513743455889577 -0.05000214478434098 ]
[ 0.044228554327788 -0.05025705058529538 0.047595505468532175 -0.0538098531618106 0.11942483956999167 0.23108720853113987 -0.4627957435155624 0.027256358702337714 -0.12035697908601542 -0.3780131847513848 -0.20276577799845114 0.16952136039837634 0.13527006873036324 0.02910619517987181 -0.14040953124044575 0.18862903289211175 0.316502259594152 -0.01030688949318468 0.1396897043450842 0.3309993656691133 ]
[ -0.11836059619228317 0.24679055323901034 0.1655839493233414 0.2051240068383112 -0.060626735939227155 -0.20038075056522955 0.008740782001573962 0.07226811273280695 -0.35767603800308617 -0.04127429212215477 0.008090694918947159 -0.14620084510746223 -0.24775124955112263 -0.06189074464525489 -0.09328487690784273 0.2851648410204747 -0.08304491657215157 0.26395475003587765 0.38611804574615566 -0.034091222214392515 ]
[ -0.167974822896843 0.03092348761797513 -0.16277293881243435 -0.11471773687072068 -0.2410111430136508 0.3611141185393601 0.5171173891192338 -0.15677347197675526 0.3401548014349445 -0.18802555050754283 0.0037777429350579045 0.20338075381778212 0.5706379445168728 -0.24094066046342344 0.2544361562561925 -0.011401834932552124 0.33448240927511236 -0.15222517907816652 -0.7223492954611581 -0.19867228840690776 ]
[ 0.11866854625457325 -0.17871187741129163 -0.38157919030079046 -0.051583880542414334 -0.4867480138636703 0.2765890404351966 -0.15280682318315444 -0.20520888926121028 0.34104588614121006 0.2114137098594275 -0.013689480786356147 0.4588732956292365 0.6422265709834886 -0.4844196442950401 -0.22666167091612435 0.2036573509215299 0.18792464732688746 0.27139772183116223 -0.31217943030295614 -0.7444603162299164 ]
[ -0.35864922863915805 -0.28881410055940077 -0.6222182457356341 -0.4725323341601982 -0.12447583030367419 -0.21521677718642931 -0.042439978189651305 -0.5505053925394253 0.2542614731439227 0.47794535525656406 0.6006860062964663 0.31793689768794026 1.1376455842418927 0.006075233793437645 0.3743691506387444 -0.25701483515446616 -0.5384809569095467 -0.0176269818307119 0.01630586192252229 -0.6554882154713813 ]
[ 0.06675333085702886 -0.34033254764783766 -0.610587726877866 -0.26189812835557735 -0.5575864236433934 0.39696284694450096 0.10355745430687535 -0.00034889360323998105 0.2494456234267368 0.37079135329264007 0.3448690412218446 -0.0036408804267837117 1.0422335557545064 0.012950472168017039 -0.04908489040587289 0.42318091968895405 0.4326719493893302 -0.2527712498445156 -0.40637230589332796 0.33422421617870385 ]
[ 0.4966224057208302 0.04471134375552865 -0.18564450877921462 0.2995409837032212 0.15604409385572285 0.12446651179491328 0.11035570806512394 0.1187497263798205 0.19502194382817523 -0.09233838180786626 0.23590556445521224 -0.28769733461679975 0.05221442724215222 0.5132654694275477 -0.05509369074787638 -0.01574749724001351 -0.13995456722034277 -0.05288403070129151 -0.0038461687419738314 0.3914766635974957 ]
[ 0.3968644480216631 -0.17023545591151146 0.1330327697584567 -0.11983020344981944 -0.14410608666798702 -0.11970001158166042 0.3003329139171474 0.1713790978944573 -0.30463373610411953 0.03955115806212509 -0.2138829065110848 0.12255496992059625 -0.501300387162306 -0.13444549886130983 0.07346620215477288 0.26120384531975205 0.012388783554203166 0.19764669312420952 -0.12702405030385347 -0.24083765881356 ]
[ -0.2629356163269356 -0.06516712817720927 -0.31559655827089994 -0.19963525576560923 -0.7511684812186721 -0.29174416666118963 0.1640949176582065 -0.7049598318973082 0.2947391848965635 0.4600524869509719 0.5222671144575077 0.09896093760326005 0.618838932361151 0.23733482937995817 0.040808576406054176 -0.592905300871 -0.2910858248113966 0.5135277744940365 -0.09761382832401384 -0.41914847190490817 ]
[ 0.24418650596389715 0.35749349734580155 0.20020200984695632 0.05001172450333059 0.2612362076280713 -0.4517114721657898 -0.314090020724477 -0.15760682912559623 -0.0012384278604566639 -0.2099283316417043 0.03779110939178843 0.121589537115208 -0.34311132817819595 -0.46703992553788976 -0.07849059359673345 -0.16810434974746896 -0.5338737233097736 0.442535584661963 0.3977820782543899 -0.5813274803235883 ]
[ -0.20482098556873823 -0.14737823440379721 0.16520482106924167 0.12030910809234413 -0.09841084097452414 -0.01098264838487607 -0.05574684944174143 -0.30903941827820625 0.28521578607947057 0.172270690755636 0.009378988699856289 -0.11194515620538975 -0.09956705343157839 0.4277789993132899 -0.034557324611529806 -0.39210144054708224 -0.3896222188183006 0.09379697736208269 -0.10889044281808684 0.4586800829338664 ]
[ -0.009726315749534331 -0.18492709226895482 -0.17662628838396338 -0.19886460879511647 -0.3167999905352899 0.08855305581787712 0.07590076173170464 -0.3082848366855941 -0.21827299176271667 0.10671221606833076 0.04150935346460071 0.005923245196996979 0.2690154812070606 0.08260751623640296 0.11097910075294407 0.1343910670360844 0.0041778528645768755 -0.3519849525959688 -0.36637731546046753 0.027830365011845222 ]
[ 0.3460747107346969 -0.3056701591364089 -0.14355773757079784 0.2791936410233708 0.057631868415514494 0.6570648429831728 0.4455734736858182 0.1212766812736753 -0.36449104244441566 -0.07276383084607743 -0.41024964282591153 0.23300927239391797 0.19779076048051553 0.43645580553757163 -0.609288209799999 0.381391219137161 0.5223096952139011 -0.2529992360227915 -0.10413770066734261 0.13870857002719686 ]
[ -0.112410523673891 0.21225991570659627 0.0037847055130179183 0.029709147619534953 -0.11101521257279365 0.4988365014247242 0.3476538677637253 -0.0386112884271254 0.16740515307772813 -0.03374567443914779 0.1967882264369472 -0.22990273212702683 0.1806366662638364 0.4754180523068265 0.097117096923141 -0.22224078088606844 -0.01794094631825273 -0.13625673977261585 -0.44360315755748797 0.11788822729707121 ]
[ -0.07218748613283575 0.15506772718055453 0.06500244045458131 0.3570528586075791 -0.3400456617033507 0.010027436335396066 0.2440654297803959 -0.15695148692631278 0.4102390956434537 0.04656510743479992 -0.0030863538730344304 0.07228332805570979 0.15803652033791643 0.15053959262782465 -0.029345313908564877 0.010693593109819254 0.2668517505570125 -0.24019328906039453 -0.11865909969027731 -0.16642166865575747 ]
[ 0.19934053168377608 -0.3266549221410409 -0.14466840839270928 -0.4313291271221464 0.14836916746214507 0.25622265260519833 0.08065474639348738 -0.3282131497816489 -0.1125977902587661 0.3458549170032311 0.20671494108264668 -0.5506928690946913 0.10118001525807947 0.031140903435970275 0.21790835320358137 -0.14171297470857866 -0.16992405170594024 -0.18791706918986906 0.26356029309335194 -0.10585992881900508 ]
[ 0.011501831328155332 -0.14260993356292162 0.12031175980275842 -0.1446264912132946 -0.14873153715855583 -0.150845922220488 -0.13031525238645048 -0.2358934945848609 0.11005216579607326 0.021330898461148117 0.04038675876335127 -0.04494888822976157 -0.10416770561938464 0.007203506183465398 0.16588509456381859 -0.08929793861509101 -0.27776178503534865 -0.09411607267385214 -0.1267457470327909 0.27413781970094997 ]
[ -0.04596849085387057 0.15820373604376148 -0.16867273948404693 -0.025704706148812567 0.16501428150178177 -0.09149729148739433 0.028531424513167845 -0.07415367401470155 -0.16772166709887573 -0.1713399142489121 -0.11381764824861763 0.02225805979273289 -0.24905147977370215 -0.16766846758262277 -0.2418895265492665 0.3443071175739531 -0.2665239199283123 0.11785473917941558 0.3826561126195419 -0.1935468804175601 ]
[ 0.21882707440483173 0.15348993468521246 -0.1872918100098998 0.16926716633681016 -0.5200885606777599 -0.164351128412338 -0.23369296233959605 -0.4333233560410726 0.25737102749117435 0.1316396027983637 0.3211677500852791 0.17725123591958852 0.5115179117060883 -0.2699606047598166 -0.3976677729814225 0.1022889670602927 0.021298251754840177 0.2922791294110304 0.15607496436961313 -0.4008572578296066 ]
[ -0.01797737398029138 -0.041153813609863414 0.12326538439502321 -0.37019287880894497 0.5613513730244603 0.2233791535909478 -0.018267860387142797 -0.10543579359884384 -0.13829839035124397 0.4283753879599624 0.5666760760237773 -0.29104985605445655 -0.29914445951704716 0.40831890047392017 0.19680094386325622 -0.09399745893482833 -0.5544999719884035 0.23238401355511687 0.5408111887319976 -0.26312010944027636 ]
[ -0.450447655376899 0.7235663429884205 0.607033213893904 0.09797007823679353 0.307861630165748 0.02423398049941739 0.017988595332360004 0.08921488538181221 0.00820238275598474 0.1523784634769683 -0.1361405042771613 -0.5109458994605574 -0.8225360056524 0.22910943593739622 0.038005710013131286 0.023442311362083326 -0.5705057017613792 0.42677370805673515 0.5113245339804223 -0.3312775485799352 ]
[ 0.01852372147958151 -0.047606205417290506 -0.06287224846887694 0.06321857121757506 0.08973153392302576 -0.15537969140394037 0.9781181533489042 0.024546923064019788 0.11953705529590937 -0.0265036583573986 -0.03156357838639322 0.13824452903694257 0.047037590189105714 0.117592288505737 0.07641662695806338 0.18219677053000563 -0.4504068055441116 0.019588252440211076 0.2204154279592632 0.07257707408028206 ]
layer 5 Activation
tanh
layer 6 Dense
20 1
[ -0.08103398361019248 ]
[ 0.37187467689995846 ]
[ 0.3153575928363393 ]
[ -0.31322784877286786 ]
[ 0.365753248655745 ]
[ -0.03582519169554419 ]
[ -0.2988726674284528 ]
[ -0.4208044199060707 ]
[ -0.14168571916076128 ]
[ 0.18819393254297892 ]
[ 0.26916518724914945 ]
[ -0.3939817767018638 ]
[ -0.18743028653960986 ]
[ 0.052683693068256494 ]
[ 0.31707310161903907 ]
[ -0.23184327308966135 ]
[ 0.10760126448216983 ]
[ 0.35782906757354455 ]
[ -0.03808268557321305 ]
[ -0.25127414830532085 ]
[ 0.22333498730240894 ]
