layers 7
layer 0 Dense
20 20
[ -2.3038278541477775 -0.812224966473731 -0.1435147328830705 -0.3144541877124078 1.4205944299995115 0.6013146060186926 0.056258793234969275 0.14404388726901193 0.5064764416176298 -1.3556213162780713 0.14865327814417087 -0.09127646586558608 0.09856586565730688 0.29522001943890874 -0.40506688372488775 1.1121294233452634 0.0464916126104449 0.3584806447587338 -0.022443481143519538 1.1043578816255442 ]
[ -0.08172292845526029 -0.31813554920981296 0.17074169405754672 0.13943288661378309 -0.13876336064518596 0.18751021625508896 0.2508241149761791 0.11409062559715674 -0.38282763466996145 -0.21728548108721013 0.057050965299808104 0.08441218225578884 0.21560347739713084 0.09815374113885705 0.30996257790936954 -0.1883459554128458 -0.09872774266946775 0.00976311447727551 0.24094959232467028 -0.13124836510304372 ]
[ 0.023979969897637014 0.3098168305370588 0.0029741118756698424 -0.04267929296781142 -0.13918998738050664 -0.3661539389102471 0.2308063110774273 -0.12054412868207531 -0.043242429086260005 -0.2822009155067112 0.07397041006648562 -0.25832486611108635 0.1792144373545606 0.20861131100005018 0.29981684845864903 -0.15230378989441914 0.37864638423358776 -0.37161788924118755 0.05610276330220872 0.12193016007896895 ]
[ -0.8715655384854444 -0.5510665257241981 -0.19285134862473408 -0.21999196444351904 0.6846907851777718 0.32311716622096187 -0.08389082209754739 0.5038079740312024 0.1651923566286007 -0.8065960129920068 0.30628090327999913 0.20290200369212985 -0.7018111369971282 0.10278565409539693 -0.06584095662780863 0.169308125577806 0.6186758332855828 -0.01036716157398744 -0.10593368419415415 0.5488008640756208 ]
[ 0.2127152340308346 -0.12054484497517075 0.27757354618858593 -1.3496976449246527 0.41228922291162734 0.29220338831049286 -0.18108072337960818 -0.07868043757303028 0.7151345688783659 -0.17849012124805982 -0.6071699739874279 -0.48678760958726647 -0.33540607591136823 0.43579595878360394 -0.7057966771076107 0.6573473413299721 -0.46498040481152514 -0.7079128485775937 -0.041230039902547616 0.5048633064940761 ]
[ 0.23340850507118577 -0.24687642181381364 0.30432865921102137 0.1726646924543961 0.008642931313879287 -0.1875058293560924 0.14751081168405747 -0.1620188831799685 0.3810978637021346 0.1122915299563076 0.2843207838076316 -0.23796814343564346 -0.1560010096289497 0.24813529999577558 0.36426906277522764 0.08265903368274888 0.27166013578326914 -0.22590856539489043 -0.29285443062041516 -0.37140257033123086 ]
[ 0.12080477561382683 0.28344724216026995 0.0065213182331919734 -0.13005417613456585 -0.035790677181380286 0.03495491237635421 -0.20236154606281326 0.15053273719328764 -0.15171290851396038 0.13143317778440264 -0.029775984193798486 -0.07041638736579132 0.1996039370876071 0.275340951303436 -0.13045721229440424 -0.12272027631536729 -0.24751506121462594 -0.11239873707927948 0.14782483831273907 0.20547170958033203 ]
[ 0.751502077550906 0.06096159491177222 0.18782142917238967 1.5189428404370253 -0.7824830972456654 -0.6131241999189773 0.20240740078162786 -0.6238446360101707 -0.8010791361006948 0.9894148405860641 -0.23525450245541887 0.742571336578405 0.41500589689845646 -0.3938519063940098 0.40155753749734413 -0.4179040563957352 -0.5365685944093418 0.07018826134139082 0.839378803042002 -1.171175866030463 ]
[ -0.7652158286311592 -0.6059689688201352 -0.2039846592252814 0.7003221859790533 0.5931081209482454 0.37322926902361264 0.4428925112583134 -0.3610588137500577 -0.09074436558710086 -0.6662720181801648 -0.49585692427379574 -0.788020117866497 -0.2185379805870071 -0.14644224778603535 0.12910902362529988 0.8632897601441825 -1.1651797798210526 -0.2607151830662958 0.44168176641662277 0.5136280956474135 ]
[ 0.9115112976843298 -0.26775307986972074 -1.1834743266958943 -0.34355962506284976 0.2715451356704348 -0.051460845557807444 -0.4406308276062759 -1.1842027504245574 0.6582951183221948 0.3031132639455811 0.49388464487728584 1.0812360203527192 -0.8270020243534385 -2.2398945229510567 0.5430266267050974 1.738776144563819 -1.8931065374058014 -0.7980364313729502 -0.38009740956344273 -0.3404978369347192 ]
[ 0.434692301870275 0.0006945349867725095 1.5637667108348743 0.36466813971825196 0.028617410874308465 -1.4001662515183193 0.9171262994626505 1.3287598808053585 -1.2413524022472242 -0.08178864187548436 0.47078594362722004 0.2933789252065449 0.05325471420984221 -0.4911214340300529 1.2715515616294004 1.8850294942916268 -0.11116795493350742 -0.9469847136263203 1.1152416490397008 -0.23850353141019465 ]
[ -2.068549165474079 -1.7406776568350577 -1.1762168612334316 1.0615945733985235 1.3210343382065803 1.8015762061560117 0.12213091729591832 -0.11737362377851474 -1.4999244838063903 -0.7678899108102666 -0.49009163402173445 -0.007260377523366942 -2.4158779938269275 -0.33007547969211365 1.3115440099818243 1.2071038451545548 0.4810212392463226 -0.21772358702222516 -0.3844638982342735 2.0537474977929238 ]
[ 0.5990387839746695 2.51859156393309 -0.3808521599863699 -1.2803719135347482 -1.7146293162998714 -0.37355114374480414 -1.3265081293467285 1.116148040411078 1.2180403828942947 -0.22118114494095137 1.087010215037475 1.1971433791000914 -0.8300379187152495 0.1004092420159458 0.33830350758961414 0.4204900210200395 -0.10323489404946859 0.8854005829925033 -1.2075739405013302 -2.7565311940360133 ]
[ -0.5731811038746987 -0.17047319081813977 0.3632043016201008 -0.28032356924519913 -0.4717026964785419 -0.40197074481333733 0.48534049322717326 0.11993089940365347 -0.4344255907212083 0.2569445082973153 0.2749588140486157 0.34820600550930086 -0.001450497156305891 0.6047278238451358 0.28516536605321113 -0.8621648964632715 -0.8164595977202134 -0.2809374202223049 -0.02477446185044519 0.4590223654285383 ]
[ -0.6516663230742314 -0.15296522747234786 -0.34925948560866915 -0.17397460456750646 0.2635083092175467 0.158692374920881 0.05183317868783398 0.02311877012360971 -0.27899673225109745 0.26114344706951725 0.3045099639460579 -0.5282487811256006 0.1157309632432231 -0.005147867847511086 0.31075883176384755 -0.547125585974626 0.2892496191498202 -0.5759996123110628 0.0831708572548111 -0.608720307487161 ]
[ 0.9921044467279269 -0.11179940183419214 1.3226176143673034 1.176465842604752 -1.0447594412781043 -2.870913793154546 1.4164877364457102 -0.8937610032990826 0.6457064533138789 1.3516132275728836 -2.1241765523816643 1.677021261396195 0.9297012694382204 1.7142251266045803 -0.7805931255240195 -0.14105595186839623 0.04112705289761202 -0.850115923480949 1.1284211891541296 -1.184373350919169 ]
[ -0.3298654212967579 -0.7905614788842228 0.9871067185831743 -0.4595926996521946 0.3461759879207619 -0.22248590791414788 0.5821190658620666 -0.46371178736751917 0.06503099667760166 0.30816280744356206 -0.6346973246616873 0.033108754122742286 0.36192655787621625 0.10494981773517456 -1.142451594898539 0.2653116673318913 0.050841514533937066 -0.7764809824470902 0.6253431796715964 0.3697765549689892 ]
[ -0.3301163309747064 0.0506805835248732 0.2814300447603501 0.8946385534970718 0.46211492416788347 -0.13891659039096974 0.5646349067628664 0.773025582385954 0.0476780862989147 -0.8924393462422011 -1.165153394522214 -1.2693585406875163 0.7843897704697896 0.5445751822048268 -0.9717848941144807 0.14223772993383257 3.977588900637602 1.7046460670402226 0.2740749313389439 -0.043304608930776735 ]
[ -0.004592211940833715 0.38178579203115204 -0.6816005501740294 -0.18929706521699774 -0.2814110590600258 1.1486967897196403 -0.4816941197683687 -1.0519772274374122 1.0153260716847128 -0.5359463392040564 -0.16767778877464723 0.27029392549531017 -0.08966753543323193 0.792702806606734 -1.3671668735851692 -0.7458766683518434 -1.2144987876530056 1.3604381466760618 -1.5467471391310845 0.8371320121083102 ]
[ -0.4780091701880512 0.8469404868924927 -1.0420331473779623 1.2196481194317395 0.12367309289555001 1.0981171125105336 -1.2236863482900346 0.28723175372570947 -0.3738391407413714 -0.682226120668011 3.5511542503732723 -1.0970214856045817 1.8653514753354994 -2.0863096565869483 0.2710713906800291 0.6663521430343701 -0.27864924433977256 2.205437128362842 0.2551720947404569 -0.7140326419796392 ]
[ -0.2933067276785838 -0.19458094498712525 -0.17892295364028837 -0.22191977234671628 0.26937404236664225 0.2498715728552166 -0.01251930546666829 0.3683664393457954 0.10788270598268118 -0.31905406405069164 0.2045827772283218 -0.11580034033533189 -0.2755607604668997 0.11516707090755803 -0.05950805338855932 0.04037197416312959 0.3600306290133094 0.0842652147240083 -0.32831464171068697 0.3896158731483424 ]
layer 1 Activation
tanh
layer 2 Dense
20 40
[ 0.6609182561994761 0.9230106781480588 -0.6269898166679887 -0.050183219742551285 0.7024133794637891 -1.0895017309906276 -0.48853828406062316 0.09042045121489369 0.06733137655802808 0.05026089139665697 -0.632992061471839 -0.01622665164559476 -0.26368512180055986 -0.15460201918875902 0.2350514057217495 -0.10684607612177541 0.7679913802488113 0.5075201195074938 0.5934720817869374 -0.24498578733416676 0.8472530196019311 0.5859883651094004 -0.16181542195250095 0.5438989931765641 0.5259677190705836 -0.49963170415481667 0.023719186036562312 1.4552692611296745 0.9875554191583901 0.19378333512736534 0.555541743544483 -0.35449535531056436 0.16026560174063986 0.6433406610160719 0.11479415116485851 -0.7504743434358444 -0.2085326837006451 -0.17400903310197935 -0.02899274126008068 0.5032910195747218 ]
[ 0.2440493466973055 0.34604750049975375 0.09254096054639097 0.6177546268902415 0.894010589993855 -0.2218059656431482 0.29657102299732896 -0.5638783288740497 0.49130773338465156 0.4592319254675081 0.0688333177442469 -0.10057949415419608 0.29184338943109184 0.09484579299743652 -0.734176554632463 -0.21528040228361603 -0.15043657257449033 1.4906024303328638 0.3077009007033697 -0.5177654002221632 0.2372417139797791 0.0583284184114925 0.8109146966446087 1.1174027401512696 0.008871475108121356 -0.4014007180686098 -1.628138597711775 1.1294847137594801 0.29097912139541526 0.4915910514321695 0.3569773821603969 0.6329500515187615 0.32887292371141474 0.5613902529768454 -0.9046526843895067 0.0065859233508819065 -0.4074573331317766 -0.17313376257672447 0.8303555058735677 0.24356403281898473 ]
[ -0.00044542157275234175 -0.4755314375487839 0.7752022270449876 0.6763224500753783 0.4177955065701515 0.9509228239886824 0.3921742225786497 0.5622042036258196 0.44387316829536916 0.5297789201826433 0.1498671790874689 1.0806561059186301 -0.23118507779367195 -0.011680606207755434 -0.4187334077022723 0.24578851895009196 -0.2704819122367599 -0.8109771260105177 0.07584065522411962 -0.14580056088095614 0.3419676131824906 -0.5837565684677728 -0.2793964823814464 -0.2624366825264039 0.2501595093490474 0.11214575287412851 0.47990274486961654 0.21940674137068286 -0.4834869608667422 -0.4149313038129353 -0.2864019906697054 -0.2293833054188895 0.06500819739576695 0.11740112558104385 -0.32906826604968464 0.5641612406191099 -0.46133232962653226 -0.8849955384419212 -0.3183051467326785 0.057146415202085854 ]
[ 0.6323071291150748 0.03108844905760056 0.16167484194092996 0.17334911005401304 -0.010633831331709814 0.31488707080863987 -0.9765562549340464 0.1809861742017723 -1.4419728994192205 -0.9204961101940985 0.33914891544596965 0.844647916857167 -1.1148146514533601 0.5334854603610398 -0.6350483328740795 0.974684846957208 0.5499448459417041 -0.24714600588971505 -0.10621477351639419 0.20165177540913498 0.1760973266199071 -0.37761496542672635 -1.191760997697313 -0.9950741355178138 1.2398145981294104 0.11447986458620318 0.12351146478769927 -0.17056330109003143 0.3775618321343311 -0.0003343421597132542 -1.4885530900630175 -0.17210938625932468 0.08871537247574884 -0.35805588485734147 0.2290811961609682 0.3783560959585837 -0.16773090634575838 -0.596117940285138 -0.8605272164183618 -0.22675464500686587 ]
[ -0.9062337466205734 -0.1521595280603497 -0.22355950623910942 0.5187094219925049 -1.348313991633936 -0.10072365802918594 0.050753487737795054 -0.20899080471205927 0.1715344552004567 -0.04761167626509185 -0.17380720851946221 0.46250621262556174 -0.27753203055393777 0.23348550500737364 0.2872138827660204 -0.09327949345024299 -0.2623666951739112 -0.8878453805652375 0.2259164745980916 0.7423462870634993 0.05060317285063066 0.7374322730069979 0.10122437313251012 -0.6086281870985484 -0.12159303688559803 -0.03964734327619814 0.1678712721120976 -0.8904205747046124 -0.7383497523171678 -0.41868794039787033 -0.8298958510631671 -0.9239750474547551 -0.6844191693219535 -0.5687261889273589 -0.4011360890088292 0.4904416571152429 0.34440070248549176 1.3040395878563211 -0.003238425084460838 -0.020808832899539137 ]
[ -0.4478306541861706 0.00023084876838221817 -0.5674425713670715 -0.23618053620093293 -0.4558018069501009 -0.3651153663566047 0.0425222358223048 0.018365587247179717 -0.3708868373980742 -0.001358134454221928 -0.48191315285803515 0.7905995502721409 0.07591633347343811 0.1806606741215446 0.5550224565093037 0.47348582638857006 0.20148100194450005 0.649974440093083 0.4375112625548019 -0.5081840323108733 -0.6722001631855334 0.6615034576214568 0.08959816237104104 -0.07574103992493564 -1.0104402284140677 -0.760656937939841 -0.552361107522212 -0.7346629928415874 -0.0929500982927548 -0.12291218255720152 0.007943507041881086 0.026829462155631555 0.16759637894362622 -1.958360652142515 1.243705094192078 0.04781745018625325 1.0378828480283535 1.2481009151494997 -0.26021441083724833 -0.13751018237392992 ]
[ 0.14207661669546479 -0.5564252686458444 0.22238840219925066 -0.18589364970735417 0.2902100334169253 0.37356362951549155 -0.23798554492580065 0.12025535998543198 -0.25258653695632516 -0.13880012248136955 0.4483512255160509 0.033018911645563025 -0.048434976657508864 -0.11128194261185255 -0.5015841016508532 0.5293222641701207 0.10800856284705133 -0.7024143026959002 -0.5720203866273066 -0.10256858486880152 0.387991960870059 -0.6599649533203018 -0.9061695979145383 -0.45714090978650385 0.35535965366919825 0.31806134708186784 0.13294712331354722 -0.16958676792953026 0.026100673606519523 -0.14027607814133364 0.08738645661011012 0.44275011477770226 0.010345582923915266 0.49342471468577875 -0.13982281319250675 0.34331590868348516 -0.8102247633167564 -0.3742978196750024 0.2331402619582907 0.11675940484414139 ]
[ 0.16314136938685325 -0.9795012232193963 0.42600069985436767 0.22219866896304788 0.19343857359963954 0.17724134812780212 0.4731759267950657 -0.45787450342171554 0.9274308122211755 2.2101010803551078 0.6665578989711143 0.9567248559661558 0.25635871222276263 0.11830074893535691 0.1205923857548329 -0.7190828894388361 -1.4563300189967436 0.6675730342520951 -0.012057724205337836 -0.15561168948147922 0.814772575237359 -0.007759869723779756 -0.38068014768170017 0.40494071711324203 0.6407756235668648 0.6398983763554096 -0.14820769854174343 -0.09719810352071134 0.5836398395318821 0.033946057160327434 -0.28181644710556397 -0.004816159686999784 0.07908521438372011 0.272275811383069 -0.4235435771929372 0.808330890431948 0.14323974370116296 -0.5340498145163521 0.37555880260033253 -0.049271268960231894 ]
[ 0.1396100041466883 0.7935780881283692 0.06604476734950314 0.3749619892037581 0.48001595915559986 0.07421721859591228 -0.1979338675491677 -0.026254485843481685 0.1814025159315509 -0.21505266905658144 0.8078989975894669 -0.5875929475553916 0.4909522669003472 -0.032795040369208495 0.4909221182396775 0.33584252757859995 0.22499427984920117 -0.5195463158261724 -0.07305509983412367 -0.06892144085093597 0.176038059060656 0.7273849125907256 0.9182089274262492 -0.13759190675262234 -0.6494377205210178 -0.5501464357139589 0.47586482818742154 0.5469532789644901 -0.4425676934643514 -0.6729844566450678 -1.0287748257007954 -0.3431996472774355 0.006587394123755073 -0.13210177939043277 -0.07120800068940936 -0.10872050439161078 0.6231045580222813 0.7393131760203027 0.24491423953738684 0.05536953489140401 ]
[ 0.1777996543760544 0.11960562832822885 0.01308597332413673 -0.2217196750083382 0.43862017404524173 -0.5357509603267135 -0.2402910214088486 -0.16574820039966526 -0.014023428535325348 0.24194319136347864 -0.4780459926077207 -0.40278264345281484 -0.11669544940261362 -0.1888414551426248 -0.22946495077507897 0.2758196538349909 0.5694724619289202 0.10368172805288545 -0.017784701164219038 -0.3869284471032717 -0.42209721730429517 -0.27453477650952635 -0.4443056331808559 0.07702983509971234 0.3258173208604137 -0.24286185133898006 0.25170752782102296 0.3009213669401852 0.039712321283168435 0.0018044124248507007 0.9178093191638566 0.38304174074767267 0.5897368972216445 0.34185445693965744 0.05609095925504772 -0.9930814104186397 -0.5720264443299324 -0.3894589219898034 0.3415293945972724 0.43697758642519174 ]
[ -0.37482689431214417 -0.4297062497908658 -0.9914992529052321 -0.01052809558339127 -0.8363527552732211 -0.8326257507950007 -1.0286352879226093 -0.7792256741919589 -1.3954498581618098 -0.26770411091774005 -0.16087956229703232 0.6564017434394527 -0.08078104432553765 -0.5690295831236328 0.4993894731463559 -0.4039580982602546 0.8931317761203118 2.7151679540015876 0.5022667597437644 -0.021539427711872616 -0.836684532704599 -0.6892368657495948 0.012901632594118867 1.6873979196044768 1.4408378830127717 -0.007989532959135067 -0.2168727511063559 -0.7395656917181391 0.1961019122969525 1.5912628980963128 0.46926971456654026 -0.9133692015883818 -0.8112414311938718 -0.5088050423076274 -1.028848224416976 -0.6453071342441479 0.5354185072423344 -1.0484039597781025 0.7186877531814674 0.6712370453810536 ]
[ 0.7197328587465611 0.6596531868767656 0.8897722956088615 -0.4098568317211488 -0.05491146465819783 -0.24405854868701576 -0.7460460196631223 0.1267522158487376 -0.00841489440711322 0.10507761504422355 -0.9565476341310527 -0.798540057273255 0.7530759099772603 -0.18326418588946855 0.7690408258907966 -0.6664941223759931 0.06004969025409815 0.484844395636056 -0.6132702265818972 -0.01328498609017367 -0.6314528203610997 0.03633005080482558 0.7506732912145329 0.1940885708593849 0.7675937342268864 -0.02574095816142005 0.1278666840317557 0.1681788184980364 -0.2953644998668074 0.3515435421050749 0.18998872928914584 -0.28909165483184124 0.4502329569014111 1.7416914220458255 -0.07555576440778569 -0.38926324137433277 -0.01422901283516411 0.5430782529493239 0.04417299051041301 -0.2067860912815571 ]
[ 0.0676283492405341 -0.11589154928995615 0.24153294044434948 0.5425253082768001 0.14015853460505795 -0.3155248412236882 -0.13428702821638994 0.10632783360840233 0.06801697350122189 -1.1295929766227872 -0.5558452935565129 0.26624063610233667 -0.17920872250843 -0.22781957682113615 -0.6038395059921831 0.8052447946607426 0.2986672382609314 -0.6984047364175356 0.452793561048357 -0.5560015950506877 -0.05985073914082949 -0.4093801011678257 0.0012509276059991519 -0.26683876219091385 -0.014575365303819346 -0.0754224743393709 0.4249440315519895 -0.14403597314193664 0.21244329168818343 -0.03163017772902239 0.16753365681903648 0.5453765896344349 -0.3211353131549693 -0.04341524302884435 -0.13059736500840766 0.021357871044425648 -0.6777306097562509 -0.10583935061947695 -0.5483980024852788 0.6454949064907659 ]
[ 0.14607688005728026 -0.5597146121013759 1.1059081332091674 -0.46319831934447747 0.1594965537835557 1.2733833775802261 0.18034424223451007 0.4519553325006302 0.422127500030332 -0.7748658225411268 0.31548037261686834 0.5305035783174885 0.7503673799745393 0.7777798158030321 -0.20410685436296275 0.6748086866344075 -0.9432860724528507 -0.6950254480013335 0.009465646430562235 -0.061600719579590776 0.11929704309897321 0.9162675194657525 -0.2264567000830966 0.33826725247283657 -0.6656560333227449 0.5611832169944264 -0.9857796979593053 0.11573362504823237 -0.41833135655174586 -0.28335049180459204 0.09424040662872986 -0.06699255530762577 0.1838982263183771 0.8967840380645149 0.4032164739442021 0.149146313035882 -0.6081179385759311 1.019122058534914 -0.20162936558587574 -0.9356692209720071 ]
[ 0.589230675649238 -0.03246863720315699 -0.40373475420353 0.21556091041934075 -0.5186835735184789 0.36069407746600496 0.08700292025932813 -0.03803581404038624 -0.8038072402906866 0.9417030381375688 -0.6462050735268187 0.3124485741866353 -0.5826126912870302 0.17942936556305858 -0.05324639195577978 -1.7252937683387435 -0.03366949838777948 0.5058776390212874 0.2528587230905557 0.6352307032881878 0.12191530152873198 -0.24865063670102358 -0.7236456090472108 -0.060891536530908355 1.3700567792719922 -0.12362507925206055 0.7353927900230159 -1.2468399539189894 0.6760695544143224 0.19673560334777096 0.3030850707387667 0.039262335895092385 -0.07165587255245393 0.13529287718451513 -0.04361523640829411 -0.2824819073928508 0.08213738554747198 -0.968093423416372 -0.3120674457300646 0.09345992173268322 ]
[ 0.15164988383149672 -0.5883198987849995 -0.12830707349010828 0.09491994325585805 0.125119401077264 -0.272810563172179 -0.15926066407593803 0.01816556849780992 0.3959253910142457 0.874291549624742 0.3325872491858839 0.7079063415844922 0.8886071141684443 -0.23532827546325913 0.6147324204531831 -0.1749977393631975 -0.4697379839293397 -0.157920723794928 0.037370721233070704 -0.31151058253160013 0.9434102326679 -0.6140424996742679 0.9726712048757378 -0.3788533755656402 -0.14746578109831252 -0.17044031149634173 0.6931551506130219 -0.5048706264767387 -1.7692928578501854 -0.47980071199177154 -1.6833507174690947 0.2858839072006514 -0.41713428763265 0.2422180578447677 -1.118425832849641 -0.27377386368360146 0.17517390262478527 0.20617601032494912 0.5829350409034012 0.4888621097636553 ]
[ 0.18830296347933442 -0.24713581165749723 0.39245961859084944 0.718009200350637 -0.5547725529693984 0.9931604131922225 1.0142051413587085 1.025462521886249 1.0961063116438257 0.6040783438188045 0.4158739901124634 0.9278705492267093 0.4732089271357518 0.5594253207348624 -0.298748970042076 0.6270843142816342 -1.5894498448513277 -0.785892896650281 -0.40789163801616474 -0.16874273173910304 0.5570267649071915 0.12986781032405573 -0.3245341574117626 -0.13147252074964658 0.8305946644855797 0.49983211735806427 -0.8021853997350047 0.7530244023784753 0.8513770300168685 -0.6868208250491805 -0.7011683664916538 -0.23084842288011073 -0.4750371514458345 0.8005328440280709 0.10526741249010553 0.14619677384270674 -0.37466519979925017 1.0016155175251042 -0.8241043447405686 -0.41973623786405845 ]
[ 0.8508622545502296 -0.4121006825902693 0.23109148496732096 0.10348465123922955 -0.04598382462384209 -0.10078707241919933 -0.500900045482373 0.20005990067422635 -0.10148757175990838 -1.2077412820051752 0.9952554481492798 0.5715739205518588 0.3700283874916542 -0.2242526597213275 0.2204556951850824 0.2983232632985088 -0.6434457853138407 1.5010947809261967 0.20984893253763734 0.7325576071072278 0.49775526920811997 0.08203570077530808 0.3923776191342604 0.1844337102668814 0.32963017694256413 -0.2053915003625244 -1.6705463826183025 0.4257044241445782 0.8280212157531597 0.2878074747437254 -0.8761249917050413 0.19130754525379065 -0.2761198995991944 -0.210808418926674 -0.24842413633181443 0.4872175838302051 0.16859792218666392 0.6802106871725737 0.11997473902796359 -0.5392907951871405 ]
[ 0.23623660389031947 -0.2342531456621783 0.010924034131887372 -0.3216782558501454 0.5237565754147007 -0.20741535060098393 0.17967929924906437 -0.04040333216263322 -0.310347329079184 -0.21243207084229263 1.0265087143375 0.16767965023203577 -0.022906878623533227 -0.04038234385703252 -1.1522509856471277 1.291842422800102 0.4087689969304336 -1.2107588495197044 -0.2137171941254271 -0.4258309489245308 1.030034808229844 -1.1212758368252498 -0.6099408117210582 -0.6929001626333876 1.1494373149039308 -0.014075929865650717 1.4956945938456103 -0.609727721528801 0.2871533948929405 -0.45126251521403743 -0.6009524496063242 0.30356625341753013 0.054382117598071406 0.4973741395482384 -0.36270197446644753 -0.25689090215560145 -0.5335137723740052 -1.4932234957475383 0.31906161061440913 0.44010193452472085 ]
[ -0.8974520239414989 -0.6733078449302169 1.1441135023334101 0.08965302938650185 -0.6525928981434604 0.590587636402601 0.5984494824290361 0.7414822318657666 -0.09746860872708313 0.03867414762445529 -0.44262540550963425 0.5757162876991261 -0.6509781614532745 0.6702163691853035 0.4499461261021388 0.5999920263321916 -0.11551741827669869 -0.1307046582990427 0.1996775728021722 0.23136821537472768 -0.8726220742919527 -0.5588790202790496 -0.6860583608247307 -0.5234244026899206 -0.4825949055247527 0.4754026269812985 -0.28086547702454856 -1.4250597853039377 -1.8187605942724643 -0.4013978612327235 -0.06334226271453232 -0.6323791468535174 0.09491398021961478 -0.9227423049783244 0.1012332236500686 1.2317274583016886 -0.2985248211378963 -0.14599378690619907 -0.1643601297706605 -0.4989445108805825 ]
[ -0.2798308668686279 -0.3020958936804456 0.4216414060783385 0.23967874659105376 -0.7207471621904469 0.13015125162376018 0.32155170636812075 0.07153483051541992 0.4402317272571445 1.1210565288367211 0.040038602847514496 0.04286330993274006 -0.043885583992229894 0.08642315694389108 0.09061940438396666 -0.49365286381010326 -0.48455822159556466 0.16452008198055712 -0.10101791848850668 0.7366211617883242 -0.2718227505238963 0.0640467045253086 -0.24206624767334398 0.126116694583873 0.3405637567654973 0.18430157100769864 -0.7489983259671221 -0.23881781549955336 -0.13528284439695662 -0.048275003386253 -0.014160781997767356 -0.44432110951163817 -0.37932295431601004 0.11728526915351713 -0.23769886386086359 0.30138924654501187 -0.05295079760954652 0.42000958673378375 0.24944677210985747 -0.42551724619140296 ]
layer 3 Activation
tanh
layer 4 Dense
40 20
[ -0.3959156936356929 -0.40122219398872 -0.24676425607403688 -0.7909005927227288 -0.009780818373793016 -0.6222823079564583 0.37428824312338077 -0.2318505169943791 -0.1688617488554166 0.3081918204910998 0.12542847975322027 0.07141361139590698 0.17075292005447681 0.3317594778735606 -0.8639572673268907 0.40636398876224583 0.1879174765290782 -0.849826681334784 -0.4230782248455625 0.004365856117397389 ]
[ 0.5871570502984064 0.050790285451686616 -0.20057855609181238 -0.06698865106083998 -0.34628294685255145 -0.2597338031256797 0.4318167882284754 -0.017169428556752325 0.734721077784819 -0.26356051465676905 -0.2193359590631148 -0.3269631502159017 0.12845829077741422 0.9378948431831823 0.6575471757844463 -0.2643023482451657 0.001961892622031701 0.11596054801515662 -0.21277261845538847 -0.15816333851114037 ]
[ -0.7052343482757253 -0.34937189148707226 0.1697551979228206 -0.05631949937679433 0.20371830214859235 0.26805809147833826 0.22992796824938364 -0.2506029036586159 -0.4914790926409133 -0.5423202520195274 0.5357594797479843 -0.23226121123256968 -0.008226270344134047 -0.38438203818155897 -0.550389537493529 0.6579973368129273 0.2995597054743381 -0.11467612960865445 0.4000562205725083 0.23337707618264164 ]
[ -0.2518471276533076 0.056622930938648314 -0.048999685469901896 0.6665309380332396 -0.30330996023550205 0.3607975948948362 -0.8699042565832061 -0.08491840330594286 0.021785100486255718 0.256834024958633 0.11224762425115263 -0.01736284248106935 0.15022417682230246 -0.1480026329638301 0.6101923416395927 0.22207251483614213 0.19590999334253867 0.1727892455803122 0.5446357035174667 0.14604131954063476 ]
[ -0.09660808074314914 -0.36253290534903476 -0.08700828326231189 -1.1726564760722582 0.1578044246402694 -0.2021244907889311 0.8720333436524207 0.34331918632099157 -0.4165071798322336 -0.10359725358447344 0.6053708777649898 0.06978056423431525 -0.09410127137324441 0.5259474199867897 -0.6801938317894279 -0.19526459640743365 -0.23616307959377453 -0.4986725818443966 -0.44519278919822225 -0.12723912351536726 ]
[ -0.40888176855296665 -0.09404426228357328 0.6417017153123482 0.8307348818327258 0.4537186050667001 0.5232025480357129 -0.517697953664307 -0.3260213867174872 -0.2693376993659909 -0.6199160992744248 0.27091388023664 -0.3886703092076013 -0.1476571187972009 -1.452672016181983 -0.43801213478446244 0.20174544341503683 0.4822471002867117 -0.09873058477881787 0.2039780079658005 0.4718374586912961 ]
[ -0.46537133092930655 -0.1744358665002676 0.35260074936068164 -0.3235726306213967 0.45877744061832615 0.6086266431309084 0.077673440016452 -0.4287078241461352 -0.20396245130477644 -0.29354606872326944 0.12614364071147594 -0.47936428519850144 -0.10204144517726137 -1.0298929136658366 -0.4105929367276877 0.20385767983665543 0.12183883925913579 0.14403542273222156 -0.2007210588280702 0.2849235455650551 ]
[ -0.30400957890291774 0.03756226398374343 0.4075001840093549 0.5348825370967601 0.1657457604818884 0.4650867257254866 -0.12492454077222477 -0.21147664084618506 -0.15758196358831308 -0.621391151213485 0.23043685626717916 -0.05372509925206769 -0.3280915087074931 -0.5583824144527488 0.01469445988752062 0.34363436137664444 -0.13827332797392453 -0.09766158805571257 -0.08683469220062404 0.3486180133890497 ]
[ -0.6913162152566023 -0.15606980004413284 -0.05210577526776665 -0.04146653892316051 0.05167620606306904 0.6747519446839024 -0.18860621419885581 -0.17150447133171318 -0.43335536851124007 -0.023488568627187803 0.08990061275619693 -0.134969817598462 0.10231095577842798 -0.34990442102020497 0.16940597930989548 0.6503044155516636 0.1604473442748048 -0.4315312008041112 -0.34821105501241506 -0.0776697331703696 ]
[ -0.2731130621211664 0.33287762591493686 0.03620094725002711 0.13694683348255393 0.4301479486282828 0.19073021059811132 -0.6806308840597408 -1.1259033163850352 0.10181140653119312 0.3697252035162919 0.2096578253630306 0.705671246345269 0.09818589909381037 0.028075833888603123 -0.044218265538687955 -0.5556467785329272 0.06446067839032685 0.08615972682854119 0.6008578560302803 -0.026279008946786354 ]
[ -0.0005966353644014508 -0.4163455471634619 -0.177894918264733 -0.3898857364750277 0.20141284755870556 -0.06053416818190728 0.20749662670885255 -0.19295043689370947 0.06173580218958319 -0.41767018649884535 0.01833194457566637 0.1350777473645305 -0.0989903514268748 0.07229879254627065 -0.5045003750248062 0.44083858483187915 0.4999166732769763 0.056428273043366575 -0.0020741390436472776 0.0904127269976695 ]
[ -1.0750088313094328 -0.3367328108396156 0.02836656709617072 0.5472415992869535 -0.1067107575662139 0.34457825473876663 0.01975414686336456 -0.16898671619731995 -0.4339246117747656 -0.09028273157071673 0.6546697082531462 0.0013483346450585286 -0.14835097433584296 -0.666356915264932 -0.3139495025349473 0.7978443624065504 -0.42120326103928657 0.40905835471059504 0.2487388106945987 0.1780014889482359 ]
[ -0.43793792554626193 0.28739602519441054 -0.18069556058182865 -0.3372101284782 0.021546864095147986 -0.03660893508341643 0.28502162096422895 -0.10968782437921584 -0.3351258821838633 -0.17325653245647393 -0.4756659221678051 0.0880786208438735 0.09238433099476867 0.022278064814205 0.3396549230559859 0.49322385023372195 0.3516416685764276 -0.2658788599636573 -0.3588069689673461 -0.07106626853755152 ]
[ -0.5175110505616549 0.07967475070963838 0.4012045960259755 0.4729409987262292 0.37533983086365114 0.23711195672524277 -0.190604211984143 -0.08601867712661869 0.10474842425836046 -0.723260191784751 -0.04247437449401769 -0.03820287370955156 -0.2577738064434513 -0.48184292681155566 -0.2832577416396685 0.21073429480096093 0.02986092158365305 -0.11219418263974414 0.03697089065812427 0.3497871953013278 ]
[ -0.017393197359256304 0.5308241669116351 0.1535307561278854 0.3417321648355345 0.212258287371642 -0.33495046515497834 -0.4486260930393894 -0.30980772473963397 0.4066274134572044 0.010340934475813761 -0.5754575986550838 0.6127711023656922 -0.2992806063915564 -0.043386208638029854 0.356181153370682 -0.4702139585261214 -0.24031907465509772 -0.4912421327966853 0.1373988825529848 0.23057809927634496 ]
[ 0.15265663182998893 -0.8427125091772486 0.2644282182408187 -0.48035009115264177 0.15447939458500828 -0.48207830485371245 0.7254317879130936 -0.30801583572505986 -0.2647149521308511 -0.6425397771264203 0.25147463788939844 -0.6555106438565957 -0.1107787706931085 -0.19220620737349645 -0.40526234649270587 0.19469839098214975 0.4397896849559185 -0.25566975735892916 -0.5606662855593747 -0.18911672240159 ]
[ 0.8211807433506889 -0.14613654040242935 -0.17408994403257447 -0.15865911408938796 0.2841171588423026 -0.6837120537997996 0.5626234603820751 0.3673497191878414 -0.008016020841199536 0.5653884764661263 0.1936587788132736 0.25094626453386343 0.15299986614972066 0.8395721414697515 0.016431408992507734 -0.538067817793819 -0.4782898366089696 0.4777719711805519 -0.17125865500600274 -0.2802453690827557 ]
[ 0.12589907318286028 0.12576418659001706 -0.38683725687801457 0.38036474747030663 -0.27539237731141797 -0.5931814046764732 -0.497664132567899 1.301288419472972 0.08427162559978538 0.28359501968536416 -0.4150418705485926 1.2730506927598777 0.08723728399704199 -0.09467729679876098 0.12941736171102328 -0.18278537670055728 -0.4437832009813902 -0.08656510005623243 0.39057481866027965 -0.26569951184374946 ]
[ 0.1673867490939654 0.08815715453428156 -0.1824749721957979 0.5180704433533935 -0.11775708475457805 0.16500259240904128 -0.5901636212382326 0.08320974877059288 0.10208170286230385 0.24243201279143461 0.4297971578403619 0.25354642378538 -0.010254473949274236 -0.02563704003400402 0.0900909048102541 0.2582727822376712 -0.18847347261647068 0.001539924962033516 0.2174275006575713 -0.37301569677878543 ]
[ 0.4137126436108262 -0.045608045187124094 -0.2157868041122257 0.43760876402123533 -0.13007734520608522 -0.16529994933109207 -0.43794954033271194 -0.019685397430726104 0.2586706998969232 0.2563370165235165 -0.7314695116381317 -0.1884121945462912 -0.18172246227392982 -0.18053067690184785 0.5463113677513886 -0.142883296285492 0.07511453940577649 0.32364090164655535 0.7655174652367545 -0.11330198378360663 ]
[ 0.38534129061831857 -0.6695749014131003 0.08105319051621034 -0.4057090831495092 -0.08334869975004514 0.09067193999691411 0.2703738827343468 0.16885201444317546 -0.16512415656053972 -0.34690965655721756 0.09414831222714626 0.010316189567264444 0.21588120705306216 0.18442322862575763 -0.26146772346577646 0.4269485443748052 0.41072181684842274 -0.3409763726340791 -0.6397643124414394 0.21455204241423928 ]
[ -0.02786672623752794 -0.013937854371949398 0.01709548487381008 -0.14796445160580102 -0.4523939563651223 0.20693720771479546 -0.15746573264310507 0.022379680817275965 0.7371550840493647 0.2856100599066084 -0.7341825173010589 -0.1405336639858068 0.10703346428349206 -0.1455366464884214 0.7117534452738742 0.05104454854599096 0.0641271779775593 -0.49312573100835866 0.10083081881614668 -0.3206379977777178 ]
[ -0.2200481583805452 -0.08099919127622848 -0.7854775993906687 -0.37246770456751943 -0.3618564649631034 0.286430767428744 0.20107556153498518 -0.06040143533680142 0.157612939934978 0.2081282587419118 -0.38528459686879796 0.161797054085579 -0.10672231520453702 0.11071585681890944 0.41071503429974865 0.46984693672627353 0.0692151712725118 0.22448887857077118 -0.2511772260275643 -0.43014801560959626 ]
[ 0.08571172514963837 0.48029687921273256 -0.4175378271297236 0.43888669052610857 -0.7003746895683889 0.33514697733757837 -0.4873855712075422 0.06583795795175482 -0.2672228134520948 0.6460215459643642 -0.12140619584607384 0.21856030978408217 0.10982872586591046 0.7265676311011185 0.146138529856795 0.01050527603618671 -0.29898969736093467 -0.3232421231351651 -0.00019078798739572585 -0.2342233375937855 ]
[ 0.37212351754590606 -0.43920680383947963 -0.06584417352499958 0.07197074603687786 0.9032804933612147 -0.9643956079637964 -0.3727550531550798 -0.32819275889077854 -0.3147113559928919 0.062442865034616275 0.6243302642541 0.5387479518473501 -0.23575761077392618 0.24001357595525144 -0.7706812825909536 -0.4815475005181365 0.7287155347962686 -0.616279192455062 -0.8554595652377294 -0.10431157944766999 ]
[ 0.29181408533578157 -0.05854466355390449 0.2442274702511628 -0.4005599312827223 0.45576487513557684 -0.001377518146152133 -0.026249643237948185 0.09207400696847191 -0.0013815893833767116 -0.4463993183922621 -0.2866349571451816 -0.11730676439828072 -0.31919434012552256 -0.7545895988496957 0.07766899122178308 0.14602639392171182 0.03546149965964899 0.05493996856996603 0.013515646567872871 0.08562500015207818 ]
[ 0.1728099359503459 0.31416555497092163 -0.1459754559605278 -0.18812418158751143 0.3299093648772571 -0.18239540290187797 0.35476677133065504 1.0601156021505571 -0.8512433858212782 -0.02726017991417546 0.05547154933494245 -0.6193168928552103 -0.07847639037442307 0.43910842827832 -0.23111911919835496 0.05791691707220752 -0.7013419844923195 0.16838624719148496 -0.224663599723706 0.06658660001565035 ]
[ -0.09503761919778675 -0.5353355292783414 -0.4866829437788773 -0.9939627385875623 -0.2786187956236026 -0.7011719354652953 0.8820272142336109 0.3641519253638874 0.9382358033725205 -0.1832099089411823 0.231459247283756 -0.05857270853188089 0.13605721993372247 0.752094584953018 -0.010410765590227765 -0.25555029718573724 0.10792437633108998 -0.9894490273007251 -0.35481200369156923 -0.024390396323235086 ]
[ 0.9362379399995702 -0.29203815920307363 -0.04441611362712003 -0.4684072082457521 0.22944325792645695 -0.6336867967043575 0.3051526855631645 -0.5652030110083265 0.2886935745145924 -0.20386431126067997 -0.38586728892788075 0.7398086016867371 0.2627920754860241 -0.16652528351472554 -0.8736212087474738 -0.38756184282271194 1.0464332582336997 -1.0449552685081602 -1.0456234330995045 -0.18254318984953502 ]
[ 0.1759652936778991 0.07088882062800445 -0.12569884462106135 0.9460396474141263 -0.04943081342120529 -0.12700304075802227 0.04172199462060838 0.3493376912661983 -0.36012370850987585 0.347799214649463 0.00730005181775426 0.2751564219742737 0.2573573142906273 0.49325003956161806 -0.3754808085128275 -0.23156993743190887 -0.14617544293893697 -0.12156099557147394 0.13836317094211928 -0.1930390620832394 ]
[ -0.13498735789421382 0.6262248012312756 0.1087455603361119 -0.4858318592820955 0.11415238873999325 0.08037080106778967 0.1504437855952333 0.26627582473555234 0.471654295555479 0.49193115362446466 0.038452759305047136 0.29103356986921164 0.0021994682036374663 -0.4011657897497267 0.0777091537941949 -0.8875628773021821 -0.9848836779862149 -0.46236846630074285 -0.15176014630320908 -0.0231342168996136 ]
[ 0.15818873888405421 -0.422750836951902 -0.13717092929740454 -0.723287974203371 -0.03715719466946401 -0.04690827340225746 0.5031133415731405 0.03503435930724429 -0.1949789484745026 -0.060856823632720644 0.3601314449075633 0.41170960775635584 0.11995259148072547 -0.23614637276473102 -0.6490634465331321 -0.0056506947256803565 0.03160070242206665 0.031584730033868295 -0.6518483173756903 -0.14350783247511167 ]
[ 0.134165014921266 -0.3498302641013303 0.14189255345829194 -0.5858394197821678 0.2746877603542361 0.020709248187267423 0.7511955425699651 -0.1320586036064428 -0.09885694557071699 -0.019240010898107063 0.47408602672150135 0.010209901132962775 -0.031638986100263285 0.4324088389666342 -0.16933097676928757 -0.08448939123815767 -0.19475207031553587 -0.06652329698354639 -0.21773378292850937 -0.03112590611930945 ]
[ 0.2952600553974272 -0.06991664753948926 0.02560436811376049 -0.4942726535861111 0.7587035669018252 -0.13591629490287696 0.4278258042681693 -0.1545120465922154 -0.5724470629608299 -0.2963888145688326 0.5758370681379377 -0.3064188649900587 0.36619983398351197 0.006237534160292205 -0.807408487755544 0.1953812959408839 0.8859923160209304 -1.6023590555486156 -0.4540632617198933 0.18130737987828408 ]
[ 0.4456925947620362 -0.24419504198963837 0.5612763264930499 -0.21467566269636182 -0.3583698576238565 0.1705603876438962 0.1618771407844101 -0.18139823213686077 0.6315127409558591 -0.3397901055056196 -0.6427284139315211 -0.12145463466001138 -0.32869189102414614 -0.49104148956081684 0.5608765569192884 -0.3722092676636674 -0.06085172990924105 -0.09088235502971677 -0.0029472672652082997 0.10625415869251119 ]
[ -0.5714994092675489 0.11202927662660327 0.3976768783826936 0.09995207990973783 0.17515845976305974 0.017140636429185525 0.4375335271508729 0.03725480631737986 -0.21661072096642164 -0.6928137771804089 0.13058352965834524 0.09643360140359718 -0.3923577510041841 -1.193461910858511 -0.31514496522882934 0.16684852679148543 0.061609519005915464 0.3865971025556412 0.12465698180507485 0.22123074120832004 ]
[ 0.20243985511284757 0.2982189773140306 -0.528431067283067 -0.25545518305837156 -0.543317291811606 -0.25011303857878814 0.00025461556325331294 -0.06685555692195082 0.3215633586214391 0.2682951672775313 -0.28175183805537063 -0.04210477541994613 0.1766946247705571 0.8906923205552731 0.8176231026998025 -0.09638973874940154 -0.06270275646897112 0.11718893712899722 -0.1548655542477005 -0.21227382200371916 ]
[ -0.04354721922520044 0.08524572607047107 0.319700176800148 0.1066436992216945 -0.15082990616257086 -0.7336186930466062 -0.5794553843091262 -0.47341856672446997 1.063929021602887 -0.20319157179758354 0.07488227765729429 0.3151476004440287 0.06177907416270279 -0.6037478966356383 1.1236624643520305 -0.43564833708269346 1.0173317823747712 -0.7544934001062201 -0.34604331681069805 0.06341245665088165 ]
[ -0.1761151168967001 -0.05577193381885119 -0.42203286182322036 -0.39369778121919424 -0.08673120034920404 -0.42463808785485335 -0.006366689154184381 0.023922300038163702 -0.5965817506196375 0.28031313318910467 0.11262100865785038 0.12252779608542474 0.43893307314848046 1.045646282302043 -0.24892621237825252 -0.0006550859842782397 0.1071783991359637 0.08028272524016278 -0.2121091236913209 -0.47023167390828685 ]
[ 0.08554223252941026 0.27307077476305625 -0.21003627115881138 0.7000215631424334 0.4315624983537876 0.27523036450329164 -0.06361310721254922 0.013872768084312296 -0.2773140011605808 0.3338238431472877 0.46722772938162815 0.052173612966760714 0.26957479818199154 0.7125283429794959 -0.13767545186269525 0.007567252907265048 -0.22280823723927867 -0.06024562431611721 -0.23521170619252202 -0.13443225472317363 ]
[ -0.20755916376559844 0.17522035637298078 0.0768019996833477 0.28342821335754015 0.004902044512346283 0.14156412022132195 -0.8188621463022857 -0.4935223161794744 0.20648191412517292 -0.13219602687278773 -0.3008825922420114 -0.012399584080753962 -0.2035529684338444 -0.4224713461907916 0.1849928339084361 -0.1300708349911649 0.2480567365901415 0.19228365919589915 0.6317917387942691 0.21961957790013698 ]
layer 5 Activation
tanh
layer 6 Dense
20 1
[ 0.030380112501507347 ]
[ 0.01856755140115569 ]
[ 0.022391329179976705 ]
[ -0.012417987945959677 ]
[ 0.02167693727022192 ]
[ -0.007935936539459464 ]
[ -0.0145159859269879 ]
[ -0.25836798212622797 ]
[ 0.012291954859037571 ]
[ -0.024729894894097174 ]
[ 0.012469145769453165 ]
[ 0.23198777685493263 ]
[ -0.0020489676597215964 ]
[ 0.0018920580808338703 ]
[ 0.031077995401252344 ]
[ -0.07330601625324369 ]
[ 0.042413241735451225 ]
[ -0.07632166827445457 ]
[ -0.10940416088590753 ]
[ 0.008187791547960255 ]
[ 0.010917647542443837 ]
