layers 7
layer 0 Dense
20 20
[ -0.5219278308917142 0.13879044748791997 -0.27733153173582764 -0.16911228522459562 0.8961572834935939 -0.2902178319626939 0.9108810231141476 -0.317458295783565 -0.6850022683419386 -0.30171703191177385 -0.136098717379179 0.10687546245497084 -0.6564275627005624 0.5379037741805903 -0.5505469115177495 -0.025634942026696264 0.21076300162997422 -0.1608163629614088 0.7270491219836243 -0.31386198100813395 ]
[ -0.3137769609584332 0.2579947538391528 -0.3331729093771232 -0.12729887714084318 0.32145139096696695 -0.032429531671112864 -0.07870005948517535 0.26172462121333845 -0.256266288864786 -0.11271769541385719 -0.22009344213926324 -0.25750274323251027 -0.29209622795054124 -0.35834015782726 -0.016099761363703714 -0.2972539677742843 0.12034931180191259 0.25738342082426735 -0.3339566411072401 0.2699589070128946 ]
[ 0.2540266955427847 0.04105768189837023 0.005905704671886949 -0.13583513406181066 0.08403624267087387 0.22838365642318667 0.26833200716818495 -0.3833803412753389 -0.12149866138954499 -0.32016913176162703 -0.11009324074700261 -0.26687236283842447 0.19861912765153675 -0.0016032191797891227 -0.25273849671312676 0.03468249775520283 0.19041898336701368 -0.3801372852211588 -0.16946327785856383 -0.15174908120541789 ]
[ -0.4785575738740138 0.6850835718307166 0.0450242634970572 0.3718653657436258 1.4662588242180514 -0.5397286923344677 0.09046264301200825 0.04095074346436616 0.26781277126458825 -0.754626544904878 -0.048649861771699644 0.269338255079951 -0.008837003318699552 0.6035846761098362 -0.8032479226045858 -0.0765894919862924 -0.07816166221404945 0.06066819635442755 0.5145913769010003 -0.1687009122435044 ]
[ -0.3276321470661073 -0.8970538075107967 -0.8598180899971016 0.42510889582249556 -0.001323999729843304 -0.63642763081649 0.4825755177011694 -0.0805672762282244 -0.1838182984314578 0.039998680729593325 -0.6451905436937074 0.6929814587185609 -0.47238033157365483 0.32359879201801817 -1.0049138609445307 0.5324020307936449 0.29328951476467924 1.8882012594910698 -1.247805994072325 0.8384976119458939 ]
[ 0.27870674719771804 -0.33763025483380915 -0.03364643691745091 0.3343257238088235 0.2422577024843003 -0.08379531423169659 -0.38196845169569243 0.2341817425319563 -0.13806376015093155 0.26034143871786025 0.03608426150287645 0.20484434120752815 0.3051518570317012 -0.369511242935894 0.23428286577936067 -0.22952152518678862 -0.12524572573176881 0.29290164930271534 0.27378795724042865 -0.0625473936403744 ]
[ -0.13341720772853866 0.37470877342212694 -0.11335524145744716 0.03217894782924266 0.1775512849948878 0.3821415471890799 0.3797610242215912 -0.2577554336800181 0.046263866171226596 -0.09627213852307845 -0.3121315067859637 -0.3453706515918397 0.2652393113051491 -0.24168901507955592 -0.29161399948736755 0.36434603982762565 0.1688137547844608 -0.08851479362717057 -0.3369670514079039 -0.16853694030561556 ]
[ 0.5886206881772292 -0.15853560375282916 0.3808020040976938 -0.14079905194420395 -0.3530352211202394 -0.10969381865081843 -0.5415489527587295 0.2820577432879141 -0.1548516762376901 0.4477289045342746 -0.24329671655193308 -0.3810412101431802 0.36832889567022103 0.06772570777943816 0.33293629299413013 0.06581961077001261 -0.22766966966353674 -0.5719249284641417 0.1307329013973242 -0.32329351838873494 ]
[ -0.6129679209900738 -0.34282546853942203 -0.299661654407259 0.5847924340052493 0.15595578379673714 -0.8208089792971314 1.0322799556431335 -0.9552222473571808 -0.6070223858555089 -1.0745454245207129 0.2642029478487784 -0.8042613905085197 -0.651034016792083 1.3755841559659863 -0.5533589188228534 -0.07465965857011052 -0.3626881793967147 0.6256783930732249 -0.7880718773108226 -0.3312631788147126 ]
[ -0.024581370435898676 0.14200586460275014 -0.9074770417377116 -0.3894173679443002 0.03296441148543962 0.5983493094765302 -0.1020097157571473 -0.07724598447763611 -1.2094786027000408 0.033758545095401576 -0.33040696778239875 -1.1596685011835903 0.2679994196801335 -0.3322952969709785 0.19510652952359367 -0.025247846923810074 -0.04158249521537618 -0.39285730649492884 0.04761416043731135 0.7583441699796484 ]
[ -0.17893471227230834 -0.028059836294853837 -0.02811278584460533 -1.2577452958359119 -0.4281184789741409 0.08007926933653634 -0.6554010769703187 -0.2939515277833139 -0.35242790461647794 0.014198463436476075 -0.32086675741975834 0.2079304812500431 0.3194949746736007 -0.04423693837729701 0.49547339181092226 -0.6926769162224514 -0.2717938419905146 0.7087275485654726 -0.30126292738845306 0.27321806907613266 ]
[ 1.5983916334458714 -2.087606738734672 0.7712851512253439 1.5376594607175704 0.22963646896193574 -0.4227002968886382 1.009561227620317 -0.9876070927569099 -0.9928559097950194 -2.5051707467367144 -0.7555846326905911 0.17624679113568834 0.8374800766259504 1.7003374510818123 0.7519126516478856 -1.266564276781961 0.054206708454625045 -0.042778437941756856 0.5019346839868303 1.3634751858560246 ]
[ -0.30136014271458417 -0.6406020783517145 0.33518369076101057 -0.2392261169978733 -0.5297075019382516 -0.141120123424474 0.5472559322231697 0.5354100079515034 -1.6268384561077711 0.5880518364380556 0.5310812662684249 0.5149332637722221 -0.4459676423029499 -0.7468035460148247 -0.44601829140562615 -0.18207288904695196 0.033453352172269635 -0.0871710234747874 1.0393548334191147 0.20989054510220745 ]
[ 0.06824694725132412 -0.2881982231064369 1.0258194622948984 -0.8074405398108958 -0.3949078272956504 -0.15011782221175285 0.0495644360351262 -0.058518659069285335 -0.10193165897532462 -0.3304660158272577 0.09279475021509359 -0.026779876967358483 -0.24163891426966974 -0.10956980066238652 -0.16079351445644713 0.9172094094360118 0.7435575970858127 1.0522507517360842 0.20718599230169676 1.1044330925096504 ]
[ -0.016074958100967228 -0.16763766239495992 -0.04314256208250575 0.2720201530295224 0.09352821699036133 -0.6041198500561713 0.14624763136946065 -0.18945517404574438 0.5734398574959827 0.06563306953228469 -0.4316523599202052 0.3957960413727314 0.6129672238806124 0.24745734720849075 0.1593567883254323 0.6876642218020185 1.0195866109198677 -0.3493252975770388 -0.42556206824941156 -0.7026700257431794 ]
[ 1.1240947264885701 -0.5263506467877012 0.7325716238874838 0.2692324294924015 0.27130595136240143 0.737684119951056 -0.6190195447738199 1.306013004681959 -1.372656768139038 0.08115318758664362 -1.3867309394814333 1.268035711266997 0.48492096197426 -0.08598844494848311 0.7985394916744933 -0.8535935909354972 1.0758744766741555 -1.5996194059623199 1.869256566741906 1.4212180092390907 ]
[ 0.1461257746191954 -0.8906467032623281 -0.9968079744701304 -0.333530433784187 -0.7538112013210261 0.9606309505314757 -0.5393242029856917 0.99604557853027 0.23375024762811147 1.1497101619189591 -1.1954381393424989 0.9552205539701557 -0.5965819095957827 -0.14408754915267422 -0.5613918687338969 -0.25067063461768924 0.5747314200168464 0.592040611055343 -0.6041911575660391 0.367318085843359 ]
[ 0.22434634633821066 -0.21737902433812128 -1.020781813172174 1.145796623736268 -0.044639137697130384 -0.5161558500511843 0.7713614776019182 0.3299117868145313 1.0391523572455899 0.06440468222390346 -0.19931152205968675 1.5238668298866171 -0.40545509736469926 0.08096223948984356 0.8284911015566525 -1.804680825512387 -1.5287767888070032 -0.8251462830361658 0.29900973751711346 -0.9138919907529238 ]
[ 0.5607727419366245 0.07633652189679684 -0.18462895147502575 1.1363687954499488 -0.21505439834046292 1.0049157366983574 0.6705551009873266 0.6411816291485065 -0.9019186564592332 0.595322040710576 0.3977556743102334 -0.5025421190920227 -1.4416319673950744 -0.33700152427370883 0.015078457060575836 -0.6348560320432508 -0.4394745090056828 0.09064418899175469 0.6617747633458054 0.6965327730836737 ]
[ -0.9785635569443386 0.30339982955835354 -0.0435865388852276 -0.6409203308475208 -0.6538500543846321 -0.11465442242225338 -0.10810153960543938 -0.13239651424725518 0.20645712239541894 0.7691035643314164 1.5287747896525434 -0.2160892957448055 -0.5447001013838934 -0.5672803774238336 -0.506919671960031 0.7625575086283346 -0.765863894938116 -0.1859493145198479 0.2810745783344796 -1.1962926966168292 ]
[ -0.22030231518658563 0.5739696219093052 -0.016404817252391197 0.12156089510117958 0.8873026094947724 -0.0841696150343558 0.09568288503055636 -0.126192347148428 0.3113467986574356 -0.30991698303662313 0.14030360826899127 -0.068229460489178 0.09654131675519557 0.18832795662811774 -0.1396503567512818 0.17128335454098118 -0.10322453339327889 -0.04818528710573319 -0.0283084842293306 -0.16319457580441699 ]
layer 1 Activation
tanh
layer 2 Dense
20 40
[ 0.15599634305284416 1.2301500659377798 -0.36250955790358974 -0.17151949578007766 -0.4418426383554009 -0.23170885509494904 -0.11104506961758402 -0.3672533977845431 -0.26119471535985783 -0.6167849189611215 -0.11712199065527902 -0.27354278153190587 -0.17921305378347938 0.6314222320253975 0.4881675053668351 -0.6471763184302755 0.2520686676479497 -0.6112667835581894 -0.4137364154644782 0.1529920781656144 -0.4205683554470582 -0.2955515356446596 0.6358276676864683 0.7273930931186009 -0.03481354877144716 0.03625006988716966 0.7246228529223059 0.6093908740512303 -0.8110737531074068 -0.7588231423371419 0.642703537463171 0.16931178493530674 0.3627361963179948 -0.038784522179309056 0.7935964066389893 0.6507438318018988 -0.5506416872586907 -0.4136327188147151 0.7912043017580241 -0.4205052982622079 ]
[ 0.7853502395201052 0.30967990055504363 0.40244072147598553 0.815108612368208 -0.23253482613274676 -0.3057668605840632 0.22909712956486733 0.17782646613542663 -0.2832610108789164 0.40516434159424763 0.04862858580974728 -0.22574142624025156 0.19180751169399074 -0.09656236034587005 -0.19546757243192214 0.07036636185389503 -0.5403237040744384 -0.3192528965580665 0.19024150158612724 -0.9854662202117069 0.20452695035319984 0.45506923820843814 0.07645901052360626 -0.10884440411650995 0.1855916798120886 0.8395689964804154 -0.5191097785116128 -0.20607589919897942 -0.2728766084901322 0.1761072579803555 0.15823492165151284 -0.10984364351856032 0.27544024411038553 -0.11146009327641077 -0.4748182724914172 0.03897154226259171 0.8529076469357281 0.2185659143500999 -0.2568324477908622 -0.36804228284332574 ]
[ 0.44212208092859007 -0.3192741402171234 0.7780193371174732 -0.585644565087564 -0.02830250865952756 0.4420549962641128 0.8274934785646655 0.5033402220920007 -0.547292422169866 0.1748439290337261 -0.8181334757278591 -0.18233839490385892 -0.059200425941479444 0.45589549749743485 -0.05915475905707396 0.3379340553359965 -0.13070895785235362 0.49489857493823497 -0.36009706589462737 -0.4760085788447071 0.1062872971164946 -0.15343679816832886 0.12084997951066562 -0.01819097160980428 0.4342328739617995 -0.20487190908147185 0.05244647373556864 -0.03766595138024432 -0.0062500465916664584 -0.8532241020851814 -0.016171362650611035 -0.08847649057953261 -0.34289147995416625 -0.36802194439967223 -0.2395859243435166 -0.7687784649164143 -0.6098946315794179 -0.14558509371417167 0.210264284058805 -0.39210985857726294 ]
[ -0.6014406338301159 0.4693613922244528 0.1031238484217817 0.6493817687510193 -1.0604020667965903 -0.506452798949658 0.4995961656213987 -0.2785508151667806 -0.15290693041428532 -0.31184386484050103 0.8956082038340978 -0.4890626107621873 -0.03860907390976963 0.5366643619727144 1.4251799429337286 -0.43205145699591424 0.34020129920493053 -0.9107931107385653 -0.15460230337619651 0.3045632328189891 -1.5089135646535017 -0.183613036815419 0.17434560609030703 0.005908290721256285 -0.30069288036235087 0.41182214874938244 0.24718351009614253 0.24714610661374134 0.20220064878160976 -0.3317714133611083 -0.22804563884466714 -0.7430333780025137 0.9059700363142911 -0.5467078595974766 0.3312639436766476 0.21400376602691093 0.2736774822141161 -0.22057136073890277 0.4528189899618388 0.55976783194413 ]
[ 0.18670789881010458 0.1356945538176016 0.5510090313107064 0.9365310155959989 -0.905231216592794 -0.0409703412092605 0.1729193354486921 -0.27168144847379666 0.028704300976968435 0.45423076287079756 -0.31433547557958663 0.05230741833310673 0.34553910709031777 -0.7405484777106222 0.3544001931538491 0.03041894734222031 -0.35066836671893464 -0.2118245061048368 0.6645960031040428 -0.34607049240724336 -0.49108657671348654 -0.14621160866934985 -0.030624316701639245 0.48425133045728447 -0.12971399762296254 1.0041078049998093 0.012553714877424068 0.22207113339031584 -0.25922125016284203 0.9490062910358922 0.20522871631075654 0.18909339646008547 0.860653651101445 -0.8064062741103916 -0.1215482745528859 0.25768965042446906 1.034840474131439 1.1112731075214555 -0.15708515972798479 -0.04606386029445848 ]
[ -0.05199293017463209 0.8142150744512757 -0.7530419894264664 -0.33934050389597165 0.2438413816209885 -1.1304062771908505 -0.12280344355248864 -0.18713130512584444 0.38120334441382 0.2559814196191048 -0.8277316461538324 0.1570624141698748 0.2199498631838469 -0.03263320240544843 -0.6988892970665259 -0.1929993334851575 -0.1592105186417199 0.38581219245915205 -0.7977441568665247 0.5811874384332669 0.14482414388723225 -0.15014862212044117 1.4593011006365495 -0.3407092303549709 0.17465315109685706 -0.4047756744418153 -0.4260335461303684 0.3883991940149807 -0.09326992854492648 0.08853422366083599 0.11780260126243551 0.5972842952505409 0.23496961819617743 0.8593279921512648 -0.46682247974267294 0.3409419997946024 -0.18620595335446963 0.2125751030173067 0.02352614804927892 -0.6819373711312633 ]
[ -0.8010642162214738 -0.28060270761704925 -0.15921981383007547 -0.5056739823778973 -0.9676361141514945 0.11470848757730266 -0.136401397214298 0.07398155754063511 -0.8269508862420982 0.5602446277820705 0.34090001266801917 -0.36362115142711154 -0.08864165133420965 -0.319739540661527 0.6867962817360951 -0.453929245763392 0.2169625376868538 -0.6298310645548346 0.0307545182075216 0.0518110343502672 -0.969660194532104 -0.2359084718055674 -0.06683982422467805 -0.438659862189178 0.031066007481650393 0.21593329513967302 0.06942401311323479 0.2168485632147457 1.3345583429279226 0.20106959324920698 0.185448313657443 -0.08469743871464905 0.27708204795927116 -1.1395151120471687 0.33045416168081226 0.2993441529066294 -0.057898475658169885 0.3479651441656419 0.0997768727878135 1.3470247122505368 ]
[ -0.17932547773557586 0.05244853467191965 -1.143094570858953 0.28520716901585974 -0.8652932256254845 -1.1114461064139913 -0.08428555779368509 0.6444244713063679 -0.04317770755392968 -0.2539078982005646 -0.5845170397819427 -0.08785366665971366 0.2790539387856528 -0.2597989525357297 -0.2106225682811168 0.16132621120372526 0.5870700959743672 -0.9260990162261311 -0.6660264195994149 0.6398405433294521 -0.40337557452330935 0.014823632021838009 0.5760593405310779 -0.21746206837774093 0.18860832931719637 0.13080646176443725 -0.5563625581750924 0.601668621019424 0.8284349844806539 0.1874520414494609 0.3150774632649464 0.4954648065284901 0.2712535764310872 0.17264084465868026 -0.09549277934584155 -0.5007179977068789 -0.11789960843070152 -0.16372431564292975 0.0974590713287248 -0.8295280858671434 ]
[ 0.0017673151364933073 -0.40407646281584525 -0.6965237352886189 -0.0772396329746167 -0.8066354419927444 -0.34738871628380513 0.814188147583221 0.565384404085504 0.40032183329112203 -0.12317251581480433 0.4914994790481757 -0.06320628324803355 -0.7962019823436881 -0.043718031682652696 0.6248800783716949 -1.1566813742393145 0.2333991995195088 1.0956712670421467 -0.6216589084534713 -1.0044643337363877 0.028232145743669942 -0.395012004686928 -1.359428265078431 0.043578386483663946 0.0836853297317311 -0.9908836237661655 -0.13689541987854517 0.1261624955402485 0.4533702626281974 0.5487223453765055 0.38034910350282686 -0.2767589913234178 -0.48869728431826254 0.2680561674752196 0.2926805407680723 0.19760770956677015 -0.08880407832538086 0.5447516839723191 0.06687499689583422 -0.09592601204180777 ]
[ 0.25886328469956776 0.056875587281572916 -0.9840094076287511 -0.8076644986183825 -0.07735051051228911 -0.7275933808244344 -0.4814618190714798 0.6502416043975241 -0.1710948496683636 -0.32912580519103257 -0.6758110765717825 0.1580698549452468 -0.4394427607279177 0.3502754805898901 -0.011658748820330966 -0.1754520002100784 0.06188891366533802 0.2943371793743627 -0.7308009736811051 0.6398419345577292 0.0496581482787047 0.08771215133142866 0.2659011348005346 0.23777812179499094 0.7139418143332026 -1.0383584630406095 -0.1336477793943514 0.06095585956890333 0.7764521678355955 -0.6991484376112513 0.029942737794772196 -0.1622072182695414 -0.09478931121308319 1.146752505208757 -0.013101652723269307 -0.06177255312157449 -0.8715886097164067 -0.625503448439903 -0.26426632784461795 -0.42405111866810447 ]
[ 0.40153746800408624 0.0685874576146381 -0.5452528826665018 0.21831099756762318 0.286035811033974 0.8064901636432132 1.0004700021777588 -0.32338622857413607 -0.3027197841293531 0.5460639662274274 0.5675733591760794 -0.42212534548316444 0.3640367296166668 -0.7790967868281825 -0.8087217986416516 -0.8729767411210232 -0.42454140707814375 -0.48121188724079017 0.6603808151757374 -0.4962631021018491 0.7867227365090045 -0.005487191860340257 0.26624213343912934 0.04012428967595745 -0.4749256721204045 -0.439286963572908 -1.2549109935504943 -0.25062390695466896 0.8732843130792298 0.7063457934218961 -0.10689078355343642 0.8495560681496105 -1.6919222336216853 -0.4544882508397054 0.07821643464845411 0.14849481216469784 0.3697272946525745 -0.11762007056413856 1.1557923328466821 -0.23174830505413413 ]
[ 0.3683260416488326 -0.3939790789888368 0.1804521446769591 0.4059824433386789 -0.8592195220780648 -0.5489576712302092 -0.18517565688811685 0.29660774059692957 -0.20852617341463614 0.13573983238251058 -0.414138774492057 -0.11238598797836612 0.450002287262464 -0.21250448104252093 0.1002169564950917 -0.10907914188818324 0.35435266546375643 0.059446341558977 -1.075277297331913 -0.8549070095365415 -0.6989113971483492 0.4462665507414593 -0.7220963511485978 -0.2566655322355894 -0.06189491233115998 0.46536474659137333 1.0116403040719155 0.3323819152649028 0.09199626394418652 0.11293106894732365 -0.3704164025512805 -0.05820418971976592 -0.1574860535930397 0.5406569181387051 -0.1501819811641085 -0.39520494330558453 0.8354141019655003 0.21402750490593572 -0.13606503241048024 -0.4089121974435241 ]
[ 0.426084281982221 1.2991481940336913 0.7180177156941462 0.03071947137817054 0.19321150960968922 0.28674051856824817 0.08590138033798367 0.2750200715954631 0.43702337551750053 0.4450997369363416 0.7063397617005764 -0.014046942582483183 -0.4650613823843322 0.6649841407440089 0.6782932014175076 0.6871456264673111 -0.42826558297642764 0.4353747612693657 0.195997609897176 -1.126997123939988 -0.05737018384289329 0.198470589859864 -0.21385164472043894 0.2908262697863359 0.1789379626870913 0.08585593492257763 0.7721597145195055 -0.5704701117760644 -0.4305904113768897 -0.45391129527250973 0.18486497364699825 -1.1150215728772057 0.2840175569385885 0.1127516017677841 0.1266883660808654 -0.5160607832161129 -0.2156281827524235 0.012746971859869517 -0.5004145046842684 0.7871798753721223 ]
[ -0.7298329811584044 0.21654095979719906 0.5209431173135176 0.254793710000047 -0.3290265501421583 0.08797573326650227 -0.26314464440572005 -0.32840765655365584 0.1338811428508127 -0.4917416052511183 0.054200616418620194 0.020306514143543376 -0.010662931842511188 0.19503355162260066 0.4438925597104105 -0.002458175837808151 0.17867979619269264 -0.31503254461376495 0.6274610290970306 0.432445580738334 -0.5761169061113329 -0.32766773308139724 -0.47874026113374296 0.12972309729196665 -0.2836970745526044 0.6493692231024083 0.7312781676478415 0.15607900506637137 -0.36565026362402014 -0.3515360320591306 0.3850486525450507 -0.8730586454926024 -0.25318171117327276 -1.3286922124690157 0.016073938025379167 0.680592740014721 0.2323576895202232 -0.13042607692927916 -0.6060998607473901 0.9113904511194011 ]
[ 0.8509948493494373 0.3950007181986528 0.38891423865199914 -0.5009346738669173 0.6835173849943387 -0.3524708697313477 0.5942255694084723 0.1980759785031372 -0.28705065466699875 -0.3512371623975687 0.8683988264328686 0.028402164009540803 -0.41060316882192055 1.056273862105464 0.9570048332846101 0.7102173144043884 -0.5104378885918955 -0.4459552015427047 -0.11560459294005587 -0.38559651676387635 -0.3652984924896275 0.16342328470696418 0.7752498899911288 -0.07547827636027343 -0.17813828699620549 0.3987514614155575 0.21270996410751336 -0.8615548922315552 0.01544622447157056 -1.119413634425675 -0.12171429395085086 -0.6227105523031006 0.08848469474944659 -0.2497704281948241 0.1526597317442313 -1.0401821303585528 -0.40518103535932554 -0.6169118383045373 0.2182361491365562 -0.04613096281286602 ]
[ -0.5348548755764536 0.41530645004795214 0.2987026562648817 -0.3570507162874916 1.0497665444833386 0.6908074866751417 0.10613941264508234 0.8862295159272942 0.5765673333710117 0.45935413723144664 0.1372376286697573 0.2584797722926754 0.22347508336051272 -0.6170879513255503 -0.8008303412333518 -0.297355501370776 -0.3717022556012747 0.1958966161496196 0.04769753940435972 0.41534689726366336 0.17621648133588164 -0.33042701422899623 -0.11235051405415902 -0.3909911819666425 0.0072728233588823556 -0.511586525340033 -0.6040742300528149 0.2475323584088076 0.5152834025412473 0.16750976355802552 0.24507039680200673 0.25052749642230976 -0.28467752926838813 0.5930578576160669 -0.17319884491208598 0.19406013949990727 -0.16908840067383568 -0.22621772608281798 0.23720779337547054 0.2729145306923076 ]
[ 0.36837283747583077 0.5781718678140356 0.5181402327417947 0.4207733902326456 0.37649329710308677 0.12778648174766968 -0.6887474428068507 0.49560500670001756 -0.39696860861991506 -0.6359895195887877 -0.6995835433012042 0.35505661295341967 -0.06541727859951905 -0.047613989680218786 -0.31362423910703974 -0.06442079806561826 0.09240380813989073 0.617277530741759 -0.6675172557073712 -0.899886544556349 0.10354182715018499 -0.21908857360360753 -0.3356344573358592 0.04046805210276951 0.00570506533600972 -0.148445002711408 1.1153478649553625 0.47988500892557917 -0.7554946140981124 -0.48362339770504464 -0.16522394080310132 -0.4870240176441007 0.3408689438391297 0.9179655386432454 -0.17360457135990762 -0.48510418869334687 0.06537097638947663 0.05159059239600922 -0.5446645000805501 0.14982360460338215 ]
[ 0.3945991185831083 0.06017669758392236 0.1224001666576359 0.3823184753449407 0.4072480732716965 0.42240820190927014 0.16973981852982414 -0.6861090354850278 0.6922275169261422 0.7334764019587602 0.11722048614236431 -0.22599092274092278 0.290158040793986 -0.4320867824637591 -0.4261183781420312 0.15433366002022234 -0.1785865124605862 0.03852624621757504 0.6135183849770504 -0.3947101951961931 1.1235142084854908 0.18906042040281545 -0.2697309758820217 0.3497292370489435 -0.21210031733412554 0.3922203660929886 -0.43004913379906295 0.5425964495407894 -1.287464591348596 0.68442649977815 0.12008776884608946 0.6239532600346266 -0.5824511465467909 -0.33917108658051476 0.41638478422957576 0.6265351101174546 0.37255996649816364 0.44098860050428434 0.2282449593828203 -0.7545250068835645 ]
[ 0.017629031609494337 0.7085576652591519 -0.7255726119977731 0.42372026348709024 -0.02224818670019954 -0.4289185854157064 -0.20404238885990608 0.39048045156418676 -0.4400636884753851 -0.5039462606180404 -0.9469415137264073 0.12007280139855235 1.2051489798420394 -0.28028965166564357 -0.40720999341522446 0.8093088253539955 0.8939295734469255 0.1508622528665135 -0.23223033259119602 -0.09370604072181661 -0.7207907352227425 -0.6201190268736316 0.1269228013250175 0.42805750665304776 -0.10333408907558518 0.433720958210575 -0.5096138934383169 0.9008807222129696 0.12913585420417367 0.35078304846392333 -0.01328808263001022 0.6563964990819832 -0.18864679905467746 -0.4112570641660676 0.4650881074349679 0.3987589713904465 0.2505492117985054 0.5116518194542578 -0.0744889875945755 -1.1088028092225324 ]
[ -0.2732862911331079 0.4442674180404529 0.45324436913203225 0.21108145100814862 0.8808472430478148 0.14587307066985708 -0.0415932824115533 -0.09356617435247516 -0.48038212998342605 0.06104303812971723 -0.7040177428318749 0.2968701540822806 0.8368620262933001 0.694973051876965 -0.1107296570317379 0.475968740384391 0.7577306014963731 -0.35145274399502024 0.1596408463838368 0.6821937794297909 -0.5642035650044754 0.048052142634935506 0.8198184734310099 -0.2448131239217691 0.2958919035295546 0.8040059155907866 0.1770671302451344 0.3178202646351736 -1.0480283623033415 -0.6779132529425388 0.11518337142975214 -0.3969456911116221 0.7375556652751458 -0.22027005637417313 0.02688860439369711 0.629236233120838 0.4231617848113195 0.24729170653714666 -0.032771324870315324 -0.9141501485226694 ]
[ 0.13004877521076674 -0.0073411330298543175 0.24528586733213842 1.0817635947847222 -0.2062740173498579 0.27796679166616944 0.10440144928626406 -0.1489030099293191 0.09660388638068385 0.33529242335221976 0.062104300369916925 -0.025727896511729586 0.5083143761583291 -0.5209372677147623 -0.04885304065846661 0.2595851166071087 -0.24747366658374503 -0.19177170651353986 0.37332163741030483 -0.4234336826701117 -0.2470913287544008 -0.20214602042989427 -0.23930288667507707 -0.06120154397332661 -0.11641809011736647 0.976149129949745 -0.1372942170582262 0.207939111407697 -0.23806620555715574 0.825771943273179 -0.24235042696310818 0.25715390408014827 0.6041115423686494 -0.4403161217675222 -0.04738849482184851 0.37628510298944096 0.898512795270877 0.6738101357738104 -0.05596492401130616 0.12743617197790874 ]
layer 3 Activation
tanh
layer 4 Dense
40 20
[ -0.24586813089405762 -0.32201395871395505 -0.00021465137082629562 -0.1772344603242539 -0.6076164541672854 -0.09235681684386894 0.22905009068341955 -0.5096665695341225 0.05168831551864306 -0.6293383222864763 0.6780183198029146 0.5370633585693364 0.44400525889780607 0.27323853615755966 -0.07361107397017524 -0.3523163744262712 0.26039505699015314 -0.03283408211683999 -0.3151284299823682 -0.10081659528342374 ]
[ -0.10165725960852712 0.24463297835010173 -0.10782303215021394 -0.682754519550593 0.21851493819367482 0.7132084101053882 -0.6145563139991808 0.06275555077380254 0.036185554209420406 -0.18722074376834005 -0.0742007271137166 0.18626098066102234 0.1482180429664357 -0.1933475856448962 0.21396680777720467 -0.11819413437477067 0.4892366562601838 -0.028866695558150215 -0.3073707912747811 0.33735421273147637 ]
[ -0.15600626433061168 0.22254866868678552 -0.06912125320769437 -0.14811733083868722 0.18800871253506954 0.23519571225403146 0.9122739233553984 -0.285748086730732 0.4510829794985128 -0.2968981734089393 0.5577997853939992 -0.0852941303605177 0.3895512734988747 0.12279248242684097 0.08460498972549681 -0.5487746253600407 0.7144577828159642 -0.07117760365681762 -0.4034270990460663 0.6012523760710538 ]
[ -0.13188991725669977 -0.2972752499230619 0.19355483578020463 -0.3030378666874392 0.23379597354507847 0.006347602652455221 -0.22403116518388452 -0.3040743566031811 0.5095731268049644 -0.16297085635230313 0.4434518180745886 0.10728201168122958 0.03489342041753824 0.5954095169084834 -0.5827164783421493 -0.8334989568447936 0.6353409842627512 0.7362709291644013 -0.13267093843392466 0.23914169439468397 ]
[ 0.48631169347385395 0.35041635185260767 -0.1208503149134554 -0.7461125122999764 0.15281621729876801 0.28333781911171835 0.5775440946667736 0.12730620061512413 -0.48754018359946016 0.3562430403277808 -0.44598303051581795 0.4083695441153756 0.6301387072930197 -0.5528568828237082 0.20690730379461061 -0.21288749810776553 -0.026751908825889167 -0.23099801513978566 -0.305510958318079 0.06260476578634636 ]
[ 0.4571680371700174 0.19235542921411436 -0.3428868375806105 0.07729839315327675 0.6674743359732416 0.10300866665659518 0.2893253921243042 -0.22419480937672517 -0.34824067793555563 0.4432177947133481 0.5087046319924479 0.31087090999387146 0.18238297635310077 0.14531818159319337 -0.6000567803852431 -0.33303427189899454 0.1169433319604514 0.2997003915965897 -0.1797475999050566 0.6176746227714814 ]
[ 0.17323547402948655 -0.18095377881048122 -0.2794988582942495 0.1926387612715092 0.44860509149386874 0.6837409490904525 -0.005738668584744156 0.25573547767348476 0.2806930608789084 0.08040951532839859 -0.2393661778421808 -0.18673781948310927 0.12505847790703947 0.17445616847523754 -0.2186446258022073 -0.4288133693643562 0.10604483619011446 -0.43106740142910704 0.11343964020497352 0.48734282856109334 ]
[ 0.040865582621256044 0.1506407560626154 -0.01110160537258792 -0.3432220884637742 -0.11302647850425102 -0.14522045114771628 0.334957115095486 -0.36776132648099347 -0.4573486307286521 -0.31486328784170403 0.41036265674915995 -0.010771068826517034 -0.07963002013891894 -0.08848759626441663 0.6848517990789105 0.4996355741777 0.11384341276804513 -0.366196468362321 0.09833329297102998 -0.912283458717212 ]
[ -0.08707984260172867 0.23387600227727745 -0.1476134814836301 -0.4950723377627122 -0.15804669905160307 -0.07963074675905066 0.1797758387862086 0.20856458451279344 0.08319008278428672 -0.39929155712696246 -0.12658321234414555 0.40917341153336706 0.20576099753113733 -0.28314241061543527 -0.28793438133936056 -0.056270155982129255 -0.5131056017072236 0.4264444925999056 -0.13593505509350418 0.14370489433731537 ]
[ -0.40450438115048115 -0.4044119452207374 -0.07599324033433807 -0.004235161300360389 0.14201792327952148 -0.0489591713389155 0.06849804619822186 -0.29095119161493715 0.3057616692924313 -0.13928627268174948 0.5066437628689657 0.14357989738680593 0.22670571301811845 -0.013435264197090938 -0.7019995904023256 -0.02048225764934611 0.10070947927864121 0.34926540907457687 -0.10239009719031986 0.14050234415247226 ]
[ -0.25298564390246503 -0.17763158074930505 -0.3799612313399359 0.8951813740116569 0.7555310030573927 0.23437327050818096 0.18189083043931337 0.26465719517646985 0.07952537190517768 -0.14839150992282346 -0.26899712263073733 0.043233921563667864 0.0015066748784836304 0.03485631896409559 -0.09584569877089703 0.04408878305722052 0.5088791180146239 0.12496530426057663 -0.35786486730524986 0.8951116297666813 ]
[ 0.24792934798920815 0.005432209514291119 0.1559461880996634 -0.07898816752571257 -0.00029731938079834304 -0.13084420867705054 0.17873104749712065 -0.40917569282027216 -0.07239996928568948 0.00696212809877805 -0.11633594906744858 0.2594989589269291 -0.026395604139244314 0.07170338080979871 0.011577716008922156 0.37978968763641796 0.07107826751356858 0.28114627360983996 0.33040235450518696 -0.6130881612992017 ]
[ -0.154311561516597 -0.2753316456121245 0.5776509656459143 -0.2597723995150814 -0.1529117586106529 0.2839843626516972 -0.2504745946371362 -0.43214163284823887 -0.03428446529678756 0.2167846461911506 0.0026818705354276634 0.19786625567581542 -0.29570484439610634 0.11544714480749277 -0.1160824845948395 -0.18460283808041858 0.40973842657311105 0.3618379654493868 -0.05509529543831631 0.17207270345696918 ]
[ -0.44038974213723847 0.21325298647078864 -0.16359579237605812 -0.25743496350770345 -0.7757787832190806 -0.1664109077539127 -0.8893907476660293 0.7583483853667492 -0.9141298734698441 -0.3532972063330687 -0.07999861789243568 0.4236755013945519 0.2884704088380217 -0.5158214632231856 1.1456354378642533 0.5406075132114658 -0.17811819517030061 -0.7001598335038575 -0.13993862503338292 -0.38444822375459226 ]
[ -0.45423911348188145 -0.08778671664177518 -0.6553152231386347 0.7732860431227274 -0.1719210334573562 0.1761257613254769 -0.015918608809536456 0.2287016876245693 0.23231431707090397 -0.26938826680357253 0.20172935759097235 -0.0038608225755481238 -0.619274403616624 0.16227987239210978 0.5973276402541425 -0.40041405727667273 0.5140397061022877 -0.46462549173617734 0.08407367047294312 -0.31294555660988355 ]
[ 0.25228752018573686 -0.22062466521317983 0.7582037981886279 -0.43769354259250415 0.4565646416523893 0.07621511783015028 0.30572274541071487 -0.5645453811383367 0.0010973082387414905 0.057890161384179586 0.5020865767263557 0.37619270658654325 0.28719544279492276 -0.3858627615544721 0.17049272243404284 -0.37931231012204736 0.5335008843080192 -0.552751302314273 0.157102848941336 0.23989186811764907 ]
[ 0.28700197607646244 -0.4599984996120483 0.22074320980161866 0.43542542741533435 -0.21499852053640311 -0.18788751503671638 -0.3241357323197788 -0.2235451320670415 -0.04152972067162118 0.23924757719785342 -0.2506762865288366 -0.24647464915725883 -0.33751191219786303 0.16360754382552886 0.26693924044526846 -0.10529611719257795 0.20189132675025592 -0.29388183951790864 0.24524510118078718 0.10652294424793565 ]
[ 0.2942275568912993 0.3790386388135477 -0.13770993042941157 -0.33323572796144796 -0.44842132928563583 0.004346953941175749 -0.4014864004791337 0.004659285095315745 -0.1894085533483552 -0.2886679946051137 0.0939139879027735 0.13789162426478274 0.28631542221096734 -0.0417497378494835 -0.028137797513906285 0.937676417513935 -0.5580743094718493 0.04125472492328878 -0.012802295647492277 -0.5967318607881995 ]
[ 0.35470142394434706 0.13601615355120109 -0.4302151716594394 0.1689267308426384 0.7487543107337252 0.45051453534935476 0.7564854857789833 0.02307989815936261 -0.28610210785259965 0.8000130491024384 0.6062043152522114 -0.35142758992431306 0.7553382285605289 0.40442491171060746 -0.6356418413533335 -0.3339750896467788 0.12415439349318023 -0.11039596596365647 -0.7656785594576162 0.6464769499306002 ]
[ 0.5218684757459254 0.12472777786336264 0.5493492406038027 0.30990573516181336 0.42107659919533147 0.04093527667153625 0.057615097188383785 0.6207939457564057 -0.5297033949129497 -0.15501147767738896 -0.7277767592831375 -0.37540050555798815 -0.11667295795072542 -0.5884814866398582 0.3422527388575982 -0.08606718813742638 -0.06230826741762873 -0.37253261087139494 0.0870096181240697 -0.2109722876280859 ]
[ 0.25644360869651095 0.09761363568676708 -0.48266996003268164 -0.5677221292902968 -0.277037903234895 -0.2686955769654568 -0.18526651785479498 0.10015877634783772 -0.36252064394790234 -0.17700298689755897 0.34524742651959694 0.6878025081689867 0.5386217373083076 -0.21789628958922497 -0.14843459143742485 0.22617122797761963 -0.3393232033955053 0.29199691233390207 0.20591423378904666 -0.21917630267777052 ]
[ 0.037356694043263354 -0.3626588798422439 -0.014751427959068112 0.14716442019075507 -0.09701698526398073 -0.22749699408977075 0.07440653498304726 -0.031183061386750723 0.3034120123957417 -0.13190172705752098 0.14575622144619912 0.2693506594189266 0.3216532936575192 -0.29992772776479026 -0.380692200351946 -0.22956757847066867 -0.30446056539551253 0.24790558596361745 0.00011637369808186859 0.3038535180076749 ]
[ 0.26343036248441765 -0.25968618893409906 0.07931853802195475 -0.17805443527168027 0.018677791487677304 -0.22080538138665357 0.5060167132863973 -0.04548558421622881 -0.42899486868725595 0.5990606630165588 -0.0008185410785455345 0.10648538490228845 0.16760789717651356 -0.17530891693403733 0.38760245090658746 -0.6480811460817983 0.31646667977423537 -0.7256681425797807 0.01901292324158893 -0.5648885714121422 ]
[ 0.20540658597225528 0.5644152718627143 -0.06839377588010813 -0.14611563251041615 -0.024769624174270942 0.27940458103807053 -0.1762675670109971 0.19561342376524157 0.5811290174538469 -0.0915514443263853 -0.01567080486628979 0.10282820232639107 0.08821083649525262 -0.05407884809521069 0.06716005595821437 -0.024116429922700598 -0.18066613559186587 -0.0917613286308592 -0.33231041012820944 0.3473665212688094 ]
[ -0.1435427892291264 -0.1297761871078113 0.1447054915764985 -0.17939578520258315 7.88521378147309e-05 -0.09787041632809708 0.12719761736017554 -0.12453895438782542 -0.29756957475154483 -0.10564790067589687 -0.08362033294594975 0.05782896038534593 0.10137339290915441 -0.3026308756098446 0.08093846194614904 0.1200925092025622 -0.05525055966222457 -0.02176916811332683 0.1567830313196069 -0.5440781176990145 ]
[ -0.06362255232531594 0.2359565718799905 0.0646205748207762 0.024304597330137175 0.7766237337048022 0.24868381720014704 0.5791524898246028 -0.6005921377974122 0.6167825697659434 0.2895777157642789 0.38483560283620366 -0.09841626348759666 -0.05104641151766467 0.22186508690380077 -0.3581596370297368 -0.6161470434574582 0.6910752465313826 0.38774664057303115 -0.28328340955945114 0.874394609184241 ]
[ -0.02642513855770424 0.5943396206185471 -0.4809088271484617 -0.029685239112248973 -0.3855353971243224 0.05169519123942731 -0.15338156727917984 -0.1409048038967047 -0.1456029452522531 -0.30634449120306584 0.07134427781680151 -0.03871504288564742 0.29822972108717877 -0.009175512972664189 0.5073519543946571 -0.5605683631814922 0.47729579316662085 -0.589927498173786 -0.15576256042390962 -0.11340979663564729 ]
[ 0.19457143949268724 -0.4009964339798099 0.4376959704161493 -0.5515644713452287 -0.3451740324537343 -0.2757754920825333 -0.46165754861064157 -0.35502762782890246 0.20902765018449546 0.17889748955703821 -0.2675443229287316 -0.06844682691903557 -0.31955742783226293 0.4631651796109439 0.11835452379523735 -0.14183416482196157 -0.00931040711127529 0.1027087382960601 0.01990015759534144 -0.1818403748913684 ]
[ -0.730850707896946 0.16476745793901446 -0.27733329831412784 0.42630639160875455 -0.06637177556886877 -0.2710116714279779 0.31983137824481184 -0.04439198973835567 -0.31394161684921973 0.2142507775425185 -0.13180467605698407 -0.42073063089075047 -0.3599713853790391 -0.4485752534323401 -0.10392257678577822 0.6283594174339863 -0.5870650012201488 0.3813053972016419 0.20927741945271994 -0.5726843859079805 ]
[ 0.4041568066504551 -0.0716327517051362 0.049863829396488285 0.6982291428915094 1.1298889141050956 0.40855468152440166 0.4898564480343204 -0.7316830622631123 0.9522321565189517 0.5131797685301859 0.09695521587124152 -0.024333255217493327 -0.18306188118177114 0.5033033497664695 -0.5262803181217854 -0.21230156108303816 0.14760949948266924 0.9452221822111525 -0.16122450138015657 1.0289996923179987 ]
[ -0.09335835970791712 0.13513436927742495 -0.3820715078168769 -0.06947852953174805 0.06575755308969003 0.014617522454636767 -0.04304724078094822 -0.023782642025818486 0.003728046748463174 -0.05367933229224874 -0.29239999269977274 -0.06841533505972124 0.00020095041751121037 0.10943821709275539 0.13763581126644195 0.08916113952408887 0.06933401041207904 -0.06280678766454392 -0.3465420501554825 -0.16425496214401872 ]
[ -0.06164512569997039 -0.38483781312101345 0.38451998964697626 0.00881792622932735 0.28880904760814724 0.004966288039200257 0.29342351715513615 -0.394486667308352 0.12463604579174341 0.6385815441386874 -0.6316667310289047 -0.24646873592319238 0.12594476802179816 0.1360927926504344 -0.5176568431630261 0.33440737641108775 -0.4388035263567807 0.6607567952357627 0.14230752395246254 0.02224604184775545 ]
[ -0.13831723360176368 0.08092580536771256 -0.31829400671649805 0.09699410072660625 0.31403419584851455 0.493699845683582 -0.17378945536681925 -0.23916120931551557 0.45502099197502344 0.2163883071643385 0.005346824179021144 -0.10535610439198366 -0.1365176340252534 0.010316669566227888 -0.05277400437835696 -0.3617938284091175 0.5041926647318384 -0.2076283612556499 -0.21606686830821725 1.089596933873978 ]
[ 0.014397797380965388 -0.12135221157545982 0.13491649775254674 -0.5247389741791667 -0.7706416660453639 -0.6499049881471608 0.042330581690325074 0.31522983451742614 -0.7929753755223207 -0.5032182529989514 -0.2857084223533244 0.6325796199127729 0.14448817456933305 -0.6767515134581776 0.33028305804476005 0.7837752357683081 -0.36551485304603104 -0.5431530889769681 0.47767335571666303 -0.6524428455757981 ]
[ 0.26123172066733863 0.33386543991692263 0.014655072927877691 0.1350527355198218 0.10376181898337482 0.27766730416123653 -0.1289354329048772 0.22042079986047483 -0.07735021508650518 0.01200555988819933 -0.5112138935915601 -0.19281912036603985 -0.2694479234261467 -0.0904002722147091 0.2707669647562153 -0.006264252574920025 -0.12276285150675705 -0.22775824842197315 -0.2408375951399447 0.12178958006299503 ]
[ -0.16808631429813842 -0.37999259685736453 -0.37758475662799357 -0.18476856993813376 0.21052615930032284 0.18784506341124943 -0.44751741601721956 -0.09826211408454005 0.1103697454899899 0.2602225526694954 -0.26770493712140486 -0.22385800699701394 -0.40249617304921576 0.04515817671237132 -0.4217389134406107 -0.04671871823862367 -0.15993814150194308 0.2748379362803673 0.02401060912709972 0.06377490120778216 ]
[ -0.10224619975548999 -0.31541624842613075 0.07554579858017296 -0.31924567022269723 0.3797820662100158 0.10038839059618385 -0.032518996380846744 -0.6347082746451487 0.5673780619067932 -0.2451390530324086 0.5340780379409436 -0.16731780131911544 -0.3454170462085425 0.5447907701644276 -0.6491289543390836 -0.8595657841973554 0.6528282338144713 0.5957403640347044 -0.12741148687414658 0.2599270303775314 ]
[ -0.21035248862082342 0.2308006795202423 0.02080039523266011 -0.05513792810893666 0.5814014351051803 0.34306103643415886 0.05468247867730272 -0.8101359687662342 0.5227188181236145 0.0982390475490501 0.02170147771659124 0.23939477515574764 -0.5102837823148515 0.4194851710002022 -0.5792853628565141 -0.555977290166761 0.3398702114515262 0.5192450446773745 0.12508261927074285 0.3866825412129467 ]
[ -0.16747072652895756 -0.5243839605393571 -0.47405370742827624 0.39415604871164944 0.12257971195628378 -0.07599332445922806 0.12494151510610023 0.30559323965089996 0.007504492623884523 0.3555785057677259 -0.31238457719339663 -0.23583302475623363 0.17685286489854996 -0.1976668349959418 0.034028979790248166 -0.25552465349734155 0.24792235478725996 0.015669826095243047 0.10686142917521788 0.07232348104295956 ]
[ 0.2267035487333623 0.4270136585023936 -0.09741611285151808 0.446353406581172 0.8065000895399533 0.35085793831285866 0.5208089482006512 0.036275398560378966 0.01398214617398509 0.13047178729456835 0.23398740914314511 -0.04693038359287516 0.21933646268140292 0.05773396414323066 -0.22272899547838534 0.24167659824455004 0.07940483538273914 0.44576895275407463 -0.10958032099068309 0.6184729098217104 ]
[ -0.040903697318069795 -0.051396034844181156 0.16718898865227896 -0.10509885049348777 0.2823955284392882 0.18055891041853486 -0.029601009227432622 -0.4240495943845727 0.24421876647934282 0.057419248631618125 0.23798345549332778 0.06837779909730417 -0.17723604357480627 0.18801565200195614 -0.24308782005725726 -0.5144799634682083 0.2448190727311617 0.4030617450745804 -0.09201583272608183 0.28536943554828387 ]
layer 5 Activation
tanh
layer 6 Dense
20 1
[ -0.1302623929776836 ]
[ -0.019777244080704 ]
[ 0.12368734595137841 ]
[ -0.10922935102688239 ]
[ -0.7287180811875565 ]
[ -0.04057609113814132 ]
[ -0.17778487476667723 ]
[ -0.6030560137495883 ]
[ 0.5557017356276469 ]
[ -0.08373863771232429 ]
[ 0.23215384323332897 ]
[ 0.2041822881628081 ]
[ -0.2137509562818848 ]
[ 0.6164841892669765 ]
[ 0.10818189898736748 ]
[ 0.6253821940796226 ]
[ -0.45607839332771977 ]
[ -0.22636531724121262 ]
[ 0.004483827954102599 ]
[ -0.1976520793754566 ]
[ 0.5094651163652686 ]
