layers 7
layer 0 Dense
20 20
[ 0.16238730595672696 -0.016209591981992278 -0.0540859816088901 -0.6129368138864917 2.1307448115593224 0.19490504071779474 -0.8188257251801531 0.22259039907375108 -0.099898218110071 -0.9445105185882523 0.2145941249094691 -0.24272148298419643 -0.933569714274544 -0.27250268433328073 0.19767660595385445 -0.7688324625529763 -0.4039223632782193 0.039010492730246996 -0.06995097136571733 -1.1257203220425358 ]
[ 0.0075494035606428036 -0.11614209076940869 0.2855713220668049 0.36136450075097676 0.2671920754815317 -0.2676339311731188 -0.2501057378058098 -0.02998838115912751 0.24470930477615957 -0.21578478691578779 -0.19496840550484362 0.020145498692506616 0.02407213495298452 0.26112070724886677 0.02713820248316188 0.09753909160193708 0.01411008600108971 0.09190446230488594 -0.3108428443785291 0.052219654173812 ]
[ 0.10802655082425351 0.3295379287136432 0.03725055580224368 0.15448851150953657 0.058312409864435664 0.12384496601896104 -0.38258357354178957 0.1694817388548717 -0.12267743575545419 -0.04872222975024815 -0.2815362044318206 0.0041870176350457325 0.00020178426386382442 -0.04398313356773386 -0.17524494963009243 -0.2629525509103535 -0.31376055857553053 -0.08095193059901318 0.33851418254988985 -0.17126947442770726 ]
[ 0.4806096796849881 -0.1321256928855443 0.012909453377853056 -0.3830811970261061 1.08133818998819 0.1342906250449889 0.014611415439038924 -0.2761532171963754 -0.10777388164888498 0.014787120322176973 -0.3852920739136331 0.1257884994524869 -0.31727956568686944 -0.03508429096631161 -0.2804072751761709 -0.24367836485147823 -0.030385327242149585 0.06566195338512264 0.14003010186143003 -0.7998134925137638 ]
[ -0.2604030696349563 0.49189917851532117 -0.29457997364811866 0.03777803739035942 0.09762641240312746 0.45103736345647605 0.6221446165268636 -0.036995900956750725 0.11668809228238018 -0.050429698791257166 -0.7178128330464812 0.433711010211359 -0.05709477460623122 -0.19743714332597845 -0.19823054991162947 -0.49588170850150903 0.29245058061412055 -0.04276954630678604 -0.5069272770700598 -0.16673556065211942 ]
[ -0.3795795518990374 0.21580474863657226 -0.08375824712729932 0.09915147039844495 0.3286066548191523 0.006637879682747384 -0.20383618656658298 0.233823447382893 -0.3131539105503531 -0.2917361818711547 0.3663330035458605 0.36464122411268035 0.023921455913727324 0.2768943894968779 -0.2610190439230816 -0.07993029029682669 -0.36007379051999544 0.3395241752132433 -0.2424019146789118 0.015518411254625246 ]
[ 0.05481096509880186 0.1958320837143568 -0.09867983265890787 -0.2245267445305411 0.08631212025563645 -0.09918316472575169 0.3782675573773677 0.3182163986954138 0.07460185193012876 0.11132755818724623 0.17247050497478023 0.11996381398850976 -0.045007873549573266 -0.05066972616550707 0.10456306423130397 0.3698783582069896 -0.1289943619661319 -0.3319982124202232 0.3633262312644392 -0.38436989642388314 ]
[ -0.6828800769351838 -0.4434282681360505 0.35958791232567616 0.08027091388557639 -0.7388658687777724 -0.4396363244554025 -0.3183841543849302 0.28547464143876955 -0.13687426985600035 0.061076327197666966 0.6163248126988174 -0.01825761934214203 0.5911580991121614 -0.3762573846938954 0.5175424462309516 0.7478576074119523 -0.2429132679581651 0.126058950097193 0.16354477624123157 0.7551020193593464 ]
[ -0.4491632228289278 0.37067100286916327 -0.47680506932679484 0.02075084258674926 0.581024321559235 -0.15995429338191605 -0.508230764367131 0.3047408795885743 0.19510447537498266 -0.2686383501388421 -0.18720579138626864 0.2145509863545408 -0.5889171301199928 -0.10971391996307922 0.19346482429393846 -0.5833090907099139 -0.4550826144085131 0.0977125264614212 0.30932582233726336 -0.054311713258985546 ]
[ 1.258690414286399 1.4833214067259433 -0.5822484686025636 -0.32414826211007025 0.20122296191695563 0.5282030082295143 0.9719459945364405 -0.424875401990274 -0.5523655263191881 0.14826365433425726 -0.29125202017397733 0.17196818001140451 0.09172120843633269 0.3659154260191377 0.4355141313863973 0.033855664272447905 -0.6058987700657891 -0.7116500925330329 1.0396096200076508 0.07991182512357123 ]
[ -0.9348794779837702 0.36486802506283866 0.5587363778231503 -0.178867315120969 -0.8438989996889438 0.12666221271034142 -0.6981530810347719 -0.8424279370592505 -0.9041091435563495 -1.1598795927994934 -1.2281652607246056 -0.4612100575905148 0.3004825340761191 0.6047772401527082 0.3815644180485848 0.3892326220364583 0.13622923827704111 -0.44202276137089563 0.29464407525495434 0.32720964000114455 ]
[ 0.16207275323973835 0.058668462672563836 0.22062054759551497 1.1079288727233558 0.8004485234080688 -0.24682574833829968 -1.40781178486358 -0.048533313129377045 0.08184412644053495 0.0033410872017159508 0.6642422845594923 0.18347871992854706 -0.7696477347424514 -0.3095267553655154 0.688884233095722 -0.6156676208922115 -1.3399523501896666 -0.4434608915627125 1.0581266516036174 -0.23319544312704116 ]
[ 0.7491967352394017 -0.9509700706077654 0.803503629699003 0.44087858473289165 0.41620162427345253 -1.2886081738754305 0.5492935906239926 0.024490106919910975 -0.2953560928312986 -0.6840039417598598 -0.44367229231860533 0.6411976902532125 1.725742096298149 0.43913948901338207 -0.3847848583416492 -0.060276257207463824 0.7901789769438577 0.20036629264956662 -0.00661841527274133 0.8300104036137993 ]
[ -0.25617900523990733 -0.3234393592143464 -0.07345224393746688 0.16121893503522375 0.014413248971057651 0.2704088705292135 0.03380215821506671 -0.3501276588674689 -0.08390368893159598 -0.32202963960721254 -0.4162331711963679 -0.3586126680629567 0.04998727525838169 0.04538725300656494 -0.05971614503907548 0.1249417650818354 0.23698751340584862 0.03617415133321952 0.08348317927216711 0.6237477780408514 ]
[ 0.1438115896048454 -0.3248418372690437 -0.04388193811433149 -0.3428236526029051 0.3251195957741088 -0.07829937379493034 -0.0700213144621679 -0.4363332829475379 -0.4986130509139388 -0.17844434801359726 0.7263260453261217 -0.21438921830303997 0.013716261273609368 0.5186847598232531 0.19953547222654147 -0.06308975027613056 0.1945374159115663 0.05976045492967928 -0.2605704336821407 -0.6848673427651102 ]
[ -1.2713360445618866 0.9810151705576758 -0.44637279068808167 0.5295035434440386 -0.7517115115105828 0.9769711717954838 -0.3724452929576529 -0.8385467538649323 0.6837977132259434 -0.7637364465842357 0.1989067076119633 0.2543371084483587 0.38827676650286924 0.3926920738370857 0.4307092626805246 0.6431586843348915 -0.2879619415619386 1.091180155722069 -1.1666230727033344 0.6630351285218572 ]
[ -0.5919401846215354 0.5674622521269582 -0.8443351532505159 -0.554485496357396 -0.13141879943092108 1.126912561901448 -0.6215757701043719 -0.003650084723788184 0.48190748030678937 -0.39075862744825773 -0.43581947062552007 0.10918371132184049 -0.48676879253200184 -0.2314361165235953 -0.5293223529173915 0.24184709412770364 -0.22173721067417262 0.35114255761653707 -0.9085076354486771 -0.12986969726029207 ]
[ -1.433569397562901 -0.057522549075525724 1.1153226325383838 0.612753657242478 0.45413808391159455 -0.3789207997629788 -0.22963429940362914 0.6626656133967496 0.7241649588757857 0.006737089502515035 1.0948359720120875 0.4654941268914272 0.419253546953601 -1.228521061182452 -0.9271056752408501 -0.4513298977613462 0.29377640616686124 0.025527846625233885 -1.0171988669517602 -0.30292072703130035 ]
[ 1.1603007646539054 -0.17145695235206093 -0.9408719144470273 -0.030163814609501717 0.5630038824214341 -0.850170371155386 0.7289627282452152 0.9036015665127574 0.9240368041704506 1.1061197553200461 0.36213029653381706 0.7729517391383989 0.434947702634131 -0.6297756624735281 -0.2492966673294069 -0.1007883893402396 0.20541771294002592 1.0138824706903284 -0.19122462891291853 0.6572415223456396 ]
[ -0.2049915022247152 -0.3197961823333533 0.7601433550166126 -1.0198969920143504 0.36870479588025645 -1.6115975506731137 0.09351552873837414 0.4668522979889026 -1.5122260417795723 0.11121318340438571 0.36364016625408624 -0.8609101763641883 0.2567688466390217 -0.8460196667188618 0.40540868119813317 -0.19557293000302725 0.6998531233759031 -0.7879471515565355 0.6027726579782315 0.6932077188882818 ]
[ 0.2254706552201516 0.030297524694471206 0.01797253519933543 0.047729703092430756 0.28372147638029044 0.2091850673650147 -0.055337148805579314 -0.05970034548637271 -0.09427825441967745 -0.03906948786798293 0.02168843403187629 -0.009909778256305703 -0.2455434981937063 0.224571152447598 0.006062683708968473 -0.24464499685086075 0.1590986185707615 0.015414018309646572 0.11133672235733094 -0.2701521216541965 ]
layer 1 Activation
tanh
layer 2 Dense
20 40
[ 0.4234774707138929 -0.2907920752441739 0.011896267275595805 -0.5281052361099592 -0.10042367496735775 0.24987959727054207 -0.8191950337245648 -0.26129456155471265 -0.44402728217406007 -0.35966137905575185 -0.39345017194798776 0.2583935366893497 -1.305511424932889 0.22090614894956787 -0.39226831022768427 -0.8438990490982601 -0.031982995529635405 -0.24931489259152398 0.26450787318221897 -0.760969034207311 0.07594259503510033 -0.6643188159745784 0.09042636272995318 -0.21185678814521158 -0.5622316304158096 0.7903365352266253 1.024410418561867 0.06608573971616712 0.3500351901747921 -0.08338929012499849 0.2342862491880702 0.19861698982237444 0.4667627136508154 0.27492948106162446 0.31311235654409525 -0.49487057778665633 0.13866859886081606 -0.016475107995384413 -0.13394855557205682 0.02151435190429038 ]
[ -0.5241641955553488 -0.26378931835774305 -0.16182885273426958 -0.24308730273444543 -0.3980908015122531 0.25159745720458815 0.8433388189063717 0.193463909011772 0.32201799817184024 0.024782772587257404 -0.565564879531396 -0.24640034814374634 0.7186775577109191 0.20198587640013882 -0.11485037796834106 0.6344999710132297 0.27905982266943924 0.47589569541882043 -0.2460859415791484 -0.6242090767658713 0.3606708669174407 -0.49959524223097246 0.41918056980736285 -0.05179108302668422 0.54221037569016 -0.3287297681601131 0.6784324604887286 0.2748848092009732 0.030928858564154067 -0.25585127757890813 0.04819440192781462 -0.011436022419662201 -0.05674339610637084 -0.36040984174006485 -0.21749391171999746 -0.3691998373698835 0.2553161414518401 -0.0025730897285610576 -0.17566004111691721 0.2706633874298409 ]
[ 0.41388628126245175 0.5265114924099139 0.31524965297289104 -0.20525169029506077 -0.12466942227086973 0.1912952477204704 -1.1613339950576698 -0.5151226190336466 -0.17328968850487197 -0.9421275724828273 -0.5536472434712981 0.29684462900212416 -0.2970913434286267 0.1837137844842476 0.0813447790615791 -0.7050070856167251 0.5600923066312069 -0.6538143661230532 0.1756297707954344 -0.9897068445300006 0.053397883276976414 0.06074207831898726 -0.4475125850106724 0.1936118361634769 0.07133782732878911 1.2056166642764565 -0.1449553869418945 -0.44377295067972816 0.20128751935431693 0.45218158743973297 0.10990839875793817 0.13275570086377408 -0.13777618187604004 0.1441600021036451 0.12233068581719828 -0.38427833114708726 -0.14068309684077485 -0.35138885346945226 0.3381607389968605 0.20194978356071527 ]
[ 0.3795010594546103 0.18188781658316056 0.07617666854305936 -0.11383720101611243 0.21920741947446756 -0.09897565954734683 0.6972734414054408 -0.49152059108950946 -0.2828207781129159 -0.5766722400204226 0.2875756599086403 0.14331864288323337 0.07409051743934177 0.1305246397856208 0.04475426928616814 -0.1269022129963449 -0.07901303694605918 0.05150077292623235 0.05217667477592313 0.10967419605796956 -0.09666574597865327 0.05717152728624802 0.01706473786766144 -0.21053641853235924 -0.1376490968903577 -0.28346798226716086 0.6059444954731557 0.22124924951143837 0.09942503285494073 0.21108454051249614 -0.06477279291813785 -0.020337940832527764 -0.19218752634065037 0.4796691465769396 0.26257438008213085 -0.409958926813468 -0.1205422419861884 0.04013804205773317 0.06423347635922091 -0.13754367662636147 ]
[ -0.37930978939371235 0.3287187170357088 -1.2037939144771557 0.0792127386031574 0.11925924556371079 -0.23526231750533966 -0.6270091998618412 0.644523266714976 -0.018987835077122667 -0.3548283390749052 0.09013015693668665 -0.08149200240519176 -0.3488823483797805 -0.21625349476862163 -0.08523936034856983 0.6686015520349304 -0.7044281754016242 -0.040700924900773275 -0.573891997344392 0.2729858114077752 -1.2019601570755216 0.31591315226662325 -0.19520557881860345 -0.20297524133510345 0.3980248269215593 0.15111633524405832 0.44299962547827604 -0.759674920248692 0.13627640678313205 -0.6710151183346434 0.5541493426511973 -0.21974194200975342 -0.15687217231996192 0.1623607322665624 0.851653537633341 -0.6959384225391688 -0.15262277697060467 0.10927516489055399 0.026745967377063102 -0.523406561082294 ]
[ -0.11961246007075418 -0.39429290079458845 -0.7887609288376036 0.20737837801440806 0.073936768649539 -0.38401470947975525 0.7372729925119077 -0.10850049520676562 0.3062399338304967 -0.37527288910379136 0.03766672779359038 0.24488172033746067 1.0473786799904399 -0.13968317266547833 -0.2343381742071176 -0.4712197774408162 -0.34370300588899877 0.7667291041035891 -0.2772295062033171 -0.6201303642552841 0.19661225663607215 -0.17452556361981839 0.34904959530802054 -0.4898599640316961 0.12363645711400478 -0.6997521732729577 0.7390128135946704 -0.0905018821896172 0.251395921936011 0.0562210202537934 -0.4792019560649442 -0.3199466487465379 -0.010229860307069195 -0.6124723904129613 0.05372356894609662 -0.48106056085900306 0.07937448168843685 0.6363292215449368 -0.29152510954590743 0.13363180675662523 ]
[ 0.4123552306552081 -0.8667422833907281 -0.2525651793351038 -1.0596527984862343 0.11728483081810509 -0.14627716575316402 -0.5290133765547096 -0.03882713863635512 -0.091629894553845 0.5195919473080607 -0.051656455244394266 0.03344496156913836 -0.6150402234634391 -0.39547681532369533 -0.13633268671663828 -0.3824486892316126 0.05271036751648039 0.036199831982517854 0.5862730684717403 0.25518854944147984 -0.17254627875233755 -0.347765518436165 0.5628095785906405 -0.2520689953129216 -0.29751144042700817 -0.15178993583898476 0.19829546460290415 0.7138596198038205 -0.024867346633648528 0.14034557765647307 0.18311895419580274 -0.16215333145343333 0.2900162479737546 -0.5692281338753463 -0.634145341644542 0.10557353265421435 -0.05983998303375642 -0.21532004619659262 -0.26449793787278886 -0.17448552256659955 ]
[ 0.521305975915823 0.17157514243781866 0.8618838817212696 -0.06621569275332123 -0.1945799291718662 -0.08419150989197721 -0.6322733310560943 -0.7731825570353249 -0.39204847019294276 0.32765674047861537 -0.2714199431776587 -0.2641077733697401 -0.29157167356806346 -0.312181028267011 0.17429657914789218 1.3873151961871033 -0.01810413162962025 -0.5881084914540634 -0.030346229250736583 0.6391724997289941 0.3462391006523691 0.37750480441314876 -0.4228047683095937 -0.2760106108702756 0.2355911096857567 0.23855241034161587 -0.016406349893858068 0.3117963568146545 0.16108394452429792 -0.37573349598826633 -0.06892364339767147 -0.4484062459951229 0.17884033484483833 0.5203887549328057 0.3177272001997265 -0.11060828994161716 0.0916502802373549 0.17256829209771704 0.3481181466673689 -0.1668175771165132 ]
[ -0.11469904595619004 0.3074304823289999 0.8175246743793805 -0.5828666697798376 0.14021161980212626 -0.4301500461648149 0.35375350910611886 -0.45829803979781836 -0.4156490119166749 0.3172178295256564 0.4507150245466093 0.15707980684288259 0.02415110320708199 0.22770385895950165 0.019384216641289673 0.9626091027477839 -0.5243091000134078 -0.14091343530038083 -0.2168452303791731 0.3015121519189807 0.15718991715018005 0.5423422358710149 -0.10595237562894971 -0.6270137549462909 0.3978093774475095 -0.3984424749687053 0.14533456367932185 0.4036661184605863 0.2402078051951269 0.19746191901995516 -0.31088004804485597 -0.29863682012092135 0.3992965402938955 1.0745489110004434 0.1442557775040161 0.10595626811272064 -0.06417247149677996 0.4525620952212392 0.16052989077344001 -0.7049413538495432 ]
[ 0.493653294623149 -0.5878896544904044 0.19577196285108206 -0.5679928108095637 -0.3141234143546631 -0.05087090752322372 0.28704679205132294 -0.9029720202197162 -0.3801775889471664 0.7367009626929701 -0.14381235921413732 -0.32403015096828264 -0.23125038378722063 -0.04309315046107291 0.14378691507152194 -0.18209929233219233 0.23278080281063815 -0.2626315060268972 0.025206666228141036 0.3231723307291735 0.00720666550315535 -0.23918559564826578 0.42997338412887326 -0.2303579469838403 0.015669787822337748 -0.05957293535573835 0.21895168212747446 0.3353746485842144 -0.2953977150687301 -0.0569921627932328 -0.3386256894630472 -0.3812506009724957 0.2951457115262464 0.43285334231543043 -0.6559070175756534 0.18685201781035293 -0.04159473667589642 -0.3487684237317862 0.033809658869295774 0.2124132079476999 ]
[ 0.42180515664114676 0.8954319961862691 0.12060611834726966 0.08530655409605495 0.15451422153550703 -0.35753056533312594 -0.26094277525712783 -0.8265831185697413 -0.33264658395874963 0.42925808408081967 0.35712127823084144 -0.1686958026581033 -0.3683505264254102 -0.158601156000553 0.25209501036726106 0.36279147594240063 -0.3744244492984217 0.027942513342957123 0.44940442910061046 0.8977560495796857 -0.2629540119500437 -0.5555469927040169 -0.8848778000446827 0.07566314160180027 0.22447036143390403 0.3540227466513497 -0.4555488641851026 -0.6520008601388495 -0.3073251483047755 0.11637510678242137 -0.12823927388738177 -0.13125257033925317 0.0013847803219054198 0.1720779498066108 0.7310243627308277 0.3507592528452426 0.2882392812847673 0.830416703499753 -0.2734753694391242 -0.2231895857213892 ]
[ -0.16066056667707143 0.26924134036007225 0.1705598286091615 0.09748730107372716 0.10624257987774612 -0.2999914587391317 0.2419501769370292 0.13216936447396835 -0.016967800743771102 -0.24408774760995794 0.09785811938393649 0.18092308511722022 0.09153327940876937 0.19464720590280424 -0.31825477099216865 0.5789576661191075 -0.553538013024977 -0.15458433644200603 0.041464033892951856 -0.17876662861650974 -0.3655240681331746 0.3247167237857978 -0.14010215031407075 0.07630198375067304 0.24168303832329474 0.16582274862492155 0.37803758720759356 0.5943885460093934 0.21868471094223668 -0.45476003807225224 0.010769051554108974 -0.6429957383967175 0.34589220136919596 0.04030056776084927 0.36201462915379945 -0.4007291401493645 -0.2448622846466845 0.11347727448323729 -0.3602774864446834 -0.197741808908022 ]
[ 0.7784876572522188 0.29867282352089686 1.0429438675822735 -0.7051307103240083 0.2840793530693916 -0.14088118824596144 -0.7236948124888093 -0.051552848658670415 -0.4560687629590886 0.4607723222744044 -0.24640442292974812 0.2971676605968765 -0.44312798944333853 0.6949703438520438 -0.07077125832239897 -0.4772774969550338 -0.06345536636464537 -0.18954368122207252 1.193855436749226 -0.0710098785206389 0.06479331199086973 0.13376346707442976 -0.6534156422876075 -0.01946794258373664 -1.0206923886101749 1.3880237933548 -0.45743372677364924 1.472077896093184 -0.22704227084776907 0.33482353696465056 0.47750562776848515 0.1898857890968378 0.03459160216866975 -0.34868479266589464 0.30689569764441904 0.5720370683383288 -0.12291231309143698 0.1512550494593983 -0.31736617626312136 0.41342404384510434 ]
[ 0.09056668079673795 -0.40660678065467504 -0.2996893574452307 0.2060622469218067 -0.030436667676338014 -0.026961205840306812 0.6253927643279491 0.6527326645245476 0.40938151888044844 0.018543670416044166 0.16627676695603372 -0.25394614747714395 -0.48228559462891274 -0.04086430886506764 -0.22132105349668882 -1.0352360428661889 -0.14083922088328948 0.20678764523976698 0.20200459814115682 -0.2739699349353301 -0.14040988489360734 -0.18988820947786667 0.5006302559674015 0.14709505124662464 -0.13251108192910455 -0.1443493505060605 0.5416824989488982 -0.05194606066495707 0.11891898518303874 -0.06666386412447936 0.08485001829374367 0.07886788958354 0.11495603168504775 -0.39052847278998587 -0.015198352284742062 -0.014103841125149561 0.05501795141967797 -0.2169425775766043 -0.06715601431829693 -0.08647027861292203 ]
[ -0.2584995042341212 -0.043261341115986084 -0.16682811946397053 -0.11997451101880346 -0.2748235207585908 -0.10312433253992208 0.43402514865799663 0.45773160313503897 -0.30588637602880436 0.5755722760656954 0.17702616517010858 0.21147197046071958 -0.3672918544032834 -0.1886166386431171 0.297299051786185 -0.30414641823558486 0.6095827151456912 -0.28285805826694177 0.32740225153363806 0.1953561960470864 0.5378413230704417 -0.3891039430336874 0.4218930107689674 0.3956889654499745 -0.12800777775337302 -0.03871219818008024 0.10792820629765014 0.17403428113032493 0.0821687589794887 -0.3466475277409702 0.2737668771858708 -0.0009800713360597992 0.05358636618696427 -0.20303476072509696 0.35205092986099035 0.4491734678894675 0.23383048858825467 -0.011866150162908795 -0.5631796627209271 0.12446414607292001 ]
[ 0.6984711497544452 -0.35264984532259774 0.4444529118572918 -0.13575168142708585 0.2448101316987069 0.0005642220374367625 0.6103884359820966 -0.037722041610529146 -0.22232994343639023 0.27343745419018006 0.23669079684149083 0.10603914864769036 0.48155970025236583 0.49402393915262577 0.33441014384975903 -0.24595385559066568 0.5631895808800907 0.10781125138237103 0.6741261563376201 0.25359704092383933 -0.10133914824745886 -0.2836621460930153 0.13731450159449068 0.20120576127561987 -0.6156245349915953 0.07527872156622444 -0.3244521714332196 0.2841022799868393 -0.19496843679418863 0.4343143050383291 -0.3305130514282347 0.18780570928725995 -0.26952620865561916 -0.7636508142839603 -0.3972605582405628 0.3008852145757335 -0.2205168558885101 0.15219886328890014 -0.24477239510441082 0.5996708194030329 ]
[ 0.1593366752983917 -0.025361288862138957 -0.15394479161142327 -0.044450847891451546 0.041764365504158595 0.08696648112421977 -0.5409041817318113 0.1572672716038243 0.1118338396432688 -0.27821619517253177 -0.07685984254633293 0.14864653309828457 -0.3138875640272682 0.10226009405673404 0.26098091463392403 -0.20997401964529191 -0.4075538467044721 -0.114149868151682 0.039831884067049336 -0.16718509567979747 -0.5229119632476865 0.31758465957974846 -0.12612334911129133 0.2645334035277545 -0.28827535019716327 -0.29848351472362594 0.09234004612366423 -0.17186336194704568 0.15020699599850043 0.27211821547745585 0.28800063194964953 -0.33857779361333723 0.023231265395899033 -0.3738070664674334 -0.04579571471824362 -0.35040424236290457 -0.08772478331726798 -0.27893910774119823 0.01687652161179975 -0.14766290330494214 ]
[ -0.12858666842008504 0.4512778957218998 0.16386212453456658 -0.16818277033746654 -0.05531990504131967 -0.1912520570022506 0.2281116422594253 -0.3221128489994331 0.27225841531637107 0.20106599606896605 0.5638834065481123 0.11304547403935526 -0.34389880959881874 0.20283667883667603 -0.5029172724507388 0.31566849492423477 -0.23398215895617477 0.29750075527070097 -0.08719382084452215 0.29055458046263155 -0.356975998516448 0.3395679558243531 -0.2301791846506389 -0.2653915178419807 -0.12709962639718406 -0.09410753892010074 0.16102960982918677 0.15471968154362956 -0.0907922842765917 0.03854569087133999 -0.011933931270405228 -0.5611663787196953 0.1795685904828254 -0.05257409194580667 1.0256924006727337 -0.2333949633622165 -0.15553849506325335 0.6069307293652481 -0.16203521719920808 -0.16757369973890465 ]
[ -0.4366922752039471 -0.5367906475783202 0.1777973841023803 0.23499281190651095 -0.15963201550644307 0.6952762770865437 0.03187190686497441 0.09667357457248002 -0.103450636070996 0.6868576884652973 -0.40883186685517925 -0.2444433795266109 -0.3879153435872103 -0.49948116001097825 0.14412973655511888 0.17329922744821194 0.5473114740148763 -0.33626319255602466 -0.11511626862180183 0.05914944934393447 0.14727720236474007 -0.5620126355675614 0.6222422297942944 0.24663384114026693 -0.12993618427697895 0.2830055190091796 0.5050392248899432 -0.5944932596536411 -0.22622901663541056 -0.5932524536903945 0.2769649671486605 0.5798013421114417 -0.2316153140607844 0.577090647987038 -0.858785731622168 0.5708235370205786 -0.06892412908967374 -1.15383789476829 -0.5492947883506702 0.35688978523312787 ]
[ 0.39163226153714953 -0.3921785390359681 0.563835515971737 -0.1526429880660255 -0.09878498890511003 0.27093230930651185 -0.5758371162000216 0.6502388862295696 0.3617728413547068 0.3216358546541291 -0.13019657431399476 0.12699690511118186 -0.4908850653222087 0.32865928983626336 -0.14367870372565492 -0.3583202971252514 0.13691130572634125 -0.26682036453582725 0.5640796957249595 -0.1024125346352224 0.49066038934295064 -0.1007377170516514 0.03676676590325545 -0.2986761150908748 -0.5867800519506725 0.5144813771201204 -0.37052326856694007 0.894694926979283 0.21358611139069505 0.12116648780069737 0.23655830472205006 0.2226953109935959 0.002670684353925402 -0.03175473816772293 -0.23181659804202356 0.17993634895740737 0.2753874430709823 -0.14713926268884206 -0.011045417200093855 0.019045535107938306 ]
[ -0.16887221472575847 -0.23514364853800918 -0.4516213177691053 -0.3122365363091121 -0.0007071269357600159 0.09352031011636801 -0.12140593249798481 -0.2963354674162094 0.03519666853014947 -0.39646863579010017 -0.2519326716178031 0.012009496059405222 -0.2001783808637796 -0.054369746720380925 -0.1175485046578149 -0.5033938957571815 0.19242156902849739 0.11308223493904339 -0.2144736800386621 -0.18004692432897088 -0.3015126807049106 -0.1489600607925452 0.16576436221358334 -0.13199111315836354 0.3654684320864299 -0.10127830673689098 0.3736415154235324 -0.7283383444669926 0.11697929753786238 0.12685841428153752 -0.34601527357814094 0.13200093742294336 -0.017582031313918348 -0.07507950120458352 -0.09101147465887413 -0.25645052420707676 -0.09253501757183527 0.0019318907082970988 0.5113256153381113 -0.18339813051254453 ]
layer 3 Activation
tanh
layer 4 Dense
40 20
[ -0.04862023848818848 -0.5141185873883558 0.25936882601900146 -0.011820966230133206 -0.18561356352770844 0.34066296514889916 0.5602102709562228 -0.4356755137902624 0.21304252915832372 0.371827710851206 -0.4193763917709078 0.28746521320757473 0.3940132295548141 -0.14344358401226953 0.15956959173964225 -0.026115849626843192 0.048921409913918475 -0.007168680788292872 -0.2693802210534461 0.05423781816647245 ]
[ 0.2138431432836795 0.08894313787951606 0.2671886938532373 -0.015987347271499506 -0.23118800453719499 -0.26914696065517313 -0.27534181535545477 -0.5889834347350072 -0.36861052530010546 0.07041308474044676 0.08169399697091549 -0.29229840696320186 -0.011818049812603246 0.07947082242503875 -0.07884337499672853 0.5341677192950136 -0.3158957404669101 0.25863140854147587 -0.04447531126632441 0.22107712695196094 ]
[ 0.4613821012445598 0.037623723225847686 0.1432788593169555 -0.03863937756734078 0.1272749784756234 -0.29260406866871547 0.506969114714411 -0.4262545888984438 0.03676280255922983 0.0213641402757122 -0.2906979216272165 0.077612043155874 -0.1958331732506442 0.5913275384430965 0.20654070114694367 -0.5038182712046866 -0.2498893458490894 0.06235408744808687 -0.1536335562831 0.11132357002811846 ]
[ 0.22793818066907384 0.19871300081492463 0.0880022551334384 -0.06326442819548561 -0.3875366807564108 -0.08047580939928206 -0.33061064950740005 0.04315615733516526 0.158675782650477 -0.0702126244951419 0.20782810052304326 -0.0026017710037191935 -0.19067304083708775 0.32394110399115833 -0.25396029949429066 0.5719159735419881 0.08885251106069555 0.18881449383859705 -0.48286941695693114 -0.249076677253531 ]
[ -0.19125755196708075 -0.2580213123641652 -0.1511855039626272 0.009413036160912927 -0.14583782586865146 -0.08844645708817249 -0.12141143118002311 -0.3345992567697919 -0.17396616208336024 -0.07270023747466753 0.15861086438096 0.09923863678753808 0.035300720566251005 -0.13088491733954807 -0.0700416703817614 0.11513474023758825 0.21350607990420475 -0.11543425737440352 -0.29935458345887606 0.006005492724063733 ]
[ -0.21651228724540317 0.10517245765092931 -0.15247141952562657 0.26347623868829195 -0.25013251050614643 0.47729924618556113 -0.43816793272543675 0.5747478085664772 0.08230062563919953 -0.11451636994065988 0.07241360317342786 0.02149847556700895 -0.1370231850456529 0.1825274006400348 -0.3735680740613023 -0.09714074830171232 -0.07887626830144835 0.2973302152363211 -0.06837230231819896 -0.06268646865651063 ]
[ 0.00018281600867708285 -0.21882588157471833 -0.08470422313828713 -0.061155172340774916 0.1138475519947403 -0.683753801343286 -0.03154582796764414 0.49131609485481925 0.09449288736053094 -0.04464171277391134 0.2439898520131708 -0.0008756885655258086 -0.6373851997981059 -0.1257623731814971 -0.10949095703986532 -0.015454803790540582 0.20828554478270558 0.050907382047879694 0.07196320483262549 -0.6125908419013983 ]
[ -0.01719441726640377 0.46864679928356007 -0.14435385218172994 0.10649627686502508 -0.3002788165397243 0.006121585293039287 -0.10573919439834359 0.3776928345507682 -0.03258594649572402 -0.17683700478834435 0.23731128802123228 -0.4878592197850288 -0.3224274203130055 -0.3632135177313607 -0.6149963228260367 0.3385577542021591 0.022885073804490026 -0.14190027943537104 -0.4342034789761932 0.13046277521094052 ]
[ -0.03082679832104749 0.27944238670340243 -0.07014670788164032 -0.2573369548938833 -0.029351241495999193 0.19043966607611096 -0.07663164460252686 -0.06645614430031313 0.15529716251524384 0.20909828746117323 0.2474754012881512 0.21183004225007918 -0.35943839519582765 -0.24378744182879192 0.01080409876467628 0.1703562782367568 0.19685196149260775 -0.16934852442190618 -0.2668817182152263 -0.008413769862121294 ]
[ -0.014767190620981651 -0.42917830909305665 0.18020941552126188 -0.015815998995025202 -0.21082109649046635 -0.22778362227944599 0.16033305327128822 -0.048469556929601455 0.03496812704570459 0.16992476434496642 -0.0061823622939424 0.00224453003258238 -0.35165088906635134 0.3208089546418328 -0.10193339772720444 0.009312845095067336 0.24180935977390006 -0.29493413388566386 -0.0004633346062031913 -0.3047358287739873 ]
[ -0.105611267032576 0.03420054643522956 0.07268124301507571 -0.10877137440446055 -0.10870645416267737 -0.358381400798044 0.23749485598746348 -0.3711946491435546 0.2011511821616835 0.17117908631391998 0.1322019671105284 0.16359325601990266 0.14946727502941462 -0.47786164060456726 -0.001108597726657989 0.03875194228532545 -0.24605101724937234 -0.23305857382661854 -0.5275442371013768 -0.21723056502972618 ]
[ 0.01266202906515967 0.2503795824893457 0.12281581016864705 -0.1801998593190658 0.02477552056885148 0.02764553806217047 0.22041421644955306 -0.254432743427787 -0.0618588179016143 0.13335958195306014 0.2557549258141662 -0.0034341715077499547 0.09415796343807604 -0.08537409444950245 0.09121287080402272 0.05320236351441867 0.01723810004190217 -0.17566495153853506 0.09736677305264345 0.21406299465631867 ]
[ 0.5259977752896221 -0.0927994425191068 0.3231532457521591 -0.18828485295071548 0.2795400275698228 -0.589133705186277 0.3834895277656957 -0.3441876271229035 0.059561290194113575 0.20531216952981987 0.08346168640604383 -0.2557104798408185 -0.6086252871584696 -0.18577506841972108 -0.23878130885134027 0.5585266616028052 0.040436431379307115 0.0549683900940093 0.09398797850535542 -0.6306600170416731 ]
[ 0.2509205098100849 0.20471460989016288 0.12699622496163335 -0.005003049292315485 0.00731153086694024 -0.11460259436814452 0.38056170467262423 -0.08396187321068435 -0.00010768912640548504 0.18572513749690983 -0.05557791075746189 -0.07815722050252667 -0.10980756000476781 -0.25845004445847053 0.08515356255301033 0.2284082059344174 0.2346307173431086 -0.1853345861293888 -0.02564611229881993 0.1225498322260752 ]
[ 0.2113038432591121 -0.408036805290467 -0.08860959062600342 -0.06312280232883215 -0.20999411432055717 -0.17354445956473236 -0.15389351700560266 -0.34453266783825304 0.002636902222693662 0.03307932469375888 -0.16034592571280912 -0.049922939594946786 -0.20430153905839502 0.33937894900478166 -0.29442653431113175 0.0022856067581005645 -0.30338722058072726 0.28263853355004454 0.09415675339160962 0.05494131517589373 ]
[ 0.8844810887598228 0.18091336375487757 -0.012939178920585416 0.1410383670896129 0.27449763707163116 -0.7830433845841549 -0.5824234679161633 0.4001080623292644 -0.1771871603263026 -0.22101762924254362 0.3444383108324866 0.00961625285729809 0.2638091289605608 -0.3954086125381374 -0.11337454314803837 -0.1557506023517339 0.008758063355646533 -0.6118211452696801 0.20708711220479117 -0.4476988263354095 ]
[ 0.14712143747595796 -0.17136853670825244 0.12643193400836222 0.2796763276008052 0.15204173310960628 0.2820270164810317 -0.21514231617465707 0.27040217332729133 -0.10672497127817601 0.20310186177690545 -0.3583278553171272 -0.025907063078716885 -0.2356656861141559 0.0617156768302786 -0.1931064671011965 0.007437269854666722 -0.302347789020417 0.40055034601403405 0.19671964358257235 0.19105645617531056 ]
[ -0.5213637279122434 -0.12185765678544418 0.014748143738065433 -0.26579142333723055 0.14769478198663602 -0.1410866670634205 0.10966300822596192 -0.04192683180748629 -0.17785452901770965 0.17126447442070392 -0.09496308723031495 -0.08437908267360776 -0.2839945824828382 -0.4897366365340613 0.07530819486684272 0.21287676347131393 0.03852085152998809 -0.07944111850346934 -0.2715399314397177 -0.11954847332962219 ]
[ -0.16666727088178085 -0.36928661792785983 -0.18274406022973763 -0.15525210565687447 0.09663634032269504 0.22707533066771352 0.7392412956136865 0.406785738572784 -0.11604821789053175 0.2912051536896102 0.029862572000215387 0.27084643947711795 0.05774598899468274 0.19305198817142796 -0.16375218536217118 -0.38369773836941945 0.15191280508960361 0.4039108727300392 0.06917195178574162 0.5733872456706769 ]
[ 0.639518255913625 -0.3971861839485709 -0.3006902599408495 0.14869959387131515 -0.21902876554977546 -0.6313140900534602 -0.020349000204787682 -0.015310019563133966 0.29105586126718824 -0.06296458731487525 -0.28372802720795287 -0.03981688890198463 -0.40199265072296264 -0.34459920124776955 0.32068009929317715 -0.2832371807096061 0.15827241050334317 -0.03435634167299302 -0.2631471302120343 -0.5368041284356884 ]
[ 0.12157529328730679 -0.24292993405279303 -0.25356905606294455 0.0573400916594944 -0.11913566597769135 0.10375126475765961 0.4286313309481898 0.07392790322447097 0.05714203316672104 0.06309537400362598 -0.03312631533173288 0.05583073258935367 -0.09578785659395364 0.3690669916390707 0.11779368536875386 -0.16399832191962477 0.29657179502632186 0.3361657485640927 0.10156487540895424 -0.150079935027273 ]
[ 0.8752597826618442 0.3308031582022335 -0.3118638258896434 -0.09530173101273622 -0.16828289583869083 -0.30143520956299 -0.49260164761933894 -0.320964038473582 0.2563898356946183 -0.2893435574677868 0.27408916083639806 -0.08462559067628006 -0.13459090783849012 -0.42533846331548486 0.2665455244149247 -0.0046161705437150445 0.2570382166950504 -0.5800972193174869 0.16170252151890713 -0.5516036712402347 ]
[ -0.2916494641355716 0.2800088284342874 0.0696417787832543 0.3154766970995409 0.11743233873980746 -0.1062221866395907 0.19939204831488652 0.9128731869240376 0.12205495497310939 -0.17528501422413106 -0.12482716919286632 0.16385684728960903 0.34174232002357635 -0.08241190986606896 -0.12280242229356615 -0.5747864030255617 -0.07729001005089953 -0.11739035520443862 0.32885879110731636 -0.1900926698383013 ]
[ -0.06335299719810424 -0.06460203126010784 0.04061589072931695 0.022993265018774176 -0.18109189088658184 -0.005890172251291097 -0.24838027184095507 0.33460857340238676 -0.1629253070965197 0.32638423218320967 -0.12269178320320079 -0.06627224507149886 -0.12554784278406148 -0.08468598383388722 -0.3177679875971497 0.387617031755416 -0.09851339966693998 0.2926051538037145 -0.36889069077889214 0.1855783360685094 ]
[ 0.1593099446859826 0.293722081115561 0.30806817845923534 0.16825222280623553 0.05811244864127114 -0.30330157462662494 -0.5113684802707255 -0.3661921626780478 -0.1653518958935125 -0.15046386078244944 0.37986110758890046 -0.07492755515439267 -0.2242529625449911 0.03444822865843175 0.21936792247685555 0.3298754293977845 0.10407449495593486 0.06247592951780165 -0.09417283722654154 -0.19870206304013108 ]
[ 0.19723381538087606 0.2501550012424036 0.03763813471330101 -0.26409335489817837 -0.0849462896372357 0.6824487695498097 0.44581233242085144 0.23901296765121852 -0.3923622613095871 0.08065897143149915 0.11659264821602135 0.19229433202518878 0.5341045535648908 0.7620481042978159 -0.2520335960379282 -0.3681702205243927 0.1893446729314285 0.38906833499685883 0.5763268026394595 0.8703723408713686 ]
[ -0.1811492521166575 -0.2856208172797074 -0.22388341566302242 0.1141571318413152 -0.048274264552523025 0.25484292759119637 -0.1644198166750858 0.2753149539267623 0.12604190025371392 -0.04688828000806886 0.18698198760698043 -0.2045317701669483 0.5885424815004336 -0.2059519115150488 0.18121530485627635 0.2325105385988969 0.013755072217158864 -0.07241647222921581 0.13794951020806442 0.13015920233826633 ]
[ 0.2985147279071311 0.14941560240214455 -0.04746598827245091 -0.17780158312625657 0.15404504874582323 0.09415345102622416 0.767669186995479 -0.039903925118401906 -0.46898283064569374 0.15573469157660774 0.17091847218039471 0.062384138848956744 -0.41712100473459934 0.7988867388363992 0.26619149032849254 0.10763084293270381 0.08528691044601132 -0.24462617430516792 0.18657013198270947 0.34778804820353953 ]
[ -0.11374344024117183 0.31243145896107843 -0.06558070851171659 -0.05644296107302 0.04208347406712833 0.08381529363393642 -0.139016665698108 0.26261563900798873 0.12300973674972306 -0.17955987709341587 0.2779476425909598 -0.12541326853627707 0.20359328887905281 0.1083616605560385 0.08259889209449688 -0.28315342529065707 0.15645379682693974 0.06838906333115796 -0.22207226133084054 0.0022398647437224476 ]
[ -0.3709657823579147 -0.35148313773105533 -0.013072849797791605 -0.09032744778564784 -0.23576751704643786 0.022754166386180604 0.566283915427086 -0.3171902502326831 -0.0875696368621382 0.3732096976750882 -0.2807964479308757 0.34542347297492426 0.13858011574553547 -0.31703081004812356 -0.03243302411017003 -0.09266366794531258 -0.07793004898210333 0.3139496967434802 -0.2529238504212057 0.1786758869062311 ]
[ -0.34267340865195717 0.3088560026703634 0.19193106883805142 0.11568646873254367 -0.30299766412907675 -0.06770398322480917 0.11557082288008377 0.5336460672730734 0.11248061756635787 -0.011220983657817776 0.0861534660776958 0.08203285495301389 -0.13157290956728743 0.08654473302018387 -0.029109625146045915 0.2814899014939235 0.1763562586258734 -0.2791455070168963 0.15187863471420082 0.20365344439002817 ]
[ -0.4957900113892379 0.36462343186547974 0.009420632795741223 -0.05889062773856572 -0.2463157828926848 0.29500462454923515 -0.0502894975504927 0.22884880561415005 -0.03822611997974911 0.3265674227248077 -0.1398589880159379 0.025893532718346282 -0.012722949749056748 0.21804429130569622 -0.38526397143820645 -0.18910026890642134 -0.38370108072555126 0.1827307872287306 0.08877780892052005 0.2257633625212147 ]
[ 0.3280982350381287 0.3844370681132825 -0.11165361342035149 -0.015937783590022552 0.17724009947878255 -0.08278293544115309 0.2087320553429301 0.02797810587424255 0.2885124646491952 0.0959316322361344 0.16669455923057994 -0.08257445279283865 -0.11333927512226889 0.08795829264919806 0.26737455567806945 -0.034914721826916364 -0.00462094445217407 -0.2609864066020614 0.47714407363034317 -0.11050536433137666 ]
[ 0.18575043051191525 0.14704531966957726 -0.04529977160641835 -0.00015617343071226808 -0.08040008122317979 -0.17876577473564945 -0.22500267721804712 -0.21438353826378806 -0.006711612058587773 -0.2674467718155901 -0.24030628148164634 0.15511671798583374 0.3315284773872694 0.6415878468375615 0.15101446711986877 -0.17294754226617545 0.026016970079435313 -0.14364290354507586 -0.04224875985113033 0.14254835254944306 ]
[ -0.10353429092701809 -0.5160045114275752 -0.009984954338000476 -0.07294378970022512 -0.021593118859917097 -0.26352493994931403 -0.1922050243642042 -0.25241326719981344 0.031212546123310248 0.001726079551145324 0.21514360574816635 -0.16197429126607865 0.14928815152491287 -0.10844507760081773 0.016943970206415884 0.37622523627669197 0.3126150630283235 -0.29839642169825664 -0.024530596395983203 0.5278251659833517 ]
[ 0.1656859330417034 -0.17815407765944502 0.060577836337104264 -0.19841311653486393 -0.154986752018823 -0.0747009225307011 0.40349375047795066 0.4720990215661502 -0.20286164503960752 -0.12245941253636244 -0.12461420733149496 0.07429759388868294 -0.22356855773612286 0.1244128739784598 -0.06517497089991656 -0.20235607161636832 0.3027193698502564 0.26234204623346313 0.27199408646477635 -0.05745913708683965 ]
[ -0.045542840581337195 -0.212257255069886 0.04268007763612894 0.004965938430010572 -0.05191379859247855 0.06849935489209061 -0.017901441480319892 0.01798737576394464 -0.19508485307134424 -0.03789324280135998 -0.13620840216892147 -0.11817162317523298 -0.17278846695835026 0.02623383139168141 -0.05736696075898183 -0.18354854024671238 0.27319855655868597 0.09419851214612322 0.1710202090760609 0.1579876606666855 ]
[ 0.34440531203792907 -0.0205899075210475 -0.13074376304610616 -0.13109367765927626 0.0981248042947904 -0.3660403933509912 0.5968495317709864 -0.7797236550930544 -0.15712080667795988 -0.10167789235898765 0.41167355957945195 0.0014721382564645332 0.2623455446610327 -0.3111985390816339 -0.02241482367839064 0.08383131990519017 0.17538631713816225 0.10430064618420565 0.20124866318390278 0.05725325708487772 ]
[ 0.10431946287838155 0.01871551070407855 0.07284160726974052 0.11122223910973619 0.007930482799925278 0.2274722304106815 -0.133208164592182 -0.11049443288565583 -0.023484538210281496 -0.13406568892935172 0.17709634800557236 0.007561175240984352 0.43901583120803106 0.0970555146319328 0.1542858214576586 -0.381028154718798 0.15450551853567102 -0.1184839135759505 -0.021113604173940103 0.025070150586572092 ]
[ 0.09852459019441157 -0.048463115264966335 -0.22559984690758667 -0.21819214829146444 0.06349232615710339 0.09550141563735169 0.15289463847976542 0.38055113697305504 0.30857458115012304 0.19174044079297706 -0.10751646252224858 0.037606699621380225 -0.1666009914440036 -0.17464256574886045 -0.15847223894084728 0.24484113612341235 -0.2944301796391571 0.17721909019955484 0.11086965339978751 0.05332526070426025 ]
[ -0.23112732289546853 0.04202402756675915 -0.03653399102821756 0.004700682506925618 0.04628088089195369 0.4000573476934173 -0.1329646956321508 0.20816913451527055 0.005726624497688328 -0.029501078453573727 0.10231274436503666 0.08185956838785982 0.48279118143908745 -0.2142753850739924 -0.026232131355349977 -0.1592034930511778 0.01799705038426147 0.11062038079330011 -0.19313269868830382 -0.1030964781992592 ]
layer 5 Activation
tanh
layer 6 Dense
20 1
[ -0.05521868867269691 ]
[ -0.013437471953798125 ]
[ -0.0034972245967431087 ]
[ 0.003093406829141559 ]
[ 0.013420621019968325 ]
[ 0.10481436341445942 ]
[ 0.09010707869319892 ]
[ -0.0311003891471609 ]
[ 0.02375125120456372 ]
[ 0.009455344441211816 ]
[ -0.003230440188417947 ]
[ 0.01403249303395614 ]
[ 0.1464809498884336 ]
[ 0.04013895207296794 ]
[ -0.007279643671584985 ]
[ 0.04804974408772277 ]
[ -0.0006931566538518357 ]
[ 0.011398298446809025 ]
[ 0.0200772379893868 ]
[ 0.1116389371612147 ]
[ 0.047002211991884035 ]
