layers 7
layer 0 Dense
20 20
[ -0.3069939125335864 1.0870103804421178 0.6878411582762307 -0.005983910908699848 0.6245220037841357 0.2921727594000336 0.21224801118674297 0.13082337911316028 -0.48623208160619236 0.2647165533469724 1.1357872413292955 1.2977336671965831 -0.4155565072980643 -0.32992177879241696 0.06306779170102694 -0.08155140670801979 -0.26875474628858315 0.060613530485435205 -0.29425107245031307 0.6983204818617913 ]
[ 0.2483462013328878 0.18520783600815358 -0.3044699683933066 -0.2621464742894717 -0.15710487678963084 0.3833369927667114 0.03435066160858525 -0.3151033902124488 0.12125325682079989 0.11157762693089684 -0.11008737675793923 -0.10991033118174413 -0.22540847683496193 -0.1198241485228205 -0.2799047318460169 -0.363248136624175 -0.32533010125392164 0.18989380361235622 -0.3740636713505878 -0.28665296274789825 ]
[ 0.2309853898862608 -0.13315702809636132 0.09575716554928028 -0.047611862105211226 -0.3220464230829825 0.23125347774423796 0.08392304623029871 -0.3650248252523792 -0.08394835059042127 -0.30262921347373456 0.22625722598175588 0.0756904919305607 0.13489004795326973 0.2158289117292649 0.20186853538340108 0.22637229514890544 -0.004440221902088845 0.0261864032463217 0.07358007478419326 -0.36457700110142505 ]
[ -0.4977822247782977 0.4780536592690234 0.11054964515739028 -0.18349229907604925 0.359885520153987 0.09584102282940471 0.28784037616993235 0.07002725526984885 0.08833138860461315 -0.3104924548293221 0.6531949179097171 0.3930987614930199 0.029933104415674483 -0.0821929543765537 -0.03641268697562438 0.24084105538145767 -0.2827143613745784 -0.494266365186961 0.15285457715799328 0.5999135380951596 ]
[ -0.2772297302212809 0.2560656321084441 0.26552322442928006 0.3753394477369772 -0.042184008008347686 0.6620079134492088 0.4634054434337183 0.10474198689484186 -0.8936340422673857 -0.1548031647828125 -0.0938580468513275 0.010219126231154405 0.39573105567874717 -0.5020059116173494 -0.4898313302927354 0.05005319061866905 0.4892346448990747 -0.09103984132042964 -0.49690016184089464 -0.22955043104299477 ]
[ -0.09270665568758803 -0.04300466507253819 -0.3474597859858152 0.1523104577240813 -0.2893318884041761 0.2610588118444992 -0.0713999227789897 -0.14237517805984987 0.1578098236020168 0.14234929836722235 0.07746055386390865 0.2947050652157164 0.11868315578991796 0.03242161399183694 -0.2872647893655494 0.25194883666165635 0.20175943000204008 0.13223185854375044 0.18191400081501088 -0.353515780308695 ]
[ -0.37360725985001403 -0.19646227524044313 0.20822154032530976 -0.2918067233009723 0.18968343810677407 -0.18860554650675382 0.10721166346679893 0.05989908027678886 0.28637940231572756 -0.012877509479291102 0.3220836157460046 0.3147651817921517 0.22670302923717298 -0.04407614456973095 0.19614859537755522 -0.2998228441879676 -0.2974340392101127 -0.04159070301368311 0.2144778646456439 -0.2044960132183355 ]
[ 0.8835408696861942 -0.7393587074694526 -0.1135089167245039 0.4333059156255193 -0.07504643555894057 -0.7208558936737459 0.26925616115774215 0.29747686882361746 1.0073474814730292 -0.39677118374082193 0.19658664419598199 -0.716821546566229 -0.18180677718495317 -0.14227968073167827 0.5147874540304854 0.3397718932199069 0.2527530509598215 0.7850844482765926 -0.2930947726322324 -0.8567779424227941 ]
[ -0.14424550146756956 0.865166533612384 0.3580896441368624 0.22151385764378728 0.5781846738045686 -0.9039310795819966 -0.2448679637955901 -0.6974865747370834 -0.44423968562005106 0.4340928112784171 0.13086598759428386 0.19892589653074932 -0.5764384742014949 -0.2705068057262111 0.5143953956870155 0.3092365260844453 0.09848093889475278 -0.029091529104999878 0.07271360157607812 0.254027474072373 ]
[ -0.8786919934078177 -0.4372699039711906 -1.665652953000283 -1.1417592225437063 0.13870950617734157 -0.5975650425249297 0.7106187923675326 0.24951780867364715 0.3234024584903624 2.2162825969215185 -1.3154910648726448 0.2936792278557194 0.10403140284600376 1.0823522774596155 -0.1447953183256994 -1.1998935174757426 0.7127405096030172 -0.8111928837389665 -0.5890221648017407 -0.19090534869612147 ]
[ 0.17758537556989737 0.15140953645466285 0.6406497093216393 -0.28871068140845807 -0.7878152290730537 -0.10125944138157245 -0.18178642439009826 -0.47955158462005676 1.3623204042744328 1.013108209822787 -0.2988324864451415 -0.494483712609114 -0.9327447781858696 0.14461025466729877 -0.32802320277458025 1.421624598698044 0.692713210196517 1.3858288301856483 0.9307443840061238 -0.36091949550156566 ]
[ -0.17672188304482836 1.5256081747491959 1.099005966964378 -0.4118760066906828 0.12986620934192536 -2.309454558228621 -0.20362493620697333 -2.567898109026187 -0.04577141208656338 -0.8528509740583825 0.6394834989686501 1.507936771669801 -0.012257804677458442 -0.7275646253389763 -0.40004083305723886 -0.08636950241360614 0.9485613999567915 -0.7610059844903116 -0.14809298518750244 1.4402061776754649 ]
[ 0.3239378349017541 -1.4909901004124333 1.0061388248101275 -0.1491377832902515 -0.5290203560942592 1.541435907434851 1.6906938391650772 0.372796859547122 0.2809289211896813 0.298179750326199 1.0793331397113044 0.6367172451730376 0.4695701607469493 1.379249693121512 -1.248532506412293 0.552880805429556 -0.8160470834054883 -0.43247918977843613 0.920414633480371 -1.1099849863057025 ]
[ -0.0820331241505594 -0.0660182498846405 0.49152009701372273 -0.16349164144743525 0.3043921233614267 0.12746224808140952 0.04188675668875048 0.19370203224253557 0.3100807549591844 -0.9998224798566375 -0.04954816206986964 0.18925952000161797 0.022839227081161595 0.3989416728652289 0.40191807666017587 0.5350871659786852 0.21588221106220337 0.24598304675696836 -0.15740020402683752 -0.15088604693920704 ]
[ -0.4204691660537426 0.06013589348182282 0.20338293816166197 -0.16481872687006616 -0.3297167910293426 -0.11581968397708525 -0.29846401769564906 -0.1812274065520604 -0.40048689607645427 -0.24567744399911143 0.07256753653097002 0.25961843828470205 -0.6171711109884247 0.15201080313178694 0.27781805405630877 -0.37278688056885756 0.1676285465616353 0.01238973423225874 0.2575915592735089 0.006411638053035501 ]
[ -0.006234141667893483 -0.7630470256760122 0.9048202022650962 0.5606978853974931 -1.1682332152355204 1.1149490032777791 -0.34845705014098116 0.14762957602240417 1.1446422148899733 0.11307405956515654 -0.5378378857400513 -0.8186963242967352 0.8708020113718127 -1.2276380968511995 1.3937131216041463 0.23717097321790423 1.3556097118236619 0.7303482387750531 -1.2833308113920916 -1.055412461490392 ]
[ 0.18721404590352472 0.18769617157875365 0.1569855602853393 0.37584490691071654 0.40251171993691104 0.7034542877075316 -0.6179832225272048 0.4542019982234357 -0.15939217835988664 0.23823286637572863 0.2350134573926214 -0.41790967679703317 0.14860697744240897 -1.0628571386111638 0.5814061356622303 -0.43855353592909685 0.8777904664915621 0.6050568242530622 -0.9035601628510405 0.3528919228322942 ]
[ 1.5640260950396145 -0.14659658538560885 1.1286712441026434 1.7364808186183625 -0.8050478486540007 0.2508936227545658 -0.553307605630613 -0.2968565443795632 -0.2927933606328438 -0.8479942264396287 1.236854098852262 0.3119098002890761 0.22893222887739187 -1.4209475893003451 0.4828536535625207 -0.15781454555799465 -1.9008361481804854 0.30806424556139445 0.9561852733791295 -0.09748679645710136 ]
[ 0.733524289408903 0.083729911284121 -0.1780362822259502 0.13662738482190762 0.7037303524666932 0.6145998004494866 0.7595378203318974 0.5006867481905214 -1.1309073805512526 -0.22482545060254516 0.23964992192927215 0.39124941275800357 2.562803538841126 -0.2033179974122772 0.5783232939191796 -0.5908856254983493 -1.1875892321944703 -0.6544353290076704 -1.2921939157221665 -0.2163472319377883 ]
[ 0.5080335519023361 0.2541572228087731 -0.4806697624610688 -0.07314990584529016 1.0954892154728249 -0.3473913430907642 0.7663355965060052 1.9891182162741947 0.5813640974808467 0.5554595257017485 0.4918252545250545 0.4502975386493394 -2.0662597096148025 2.07787181520975 0.18482487172097456 0.6603207737588455 -2.925422233163032 0.10392411795527676 1.7808453407525466 0.2287333705024932 ]
[ -0.27598271540960556 0.17617331610551792 -0.11645871086681449 -0.047167711592908584 0.01790259869031298 0.05513986480846265 -0.0997952069227362 -0.05991602349980423 -0.20407067582716668 -0.07183422286420152 0.01324992287527972 0.2802863960365916 -0.027111915724227224 0.13510867836229812 -0.14143449754227166 -0.14374563603548707 -0.13376180206330568 -0.37143611499104123 0.14012306798108376 0.320093715856844 ]
layer 1 Activation
tanh
layer 2 Dense
20 40
[ 0.047050571343695086 -0.053098171418012714 0.04672081707613321 0.5554040795677693 -0.20006792929114203 -0.1370629318038484 -0.030088416591627986 -0.1636586949837347 -0.07141276465228018 -0.20588096573446435 0.49013185491903816 0.036276753823173566 0.16349513527684525 0.1602520557881168 0.07542834384323746 0.3827845650029327 0.057702932548112984 0.00913584843519767 0.37691916673612386 -0.19793098415958113 0.14432143003416498 0.2462424248364957 -0.09288200450645076 -0.19034350455526994 -0.30304052733253317 -0.19295150640245243 -0.4875801495485546 -0.38338515278716395 0.16335408571170015 -0.25191838409462236 0.3040254201068702 0.45722039392743075 0.29645827616851045 0.1490048143239212 0.5334112227165636 -0.3102015926099173 0.14347941170726367 -0.8162893597501115 -0.2972999258196199 -0.3616539514090264 ]
[ -0.007693243125474772 -0.03043898197927058 -1.3092857589191744 0.5300388718545904 0.6443355262546434 -0.1564777545685781 0.6066292841865217 -0.36009638705573577 -0.251893142448254 0.2039767986776941 -0.24405041349641396 0.3182452932164932 0.6739032289450968 0.12306569843513929 0.023030107873215282 -0.014106904880886178 -0.955424871756717 0.022903966772354137 -0.50664977676169 -0.10076173911862961 -0.30353050430246725 -0.03993209219158748 -0.15880902511044395 -0.34164230610495033 -0.18522783049409117 -0.10380687436980666 -0.16121206846961397 -0.010918519106933823 0.222494746171953 0.19344209652724056 0.05592084377233647 -1.3987303982617947 -0.25901581485869224 -0.3529591857379224 0.8427261054901656 -0.21211538105521416 0.7741871171339803 -0.41023986962842157 -0.5948666367335875 -0.11729049941061032 ]
[ -0.14237466572966967 0.31639386209391723 -0.09377816430535237 0.2936911096650514 -0.11243463266802843 0.13352478628072026 0.16386296320714286 0.03987850904356437 0.25653767837385966 -0.028142219161496607 0.6372480910453235 0.31231763843467064 0.4996308472145273 0.20953612395784407 -0.19538408485596284 -0.2706280710709009 0.21022761685528882 0.44586995030629906 0.3493430930285187 -0.5390856734028112 0.232550617250982 0.031274048018953664 0.34673381093140204 0.0639610425370537 0.21145986615269813 0.18338018607918236 0.2399271114961863 -0.13571186747071506 -0.30355738432030105 -0.4684583931631835 0.2459687254731974 0.09864463403723787 -0.4783803973543567 -0.11764621811926843 0.1199091754609792 0.34222314916655105 1.3822110028358814 -0.716716207660931 -0.7892703993775916 -0.8318321044168159 ]
[ -0.09520410470096992 0.005428414649743291 0.08499722499711382 -0.031233135969931262 -0.12089759844727162 -0.1613735705513388 -0.3255745553195517 -0.26505156275299885 0.08927213279091331 -0.36936988715741315 0.5320355440412649 0.06870632382170314 0.1975763613814224 -0.05285379613499107 0.2806991558557744 -0.04397401453911144 0.32586841318097076 0.14161260411940096 0.1573961616677071 0.21044494740187816 0.013513521438126409 -0.16589091796106636 0.029101620188931067 -0.6483971657527545 0.3234631192035094 -0.06452243362648885 -0.7844352240364844 0.12241443411753888 -0.25618777848529767 0.016333243708355757 -0.1741218773633968 0.28860446656835503 0.19559825309612586 -0.28189493202206095 0.6064473778782109 0.16056039066077513 0.5841753383203999 -0.7611921533909144 -0.16442794726349316 -0.25912592675438473 ]
[ 0.020151239363385004 -0.000757438610653756 -0.5639633931457047 -0.20019337188862352 0.4743372553147936 -0.5257800275925452 -0.11286859001863027 -0.021533717327929486 0.2550822262625431 0.1321015220984073 -0.5907228709204606 -0.38612658686527523 0.38189203661538645 -0.007913371409057826 -0.4650842517188997 -0.3637073730711831 -0.14035131497430414 -0.5408367204064851 -1.1356556484020308 0.4268778773593768 -0.03549223136367158 -0.018972150092730025 -0.4582535063530155 0.1861630887730094 0.17865480690083857 0.03799397963166273 0.11885354277926853 -0.49610408648334076 0.009582541979813026 0.2642165077830025 -0.06614390798389498 -0.19623946841221024 -0.2975294085153751 0.36669782822946984 0.14291885989247985 0.11023496055246078 0.260890530152224 -0.15412038273603412 0.42999563567815924 -0.12211572200411376 ]
[ 0.07023988951922537 -0.2341298008115034 0.6736732181059802 0.40306614488854997 -0.4700140995959628 -0.1695002835619757 -0.8297040989200664 -0.10250346635998987 0.7837417145094268 -0.14704322789964824 -0.06103579942862061 -0.19061616813940216 0.2772452616011135 -0.37036743808224926 -0.051379693213239735 0.1450838105721795 0.583019492458358 0.09178256187420487 -0.2156566379620475 0.6261477873441001 -0.25861219529521023 -0.08026773047415538 0.48673123632033743 0.1766252287192848 0.09257571153097725 0.24002791076052063 0.025686838962615796 0.09734066137167181 -0.012067398114922748 -0.7686591131059517 0.1054033181403977 0.7010827947842927 -0.20367108030779538 0.4210046743623237 -0.19399075955327913 -0.11855390654093835 0.6360952796096209 -0.42889666281385735 -0.251847329429062 -0.0718722324613219 ]
[ 0.41348138691965947 -0.45976883205015 0.05524783657959969 -0.4320059698292225 0.5467062083767273 0.17550617095914212 -0.235416312841918 -0.651706975937849 0.4848974408851615 0.34808229686943554 -0.8517111358113675 -0.572082157477055 0.16257437040736386 -0.2847218301682452 0.00973086116445468 -0.10396600672031042 -0.3256837975178174 -0.30834970672964984 -0.2026823202934118 -0.006285910563506137 -0.2536108101635962 0.27281215141708504 -0.4533981685986004 0.1768465353743682 0.5958639199398856 -0.047924196348475286 0.409628194377257 0.19538046566568795 -0.20129647330182177 0.05613336978811659 0.02331128004330411 0.4618632317282995 -0.14152331786093214 0.16557179616360415 -0.46245511783983057 0.02016509511668855 0.3995922351261556 -0.12596817424098383 0.2892611300834635 -0.47046574603757263 ]
[ 0.3984820219924715 -0.3380478910378078 0.1361465606749105 0.13422304226558301 0.13457600609465856 -0.23542802456079137 -0.796728609121827 0.4419706515923489 0.2583760459009816 0.7776020505718196 -0.019725138371597135 0.24887403027134553 0.5727892380247807 0.21456184897545372 0.1298637147134901 0.5568211227698989 0.23266688519668813 0.02751135281196178 -0.9704272070226543 0.344661608207361 -0.4097705236858671 0.1285590490126259 0.16359274569326235 -0.5907188683449897 0.017026874755477112 0.11309295172666875 0.3068587646765209 0.003912616879885082 0.13715595214784834 0.0400083719745274 0.12433950284599897 0.5496217671502266 0.5637686381638359 0.2994959146847564 -0.21250066734005374 -0.16996590613907583 -0.07636182681381623 -0.7217410195894814 0.36934472510761807 -0.4096122539064477 ]
[ -0.11791522033466353 0.5442532260540739 0.24088913004589046 0.24856056523202932 -0.7442867192259324 1.0070948603500969 0.3040581716644628 -0.30679065699653146 -0.6961865559627514 -0.2952475097767339 0.6277709021308725 -0.030534531548573187 -1.1550387145534549 -0.43309834113587475 0.021434610295062478 -0.1755344714521011 0.10649410643337401 0.3467652053557918 0.10940377511526578 -0.09945394693157565 0.8804606539650194 0.09484918817905927 0.3925059615549673 -0.4591623483190736 0.08252794112282266 0.09160995341810096 0.5596483342873584 -1.0764042719399374 0.016046525702561383 -0.1230836108492912 -0.13107947557287009 0.7414680643999881 -0.6777751246536405 -0.8697654920988457 0.8602008555599335 -0.0524017732187877 -0.740649835002147 0.7279080006397929 0.5064796021766446 -0.1462611582688077 ]
[ 0.7122526317734622 0.025886417657536437 -0.15502587910519894 0.26485419704897034 0.7101711330518709 1.0913049801366923 -0.03410119912809364 -0.5800753340936049 0.1320478567706626 0.33838584621199136 0.11442650174526843 -0.6091348741499357 0.4302977671781342 -0.6378828927668749 -0.15510707792928108 0.3521541633139832 -0.22076577456850263 -0.16044945056165708 -0.4911104017334915 -0.3042736089755953 -0.32192112409326884 0.06118865869287573 -0.1866760347798297 -0.7831381743802174 0.46660280007896665 -0.206701522278187 0.24911289912224285 -0.16838683510381797 -0.23217523485943858 0.25853163785611966 -0.4446736289022371 -0.3790005717673952 0.8453912940975338 -0.23809042514164697 0.083930703133615 0.4148063967993488 0.2464406251455293 0.12770552835613325 1.353896404754791 -0.041656454279636025 ]
[ 0.24770749001149056 -0.12053899903853225 -0.09362405121776522 0.04765152488751246 0.5948973968345717 0.10069363789346875 -0.22295960135680024 -0.07975622694539694 0.46609301363669603 0.04860876680826257 -0.1280151868940258 0.2688509965771667 0.03663950313008441 -0.0317882096066847 0.18982978645908063 -0.13352121961190308 -0.2642949009017024 0.42916672811400525 0.29542124868516273 -0.2521129219444255 -0.23694170778808313 0.013491922462287208 0.308067307332649 0.0016144667978973295 0.04930645670013053 -0.018751919795857882 -0.27420509058860143 -0.3555906773026473 0.05114800670558439 -0.09958616743036446 -0.145439617903833 0.1353833768920607 -0.44292269910813853 -0.4230454431725661 0.13729787495824633 0.13466218659918347 0.46765737458776335 -0.2623304330069519 -0.20631124388937547 -0.49059651619441585 ]
[ 0.20897894799047675 -0.08803864441907994 -0.4130146587634657 -0.1978091321850442 0.6693295017956931 -0.7939839301429946 -0.2584998362555759 -0.21544089946520148 0.17610671414322462 0.20524056534292243 -0.07249997263751999 0.022723909074831388 0.6248780635094953 0.21477251996593544 0.12210660333707375 -0.26458143913064963 -0.5384785367704464 -0.3863822536256121 0.34538998915446006 0.1293421043741199 -0.2646639613069975 -0.14451647191446954 0.20139836644807785 0.5528634080011811 -0.015087777481433147 -0.016496284030826973 -0.4044335378987546 0.17114752763773006 -0.13263946300795781 -0.1823251642339365 -0.13787118928157271 -0.04969665982050759 -0.3306947546071715 0.14334734719999587 0.17330102315713594 -0.10177878697198019 0.3429266491429693 0.4817506381693343 -0.66322279207723 0.22981567777789094 ]
[ 0.37126864818387406 -0.0038486913347754626 0.5397517717227037 0.07026005679287801 0.2697209451517723 -0.9042667317426187 -0.9102278108382262 -0.04306186221490875 -0.07493151423090079 -0.21783556843261898 -0.23315969834716116 0.49261306023648227 0.7378476179001047 -0.1339324160822269 0.5711890431322071 -0.24528455391909293 0.09407550474054767 -1.028756415321743 0.44766922805245396 0.610408134719946 0.026994556994122225 0.10299789177609418 -0.5944664208489678 1.386609012815593 0.20400917209350639 -0.2623567293020713 -0.9455651000262733 0.8873233698857486 -0.04186720449648992 -0.49198420903738604 -0.2750283680181849 0.3969023310450007 -0.667102446280002 0.6326901617137981 -0.03368040095718656 0.18809224841328667 0.46440166969845537 0.5064918439314513 -0.33830485985606934 0.27008372111619783 ]
[ 0.7012606022011335 -0.2021744105782891 -0.28121615244201537 0.041496735834926655 0.724809718729849 -0.12580199261667563 0.829215996997102 0.028194627566261954 0.5352527343739091 1.4242678551462469 -0.5689760178581601 -2.0196653704329703 -0.15253689408030552 0.1654651183788869 -0.35437634304006 0.3199195096883788 -0.16916150054369047 0.09729803284949065 -1.226279065370161 -0.14018849927209986 -0.6434647020808028 0.03146133360947603 0.3673205012024017 0.4335673548558026 0.23087688046123375 -0.15449132079977787 2.010899427675603 -0.6712974680525585 -0.0921778622149778 1.0262828230955838 -0.2555365180388538 0.46666343716505154 1.0833089023912323 0.08667596998448825 -1.0231869286844149 -0.3398788801069128 -1.0147198003986948 0.8230805996118136 0.8174884928058113 -0.05087353966905203 ]
[ -0.06885149067452047 0.012950086747321468 -0.0601045980051293 0.16713010020068733 -0.14995339341452646 -0.6981597521269336 -0.3479875750074372 0.8557616053648913 0.24604067288245707 -0.11659532154917106 0.07207188480077166 0.4904799471734611 -0.04795766039824363 0.3217395406768642 -0.10646550957003365 -0.38187412761512457 0.39191582124576 0.6077154999063613 -0.0841941656867177 0.31147382792040934 0.031757808496395194 0.006193693713571176 -1.117946880867852 -0.23058380153480829 -0.2827224981940846 0.08863718001210556 -0.002591392590703826 -0.32688135255913275 -0.22095770399181933 -0.2837108166727222 0.0369180703451588 -0.5372039302765862 -0.1967927730124951 0.30585932282381284 0.10091441436746366 -0.09323506790096552 -0.09538022892883741 0.1672165142236672 0.21695926077706523 -0.65194064361017 ]
[ 0.02152103416608959 -0.2677003159204953 0.15347207998597479 0.1161866402315001 -0.47302584041499435 0.732466523714848 0.7794831754713025 -0.3755124233587192 -0.2765052085445622 -0.24939605549404045 1.643545498587093 0.045679511903713055 -0.3057891133062213 -0.03847094597795835 0.4593590695303234 0.5424206461873464 -0.4448718890589489 0.6268122372142368 -0.4239665505054074 -0.6650113559854194 0.27468026289728265 -0.01168083842060242 0.924467053690497 -0.37754168950310735 -0.1880066868515916 -0.08019815434602093 0.038080865287842824 -0.398770474329872 0.024701605267137744 0.06772451837848946 0.20584019471114953 0.07009606524338972 -0.22953098887853554 -0.06024962509691726 0.9127710621899734 0.07363698043065323 0.7074317326923517 0.012868981825490032 0.3041898095116909 -0.1652853953853418 ]
[ -0.2059236346773182 0.3113014254875055 0.04039110056177108 0.08001954655195893 -0.08512105789173635 1.0049241282949397 -0.863097659751774 -0.2460465157464846 -0.4976575941868274 -0.7503344610248645 1.187795238385121 1.3979838152813706 0.5357053252253244 0.11165500024575695 0.40639207931222565 -0.14472959501149552 -0.31807418595857895 0.7412524840115458 -0.9919974153304382 0.2566563268082359 0.7012673581183986 0.09095024431616147 -1.3287791839940948 -0.5704778990526734 -0.2938326858116621 -0.10809326347335832 -0.5065445023020583 0.39261865594602624 0.3067017594196104 -0.35385159274174594 -0.04095009954127759 -0.15801819232279785 -0.3137655667388322 -0.09589353670253031 -0.7075339137423797 -0.10329485638959164 0.7708449543792896 0.10678679439041577 0.9427543309064641 0.15582161252124913 ]
[ 0.025510514663129927 -0.12468903331326679 0.022910751247284977 0.6355862638731158 -0.2903670320967633 0.5132067800626144 0.7934113989313617 -0.09855193328933265 -0.21790615265715935 -0.5100150621327281 0.6058910464494968 0.35416962431384924 -0.38270173549974 -0.07381884799459386 -0.0287419444546783 -0.2261339922812116 0.3020435118550394 0.31620558248690633 -0.4845390226227144 -0.12951214506195477 0.26143701778531037 0.13469392813303002 0.21199825029075905 -0.905391190992805 0.06247796382303674 -0.15418828759094663 -0.08186294618879775 -0.4012433327216238 -0.42403675457044215 0.12455203138256853 -0.19890549124574505 -0.1107762561050844 -0.19706265526760708 -0.377072625301495 0.4773104058214649 -0.05965790621714349 0.15939337521585578 -0.45545206868912996 -0.2690011834058562 -0.5690729629179198 ]
[ 0.22565536979319786 -0.3032069503453501 -0.2981442914790578 0.407804522076768 0.12591036486245205 -0.021117199176515566 0.9878263397592701 -0.0949505967567419 -0.2832453684311226 0.2635357062345627 0.8934822500655146 -0.8322486223818497 -0.810536540127061 0.251272018893885 -0.11091869098127285 0.14242509390820055 -0.27686732929289215 0.44390216349612127 0.5327758654939685 -0.3471159088311178 0.333511368123754 0.0365125427279364 1.4672299912700264 -0.913612398597043 0.05628976736730539 0.12193194019116732 0.06696049165575635 0.13118929577420638 0.1134264522230304 0.6094211029841431 0.07580210951008302 0.24054562119705425 0.4773488970852687 -0.1991969803247642 0.15655804691948297 0.1628880141011584 -0.2518958457611996 -0.49713125599406727 -0.798880950729852 -0.25236740687049797 ]
[ 0.06021299779732012 -0.08317633316310939 -0.8174284617183796 0.4227775734424763 -0.3799473661089368 -0.2801156193992731 0.49749901090176957 -0.046698218662246375 0.16891575066993636 0.10776907762250411 -0.22989964910769814 0.09458457418653858 -0.28673400659434367 -0.256952407996193 -0.26271272853145233 0.164218254167944 -0.10753429293698652 -0.1016976625041628 0.004965768998085943 0.09352311309617739 -0.18244230213148474 -0.03890820090968094 0.1426587518612376 0.16699377340516983 -0.0024822328752747555 -0.2949575457498028 0.2583246192024288 0.31069549520100653 -0.11606309931374667 -0.096130217016012 -0.10531215640908896 -0.7319423300491883 0.34633511270932965 0.2124527905628976 0.2576946837101345 -0.16826288063819858 0.0047140690355064584 0.06074694867091448 -0.443630207291413 0.6355184403042753 ]
[ 0.006011601572755249 0.08784667433229547 -0.28256944740027873 -0.153384245856843 0.06051625540308894 -0.7441409449014208 -0.14233925030139885 0.08080886335257718 0.01601965381092769 0.19048757661450894 -0.44146957452429497 -0.09542467797839482 -0.04881317067571117 -0.08575319620330989 0.019232740761593058 -0.2481180691806917 0.07591477350256436 -0.2528544180119443 0.44176245573211786 0.026892080140259896 0.003638009146074447 0.0915590242361241 0.8757214936112998 0.6642542602931046 -0.028805278535983095 0.01237738149259239 0.10882309662597045 0.12645844059720207 -0.037068074249188246 0.0643248961792682 -0.05643192236302647 -0.13531496011376073 -0.19534480774097554 -0.0494863920644488 0.21551594506828417 -0.06318918302225067 -0.24213175040653043 0.5173333990206422 -0.3954669837672355 0.20512840061534893 ]
layer 3 Activation
tanh
layer 4 Dense
40 20
[ 0.0686073110755693 -0.2655965481263129 0.27580288947811754 -0.11664222268754286 0.25432996872441443 0.2903641781497705 0.03147500093963448 -0.13323239967512004 0.17427763840945135 -0.042700821932897086 -0.04097700576586054 -0.31950050831036997 -0.4005445435735154 0.171527267259376 -0.1149814898098062 0.030439554461317506 -0.15560186601290024 -0.40106616758416563 -0.49441402577614696 -0.23175319742999445 ]
[ -0.017581086614328993 0.23372549620405364 -0.03945947854908956 0.2531978621779451 0.12967203995304624 -0.17869633938943325 -0.09788582144928933 0.10938777134391198 -0.08278076753315278 0.14448258698126154 0.08410937176622744 -0.07626988228220392 0.13589755333795583 0.0764576897023602 -0.1515367027581055 -0.19877608772861607 0.09790431801517538 0.005243101675409029 0.09114107924639728 0.051171707953875656 ]
[ -0.8177767870826422 -0.30046511085961036 0.3052135051963509 0.36419743450753983 -0.19464540191390328 0.17827621909671482 -0.1840381490463436 0.06244256774101575 -0.15150025414954288 0.007638950169120267 -0.0008400253288788059 0.010637606473659687 -0.28680662019395675 -0.06048718585878954 -0.11188828241495055 0.13430191250243886 0.5761844805077007 -0.7644765725210454 0.21704810132821808 -0.12729310780666836 ]
[ -0.09011765867469972 0.12777140738363363 -0.13655868566099613 -0.19073959370172286 0.039150631173137745 -0.028618135179605996 -0.011702419722787136 0.5005723902432437 -0.07256150257817298 0.1913813327295636 0.14436389697687413 -0.025908724619870007 0.032405373131801654 -0.05056774738116142 0.4933414923477179 -0.06855509976981394 0.1902313591792232 -0.05478643465295374 -0.07579060500646286 0.014860388623506813 ]
[ 0.4534996992994654 -0.0659241692519173 -0.04838964447498803 -0.12081386762618465 0.07879553076040191 0.09390051667523919 -0.23804725769465482 -0.6576136114455339 0.3160934468899408 -0.32358625130671564 -0.3205612022779465 -0.2374623779737772 -0.04931194220369789 0.09115997756930316 -0.3499082744626167 -0.44194705499978154 -0.18419355061055565 -0.04716274846889842 -0.37839931808397886 -0.5401523758811994 ]
[ 0.10300791094138707 0.4110260690962187 0.6923589075448858 -0.35228871753990754 -0.14525538712291663 -0.5133574658397646 -0.020978352015184245 0.29672368267187516 0.07975639981927661 0.058387289538724504 0.7434730314099209 -0.10358047745558512 0.42124468103838375 0.15432509209995415 -0.05192345985736154 0.08207899495429698 0.35371900091935055 0.5294548662317647 0.005607603844227444 0.15831663087311246 ]
[ 0.3044046165794637 0.04296746940318814 -0.04318575694389611 -0.28265660515174085 -0.07317872337528393 0.21287590325324265 0.33634677182697853 0.32100258386758146 -0.18150681483178713 0.5220800668243221 0.3189656001615102 -0.20416975341605528 -0.18825137402306422 0.06888176747913512 0.17962802272780173 0.46657054939861364 0.2616341741403594 0.7770285649806751 -0.02681116730006133 0.3980912603812221 ]
[ -0.05777176005127484 -0.1793503061483423 0.029463631343500215 -0.08963875071847424 -0.043055092256085774 -0.1740719818072815 -0.03403104042421444 -0.026634005796759702 -0.10561143450391931 -0.14033223331884132 -0.018154755734825632 0.16399573407480833 -0.06129833287206167 0.24472512604177057 0.027613203895671484 -0.07447273991220485 -0.3917923186321893 0.7206782110697222 -0.08105867827923165 0.1382142746163576 ]
[ 0.19617363420216805 0.08648934655658379 0.12041357392681526 -0.27034241268725 0.16794582864204985 0.09989075677804118 0.035678944686665236 -0.34298429450639495 0.2896667406580125 -0.41013327902755775 -0.0313485968252043 -0.18182695838966972 -0.12536372836268572 -0.11150944910286299 -0.2901074463108245 -0.0888331696163638 -0.6788059865420453 -0.05336098469301963 -0.5452105152110549 -0.2896221792263223 ]
[ 0.2513709726523856 0.06523512789318955 0.27126673651649524 -0.42367230697614666 0.554171870763513 0.20550601539272526 0.24620540292965093 -0.1032872164333545 0.09902673507473314 -0.20270502875679997 -0.02918681277780551 -0.19909964578865777 -0.17042382412766574 0.13089780599596246 0.0303610915866956 -0.022277400991738375 0.018470526019769055 0.42613347085094805 -0.1221864232077796 -0.07046956109065296 ]
[ 0.10499411551077717 0.18751861191807204 0.28581606785334396 -0.3198983070210229 -0.39553456013746024 -0.8272591300781177 0.057233903986821905 0.28493545414010085 -0.27235401426981515 0.3793672069205426 0.3715346338595167 -0.1143352262649797 -0.24115619937834587 -0.04509853027927552 0.6699567029960929 0.23361873217595222 0.09003848129204241 0.19441939816218745 0.2980579363496105 0.3127583994709388 ]
[ -0.12467913824011098 -0.15404571239318784 -0.8711405392785769 0.4584239425295284 -0.13277932689926905 -0.7680452849255228 -0.06949882737018946 -0.02704758634538129 0.35916258047448874 -0.021961812807229412 0.32342277081749005 -0.041182716674963926 0.17487893311511205 -0.12457141740327946 -0.055784770390389586 -0.04732391913121454 0.003793894064907513 -0.5104730102634383 0.3662004578273254 0.022555450222403354 ]
[ 0.2797439361603811 -0.20384013482521496 0.3458851865019895 -0.37466340247358493 0.4641996600824298 -0.5215755169904667 0.17576163998024594 -0.4530557260509083 0.4666765307392367 -0.3642842990987333 -0.3616266224918012 0.1500487233626435 -0.23533587316509783 -0.19785809936085832 -0.14484192970562654 0.0017962628521172178 -0.033020265189688744 -0.030438480169392997 -0.11879608659167425 -0.7108706214852412 ]
[ -0.004592767783956651 -0.02575463598137079 0.06067126554986045 0.1539895957282337 -0.23361843345999808 -0.19867427553673855 0.051477368805382465 -0.41793068224291674 0.0072125207175797 -0.3264654165802197 0.01760381588337761 0.2413398646089227 -0.10123976734896731 0.18308108072281695 -0.1647497662743033 0.08443530013679502 -0.3154948296955485 0.3610306930314073 0.17140009180983992 -0.039570453476937134 ]
[ -0.1876513460650165 -0.30048563061636857 -0.14250355839131443 -0.07660481397885684 -0.13463896119630597 0.04184085231719155 -0.1969416616030306 0.10305106503873229 0.06841181258118612 0.09356418183604684 0.033767215215389376 -0.15336811796573085 -0.05184016871164942 -0.24493025515102693 0.0233615165051968 -0.2572426732817885 0.22694147895089323 -0.23723890272078077 -0.06927868292539685 0.1875848511797453 ]
[ -0.05543539078269929 -0.15601825675201653 -0.12988707595608232 -0.3437135510893864 -0.07279051426423715 0.15077541139640321 0.21723298922788337 0.3232898829274427 0.0021371322522543185 0.0981154478153391 -0.023333459402695107 0.05923177818775512 -0.05617947837411196 0.0633552111655685 0.03907472140460237 0.13835485944077486 0.3837736965012179 -0.01328713404783875 -0.0537614776331728 0.1253350608918345 ]
[ -0.13917938448719266 0.01607302813980054 0.21593304633449342 0.08914382453295797 -0.13294991164966763 0.05181974811898864 -0.04436514376331145 0.16680462659354983 -0.14343008357354903 0.0485546163442329 -0.24905799964507044 0.1669689551384448 -0.07082411058545848 0.020676713856385042 0.0333045642197165 -0.165012474846524 0.07071846525957369 -0.07918838962438764 -0.0930217153066401 0.008208003208176905 ]
[ 0.16699468595581365 0.25239469893286176 0.26537427094831734 0.012245924205404081 0.07199146904612025 -0.38758339160659616 -0.23326757011915278 0.2559163568155561 -0.45000145819823156 0.09288592564843542 0.4732530872674881 0.13576978883428575 0.18643610405683148 -0.37881054319499136 0.19895644981018293 -0.17880948727369692 -0.13850480384827052 0.1798090042038564 0.48637345339057597 0.1571939262040909 ]
[ -0.04017788687811529 0.012331159846644478 -0.6848261599859304 0.3598732076474744 -0.1787773238904001 -0.30453864015441334 -0.08880465398082876 0.407667983838249 -0.9141403976553031 -0.01662783926788678 -0.4113081004940963 -0.014846304237286336 -0.1011990769273203 0.02917216146629326 0.08969724175491837 -0.4250952927490667 -0.16987312772469843 -0.5195185600157001 -0.08598917391071385 -0.6155041885017258 ]
[ -0.08067047926264095 -0.6439731387332394 0.20465292896970655 0.0903970627134583 0.25999585299456235 -0.12295031771767621 -0.013038769987757267 -0.4338822967603416 0.20382862293362278 -0.2664744247772838 -0.1801312019819234 0.023689479978217694 0.213523400329515 0.07794337492106276 -0.5603766137823165 -0.2293693080818272 -0.0872633692624663 0.18923605812057048 -0.13908064762730488 0.07874460567164814 ]
[ -0.19554705710942694 0.19831594585006887 0.19597253934223732 0.289856321422388 -0.08195321846474389 0.0020944038384034668 -0.01800434223043994 0.38324152513495785 0.008874301531105617 0.29302254958065876 0.07755196881033374 0.110128486383148 0.02528740091749977 -0.22950549334409207 -0.0454954085421899 0.17300617321443018 0.18853396081439114 -0.18819052644223255 0.2280609190208067 0.37698965507059307 ]
[ -0.08079059585748849 0.13822549194990694 -0.0806226667306811 0.0248480858530295 -0.12458515312788893 -0.0017855769395306368 0.12620803412445927 0.14211673172085856 0.05089762928280376 0.12015472595894056 -0.021261618305382413 -0.3122822390226314 -0.0017136900791082656 -0.16621103964793119 0.053111300811185355 -0.06797701723957793 0.5346474579722941 -0.19867270360278674 -0.07006145627041223 0.010865548722302925 ]
[ 0.0682143480917416 0.22112393776872433 -1.0029767596048547 0.2632904941704578 0.1205086383026308 0.7564281634128546 -0.16038969215103313 -0.0769598503982227 -0.4179241120510437 -0.15079457425168824 0.3585853492310552 0.1925749466637575 -0.22067387118727802 0.12210680098573161 -0.08245186472513859 0.09690508393942086 0.0029357542802859182 -0.6046808298140668 0.36342882962879886 0.057674658848110134 ]
[ 0.08963080101761875 -0.23303483657699028 -0.7709489959853368 0.062172557331594956 0.16374950058934706 0.43644179196656324 0.1273591850226801 -0.3064410311075674 0.5714960818949705 -0.42257331177264645 -0.46021707105219783 -0.05973410016333293 0.013707597145456604 -0.07956961035433056 -0.015982163699975148 0.2779380225239066 -0.25442473995831905 -0.10208430778580165 -0.3015417972683948 -0.5471719758150255 ]
[ 0.1792223009236776 0.16056723993786418 0.13368297292120535 -0.14883894605522008 0.023877673819241108 0.30417351420765953 -0.1520066585293299 -0.14629856604192584 0.06958649618691988 -0.1268898239089872 -0.1106833552863978 -0.287033031271068 0.018359942547373977 -0.16758233542474496 -0.14712136138773554 -0.16830145676631686 0.045098281310818014 -0.46335918677017707 -0.1406065809327667 -0.10352645372677688 ]
[ -0.08925778193879431 0.18308334062039386 -0.06502774974320234 -0.0032096591054336793 -0.1630536575814831 0.016409487940662926 -0.0028498040509609733 0.29025461623465953 0.034255615830820596 -0.22234665101773146 -0.09077937776310312 0.020352433504499348 -0.18156181202131946 -0.024875420946888747 0.13955245214879278 -0.010782525181378812 -0.25787515142137435 0.2559471186578119 -0.07216202284193102 -0.16454191459846912 ]
[ 0.30345711226340355 0.060704146576707405 0.30283259250138367 -0.1613634971469628 -0.006617252018816876 0.3032114878526364 0.3459474800026749 0.04805312190251686 -0.41490893964579817 0.3212240071454936 0.2422907140004006 -0.06392910968993247 -0.5272245670785767 0.23099618225573657 -0.08065032637119851 0.34726401957456365 0.3466567652904108 0.2267322875164535 -0.25460806016507026 0.12589112591278853 ]
[ 0.07964934569704428 -0.13758713496812425 -0.23214299832588126 -0.042210194453622854 -0.05662771576106229 -0.461890502145975 -0.03452169714747912 -0.32146450225236034 0.17870919667304905 -0.32176270076691293 -0.1682416231490742 0.17405518401646966 -0.3238719864255982 -0.01316990328191796 -0.011615169248946436 -0.13026942646469353 -0.21103794146650623 0.5580588458893945 -0.05828083692421891 -0.33179883716952474 ]
[ -0.016673431314818438 -0.31273758026060944 -0.12019304436264112 0.0669306561879377 0.0646860738426574 -0.027143094615531597 0.14624149106213105 -0.029307727861485947 0.027877173196192855 0.12722295661167501 0.05356460938808865 -0.12783619828286075 0.01078464964322933 -0.07202582663298765 -0.11897472980470288 -0.06142027136625461 0.009753399914738009 0.599458397572364 0.07843959559421541 -0.05459247486802661 ]
[ 0.13128230464641585 0.02060359221711376 0.09055143514220709 -0.2666992115864669 0.12883699616591335 0.0346494708874107 0.11743183980539308 -0.015688527836350465 -0.05021898467148393 -0.18767178455194683 -0.13929331645216755 0.29121874873083975 0.034205485669034044 0.4095567999025163 0.013812767169248594 0.4167747562462922 -0.0388349010573988 0.6553792702312139 0.04867562230529592 0.4409078777606545 ]
[ -0.06767172480276906 0.06986252289682465 -0.17902896542404578 0.009374199850528939 -0.0690514948283894 -0.1607042297406557 0.3029770528561825 0.05361925629815479 0.07810825024908101 0.08074838399589866 0.12093629867094334 0.09676644565213377 0.0024987922720589003 -0.08727317730144163 -0.07668285520412697 -0.20513670968092718 -0.024523189316926746 0.05837812509242283 0.16744278491800793 0.11049877659808126 ]
[ -1.2689725115967938 -0.5301709390805899 -0.4327936455249587 0.11210494583294052 -0.26291069803336053 0.653106472132641 -0.035441064313043114 0.39862841673776195 -0.2920916976310604 0.09325928965775987 0.0640193863404272 -0.41902913263018965 0.30035576560508903 -0.21549225704158265 -0.04345097557225855 0.12232263336322653 0.1214202046397996 -0.4470413437340125 0.28246003043791007 -0.1439082516085679 ]
[ 0.3095727001062429 0.12739369912985243 0.10423049526439 -0.6256112994679054 0.053297968589733936 0.46104351569542024 0.06237666336195081 0.1132378483666723 -0.03303656068058044 -0.0470283117322641 -0.03655260230387578 -0.10486955645370705 0.13594665984301496 0.0424390591824868 0.18482139074755408 0.6483561435795767 0.19717612911153978 1.3227112832719972 -0.20388320012566183 -0.028247949945774245 ]
[ -0.08052068735794461 -0.37207482625016747 0.00030740751794449273 -0.20648417160083912 0.16074095801296528 -0.12914136800939405 0.1363274389613262 -0.37469605238995374 0.22227711251165677 -0.5600692681460439 -0.25268959503039046 -0.04570478352395188 -0.015978152452402753 -0.0013981359761516903 -0.12092595671867791 -0.3673355798214132 -0.15782068295971532 0.34324704098836484 -0.24313690580787406 0.16505002265374877 ]
[ 0.32965110373689044 0.43129543057284947 -0.45118809118291325 0.488872903305713 -0.024364119003468725 0.12275670445514623 -0.004599211323704559 0.1932159927856005 0.028597048694226364 0.2913665796218383 -0.014460311100184765 0.1118188066525667 0.17443980535582937 -0.24813652027264513 0.6558448273062262 -0.3018492941420704 0.030967561041340456 -0.38889526097611754 0.03607482375896337 -0.44596163367002034 ]
[ -0.020618679227119928 0.16685659474049477 0.0038680775575826707 -0.1725924075731173 -0.36622804106310614 0.062005300392275614 -0.2614923277073206 0.11601138708204929 -0.018277979511774293 -0.05884574529338846 -0.08256556276075083 -0.13899269900293976 0.06188374111145772 0.04193362256121869 -0.08653177266581416 -0.44511844265848194 -0.15747608676491395 -0.7115899016263767 -0.0186374729518601 -0.1395604451338103 ]
[ 0.5935588719330844 0.18993223524996358 -0.3868869045047981 0.23320061139934625 0.06279925756198182 -0.3512362365045392 -0.05436804590199508 0.3161296925627044 0.8308303851174793 0.05057117312926253 0.8026570918750071 0.10939934404348946 -0.259606169218017 0.0981259358302548 0.0053458867099762985 -0.8116628569276657 0.25385320305814546 -0.6444480810325813 -0.14183278953563228 -0.09636665690927303 ]
[ -0.5676188397085143 -0.18200535805598217 -0.4351485446693727 -0.2047715005271969 0.26177336675464924 0.5078935117893502 -0.11364793674063003 0.09660751263850964 -0.39254332982321605 -0.03041676590055641 -0.8368961262706934 -0.09409283934156921 0.227792757274092 -0.22519302425390875 -0.03461082028903409 0.22270531705981622 0.12259193705985007 -0.21594110511989367 0.4043834110531954 -0.5608275715934878 ]
[ 0.0031523349933859223 0.03678672815071735 0.4464810416370102 -0.48419525965820426 0.2722104097108103 0.28378285237616196 -0.0997900488925778 0.31527510051588803 0.5114466752709937 -0.08170048589413204 0.7287121033607372 0.016427362395873883 0.23663612597941694 -0.03618160874498504 0.08140169743291466 0.23626926849224397 0.22501236087200935 0.06912954850538733 0.07095323828185726 0.4656419225359239 ]
[ -0.22116831741417114 -0.3531522154512184 -0.07261024474675472 -0.09301246945631887 0.44208632425980443 -0.1734943367012197 -0.10395136564430886 -0.09060540922815195 -0.10071891651720391 -0.24932158665687945 0.05305753694934103 -0.2863115575263473 0.013388316487033848 -0.07825927545759812 -0.04780434224501553 0.13509599491081695 -0.14012286169647697 0.6129684186102113 0.13377381492865512 0.12839939966481378 ]
[ 0.28300736035521346 0.03315203971238853 -0.09590321242405034 0.16461632419905195 0.06083654216178844 0.05022358606264768 0.03033493553718525 -0.010115201905051854 -0.04903298057608463 -0.02821733259784986 -0.12966845201179542 -0.02697903149793252 -0.07060111292516466 -0.0427450629793933 -0.004553785079911761 -0.07006396484261047 0.08536213942965666 -0.3973019481884535 0.014061289031384963 -0.04082656049144457 ]
layer 5 Activation
tanh
layer 6 Dense
20 1
[ -0.11176443746984926 ]
[ 0.02041329549379479 ]
[ -0.20027944748884288 ]
[ 0.01590944112909113 ]
[ 0.003844781735808854 ]
[ 0.21492254576517794 ]
[ 0.00361581949156738 ]
[ -0.024374859394339136 ]
[ -0.07690469035477165 ]
[ 0.001888548132269241 ]
[ -0.06508383841160445 ]
[ 0.0029198170097624754 ]
[ -0.002209183141220248 ]
[ -0.003990327197273769 ]
[ 0.008260344591232534 ]
[ -0.006154321473993745 ]
[ -0.009057054520306976 ]
[ -0.008945315895493173 ]
[ 0.02449649974438145 ]
[ -0.020223175693771415 ]
[ -0.06527365618270865 ]
